/**
  ******************************************************************************
  * @file    model_data_params.c
  * @author  AST Embedded Analytics Research Platform
  * @date    Mon Mar 18 17:11:41 2024
  * @brief   AI Tool Automatic Code Generator for Embedded NN computing
  ******************************************************************************
  * Copyright (c) 2024 STMicroelectronics.
  * All rights reserved.
  *
  * This software is licensed under terms that can be found in the LICENSE file
  * in the root directory of this software component.
  * If no LICENSE file comes with this software, it is provided AS-IS.
  ******************************************************************************
  */

#include "model_data_params.h"


/**  Activations Section  ****************************************************/
ai_handle g_model_activations_table[1 + 2] = {
  AI_HANDLE_PTR(AI_MAGIC_MARKER),
  AI_HANDLE_PTR(NULL),
  AI_HANDLE_PTR(AI_MAGIC_MARKER),
};




/**  Weights Section  ********************************************************/
AI_ALIGNED(32)
const ai_u64 s_model_weights_array_u64[72478] = {
  0xbdd2fbe13d2c6c29U, 0x3e3d0bbbbebcfe7bU, 0xbe9685213e83025dU, 0x3dba680ebf311156U,
  0xbdc030363e94234bU, 0xbedda8e2bf4461a8U, 0xbef1c853bd83b56bU, 0x3e13da88bca992b6U,
  0x3e4da1c83ef493a6U, 0x3efa972e3d04f67cU, 0xbd17acbdbe426004U, 0xbea6ba963e4d912aU,
  0xbed57007bdae5020U, 0xbdf36953bec62b79U, 0xbd9e080ebf139268U, 0xbe88e8f23df889ceU,
  0xbddab32f3f10be0fU, 0xbe1586cbbe10b3e1U, 0x3e9a1cc83e7e7512U, 0xbdb1b1333e625825U,
  0x3e98774bbe8df7a5U, 0xbe27b574be5d12ceU, 0xbe1be6673d9585f1U, 0xbde124373e323316U,
  0x3ec24b48be08ef13U, 0xbf0d5addbc515525U, 0xbe3defc23e53b179U, 0x3e9bc80f3efb33efU,
  0x3d8c8c2bbdb3ad60U, 0xbec372723c943071U, 0x3e2df1033f1063c5U, 0xbd7bfc8ebe44cc51U,
  0xbe8186d3be320be8U, 0x3f493008bec19f08U, 0xbe20dc1f3f3ac06eU, 0x3f25f6003e9769e7U,
  0xbc500be93cf7d758U, 0x3c11df5d3a4fab84U, 0x3d099355bb6286b2U, 0xbd8ae31fbca483a0U,
  0xbf5a7eedbf0bc652U, 0x3f555aacbebd3189U, 0x3e87bc7bbe885f0eU, 0xbf6ffb6bbf106bbcU,
  0xbe63adbd3f7b3b6eU, 0x3f77f9eb3fe4541aU, 0xbe9db8be3f80e0e5U, 0xbf6af631bf5858e0U,
  0x3f4788e53f8439ebU, 0xbf543a99bed6b415U, 0x3e9c153bbeb6cc11U, 0xbf0a384cbf401400U,
  0xbeafff833f66d7f1U, 0x3db1fc283fcbc792U, 0x3f22c54dbd1bab1fU, 0x3ef500d2bf9fb4b7U,
  0x3fa8b1783d50d1f6U, 0x3f3af82ebec816a7U, 0xbee7ba8a3d22b056U, 0xbe9c2de3bec5d3bfU,
  0x3f53b0f23fae2940U, 0x3f9fbf183e924bf1U, 0x3f855fbebf2a7cccU, 0xbf4d51333ee37b05U,
  0xbec6a4f13f72880bU, 0x3f991e3b3e6587c3U, 0xbf7a2d823ea75bb2U, 0x3fba2f8e3eca53b9U,
  0xbe3147333d88c372U, 0x3f887ba63f116df8U, 0xbf343695bf811398U, 0xbea9c689c00a4c19U,
  0x3ebcd8d23f0fb940U, 0xbe0d874b3d8d3661U, 0x3d5330d53e9754b4U, 0xbf675bf13f9d6a10U,
  0x3ef39dabbea8c379U, 0xbedb82e33f01bb97U, 0x3fcc015f3ef74980U, 0xbfb6fc20bf21fe83U,
  0x3e9b11093d22474bU, 0x3d9bc423be75080dU, 0xbe8abef7be61a238U, 0xbfa63536be4ac476U,
  0xbff0a13c3e7085d2U, 0xbe37b0bbbf916eaaU, 0xbf35197dbdbd0f67U, 0x3e879e65bdad2f1dU,
  0x3eee8fc2bf8ec228U, 0x3f2475c0bf5af2feU, 0xbf10b614bd1cb9c4U, 0xbde659263e71d433U,
  0x3f3ad8ec3f2c5f9aU, 0xbf9043c73fd4c523U, 0x3e834493bf2f7f5eU, 0xbde180b13f3d55adU,
  0xbf4ac1583f82b896U, 0x3f014882bf18bd67U, 0x3f4533f93f91c00fU, 0xbf94a85f3f2ed690U,
  0x3e8307013c8803e8U, 0xbf0e1b5dbecb0ff9U, 0xbe359caebc0e1c06U, 0xbfd4f0103e8b051bU,
  0x3f85cb073e86e1dbU, 0x3d06f5013f321223U, 0x3fc2da2b3f74a6c3U, 0x3f2b3a70bf42a5deU,
  0x3f80a8973f28d72aU, 0xbf3e694a3f42e736U, 0x3cba0488be64896bU, 0x3f83768f3f896bb7U,
  0x3ed26601bda6272fU, 0xbed6aa34bf161658U, 0x3f0fde9cbf0421c4U, 0x3e8811713e9e71b5U,
  0xbe55fdf8be5c5dd1U, 0x3eea603f3e54aac9U, 0xbf0ecca6bd89dc5fU, 0xbf26df593f027565U,
  0x3e05b43f3db2f783U, 0xbe06723b3e0b7209U, 0x3e3d7d1f3e77c221U, 0xbddf4fd63de5dcecU,
  0x3cf9d1863e6f1e0aU, 0xbd9bbadf3e86502bU, 0xbd2decc4be091b73U, 0x3e8797943dfe9dd3U,
  0xbe90cc95be87879bU, 0x3e0892783e5f4e6dU, 0x3ed72db4bba1f8bbU, 0xbf010c26be2e7d36U,
  0x3f0cd9a63e05ffc7U, 0xbeb32eaa3cacfee2U, 0xbe1f5beabec6d2deU, 0xbd8b7d0d3e5ca8b7U,
  0xbecedbf93e5c97bdU, 0xbe8bb77f3e9fe740U, 0x3e8955363ea3063eU, 0xbd17422bbe3c7c0eU,
  0xbd250006bd2e782dU, 0xbe87924b3ecea180U, 0x3e3c626a3d0fd836U, 0x3e87184dbeb352cbU,
  0xbefba0cf3d90f9ddU, 0xbd1df4b1be1f2fb5U, 0x3e454176be7a9ed8U, 0x3dd5439b3ec32adcU,
  0xbe06669ebe5d2e70U, 0xbe4c7e6bbea4f873U, 0xbd1d3be93d065b88U, 0x3e103cd4bd556405U,
  0xbe8f8d42bc68723bU, 0xbf028fd9be9a7fb8U, 0xbe836dcf3e49ebc4U, 0xbf0b44cebeeb76a9U,
  0x3d681ebcbe5d7ad6U, 0x3e5fe9643d0a8d2dU, 0x3eb23cfa3d647fa5U, 0x3ef655cc3f044d98U,
  0xbd7d7bc13dd39825U, 0x3da09c61be804879U, 0xbe50ae8bbf1860ceU, 0x3cd7c9323e1a5e3eU,
  0x3e031e31bd3fbf97U, 0xbe1d95dcbd787a69U, 0xbc9b75813d0d7b53U, 0xbde586463e30f8a4U,
  0x3e8791943e51c1a4U, 0x3f0db1003d81a28bU, 0xbebf639c3dfcd997U, 0xbe2beae7beea40d2U,
  0xbe7a8921bd839668U, 0x3e06963ebe043c5cU, 0x3e8eea933dd0897bU, 0xbcc6b3cf3da7348fU,
  0xbd6470abbed4a993U, 0x3dbdde853e3eca5bU, 0xbe7269fbbefc099aU, 0x3e870aaabe1557c2U,
  0xbe6c22653e73ba9bU, 0xbd9a862cbe483b9aU, 0x3e8be3353e498b48U, 0x3ec9cc383d42f0edU,
  0xbe7bd3dcbf2176cdU, 0x3d1e2a1cbe1c0066U, 0x3dc15e473e96b5efU, 0xbe8cb29f3ec1b98cU,
  0x3edb700cbe90ec13U, 0xbc1bdda13ce56bfbU, 0xbe97f9f93eb383b8U, 0xbef325e8be9c85eaU,
  0xbdf858ba3ecce923U, 0x3ee2a246bd9614a2U, 0xbdd98c7e3f01986bU, 0x3edfb3d7bdd8ca4cU,
  0x3d9760f23de677b2U, 0xbe7868f9bde073d4U, 0x3e99f064bf4cc26bU, 0x3e7c24f03e4db743U,
  0x3e9f31b1be4df4c9U, 0x3c7fdaa23e8caef4U, 0xbdf66362be5c6d18U, 0x3e9cd3a3bb675a16U,
  0xbe828b06bd7191d5U, 0xbeb16e6cbe9f0b82U, 0x3ea7e7d0bdda5ebaU, 0x3e7a91553ec38837U,
  0x3e2e9aadbd90d7f9U, 0xbd7616c83d98dc0cU, 0xbdb27d6f3e65afadU, 0xbda6cddbbe8b3687U,
  0xbdaf498abe4c4df4U, 0xbdeba445be732190U, 0x3d4ac4a03e39a314U, 0xbe4e862f3e753065U,
  0x3e9b84f0bc98858eU, 0xbdc027c93e28b6e8U, 0x3e105c0d3f196825U, 0xbddcb3c8bd2c966cU,
  0x3e14a5cdbecb6c76U, 0x3e499a25bf48c670U, 0x3df2001fbed4d4e1U, 0x3f0562aebec403c4U,
  0xbe909be53f3805d3U, 0xbf8cef88bd578a4bU, 0x3d4eabf7bdbb6c71U, 0x3f9704d2beaa237aU,
  0x3d484d3c3cfbc163U, 0xbfb2bea6be3c770cU, 0x3e6c00f03f0ab8f1U, 0xbf8759753f92b168U,
  0x3ec74b62bef00e4bU, 0x3f7b29203f0a1983U, 0xbf7bcd5cbfeee815U, 0x3e4b56b23e8e3890U,
  0xbf6b58473f1afa2aU, 0xbe5b50813f4ca5c7U, 0xbe43fbcf3e11a767U, 0xbfb6481abf1db2d1U,
  0xbf3d2d04be80631bU, 0x3e4e9ab33f044d5bU, 0x3ec8e2f44002aa30U, 0xbea2f05fbdeb21a6U,
  0x3e30ac81be94f68dU, 0x3d3f66dbbf6c6d18U, 0xbf080005bf8800a7U, 0xbf45a75bbf9653deU,
  0x3fc4a330beb8f41fU, 0xbe000819be13e85eU, 0xbecf906a3d29b209U, 0x3f48d3f5be0e2e4eU,
  0xbf29892b3dd7ab8fU, 0xbf221153be00aed4U, 0xbf0f26503ee2a86dU, 0x3ef150c2bf6d7f47U,
  0x3eb53726be20696eU, 0xbeba97a5bf0bc42bU, 0x3f5938cf3f0165d5U, 0xbe8d1c0ebec7803bU,
  0x3d2de19f3c736727U, 0x3d73efbc3d60f252U, 0xbd660efebbc69de4U, 0xbb7f6315bc26cdbbU,
  0x3d91eb58bd196c0dU, 0x3d49bc043ccee552U, 0xbcda7f103c4cba57U, 0x3c9a89c33d09604fU,
  0x3b110268bd3ed6a6U, 0x3d7eadc23bdb4fd1U, 0x3d04cf0bbba3b96eU, 0x3bcfa49ebccd96c9U,
  0xbccf3afbbd683049U, 0xbd8177313d133f57U, 0x3db80549bba8ec45U, 0x3d08c1fb3cd6522fU,
  0x3d808d56bd675f15U, 0x3d9edfb33d24ca53U, 0x3d36bd49bc1c3b67U, 0xbc5ab0183da20d0bU,
  0x3c74eb0a3cd945a1U, 0x3b7899563d0ff74eU, 0xbd9567adbd20b373U, 0x3d18c5ecbc4c17a8U,
  0x3c19c30bbcd6c6a2U, 0x3cf7d83ebb8a7251U, 0xbc833b003cf69e84U, 0x3d6b1a553d14dcb2U,
  0xba8028f8bc47e329U, 0xbcf874ffbd18f52bU, 0x3cee2f773cdc6446U, 0x3d04becb3c51bf40U,
  0x3ccc8e4bbd254f6bU, 0x3c5f4547bca77c00U, 0xbcdd604b3ce9ab42U, 0x3cb373663da7e56cU,
  0xbcf9395c3d0c3ddcU, 0xbbfbfe7e3d1abf7dU, 0x3b940c263c57c7e7U, 0xbc7e071cbcaac884U,
  0xbccc2cbd3d1adc7fU, 0xbc621ad8bbe79395U, 0xbc9972843d8a7e75U, 0x3d5d8dbcbce2017cU,
  0xbcaf81a2bceb84e1U, 0xbcaaf0dabc162ebbU, 0x3c8801e53b6cb871U, 0x3bd1d570bbcdf03eU,
  0x3c9d4e5c3d21f747U, 0x3c770f0c3d56b6f0U, 0x3c534207bd163cd6U, 0x3cd4a41cbcb41451U,
  0x3dac96d1bca84b30U, 0xbcc9b32e3c8d6e05U, 0xbbfb11f7bccce4f2U, 0x3c99680c3bc6f03dU,
  0x3d06db4bbd848e31U, 0xbd3637123ca97f43U, 0x3d7302bc3bd723ceU, 0x3d05de4cbcc87680U,
  0x3cfd2044bca759d8U, 0xb9daa5b6bd36bb5fU, 0xbd60045dbce4a2f5U, 0x3c82202fbc8a4497U,
  0x3ca5fcd33be8e741U, 0x3ceb4a05bbed75aeU, 0xbd0a8ca83d326414U, 0x3a28b0483ccf63d4U,
  0x3d32dab23d25b925U, 0x3d5348503cd9c350U, 0xbbadf85f3c64f24bU, 0x3d1d3db33a840255U,
  0x3ce719483af5a564U, 0x3cff3d24bc054b5aU, 0x3bc04d203c88c961U, 0x3d2327b23c38ca08U,
  0x3c47b1683c0c7352U, 0x3cb1d832bcaed970U, 0x3d4df55bb8b434abU, 0x3cc2a10cbbfba8feU,
  0x3c4fff9dbcb01c47U, 0x3b5369313ce3709aU, 0xbb6d20bf3cbd6bcaU, 0x3d737b823cc4052fU,
  0xbc9c928a3ced65b7U, 0x3d1387863ce6a5cfU, 0x3d0fc905bc3b106bU, 0x3bd2ba75bc647a59U,
  0x3d15c2813d0ef0acU, 0x3bf46134bc875a3cU, 0x3d05ef763ca11a09U, 0x3c97387f3c2b0390U,
  0x3ccd57013c302326U, 0x3d26f2c6bcd2a541U, 0xbd02f6fd3d54b2bcU, 0x3c331bcc3c336d2eU,
  0x3cbb586e3bbcfe53U, 0x3c268faf3d0d5772U, 0x3b2b6ee0bd67a119U, 0xbc9c46c63a941277U,
  0x3d81afce3c3dc319U, 0xbcb44d2cb9d16b91U, 0x3d9a301abd0d815fU, 0x3d25a5413b624947U,
  0x3c77531bbdcebcd8U, 0xbd5e30aabd02a471U, 0x3b391fcdbd801748U, 0x3c01e363bbaa39d5U,
  0x3cf85ee93cd9ed75U, 0x3d5325a0bd1faef1U, 0xbd1476c73c373bdeU, 0x3b2fe765bc3314bcU,
  0x3d2de1c73c9ad634U, 0x3d63e8dcba0c4b42U, 0x3c0bb500bbc17363U, 0x3cb1d1483c85e98eU,
  0x3d646a113cbc2a4fU, 0xbdaf0cf83d122c84U, 0x3d0dfab13ba1f0f4U, 0x3c9c8ac43d4abfd9U,
  0xbc99e5953cbc3dcbU, 0xbccd8b2dbc531e70U, 0x3cac4c56bcc0e0dfU, 0x3c11b09b3c3db9f4U,
  0xbc34eb32bc0f2c8dU, 0x3c2417dbbd660b7aU, 0x3c62dc17bb7b4ac3U, 0x3d4d0f3abba02074U,
  0x3a663c13bd471a59U, 0xbc8d712abc8441b3U, 0xbcd963183c561e37U, 0xbd006e75bd109318U,
  0xbd56c8d1bc99d640U, 0x3bdf51053c0f722dU, 0x3cf798063b1ca6f5U, 0xbc9e878fbc312219U,
  0x3c5fb333bb9cb121U, 0xbc2d2ea13c75c1feU, 0xbc9f0355bd561b24U, 0xbc0af074bd0defd3U,
  0xbb8b877c3be3d9a0U, 0x3c8a1068bd46f91dU, 0x3b8f5fad3b9ffe3dU, 0x3bd3b2133c860cd6U,
  0xbcac8c25bc3eab8bU, 0xbd7b9d253d3ed0afU, 0x3b8a5a15bcbcd1b2U, 0xbd22a721bda08c28U,
  0x3c73d5193c8261b4U, 0x3d3a688d3a38c555U, 0x3d4ef7babcc79448U, 0xbb89e7ca3b0c5c30U,
  0xbd64cb383c35e292U, 0xbd4a69b5bc3da640U, 0x3ce763453bfd908bU, 0x3d98ee793d3a6dc8U,
  0x3d16dee6bb6e1d74U, 0xbcbfb883bd663f78U, 0xbd3370153c492289U, 0xbd09c9d93cc444fdU,
  0xbbc35f3e3c417d52U, 0xba2e3a0cbb6eaeebU, 0xbd12b0e73c53f17cU, 0x3b0d8066bca311e8U,
  0x3c89af443c93579fU, 0xbcfc5dd13d314681U, 0xbc9a9a9c3d1bd44aU, 0x3d8616753cdd78b0U,
  0xbd586e833cef9e26U, 0xbd47d1b4bd9b991eU, 0xbb873cf4bc9375aeU, 0xbcb38822bbe7c3e0U,
  0xbc536a7dbc4d0befU, 0xbd36367fbd8cd734U, 0xbd53a5cb3c6d17a0U, 0xbd44041e3d0d3a82U,
  0x3bbc1366bcf06390U, 0xbc28d6c4bd3ebe9fU, 0xbdc2aefabd923a22U, 0x3baeccb3bcb772d2U,
  0x3aebf0eebb96eb11U, 0xbd6c8e66bc9e499fU, 0x3ccb6b33bc446a95U, 0x3c30b948bc825974U,
  0xbcad104b3d73fee3U, 0xbb16da5cbd2903cbU, 0xbc9ec1e83d1e145bU, 0xbd9cbb61bd3ec5c0U,
  0xbd3d860fbd0f17aaU, 0xbc26c6e7bc4a2319U, 0xbd4602bcbd796e6bU, 0xbd093c3dbcbbd53fU,
  0x3b0a4cc93b73dd58U, 0xbd1b21763d1749ceU, 0xbc4159f93d7f3fbcU, 0xbd4ce4f13b1a0093U,
  0x3d8ed7ccbb890910U, 0xbc7529c63d13a19dU, 0xbcea34193828f7caU, 0x3c066fa33cc8b83dU,
  0xbc96d3a73bc28579U, 0xbd1b9a7cbb7cf3b4U, 0x3cbab21abd04b6a1U, 0x3cd221a33d86b0afU,
  0x3d05f0893cb613e9U, 0xbc65cff73c9c95c2U, 0x3cd412fc3cb49ab0U, 0xbb5630303d557a77U,
  0x3d289d0ebd1c9276U, 0x3c57bf5cbbb22d62U, 0x3ca51ac93cdbdf5dU, 0xbc9a71f53d17be41U,
  0x3d602bcf3d3d3a8fU, 0xbd125fc23ca4fda7U, 0x3c606e653d1f84c8U, 0x3d6274343d22c19eU,
  0xbd9adad93c1e8f82U, 0xbd40fdc1bd766312U, 0xbd8c57c8bc97f07dU, 0xbd18851b3d9045e4U,
  0x3d20db273ce981e4U, 0x3cb1127dbd106498U, 0x3d98d3313ccad84fU, 0x3d15f449bc8bfb74U,
  0x3d64e4953c39be7eU, 0x39c6b1fcbd662f6fU, 0x3d7407d8bced54beU, 0xbd306a2f3d31969cU,
  0xbc8284bc3d15eee7U, 0xbcb7ca9cbc519307U, 0x3b92fbe4bba7ec36U, 0x3c8128e9bbd52af2U,
  0xbd1b840fbc57f3a6U, 0x3d0f0d8bbc6cd136U, 0xbc3c673fbca172c1U, 0xbcf8761e3d79b8abU,
  0x3d74cb70bd471285U, 0xbd047009bd1fa34eU, 0x3ccc3f0fbc905101U, 0x3d89a1ddbc8bc9f8U,
  0xbcac5b383d651571U, 0xbba55413bd035c17U, 0xbdac1fb2bc8f3484U, 0x3bb8a027bd6430bdU,
  0x3bf2f134bca7c865U, 0x3cad24cebc6c38e9U, 0x3a62d6b63d030169U, 0x3c70daa5bd24b6eaU,
  0xbcaf838ebc3549a8U, 0x3b1349f1bd48a902U, 0x3d9f6875bceef28dU, 0x3badcaf9bcbc069fU,
  0xbc83a22fbd253bb1U, 0xbd3d1cf13cac085dU, 0x3d16cbaabd47471eU, 0xbc5863083cf5d135U,
  0xbc4b041f3c51949fU, 0xbd266972bc4fbad0U, 0x3ce31f5fbc2ca25cU, 0xbcb633f2bbf95f8bU,
  0xbca40ebe3d1b9306U, 0x3d0912b63c8971daU, 0x3c972fcbbc7215e0U, 0xbc4ec924bd41eb81U,
  0xbcec930bbd5ad4c0U, 0x3cf0b572bd223568U, 0x3aac13013bc60772U, 0xbd09b11dbd2f96f8U,
  0xbd993be0bd99c28fU, 0xbd7cb79d3d43c96cU, 0x3c3a3b38bbbc9285U, 0xbd2a407e3ce51c5fU,
  0x3c1c00ffbc84fd77U, 0xbd915922bc3898caU, 0x3ba3548a3d4ced17U, 0xbb35cee53b1a2a5dU,
  0x3ce1f521bc873118U, 0xbd56aea8bc66a9beU, 0x3d48a558bd07a637U, 0xbd01b6ed3c79371bU,
  0xbd88c8b3bd507429U, 0xbcca149abc333f4bU, 0x3d11b85e3b8e27f1U, 0x3d238a483c7dc8f7U,
  0xbdc30937bd4d7d71U, 0xbd8b50923d4fcaa0U, 0xbc7cef3bbc97371fU, 0xbd46869e3d11e793U,
  0xbcd4bd30bcdd90b6U, 0xbcb59680bc4df29bU, 0xbae16114bd807530U, 0x3cb73682bcd3677bU,
  0x3c32d2e23d4c8498U, 0xbcf611763c53374cU, 0x3ceab0d3bd6b69b7U, 0x3d0c2a6fbc71b6c1U,
  0xbc9d7c693cba0ef5U, 0x3c125c1cbd1e7299U, 0xbd21517a3d15ff10U, 0xbd8169e03c6e5c4eU,
  0xbb88b674bd28fc13U, 0xbcc4fb593cd96a42U, 0x3ca296f5bcc0ab84U, 0x3d37a534bd5c6dc9U,
  0xbd0867ee3c6477f2U, 0x3bad0e22bd07b8dcU, 0xbd7fbc223d3ff601U, 0x3d425396bd0cbb4eU,
  0xbcdfd6febd11142eU, 0xbc5ac4673d3bf969U, 0xbd3249d33d2b794dU, 0x3d289754bccafb3fU,
  0x3c6b901c3c90d914U, 0x3baa4738bd38831eU, 0x3c8568603c259d90U, 0x3c813bafbbf2b18eU,
  0x3c65ba1fbc42148bU, 0x3b1f2229bd1e59b0U, 0x3c136b2ab9f7bcf3U, 0xbc413faa3d435b1eU,
  0xbd07b796bc448320U, 0xbcc1f316bcd0c103U, 0xbc85906b3cffad18U, 0xbcf8ac62bd3e2a73U,
  0x3b1a0f96bc85af39U, 0x3be53c3cbd00fc45U, 0x3d28b1e73ce9bfd6U, 0xbd37f119bc7e58cbU,
  0xbcd2b8763c1aebc1U, 0xbd8445de3bade896U, 0xbcac5bda3d2db9d9U, 0x3d0d10d53d3e7756U,
  0xbbb91d87bc3dedafU, 0xbd99e80fbb2b4adaU, 0xbd5ddb093cc7e8cfU, 0xbdc810a83cb62564U,
  0xbd2ff14b3b0fe038U, 0xbd5b01acbd14e809U, 0xbba937623a63c8b9U, 0xbcbc6b9bbd1aa2cdU,
  0xbc4512f8bd01522eU, 0x3b4c1c86bd20c3a6U, 0xbc3395b63c68d0faU, 0xbd2ff351bbaef1beU,
  0x3cac6a5f3cee47a5U, 0x3d6df64c3cc9a445U, 0x3d0aaca0bd10dd2eU, 0x3ce62dad3d88797cU,
  0x3d3bf2d23a91f431U, 0xbce0bfde3d31260bU, 0xbac1815d3cfe535cU, 0x3b8d3edd3d17a358U,
  0x3cc3c8b73d58b7d4U, 0xbbd66fe43d21dd12U, 0x3ce2260d3d243ba4U, 0x3d232342bcb41bf8U,
  0x3d264add3d022fc5U, 0xbd08a32f3d88b009U, 0xbc0117503c00df3fU, 0x3d8f25ce3da7b710U,
  0x3c51a6fa3d9d56caU, 0x3ac0a00d3ca6689eU, 0x3c734faf3cbff3fbU, 0x3bfdd0173c1b99d7U,
  0xbc32df79bc07acfaU, 0xbc1190f93c77b281U, 0xba729d6f3c820268U, 0xbcfdeb7c3cb19683U,
  0x3c81988bbc2dbb51U, 0xbc91e304b93f0d48U, 0x3d2f1d8ebcb89393U, 0x3cfc0919bd2d65f8U,
  0xbc9334743c7b279bU, 0xbc42de6f3bea00a1U, 0xbb817ae63c87a37aU, 0x3cd5652bbd3477e7U,
  0xbd5daefe3d705a03U, 0x3abd9de2bc70fe50U, 0x3c9777a03c941131U, 0x3c3e77963d176c42U,
  0x3ca9321bbb5262e6U, 0xbc4c518fbc849cafU, 0xbbf7569fbc37a50eU, 0xbd05b945bcbaab23U,
  0xbd78a6c33d160810U, 0xbddba9f1bd20af53U, 0xbd4bdb8fbc693104U, 0xbd86c8c5bda78a94U,
  0xbc0786a5bc202356U, 0x3c6d2caabd6195b6U, 0x3d387d04bcb32937U, 0xbd6f86af3c8342beU,
  0xbb6414f93d052073U, 0xbd858af73cbc8046U, 0x3c56f4b7bd0c7492U, 0x3c42eae43ba7c545U,
  0x3c10a6e63ce38956U, 0x3b8743b93d0a1e30U, 0xbd8186913d3e3b05U, 0x3cbf56af3c4645ecU,
  0x3d4e69853d365944U, 0xbc839a713ca44b1aU, 0xbc825d753d16bb9bU, 0x3c03e9cfbd5deb34U,
  0x3d9660f73c3ab7f4U, 0x3d9230013b07f442U, 0x3d6031883c8a41b7U, 0xbbc901a4bc63f78cU,
  0xbd10c44c3d02d6c1U, 0xbda6200ebd172663U, 0xbcf16d8abb5ad509U, 0xbd75bad13cf40d78U,
  0x3d8086223b120d93U, 0x3c23c80abcaebb40U, 0xbcf1fa973c298ce3U, 0x3d84a857bd398d12U,
  0x3d5a6eeb3bc38484U, 0x3c989a4abcd63786U, 0x3c14a5dabc5a9491U, 0x3da5bf9fbd096109U,
  0x3bc5a22cbcbd0ae7U, 0xbbd106f33b1e9cf0U, 0xbc45b1c9bc175060U, 0x3c1dad89bc4d36b0U,
  0x3dbacd65bcdb1dfeU, 0x3c526ceb3c42dbb9U, 0xbdb123713bfdb997U, 0xbd801387bbaee0f7U,
  0x3d48bdc83d264abcU, 0x3bd49f7dbd57e93fU, 0xbc8dea4dbc3b47adU, 0x3cde6d0fbd00ed1aU,
  0xbc76dff83cb0cc63U, 0xbcd5bdc9bd532f4fU, 0xba9673483c54b4caU, 0x3d4eb12ebcb1cc07U,
  0xbd028e5abc8a714bU, 0xbc7fe5903cac114bU, 0x3ce237963d608901U, 0x3c8cb341bb367d11U,
  0xbb95faebbcd93cb3U, 0x3cbf9218bcede7cbU, 0x3d06b6fbbd38fbb2U, 0xbc7d3f1abd0829c1U,
  0xbd36aa4bbc376175U, 0xbb0a295cbcc18247U, 0x3d24ada53b2943beU, 0xbca575833cb78387U,
  0xbcd9192c3c4de576U, 0xbd2997c4bd08a514U, 0x3be65fe03c3ea391U, 0x3cefd5edbda4c9beU,
  0x3cda8a4ebca0fddfU, 0xbbf57a4cbc90642bU, 0xbc9a1c073cc30e6aU, 0xbcdb57413b8aa785U,
  0x3ccde5d7bc60c11aU, 0x3cc69dbfbae8f691U, 0x3cb7c348bb7c01f1U, 0xbc838817bbad0e43U,
  0xbd16ba1db96f7cccU, 0x3c6e1b6c3cedccc9U, 0x3cf11df93ac41c3aU, 0xbd44a92d3a8d4fa2U,
  0x3c70da433c4f4d36U, 0xbc857740bb2bf511U, 0x3c3a7234bcf31968U, 0x3d5ca7cb3c7e16c8U,
  0xbc1d357ebcd8d504U, 0xbd181c80bb5893b2U, 0x3cd65feebcc3f832U, 0xbcc04b1fbb66409dU,
  0xbc3dde00bd05f8f9U, 0x3c8299b03a0a4cc9U, 0x3ce564c2bc8d542cU, 0x3ce41d2abbdfbfbaU,
  0xbda15299bc5f8713U, 0xbbc38a06ba5fdda0U, 0x3d03bc26bcadc434U, 0xbd45d7583c18addfU,
  0x3cc260c13cc028eaU, 0x3c34aa913c8e6324U, 0x3cc6c06a3a1c2656U, 0x3c8589043af6a569U,
  0x3cf369f63d2dc371U, 0xbcb90f073d99408aU, 0x3cbf4e973c591277U, 0x3db403403d7d912cU,
  0xbc87644bbc09db15U, 0x3ba23c373980e08bU, 0x3c78e8a7bbbdc06aU, 0x3b1873673c3ac2a1U,
  0x3cecdd073ba0b534U, 0xbc34e3e6ba277725U, 0x3d28cafebc03ee22U, 0x3cba5fea3bf3dcf0U,
  0x3c9c0c343d2b97a9U, 0x3b24c1ad3ba5ee08U, 0x3cbf88a3baf1fd10U, 0x3cf95945bcce0ee3U,
  0x3d164da53d0423c8U, 0xb85e3f2f3d5f89b1U, 0xbc727b413d0682e6U, 0x3d8371973d709c45U,
  0xbd54d857bb4cc56eU, 0xbdc47a3cbcb7252eU, 0xbbd7ce9a3c157b5dU, 0x3aafd1663d3f117dU,
  0xbbb1e8803c9bb68fU, 0x3c91aab5bc0fbbf4U, 0xbcad78353ca9bf49U, 0x3c13f9c53c19a33dU,
  0x3d4db6fe3c9ac36cU, 0x3d38e37bbc9487b0U, 0xbc95023abd1ac61dU, 0x3c89e2d23d5edb3fU,
  0x3b8938e43c28e2fcU, 0x3aeacc4f3c0df929U, 0xbd2bd9623b70f974U, 0x3cf853ddbab799c2U,
  0xbc0302123d02aba4U, 0xbc6b2f113a7dad58U, 0x3c9c50203cf565dbU, 0x3cae16313cc5d2c3U,
  0xbbf829953bb7121cU, 0xbc9a41f1bb6bc898U, 0xbc2cc4e63b795054U, 0xbce4209d3c3b0595U,
  0xbc931da63c7ca145U, 0xbd0fb5dcbc4b3e9bU, 0xbc1d6b5cbcc93e5cU, 0xbcd91f60bce8f400U,
  0x3cb47f973c6b3798U, 0xbbff54423c27da5eU, 0x3c3bc0d83bc5014dU, 0x3cc8ae893d2c5b7eU,
  0xbce5b6f23cc47809U, 0xbdc2e267bc6aee8cU, 0xba579358bb1fff61U, 0xbd0c737d3c3d4c3eU,
  0x3c15c543bd2ca232U, 0xbd071da5bcd99f70U, 0xbbd961e8bc32264cU, 0xbb5363c4bc2f4064U,
  0x399116b3bc2a7648U, 0x3bc21c353b86b8acU, 0xbd0f5cd03cba07b3U, 0x3bc11e633bd74ad7U,
  0x3c611d283cac64e2U, 0xb8c5192a3cbfedcfU, 0xbd25140a3c905fe0U, 0x3d0bf5f03d1b9bcbU,
  0xbd45cd2f3cc620ddU, 0xbd4d0827bc971e78U, 0x3d07d3073b816a1aU, 0x3d270bd33d0d6918U,
  0xbd1f90cfbcc937b2U, 0x3c2fa79cbcbff073U, 0x3d148eda3ce6e451U, 0x3b8df7c43cf5341fU,
  0x3c0303ecbcd38a53U, 0x3c8c05a9bd3f26c5U, 0x3c5cdfedbcd8d387U, 0xbceb08683cfdce58U,
  0xbbf826003d17ba93U, 0x3c4050c7bb239ce4U, 0xbce5d246bc2bab57U, 0xbbfc772cbcf7039cU,
  0xbd39214f3d2625e3U, 0xbd0388003b002e23U, 0x3bc9372a3b8f5485U, 0x3ca78b02bc8d3407U,
  0xbd07f2bebd572a9aU, 0xbd72a796bd765582U, 0x3c56bac5bd161c99U, 0x3c5df8b83bfa62abU,
  0x3bb0f21ebd14f8dfU, 0x3b8da6ddbd276755U, 0x3cd87ee5bd055a43U, 0xbc36d3b7bd4bc7f7U,
  0x3b5a1d30bcd5f1e1U, 0xbd81e8fbbc760661U, 0xba9a72b33c59a1f2U, 0xbc94bb3dbb9e1175U,
  0xbd1cb184bd483868U, 0xbd6ef76b3d63a6dcU, 0x3c6c789bbd7a4a9bU, 0x3b93b931bcd2f69fU,
  0x3cb269c2bcc6b7adU, 0x3ce8489bbba67603U, 0xbc9daf47bad8e40eU, 0x3cfb4e2abd350e45U,
  0x3cc177f73c0097c5U, 0x3d392e86bd187765U, 0xbc8596453b7c1846U, 0x3d263a16bb7afee6U,
  0x3c11fa0abce51ceaU, 0xbd191b4bbc6e04afU, 0xbcfa3ad8bd82615aU, 0xbb49e853bc3e3e58U,
  0x3bbb6b87bd6e7c61U, 0x3d6c83cb3afbbeb7U, 0xbbf9b335bd09e3b5U, 0x3cb34662bcfda4bdU,
  0xbd5a0a5abd3c1133U, 0xbd1f089dbcc3b428U, 0xbd1d75fb3cfb7a24U, 0x3cce5580bc96902fU,
  0x3bee9cdcbd10bd76U, 0x3d02f32fbc9c55b6U, 0xbca0ae25bc83e87bU, 0x3cc521b3bd32ef41U,
  0x3c9f198b3cef004fU, 0x3c312ccbbb1d07b9U, 0xbd2ce83dbb7d86bdU, 0x3bedece0bc259efdU,
  0xbcf71ec23d0e3772U, 0x3c8d39433bdd8849U, 0xbcfe9fbb3cf7c20cU, 0xbc5ed6743cbb30f6U,
  0xbc115e1abd5daff9U, 0x3c85703dbc69b153U, 0x3cad0772bce87548U, 0xbc9330d6bd2b1923U,
  0x3c8ce809bd36c9ecU, 0x3db6f826bca75ffdU, 0x3bec7c713b37716bU, 0xbcd6a09a3d18e19fU,
  0xbc74a2fdbcfc3a46U, 0xbcbb06a8bce6e2a2U, 0xbc6e13a63c03c0f1U, 0xbc15adb93caf0d31U,
  0x3d3dc9fabd842926U, 0xbd1e54803d086377U, 0xbcbc8be3bc724873U, 0xbc9236353c70256aU,
  0x3cdac0f83cd94e16U, 0xbbbaeef43ca8422eU, 0xbcf18ecbbd0b9390U, 0xbcbb7798bda6345aU,
  0x3d88215d3cbc7c13U, 0x3db0c0b33c8740b0U, 0x3d294571bc601ec1U, 0x3bbeaa663d134c7dU,
  0x3b5688163c93865eU, 0xbc9443c33d0746e4U, 0xbd559f26bcfa2904U, 0x3d20c97e3d8f515dU,
  0x3d4f8550bcf3f381U, 0x3c3371be3d609199U, 0x3ca2069bbc745c9fU, 0x3d592fd23c7746ebU,
  0x3bddb9423d09ce78U, 0x3ce63635bcc230efU, 0xbd17b7743d4ca101U, 0x3bbf61e0bcb0d5e2U,
  0x3d58692dbd1bafb4U, 0x3d67de7e3c19069bU, 0xbd3f9f6f3d647b20U, 0x3d68a114bd5dfc0fU,
  0x3d5700c3bcf4965cU, 0xbc1cf3283d1af7c2U, 0x3b9fd4423c9adacaU, 0x3c984349badb35feU,
  0x3c90cbdf3cccbe9cU, 0x3d828b273c38e84dU, 0x3bd999b6bcf09be6U, 0x3d6595b03d9b4ca4U,
  0x3d5615fb3da46e9aU, 0x3d56ac79bbf288e3U, 0x3d2a5ba03d9b1447U, 0x3d818e3d3cfcbd49U,
  0xbc296388bd07a6e6U, 0x3d128a10bbfa2e5bU, 0x3b6194b93b3a1b25U, 0xbb3f66db3cce6afdU,
  0xbd2b1c303afd97a9U, 0x3d7b05a1bcfe7cb2U, 0xbc3441febce25a0aU, 0xbd29414f3c38ce9eU,
  0xbaf7d3fbbd357c9aU, 0xbd2e2927bb4e987cU, 0xbc3ad6ebbd101985U, 0xbdf29a77be037709U,
  0xbd6eb33fbc9594c9U, 0xbcad392dbca6a9f1U, 0xbce26c48bcf10638U, 0xbc76b4ecbdd83a14U,
  0x3c13eab6bc0b865fU, 0x3b3cba6dbb3fb4d3U, 0x3cc145f03c69bac2U, 0xbbecbd383c2c8f1cU,
  0x3d1fdd783cee2527U, 0x3befa29dbcb5153fU, 0x3c9589853bbe658bU, 0x3c9cae973d09653fU,
  0xbd8eaea5bbf7b404U, 0xbd7fb3ba3b1a6908U, 0x3bc13f07bd6147ceU, 0xbb299733bc05396bU,
  0xbcf05968bb84fe08U, 0x3c913074bd0ca616U, 0xbd6a47703ce5142cU, 0x3ab5eeb9bd50b917U,
  0x3d19ec88bc23dd7aU, 0xbcac1fab3cf2b80eU, 0xbc65a2ee3bb5708bU, 0xbcb4e8c0bcfde4dbU,
  0x3db0a8eb3a8a01a2U, 0xbc2d2f6c3c79d459U, 0x3d491bc83c494ebaU, 0x3d1e16b83bf972fbU,
  0x3c2808623c739fefU, 0xbc9126df3cd4e9a2U, 0x3cb801af3b9edb7bU, 0x3ca42e6dbd6c8cd8U,
  0xbcac38383d2f30ceU, 0x3d0d655bbe14326fU, 0xbcbabf473d46c4cdU, 0xbd1b9352bb12476dU,
  0xbd43dab8bcc9f33eU, 0xbd29022b3b074507U, 0xbc4e0fa43d210da6U, 0xbc17ae0abd7ffec6U,
  0xbcec2a63bcc2bd12U, 0xbd1a26b7bbfc2035U, 0xbd83d001ba3d0db5U, 0xbd3be20abc8b7a4fU,
  0x39621c8fbaeb9e66U, 0x3ca292613bd3294cU, 0x3d51ff38bcdb27beU, 0x3a20eecdbce4a0caU,
  0x3b937246bd4f8500U, 0xbd1c1ec1bd239293U, 0xbccbc722bc87714eU, 0xbd4fa4ce3d11f533U,
  0xbd179c9b3d0f0985U, 0xbbaa73e83c2f94eaU, 0x3c508af9bc8d6802U, 0x3b1c75c5bd3f1500U,
  0x3b392ea7bc413c34U, 0xbd3df3e43b8bb0d9U, 0x3c48b3293d10cb08U, 0x3cc64b183d5f85ddU,
  0xbd1e87e1bd2c8370U, 0xbcb4ed62bd4a5d63U, 0x3c9c564cbda311a5U, 0x3c883736bce7b472U,
  0xbd5093e2bd203dfdU, 0xbccd3be13c86b7cfU, 0x3b1c34973c0a2882U, 0xbd54b72c3d3f0660U,
  0x3cce20383d1fbcdcU, 0xbc9609e3bcbb9988U, 0x3ce44dd83c613418U, 0x3c9432a5bc024729U,
  0xbd370d6f3d95c655U, 0xbca998bf3d5b2317U, 0x3c6061be3d097603U, 0x3d87bbee3d5e6efcU,
  0xbde0518b3c3da7d3U, 0x3ba72afebdf9f0ffU, 0xbd7a655cbb4b23b2U, 0xbc0e7150bc8ff204U,
  0xbd207aec3b9d6c61U, 0x3c4f6bd13d21e6e6U, 0x3d6c0b19bd041a87U, 0xbceb2d9a3cf352ecU,
  0xbbfce966bbbd377cU, 0xbc171ddabc108c21U, 0xbd286d7a3d14404aU, 0x3d46c3debd6c3e64U,
  0x3bf1e89abda87cd1U, 0xbbca7f5fbcdf4482U, 0xbd3e5e87bd0c8415U, 0xbd5b6763bc4933aeU,
  0xbd8a75003c7e9cfcU, 0xbc661e36bd15f4c8U, 0xbca673c1bc55bd7fU, 0xbb428206bd2af38bU,
  0xbc1d0459bd9aeebfU, 0xbd569f97bd141ce5U, 0xbd0c5571bd79e7beU, 0xb7d26b08bcc79caeU,
  0x3c9c0ef7bb994869U, 0xbc82d8b6bd93ebeeU, 0xbd12e70abd48b426U, 0x3b17f300bbbebfffU,
  0xbd1ea2523bf9677eU, 0xbbf908e9bcfbad6fU, 0xbc865ab6bd4cc47bU, 0xbc1c39583d7c8eeeU,
  0xbdc3a3343c768cd4U, 0xbd71ada0bdedab1aU, 0xbc96dcbcbc5e1487U, 0xbccdb24abc4d2a09U,
  0xbd2c5f2dbd8c0c85U, 0xbd0bf8773d696481U, 0x3aa9660dbcb00060U, 0x3d3e72f53d50ed5cU,
  0xbd1b597dbd6be7dbU, 0xbcd78a49bc039755U, 0x3b7f1613bc2127d3U, 0xbd025c843d167cefU,
  0xbd6d586e3d2783abU, 0x3d128709bc8f9aaaU, 0x3d019648bca8a969U, 0x3c2923ca3cc343b2U,
  0xbce084efbd5ce4b8U, 0x3d021c45bcc81804U, 0x3b033581bdaafcb4U, 0x3c6c9a923bb00548U,
  0xbc80d4df3c2c8046U, 0xbad6bcd53c3819aaU, 0xbc622b1f3bc10dcdU, 0xbcb62b3b3d6066daU,
  0xbcda747bbc07ee5bU, 0xbb90d2973d435e7fU, 0xbcd919aebc687551U, 0x3b1029f03abaf337U,
  0x3cc2f9f6bc778a0dU, 0x3d8453083cb0a79aU, 0xbe0de6843c3c9efeU, 0xbca7a3ecbd435aadU,
  0x3ccb7f383d1b9ac6U, 0xbcfb460cbcc233f8U, 0x3a4b26c53d235b1aU, 0x3d50859dbcdeb54bU,
  0x3b03c8463c986155U, 0x3c708d55bc3addb6U, 0xbd2591ad3d64ec2bU, 0x3d01f507bceaf2faU,
  0xbc77c1553be8a406U, 0xbd317222bd08e140U, 0xbbc753c0bd1b708bU, 0x3c7c848ebc9abe33U,
  0xbcf686ecbc3d5c37U, 0x3d37666e3b3ef97eU, 0xbc96712d3c40e761U, 0xbbedc2c33d330051U,
  0xbd107ba83d2f3024U, 0xbd00cc48bd2443deU, 0xbcbd3be43d785b3dU, 0x3c5ac4f53d033368U,
  0xbcbd91eebd07e763U, 0xbc2907863b462b38U, 0xbc41dc55baa277c5U, 0x3c22e9bf3c2bc9a7U,
  0xbc91bc1e3d25a53dU, 0xbd015cbebd0b0b05U, 0x3d93e975baa30d86U, 0xbd26b9333bf40378U,
  0xbb24ba0d3b72fff6U, 0x3ce58d23bc601338U, 0xbc2bfef73d670804U, 0xbbef8ab83cecb44bU,
  0xbd33a3c4bc396c0aU, 0x3c7098e9bda13446U, 0x3c23cceebd6130a2U, 0xbccbf990bd948c0bU,
  0xbd195cf2bc8af7a2U, 0xbbf928fd3d81c59dU, 0x3cb7581abc906369U, 0x3ab82a8b3cc8f8a0U,
  0x3d45e8ca3d8155e3U, 0x3d90cf673de809e7U, 0xbd15f1903d5b8fceU, 0x3d959f953c09d651U,
  0x3df7222abdb9bc64U, 0xbd46ef753d7798e0U, 0x3c077db8bc654bbcU, 0x3d7899d6bd6fce34U,
  0x3d47e0a8bd133daeU, 0xbc33d7093d70356bU, 0xbd3233d23dd6696eU, 0x3acd27923d5ca9a7U,
  0x3d9b1416bc577532U, 0xbd09bcfcbccbb441U, 0x3bc450acbcfac0cfU, 0xbcbaa444bd53857fU,
  0xbd816ab8bcf7f400U, 0xbc014a823cca01dfU, 0xbc7f92493ce40658U, 0x3c79b950bcc57bc4U,
  0xbc431a753c4f00c1U, 0xbc3dbe843c5b3f54U, 0x3d4729b93d0882f9U, 0x3cf03780bd6ae0c5U,
  0xbd3ca4e43c58b790U, 0xbd920a0ebca9cba7U, 0x3d7689893d9a7773U, 0x3d7dd3e93d8cd9ccU,
  0x3d80d02ebd7825eeU, 0x3d0682febd110e87U, 0xbca559a1bd82a65fU, 0xba83816f3d34d27aU,
  0xbd71a44dbdae7afaU, 0x3d46be4b3ce03004U, 0x3be5624abd4a6f01U, 0xbc47bf1a3b13be18U,
  0xbd9a1010bc650563U, 0xbd58eaacbd7204aaU, 0x3dc9d30f3aac3c47U, 0x3c478f91bd724a83U,
  0xbd1a62f4bb8e0dceU, 0x3d617b6bbd9f85f2U, 0x3ced30ea3d09e15eU, 0x3beecaa73d085036U,
  0xbc5f170abdbe0c84U, 0xbda6ec463cbd9eafU, 0xbbfc2cf6be481986U, 0xbd4241a9bc03e4a6U,
  0xbcdd44a4bdd1b1d7U, 0x3c935a743c2a2357U, 0xbd899cbebd058153U, 0x3cedcdae3d7822fcU,
  0x3c818b8b3d5cf858U, 0x3c85c6013d449b48U, 0xbca958ddbdcfa669U, 0x3d315d183cde739bU,
  0x3da240c13cb09b48U, 0x3db0a73d3c3effbdU, 0x3b870c69bcd3b4b3U, 0x3c83a28abd2b312dU,
  0xbd03d21d3d3481f0U, 0x3ce6c411bc82bdacU, 0x3d8a81e9bb832133U, 0xbc644b32bcd7f991U,
  0xbcc6e7433c953c10U, 0xbc6dfa39bd73bb60U, 0xba733f28bd8f7f4aU, 0xbd2cc2443cde4f03U,
  0xbd2a96cd3cac18cdU, 0xbbf24cb9ba0895a1U, 0x3d263476baf41b0dU, 0x3b6918253dba0f52U,
  0xbd928aa53d8ebffbU, 0xbd90af80bc03e37dU, 0xbdba5230bcf81cc6U, 0xbc98f5a33d6b5b24U,
  0xbd26103abb94b8fcU, 0xbce7ee803c9de256U, 0xbc3192943d3b4e40U, 0x3d88843fbcb52316U,
  0xbd723079bd1b4fb9U, 0xbce521c2bd718e96U, 0xbdcc00e1bdca7488U, 0xbd4aabf83d5775d6U,
  0xbd6e87e6bc2b3e84U, 0x3c263302bd03469fU, 0xbd8ff7923d0a7370U, 0xbba73189bd6aafe0U,
  0x3b021e9abcab029bU, 0xbc4b92633d4fe44fU, 0x3c91d9a6bc90ee4aU, 0x3c2a4c263d0bb9e7U,
  0x3cbfac50bc5d22fdU, 0xbce84d033d6bd536U, 0xbc578eca3b459fe6U, 0xbbd93fc1bcb6277dU,
  0x3cfd78193d38caf5U, 0x3db48697bd184089U, 0x3c96eb33bb04816fU, 0x3d7c68223d40b3d2U,
  0xbc86da14bd098c53U, 0xbd0008963c0454e5U, 0x3b92f9443bcbefe7U, 0xbbec94963cba5e31U,
  0xbc9582f33bc4ceb0U, 0xbc847b483c1f48caU, 0xbda38cffbd9258aaU, 0x3b3259cb3c4b6d1fU,
  0xbd72fe42bb364fd1U, 0xbd0b13b63d7bd28eU, 0x3cabdf7c3c615876U, 0xbd12f9aa3c0f4968U,
  0x3d077d583d6158baU, 0x3d948c99bdc575c7U, 0xbd41e7a9bcf7d6c5U, 0x3d0e124d3d4f604cU,
  0x3d1e6e9abd3765baU, 0xbd60873f3b058f2eU, 0x3930fa11bc39785aU, 0x3cb091883c830ca2U,
  0x3b814956b990977eU, 0xbd14ff03bcf2a89aU, 0xbb519a533d16b635U, 0x3bb2cb413ca625c8U,
  0xbc82cb2d3c83b31fU, 0x3da56ee03c48be52U, 0xbd5e71523ae69e1fU, 0x3cd5c175bcaf11e7U,
  0xbc0557593d365297U, 0x3d787f51bdfd5128U, 0xbda6ad55bd8a7ec3U, 0x3e10aec63c9a725eU,
  0xbc80bc39bd026039U, 0x3d19db163ba2e4a6U, 0xbde28cd5bd90ee9fU, 0xbb50f3a1ba39b117U,
  0x3d181cabbd207c37U, 0x3b817c6cbd2a35d1U, 0x3ccc46103c86d4c2U, 0xbcc36c7fbc8fd5a8U,
  0x3ca11ddabd5fafdcU, 0x3d063e0e3d013ddbU, 0xbd8b4e7d3c5eac73U, 0x3d62c969bc12cfd0U,
  0x3b5988793c8bbf0eU, 0x3c060fa53b89254dU, 0xbd4d91813a0f746dU, 0x3986b153bd2a8394U,
  0x3ce62a7bbdd56f19U, 0xbd1c7342bd87cf75U, 0x3d8e5e313cf22c0fU, 0xbdd66a0dbd5fc58eU,
  0x3891f3abbd2576c1U, 0xbc1c014e3c9fb07aU, 0x3d2c2351bd1f7f8fU, 0x3a2bfa5dbd7f3a33U,
  0xbc0713dd3b936817U, 0x3ca8bd02bb86a6f7U, 0xbd28d41e3cbd272dU, 0x3ba9ff453b42f090U,
  0xbce4933cbd46a8beU, 0x3c9cefb53c243a56U, 0xbcdbd641bd3f60bdU, 0xbc8fdecabc41403dU,
  0xbc87e8993c1c0c67U, 0xbc20bf05bc496693U, 0x3d095eddbd13a634U, 0xbc3fd62bbd04e88dU,
  0x3c7723c7bc18e642U, 0x3c30376fbc191e61U, 0xbd895896bcab707fU, 0xbcec50203c6e679fU,
  0x3d05c018ba118e9aU, 0xbd00859f3c920ab0U, 0x3cb48719bd3ce577U, 0x3d0b22adbd5a9008U,
  0x3cb820a5bccff450U, 0xbd2e5c4f3d183f35U, 0x3c7d5a31bab4d92bU, 0x3b320898bcf5ada9U,
  0x3ad423f53b2af07eU, 0xbccc8d92bc89927eU, 0x3d81067ebd7eada8U, 0xbd11179ebc4ba915U,
  0xbb7013e3bc5fc084U, 0xbd5ee85bbc17d1d2U, 0xbda2e10c3cfad552U, 0xbcecd43e3d5cb93cU,
  0x3d59355c3c8415c1U, 0xbd183fdb3c0d8263U, 0x3c2de2a4bd0a1009U, 0x3ca029e4bd8e3294U,
  0xbbd032053cffcd1eU, 0xbbff1221bcb9625dU, 0xbd970facbd15577aU, 0x3d0efb24bd602f9cU,
  0xbc184a0dbd21b245U, 0xb947b4b8bc75bea9U, 0xbcd499a73a86ec4bU, 0xbd91a6a6bc907502U,
  0x3ccff7f7bcf1aadcU, 0x3cf39b163cbb8447U, 0xbc82ba70bdb2634cU, 0xbccfe0b9bc08b07dU,
  0x3ce1f3d13b1dab38U, 0x3d34e82ebca2df97U, 0xbc9f06f93c077dc0U, 0x3d21ee02bd199d39U,
  0x3b1f5a36bcd14bf6U, 0x3c9d490c3cd1ca7bU, 0xbb022d73bd3ece59U, 0x3c7487f3bb807edfU,
  0xbcf91521bc8d1455U, 0x3ceb3b93bd391deeU, 0xbd32ebd5bd9d6493U, 0xbd3c1846bd262d93U,
  0x3caff5d3bd79865dU, 0x3c4d3255bba19fd1U, 0x3c9379c7bd7866baU, 0xbcc350ecbd2c95d0U,
  0x3c41839b3cc7cc59U, 0x3a81bafebcbefca5U, 0x3d18977bbbaf41d3U, 0x3c0dc78d3ca92350U,
  0x3c17c0e33c391488U, 0xbcb2a6b03c1eb32dU, 0xbcb02480bbb2c5a3U, 0x3a82a301bc9a3d72U,
  0xbbe7d5a4bd3bc143U, 0xbca1cc5bbc9e8095U, 0xbcc729ffbce51c7fU, 0xbcc3ac293cb9f6e1U,
  0xbc0a01b63a1a2683U, 0xbc3b8addbc10c92aU, 0xbba2d9673c04d6f6U, 0xbc91b0fabcf0eb4dU,
  0x3b998d31bbd3b7e2U, 0xba528c073cb1160aU, 0x3c73272fbd253d4eU, 0x3bdb863abd451716U,
  0xbc79547e3c825358U, 0xbcdbd16d3ce767deU, 0xbcd9a9153cfc2e85U, 0x3c6ec84bbc2b6f45U,
  0x3d80c1aabcf75b29U, 0x3cff9c70bc2d175fU, 0xbcf8e2abbbf0c05fU, 0xbcf02122bc47eeccU,
  0xbaf880223cbc2847U, 0xbbac2fcdbbde4d73U, 0xba07f378bc972d10U, 0xbc476582bcaf7c4fU,
  0x3c5e6004bbe2f072U, 0x3d4cda413c433404U, 0xbd0294debceb4366U, 0x3cad5cb4bd0ffcacU,
  0x3c9a1a4fbcdf10a3U, 0x3d34ae693c962d93U, 0x3bf7e35dbd466ba4U, 0xbca9c3d23d42f175U,
  0xbb1797e43c486c69U, 0x3cdc470ebca0bb84U, 0xbc148104bcb190f4U, 0xbc1783bfbb047db2U,
  0x3c84e707bca3c24bU, 0x3cc679973b8d3096U, 0x3cba48443cde9045U, 0x3d5bc0e83c525853U,
  0x3c3e8ad5bc81cbb0U, 0x3c7d1903bcf55331U, 0x3c2ac76ebbc2d242U, 0xbcce24d13d3923d2U,
  0xbb71ca103c9ab1b5U, 0x3c0af37ebcfcb387U, 0xbd28abdbbd04ecf4U, 0xbcd8bf073bd494d4U,
  0xbce15efabc1f6512U, 0xbbe87635bc79c51dU, 0x3b2c86aa3b6737c1U, 0x3ad9d1a83cc0c2beU,
  0xbd1535a0bc20fc96U, 0x3c8266d9bd228ed1U, 0xbc0beff03c774d48U, 0x3d44dc0c3c1861c1U,
  0xbcdc2718bc9c9867U, 0x3a898832bd03c871U, 0xbc5e50073cf786f4U, 0xbd3a754e3d0fe717U,
  0xbd88845d3c50a5e9U, 0xbda1b3133c92bd18U, 0xbd7431723c2b9bf0U, 0xbd182d28bdaa5f5cU,
  0x3c95e493bd039acaU, 0xbccf9abc3bbc115eU, 0x3db4b8553d47d526U, 0xbc26d1d13cf1f4b4U,
  0xbe03023f3da68bbfU, 0xbda6dc893c813283U, 0xbc92800c3d00a177U, 0x3d24ea693d0d3a36U,
  0x3bb41ee23d3d0f80U, 0x3c9ec66cbd382f72U, 0xbc42a8a23cc8686bU, 0xbc909f063d29cf70U,
  0x3da768603da08a66U, 0x3dc1adb2bd44844dU, 0xbbf9037c3cb308e4U, 0xbcdb73913d153005U,
  0xbbac49cdbd342e8aU, 0x3ae14bfd3cb10087U, 0xbca478753d96847eU, 0x3d42e079bd196469U,
  0xbd50473c3d914a67U, 0x3ccff8fabd0f182aU, 0x3d200671bc29edb2U, 0xbc3e5a633cedd67bU,
  0x3d1c8ad33d138978U, 0xbc2de989bc8bccf1U, 0x3d7b7a4ebd1249b8U, 0x3d296018bb8ff689U,
  0x3d193902bcc433b3U, 0x3ca4a455bdaafdb5U, 0xbd6435c1bc1de53aU, 0x3cdb86863d85aa8bU,
  0x3d00f4f43c9502fbU, 0x39b712163c39821eU, 0x3c9c4e74bbc8031eU, 0xbd3a0679bda972d2U,
  0xbbe8ee493d40ce2eU, 0x3d58ea7c3c8e5ed1U, 0xbc613cc93d2074c8U, 0x3c817c93bd11d89aU,
  0x3d1673503d35b260U, 0xbabccd69bcb9d428U, 0xbc77ff2b3da7a48fU, 0x3da7b007bb225940U,
  0xbcfe464b3c9cc723U, 0xbdb02a3c3d0a4ae3U, 0xbd9aaf46bd24517aU, 0xbdd3ebe8bd84fdc9U,
  0x3d859053bd62a7d4U, 0xbb1945edbcefc2b6U, 0x3daa3f163c3a59aaU, 0xbd2d5220bd725e0dU,
  0x3d90a5493c9dd7a4U, 0x3d8058f93d9b4d56U, 0x3b597142bc351ab1U, 0xba9cbbba3cec18eaU,
  0x3d5570233d141c2eU, 0x3d15406b3c839f86U, 0xbc3d29e9bce5ff83U, 0xbd288a2ebccc84e4U,
  0x3da7e5dbbd895ea2U, 0x3d07eeb13c01006cU, 0x3d8f35b4bd8fa926U, 0xbc8fcb843d9bce54U,
  0xbc8158563da18c02U, 0xbc2958d53c607682U, 0x3b912280bdf513e8U, 0x3cace4cb3c8b65a3U,
  0xbd6cbae3bb8692e9U, 0xbbda1874bd60a41dU, 0xbd1830003d99ece7U, 0xbc844f0c3cc34ae7U,
  0xbc905a223d8218efU, 0x3ce0f1083d100a55U, 0xbcbc62b73daeb847U, 0x3bbecf44bbd59a1fU,
  0x3cfb26c1bc213df7U, 0xbbf38657bb864f2fU, 0x3d47d6433d92afc0U, 0x3b525f32bd054406U,
  0x3c726a173cda80e9U, 0x3cefe6833b72c330U, 0xbc8ac0b9bad6097bU, 0xbb6b16573b99b145U,
  0x3d0164623c84c3f5U, 0xbd208db4bcd0c9caU, 0xbcbef352bd975ee5U, 0xbd9f41bdbd6cce96U,
  0xbc065f36b747a3a6U, 0xbcea99b1bd853d64U, 0xbd8e6f633a3084b6U, 0xbd11b087bb96c8a7U,
  0xbd3acc0e3da38d5cU, 0xbd783f6f3d0797e0U, 0xbd0af04abc8c1efaU, 0xbbd148a3bd3c41b3U,
  0xbc929165bd21b87aU, 0x3d776507bd4a243aU, 0x3cb8b24bbd1c407eU, 0xbcd9a5f7bd9027b7U,
  0x3cca29f0bd508854U, 0xba7feba13d5355d7U, 0x39223802bd9c9ceaU, 0xbd9c9883bb0d52cfU,
  0x3d2df3f93d9b8246U, 0x3cd3a2b83dc746ebU, 0x3db3d991bd0777fbU, 0x3d04f15dbd86f8b2U,
  0xbc0677343d779d02U, 0x3d0df799bb536797U, 0xbd7044453d3593c1U, 0x3dbff7a33d893decU,
  0x3c730d2bbbd42421U, 0x3d79d3423c0008f9U, 0x3be951193c32fa27U, 0x3cc835d23d31d348U,
  0xba72c0e8bc709c65U, 0xbbe351843d909159U, 0x3d1ecc4e39bdc3cdU, 0x3b5d626dbbfd5a46U,
  0x3c0e7af9bbfc11cdU, 0xbc816fc43d116f40U, 0xbc8a34f9bd0df99bU, 0x3c14c3efbcfbcaebU,
  0x3ca97f3fbd1244a8U, 0xbc2dfdfabd289c61U, 0xbd9f1b373db21063U, 0x3be039aebb08cf86U,
  0x3cb3d902bd2decc8U, 0xbdc02dab3c694b34U, 0xbbddce373ce11817U, 0x3c9b68f83d49c629U,
  0x3cbb83fdbdd03e61U, 0xbb76b41abd23458aU, 0x3df7d189bad0d2a2U, 0x3d947226bd13a764U,
  0xbdcb30abbd1361deU, 0x3ca4f2e5bd0ed535U, 0xbd3187c33d6867c8U, 0xbd8512cf3dc78c4cU,
  0x3d07125a3cfe79e6U, 0x3d5bf780bd75746eU, 0xbc4b615e3ca30b79U, 0x3d7f8cd03d21851dU,
  0xbc8e33b9bd8f90acU, 0x3b31cee93b87c97cU, 0xbdaade0b3c7ddf38U, 0xbcc7bef63c436a66U,
  0xbd0f24413cec4e5dU, 0xbc0040293d519cd0U, 0x3d5ee3373b5bd72bU, 0x3d7d6b08bce1062fU,
  0xbc983738bd12427eU, 0x3b979665bc96c11eU, 0xbd7bdb0b3d730f43U, 0xbc400c583d5bc30fU,
  0x3b629886bc57f97cU, 0xbc09515ebcd06c9cU, 0x3cb531d4ba9573baU, 0x3c0921703cfa0aceU,
  0xbc8828a6bd01fd13U, 0x3d468434bd21af4bU, 0xbc0f445ebccdd5c4U, 0xbd534144bcc68356U,
  0xbc9b34023ca899b2U, 0xbc660f4cbb1591d6U, 0x3bb6e89abc8441f0U, 0x3bccbeb53c8ff2a1U,
  0xbdad6b86b93dec43U, 0x3c5e23023b6b9134U, 0xbbc3a7753d09402aU, 0xb98386d4bb904552U,
  0xbd5c2090ba147184U, 0xbd01e2be3c577c2aU, 0xbc644b103ba8857eU, 0xbc957e9bbdcd0579U,
  0x3c970b6bbd3d2179U, 0xbd15d6b7bd2ee674U, 0x3d374b3dbc47775cU, 0xbd193664bbff7edbU,
  0xbd04d7993a9afbdaU, 0xbcb73660bcb925cbU, 0xbd4564f9bc884473U, 0x3cbbfcbfbd212bb8U,
  0xbd2fcce3bbfec65dU, 0xbd707187bb312928U, 0x3c553a70bd60dd2fU, 0xbd4c8441bd74082bU,
  0x3cd730963d2a0b00U, 0x3d1529293c0ec2f7U, 0x3d0a94393cf92081U, 0x3c9ac0863d04bfebU,
  0x3d9f664dbc9508e0U, 0x3c36c3fb3ccd201aU, 0xbc92d26abca4fbb1U, 0x3c821abb3d65aed4U,
  0x3ba01d103ce02b65U, 0xbcf75d29bc285df4U, 0x3d211a3b3c4035b4U, 0x3c5a6e5d3ceb4e7aU,
  0x3c90851e3d1982e2U, 0x3d6f06b93d520b0cU, 0x3cd2fe85bb7b8d13U, 0xbc51de8cbbdf6b90U,
  0x3d2d9555bbb516ecU, 0x3d2c670dbd255ac2U, 0xbcdc5f81ba4a62bcU, 0x3d075c983d31a467U,
  0x3c8c086ebcb0aaa2U, 0xbc5af1b03c44aad1U, 0xbc21ae293cbd54a5U, 0x3c58a38d3ca75793U,
  0x3bf1f5593c8b5152U, 0x3cfcdca1bce367f1U, 0x3d5bcbbebbd43037U, 0x3cb31a0b3c3fb921U,
  0xbbbe80863d03539aU, 0x3ca9d38dbceeccb5U, 0x3ca52ddc3d1c8389U, 0xbb1ec7033ca7fc41U,
  0xbd8b2895bcd47cc7U, 0xbd389ddebba18893U, 0xbd5688b8bd4cf352U, 0xbc7d94bdbbf03b84U,
  0xbcad0b94bc16a1f7U, 0x3b842437bcea0b9fU, 0x3c8c7c29bc44054bU, 0xbd46083e3bfd14cbU,
  0x3cff0d513cf051beU, 0x3c9ffdc53c9a7c8eU, 0xbcd2809ebcd857a4U, 0xbaa4ac59bd31f1b0U,
  0x3c2c83603d3beed9U, 0x3d17270c3ce5149dU, 0xbcac01cd3d532ac2U, 0x3c0b9cd7bce8e7aaU,
  0x3b2426933bd7f262U, 0x3c44dbe5bbe92f5fU, 0xbb736fce3d36dbf5U, 0xbca77e2c3c149e92U,
  0x3d91acc8bcd55d9cU, 0x3d43504b3c99dad0U, 0x3c2fb4163cdf5fa0U, 0x3ca67c7c3bd80183U,
  0x3cb1fc013c603c84U, 0x3caccca73c9c36f0U, 0x3cb4064b3cf515b3U, 0xbc63e8793d5bffeaU,
  0x3d95c5543c6c1079U, 0x3da51a7abd780605U, 0x3d9cb9a4baaeb334U, 0x3d43a5113bf9f097U,
  0x3cee01dabda330b3U, 0x3d1fc1ce3ce36e4dU, 0xbc129d343ba5546bU, 0x3c587dcabbc5443bU,
  0x3c81372ebc1ebd5fU, 0xbbb50fa2bc721e32U, 0x3c5ec88dbd800c54U, 0xbb20d063bc6f17ffU,
  0xbc8fcc52bccf335eU, 0x3d48344fbc33caa5U, 0x3d6471e7bca09b12U, 0x3d4d24db3d32d028U,
  0xbb0320ddbc94e9eaU, 0xbc18ebb2bdae844bU, 0x3d6108fd3c31c253U, 0x3d0a2f9c3cf06a2eU,
  0xbd06a3bb3c037ff9U, 0xbcc9cce53d61def6U, 0x3d017b3abc6be23bU, 0xbccdc53dbcaf81fdU,
  0x3c7b61693ce1df7dU, 0x3c160d88bc0a62b3U, 0x3d5f68ad3b40f84bU, 0xbcb91b3f3a5bb32eU,
  0x3c8e7ca03c038564U, 0x3ce359883d1b1008U, 0xbca774a1bcaaa86dU, 0xbb3777323ac20085U,
  0xbc7367bbbc2dd39eU, 0xbd336deebda7bf60U, 0xbd102ba9bd86eb15U, 0xbd2294a8bd60f041U,
  0xbc8e970a39cb7e50U, 0xbc7e97973d8376b1U, 0x3cc5ed053cc3a81eU, 0xbdda290bbd07e47cU,
  0xbab5b1393d9365c7U, 0x3cbbbe103d1c8417U, 0xbcb56fe03cd200ceU, 0x3d5cb1603d284a54U,
  0x3c618351bab820f2U, 0xbb3adc283c8c2ce2U, 0x3bf5712a3d0b6329U, 0x3d5c26573c89a491U,
  0x3d1776463bb696c4U, 0x3d07e20dbd2bc109U, 0xbcc3484d3a09b3a7U, 0xbc31a4ba3bfb3703U,
  0xbc8df181bc252e72U, 0x3c270c1abd34118bU, 0x3b780351bd3a285dU, 0xbbe1d118bd428e65U,
  0xbc7427463c9017a8U, 0xbc830ddebccf272cU, 0x3d483d34bcb59d34U, 0x3cfe0409bbd81e09U,
  0xbcc6fb8dbd4295a8U, 0x3dcb4f3dbda157a0U, 0xbca0e101bd9aca28U, 0xbd9358c5bcaa96a4U,
  0xbd80111bbce2418eU, 0x3d4c2fa43bec11d6U, 0x3d66334dbccbf84bU, 0xbc7091983d0522e4U,
  0xbcc91075bbdb3771U, 0xbc9653cebdc49565U, 0x3c9ba9babd4fa90cU, 0xbd283291bbe62206U,
  0xbd16aa6b3d43beceU, 0xbc69079abaedfe3fU, 0xbcefbea0bb8196f8U, 0x3be8319a3cbd0776U,
  0xbcc847983c1a4f4eU, 0x3d312f12bcd011e1U, 0xbb83d33d3c5d6b28U, 0xbda2b88639c2547eU,
  0xbce29048bd78b816U, 0xbd8490843c3c8eebU, 0x3c7fcc4bbbac2849U, 0xbd1baa093afe30caU,
  0x3ca454afbca1a006U, 0xbcfd8b04bc91254dU, 0x3d620293bb672fcfU, 0x3d38d32f3c963da0U,
  0xbc9a74bd3ca95224U, 0xbbb7485b3d396e0fU, 0xbc86c93fbcd1445bU, 0x3cb00dfdbd0b36a3U,
  0xbd89cdf03cba58b5U, 0xbdc1655bbd4f9987U, 0xbc564a72bd3a42a1U, 0xbd222d7e3c933887U,
  0x3d440ef0bcabd8d8U, 0x3c376e4d3d36beadU, 0x3d014779bd4cd9beU, 0x3d36d931bc8e0e44U,
  0x3b21eb48bce63329U, 0xbbc17bfbbce74056U, 0x3c1a048dbdab68b5U, 0xbcf77c0e3c8febbeU,
  0xbda3f80b3d154751U, 0x3c4fb2e2bb5c6d01U, 0x3cb3fce3bd134777U, 0x3c4c8c5cbc486c65U,
  0x3ba59823bd12c737U, 0x3d07d58e3bccb793U, 0x3d11d571bda2bd8bU, 0xbcd8f2f23bd2bc6cU,
  0xb99fe8c8bd2d1930U, 0x3bcce4d53b86a2d7U, 0x3d0292e5bd2a6303U, 0x3c4507293c940587U,
  0xbcad0dd1bc12c125U, 0x3c93c92dbd29d393U, 0xbd511591bd0eb29aU, 0xbd00bf903d22c762U,
  0x3bc88757bd354c45U, 0x3cb74b79bcc9637bU, 0xbde25d14bd42df10U, 0xbca6b09f3ce19634U,
  0x3c9b49ddbb93813bU, 0xbc3a3c773d88e4c2U, 0x3ccb43b3bbd7c37bU, 0x3b9d43453d06494eU,
  0x3cca9502bd57b479U, 0xbdad20d83b8f5ca3U, 0x3c850997bbad8dc2U, 0xbd11eba33cc61a2fU,
  0xbce3ac9d39ba58f4U, 0xbb9c5f28bd28dd60U, 0xbcb1f9fe3c73fc2fU, 0xbaa75e16bc13cbc3U,
  0xbd639142bd09ec9bU, 0x3c4752eabc4dd802U, 0xbd6478403bc64b1eU, 0xbcf71cf0bd81fa4cU,
  0xbce975513c741018U, 0xbd05385abccd707bU, 0xbd5c1e493d2ab062U, 0xbcbb0848bb5f0426U,
  0x3b96be90bc9f92bbU, 0xbd6189ebbcc2d998U, 0xbd9dea36bd82f5cbU, 0xbcccc6f9bd42046cU,
  0x3c5e939bbd6f3a37U, 0x3b818d22baa341daU, 0x3d5146633c29acbaU, 0x3d6722763ca94e8cU,
  0xbc8c7d573d373da0U, 0xbd36bdee3ceaf132U, 0x3d6c6dbdbd29638cU, 0x3c1ea1d4bc785c00U,
  0x3ccbe365bcccc4bbU, 0x3d9ad711bd801ccbU, 0xbd4863163b7c0e56U, 0xbd952abf3c438034U,
  0xbd0e3d7ebd86d98bU, 0xbcf11ba13d1322c2U, 0x3d391ad9bd65fdacU, 0x3cc99e19bb91a607U,
  0xbc06919b3d5573ddU, 0x3cd109ed3d253e61U, 0xbc1f022a3c8781f4U, 0x3d1c4300bc3f1924U,
  0x3d3abf74bc430e25U, 0xbb3450533d12c742U, 0xbd04ca67bbc65a7aU, 0xbc743e6bbcb9ce10U,
  0x3d3ba8b1bcf4b1e3U, 0x3cd082593d35ca4dU, 0x3dce1ef73bd64330U, 0x3d2c0243bd0e2eb8U,
  0xbd1ca2ad3c41e31fU, 0xbc5832003d08c140U, 0x3b963a53bc95af5bU, 0xbd8d2df43d8d25aaU,
  0x3d0fbb1e3cdc70e2U, 0x3cf5ccacbd867ae4U, 0xbd04ba4abce9c901U, 0x3be94655b7e280ffU,
  0xbd3c7928bc9fdabfU, 0x3cc189b4bc5738b6U, 0xbd17afbeb9c42abfU, 0xbbc93b643cb0f8d3U,
  0xbccb5d153c01f57dU, 0xbba47b6fbc1f8b77U, 0xbd4a4729bc05d060U, 0xbd5442ba3c33d9e0U,
  0x3a89d5ca3d05d1b1U, 0x3c5bf2843cfa3586U, 0x3c443f78bb3446a4U, 0xbc4bdcfdbd4bb63eU,
  0x3ca6cbe8bc2c44ddU, 0x3c100d80bc66f27eU, 0x3c6a5dcfbc868f60U, 0x3c91b1693c91279aU,
  0x3c20e5fc3cd66bfcU, 0x3c24aa0dbbdefebcU, 0xbcf904c8bcad1c38U, 0xbc67bc363d7747bfU,
  0xbd45c6e53bc817c7U, 0xbd17fb93bd222d0aU, 0xbda4049539d79453U, 0xbd21e7c4bc22eaf9U,
  0x3bc3b9a13c686e7cU, 0xbc11083d3c57c54eU, 0xbbc07b483bc10f7eU, 0x3c6925d2bc0b064fU,
  0x3c1af1f03c11b82dU, 0x3bc3e8d4bc171ee2U, 0xbbef93e7bd43faddU, 0xbd51a5823d2148bbU,
  0xbc8d1ffb3cf74e66U, 0xbb8342913b77dabdU, 0x3af92202bd548eb8U, 0x3d030ff83d7f4ad4U,
  0xbd99103f3c36115eU, 0xbbd932e0bd393947U, 0xbd86996b3cceb764U, 0x3bcdd5e73d32c7e4U,
  0xbd3e87d7bd73729aU, 0xbd62fe453d325aa4U, 0xbd260ec0bbf9a054U, 0x3cb0b28cbc0a7f5fU,
  0xbbcbed00bc0426d7U, 0xbc01022e3c5cd117U, 0x3cabd853bd705fb4U, 0x3c5cc807bd17dd5cU,
  0xbd2d69a33cca58d6U, 0xbc18dd3cbc28f825U, 0x3d43bc91bd570901U, 0xbccd8489bcae739bU,
  0x3d3a97fbbd5aa8eeU, 0xbce14b863d8a833cU, 0xbc98e505bc06b121U, 0xbc40da393be37ab5U,
  0x3cf027ec3d370ee4U, 0x3ce064a0bcdee3c0U, 0xbc89d62a3ced3f9aU, 0xbd10e01cbd1cadf4U,
  0x3cda720e3cb1e896U, 0x3cdfdbccbd015885U, 0x3cf896a8bc2620f8U, 0x3d4e61bcbd0a97d6U,
  0xbc47c329bbf61495U, 0xbbd0e4fd3bb09c0cU, 0x3c995bfbbba93cb0U, 0xbd2a383d3c12203eU,
  0xbbdbb340bd12f364U, 0xbcbb31023c2c13d4U, 0xbd536576bcf62b5aU, 0xbd8d2ec53beea289U,
  0x3c5f62ea3bf5f594U, 0x3c12850b3c62872fU, 0x3c87df373cdd4676U, 0x3d14fa1fbd76d18fU,
  0x3a864ad53a86624aU, 0x3c04e9bfbc03709eU, 0xbcafeb44bc4f90b6U, 0x3c288198bcc38f00U,
  0x3c52885abd037d76U, 0xbb962de6bbe81af2U, 0xbbb057eebd4ed4ceU, 0xbc95a9393c89018eU,
  0x3d0538a9bc2cd0cbU, 0xbcc7801b3cb09d0aU, 0xbc1dc5863cea1409U, 0xbcadea14bca2e600U,
  0x3b0df1f03c0327acU, 0xbc24b041bd1babc9U, 0xbd5c24133c0f844fU, 0xbc15f1e4bd42bf05U,
  0x3c7f642a3c108848U, 0x3b6c9701bd299243U, 0x3cd387313c92f187U, 0x3afaf41ebc80ec93U,
  0xbcc05842bd10d813U, 0xbc71a445bd58621dU, 0x3ba704d5bc8d7fd7U, 0xbdb8f770bb0c954cU,
  0x3c4e56eebd829df4U, 0x3c47c92b3c75b391U, 0xbd1d1ae7bc1a975bU, 0xbd943d07bd972a4aU,
  0xbcf93801bcf5b397U, 0xbd88fccb3cfc028bU, 0x3cb6ce5cbcab2fa1U, 0xbd14e720bbd04898U,
  0x3cd8bb213c2eee27U, 0x3d353073bcd0f243U, 0x3d4ed8783c854e8fU, 0x3d24bd253c2b47e8U,
  0xbd744bba39783a59U, 0xb9fbf101bbec2d0eU, 0xbced85b13a837957U, 0xbd5f68703c3322ebU,
  0x3bdb80a4bdd59545U, 0x3bf1a578bc8108c9U, 0x3c209249bd948a5cU, 0xbcf06078bd19d138U,
  0x3baa9bb4bbb6f047U, 0xbacfc9f43d5d1eb4U, 0x3d3fd2b53c0929e3U, 0x3d4fcdd63d514faaU,
  0xbd3883efbbb03008U, 0xbcc9930eb9456016U, 0x3c7155563ccd8664U, 0x3c7306dabd41df71U,
  0xbb8e088fbd026d0eU, 0x3d2f3c68bca48a57U, 0xbd3f70d4bb44658eU, 0xbd5e2c9fbb74ea78U,
  0x3cbeeac4bd693819U, 0x3cb5b76a3c72ce0cU, 0xbcb4d1ca3c0f43adU, 0xbb317c42bd70a2eaU,
  0xba13cf85bb2f355aU, 0xbb6b4d32bcb4c05aU, 0xbd1ae519bcd353efU, 0xbc40bbf43c9774dcU,
  0xbcd28d30bd0c5bceU, 0x3cc9bdb23d43cebdU, 0x3cfb99343d7323b7U, 0xbd70cb1e3d0aa027U,
  0xbb3e0d3f3d6a3f28U, 0x3e0820f13b8ca380U, 0x3c2648693ccf85b2U, 0x3cdea626bd806137U,
  0x3cd8e68ebb42ed0bU, 0xbbab55323d459a59U, 0x3d9401d4bd549c6bU, 0x3d88a54dbc369c10U,
  0x3be6f5803c30d862U, 0x3cb26ed1bcf0c836U, 0xbd54d8c03d5cc5f8U, 0xbc9d00aa3d580db0U,
  0xbccd33d0bd48395aU, 0x3d37b554bc2475a2U, 0xbafecb4fbc1615fdU, 0x39fa7fdb3ce6c04dU,
  0x3cdc31473cffb1c5U, 0xbceea0c8bcb41deeU, 0x3d180cea3ccc73aeU, 0xbb3979c0bc93e53fU,
  0xbcf9bfcd3c685f8eU, 0x3d11aa7d3cab58e6U, 0x3ca82d4a3d091cc2U, 0x3d4d84293d3a9760U,
  0xbcbef2b4bcff9e44U, 0xbc910febbcd4a33eU, 0x3d12f4b0bc4c1a10U, 0x3a3855533c36eeb0U,
  0xbd16c9f3bb04422aU, 0xbd6369773c62c57fU, 0xbcca1217bc8be2a2U, 0x3d1f7903bc8d690dU,
  0xbc9dcd88bd046d3aU, 0xbd3353e7bc9abf04U, 0x3cee2101bc9d29b1U, 0xbc32f44ebc39aa7dU,
  0x3a3dd126bd8f5f19U, 0xbd5d9f21bb050803U, 0x3a84d351bdb6de4bU, 0x3d0f11d53ce3e6b1U,
  0x3cf609b23d4001b5U, 0x3d0b289e3d35b35dU, 0x3d8c8a873cf30b96U, 0x3c8641e0bce5421dU,
  0x3c8814f73c56fd35U, 0x3d8b43b2bc994ce8U, 0xbcec8eda3d959fd3U, 0x3d4dc03e3d8fa749U,
  0xbc928488bcbede04U, 0x3b4dfb013d9ebaf4U, 0xbcc242d83c952c7eU, 0x3d929e1bbc560d85U,
  0xbce0498d3ce1cb12U, 0xbd151e0dbdb028deU, 0xbcfc806f3d63828fU, 0x3b941c4c3cc6fb30U,
  0xbcc1fb443d4cf868U, 0x3d466d11bdc3baddU, 0xbc8056dc3b821a29U, 0xbc4fb9ad3ca14e14U,
  0x3d1ecd87bc3a9041U, 0x3c74b636bd677189U, 0x3ce9bfdabb4477c1U, 0x3d5f71f03c866875U,
  0x3c9b27b2bc8f25c6U, 0xbc1b7c9c3cbacc60U, 0xbd411cac3d60f142U, 0xbca16441bd360d9dU,
  0xb86bb5123d1259d7U, 0xbbd3c51fbd3b403dU, 0x3c913b903c9fe08cU, 0xbd5918c9bd131e32U,
  0x3b0f9e84bd0ad47eU, 0x3c39458dbd5e0366U, 0xbd86270f3d3603dcU, 0xbc0b08c83bfbd616U,
  0xbcc6e8dd3aa3f706U, 0xba79cafd3a710738U, 0xbc4ea682bc4f39adU, 0x3d6c63a8b999e442U,
  0xbce84ba3bcf454baU, 0x3cc33a6bbbbc798eU, 0xbd8c457d3d61290bU, 0xbcaaa631ba402d94U,
  0x3d290b6cb94e702eU, 0x3cc381d2bd4a07cdU, 0xbd9d7d0cbd1199d2U, 0xbe10be7cbd04fcc3U,
  0xbd1775d33cf7d3f3U, 0x3ca94bbbbd4ab4f0U, 0x3d61e6f3bcda5ed1U, 0xbc1a88d9bd9e3815U,
  0x3d03b3e93ad924fcU, 0x3d932071bd95e9d0U, 0xbd1499bd3d7bb494U, 0x3cc1b7fb3cc591f3U,
  0xbcee8db23c12dd94U, 0x3ae997263d8662fbU, 0xbc9e7ec33d93d572U, 0x3cd2fd8ebd01d937U,
  0x3c6189723d962440U, 0xbd8266673b97d557U, 0xbc94a52a3c88f19eU, 0xbc892eccbd19dd13U,
  0xbd576add3a5ad38fU, 0x3b23ede73cb8ee91U, 0x3ca4632dbc293881U, 0xbc2c27fb3cf9c8faU,
  0x3d8292e7bc71c741U, 0x3d3baecc3cb2db2cU, 0x3d4e0a12bb9858b3U, 0x3cf153e2bccbe33dU,
  0x3bef2ae7bbc30b85U, 0x3c00ddeabc903dd2U, 0xbc4e4f2cbcacf2a5U, 0xbc79bd013cf665c6U,
  0xbc2568673ce8f13fU, 0x3bbcda97bd12627cU, 0x3d01d138bbaf022fU, 0x3d4d8f80bc96a9d8U,
  0xbcf35af0bc074e3fU, 0x3d88ff223d550417U, 0x3d8580813ad34018U, 0x3d837d133c674328U,
  0xbdad2bc53bf467d9U, 0xbc8f689dbd0a0265U, 0xbd57c14cbdc9cc18U, 0xbccaba7dbc3c7466U,
  0xbd641c8abd1e57c1U, 0x3d0fbf48bd95d84cU, 0xbbb633543a55421eU, 0xbd3864acba81b212U,
  0x3d405cf3bce880f6U, 0x3d05ee443cb8fc95U, 0x3d310e98bd992b2fU, 0xbc2edcf0bd2143eeU,
  0xbc2748a73d1755f0U, 0x3cbd11e73d099f83U, 0xbc5ab9cb3c4c9edbU, 0xbbc74c61bd289401U,
  0xbcd733bbbd095badU, 0x3d1309e23d758360U, 0x3b552075bd972226U, 0xbd8f713a3d3c4f8fU,
  0x3cdcea6d3d0a4b62U, 0x3d6945e43cf4743bU, 0xbd461e4ebd9803ecU, 0x3c31c652bca03c13U,
  0xbcee49fb3d8bbbdbU, 0xbd80cef93d17db00U, 0xbd5bb1dcbb495146U, 0xbce59b3b3cf5db1cU,
  0x3d1fc586bce798b7U, 0xbd97613fbc8a7357U, 0xbd9ce27cbd722f04U, 0xbc92d0eabd85ad57U,
  0xbd0f1fc8bcd73199U, 0x3c742b143cb591dbU, 0xbbbba25bbc0da5b2U, 0xbca0fd3c3d6137edU,
  0xbce03614bc84f42dU, 0x3d9001303d33f7f2U, 0xbd576bec3b10a413U, 0xbb6b0870bd2123d8U,
  0xbb9b7955bd86a9deU, 0x3bc24486bc956892U, 0xbc66f6efbdd6686aU, 0xbd424d5ebd87f043U,
  0xbd17f5733cb165b4U, 0x3d3348f13d4751c8U, 0xbc019ef2bbf27b2dU, 0xbd5194ffbc4f5d4fU,
  0x3d626d80bc7a7efcU, 0x3ce0c44e3d70b104U, 0x3c9c5aa83d0d3fdeU, 0x3c26332e3c4c986cU,
  0x3d7ca42dbcce1b2cU, 0x3cfafc5a3c66f69fU, 0xbc1a8741bc12a27aU, 0x3b43ef133c0d6980U,
  0xbbd0da19bc388064U, 0x3d04a4a1ba940cb4U, 0xbc2280383c854866U, 0x3c880824bd6c2cf5U,
  0xbc5f69303ba522c2U, 0xbbfa51ac3d0989b0U, 0xbc903b613c247eecU, 0x3a3161b1bd505323U,
  0xbc052c8b3d5b5c2bU, 0xbc1fe371bcf96648U, 0x3c041a17bd380dcdU, 0xbd3fc960bd33c58dU,
  0x3d277a06bd275c92U, 0xbd7d35343bc1b47cU, 0xbcfc3fdebbb7fd58U, 0x3b3ebce9bc9a911fU,
  0x3bd8a8d3bbbb9945U, 0xbc384bf13d0e1db4U, 0x3d00a460bcf77ddeU, 0x3d10f9f63cefe85cU,
  0xbb97002abdbae718U, 0xbd057dc0bce85cd6U, 0xbd09f389bd2eff65U, 0xbc0bd5e83cc51805U,
  0xbc27ee2ebc1125fbU, 0xbccdf9f0bc622165U, 0xbb9c8929bc3802daU, 0x3c0c494e3d0ac451U,
  0x3d11f846bc2dbeb8U, 0xbd888a863b7edcecU, 0x3be5d4e1bc9975f3U, 0x3c8f7066bd00743bU,
  0xbc15dca0bd936750U, 0x3b277f4cbc8a07ecU, 0xbb923a68bcd104b2U, 0x3d0f18a3bc36bad1U,
  0xbc788aebbb5f7533U, 0xbd4eba6cbd9fc9d6U, 0xbd3c0492bd774f33U, 0xbe255a16bc8a9ee3U,
  0x3d7ac9873d2776d8U, 0x3d446596bcc54bebU, 0xbc2e56a7ba9e891fU, 0x3d8086a5bd200d9bU,
  0x3d0d9cba3a12541eU, 0xbc92b9ab3d0ef719U, 0xbcc9cb3ebc1c156cU, 0x3d0a0bedbc133d24U,
  0xbd1a47d73c2d8552U, 0x3cbedb18bd5124cfU, 0xbc0c4a13bdb4077fU, 0xbda19f6dbcfed60fU,
  0xbd9c33e1bdd06519U, 0xbdad90523cbc4977U, 0x3c9df820bdc1ac3bU, 0xbce741a6bca31782U,
  0xbcef5963bd01f650U, 0xbd5441093d0b5f23U, 0x3d3d8295bbe2a9b3U, 0xbda26312bc2758daU,
  0xbc518f633cbd4667U, 0x3cc957323d100a6cU, 0xbcf9fe02bd20e115U, 0xbbc59d85ba928135U,
  0xbc5dc36bbd897abfU, 0x3d8067d9bd03a5abU, 0x3d47302fbd821274U, 0x3d4dc1a2bc2c4d84U,
  0xbced3f13bd379bb8U, 0xbd47da0c3cc69b00U, 0x3d53ed6abd43bc41U, 0xbd0152403dc5724dU,
  0xbc27d4aebc90de03U, 0xbd7338a4bca11aceU, 0xbc081411bd634fe9U, 0xbd2386733d241cd6U,
  0xbd48d3d33c4ecd59U, 0x3c50c4ec3c237299U, 0x3b767de8bc559f56U, 0x3ad78d23bcefec89U,
  0x3d0f17f8bd212154U, 0x3c92059cbcf59716U, 0x3c73c39fbd6a68cbU, 0xbd8b5fcebd6455abU,
  0xbc9a7e55bba94d71U, 0xbcc29d2dbd48223eU, 0xbdafb861bdb7f5e6U, 0xbe11a84b3c65fd86U,
  0x3d0811053bc3fdf3U, 0xbcac60c7bd838006U, 0xbd6603d2bbd149a2U, 0xbc160af0bcb05b85U,
  0xbd446d8cbd09374bU, 0xbc0ecfbfbb977c67U, 0xbd44e5fb3d99aaedU, 0x3c685404bc155298U,
  0xbd78d3b1bd3a7ac1U, 0x3c898f63bdc1f405U, 0xbc44909fbdcd7496U, 0xbd28dbf9bda2ca36U,
  0xbe1f0c11bd8997ffU, 0x3d013d4b3b3a46c6U, 0x3cfeaae5bb216c5dU, 0xbc25235a3c8751aaU,
  0x3d1acc2cb9a7d8a4U, 0xbc458f3dbc99a9bfU, 0x3cf8f7793c82d05cU, 0x3cd982013d85bb82U,
  0xbcfee4e9bcc1656eU, 0x3da4c9c1bbd2b0f8U, 0xbd68ba40bd4feabfU, 0xbd035bc6bd26ec96U,
  0xbb8105513d292af1U, 0x3c87774d3ccae122U, 0x3d48be16bd975499U, 0x3c811472bdc65a74U,
  0xbdbc1123bd08d663U, 0x3b1cf4f43d18f7dcU, 0xbd8c6d8f3cf8da71U, 0xbd02bb083ca9662dU,
  0x3b3c1592bd039b03U, 0x3d1bba85bc0e9f0aU, 0xbcca10573d32cd85U, 0xbd16a0133c8268acU,
  0x3d423a6fbd80cce8U, 0x3dc1c4f1bd7dc1d2U, 0xbc4c2e80baf2d67fU, 0xbdad48f3bcfcc31eU,
  0x3ac80cecbcec4ef7U, 0x3bad3d0a3d134d57U, 0x3cc230c4bd852a2cU, 0xbc9f9a9bbd3d8479U,
  0xbc0f6cc43b9f0ce2U, 0x3d4adf67bad274feU, 0xbd982d543d807fe6U, 0xbc8c8dccbd20acf4U,
  0x3d5dfde2bd15bb27U, 0x3da6d844bc40358eU, 0x3c85833e3d4be226U, 0x3d1772253d32c096U,
  0x3c2ca0f1bd512046U, 0x3c06b2433bb98906U, 0x3c8485b6bd89ce36U, 0xbd81e1bfbd63fa63U,
  0x3c4f89ecbc61e9fbU, 0x3d01cf803c8b5deaU, 0xbb0102debcb39a0bU, 0xbcecb7e8bd4a3bb9U,
  0x3c1ae2533c096f22U, 0x3c861bf93d1a9208U, 0xbca8c6e5bd2fb3a8U, 0xbc21ac04bd1ac4b9U,
  0x3d3e0cf3bcbf2b30U, 0x3cf9d1153d103fe2U, 0x3d82f6d03cc5adfaU, 0x3d7cec86bd4e4c55U,
  0x3d48131f3ba5ab3eU, 0xbd191b813be09b6fU, 0x3cd3bfd7bc656ee6U, 0x3bb5837dbbbc8136U,
  0xbcfcc1ddbc0a8d6cU, 0x3b603e0f3ad08f55U, 0x3b55d3163c27d8fbU, 0x3d395677bc3a9789U,
  0x3b80170f3c59b95fU, 0xbd5111a0bbc1ebdfU, 0x3c9b8f23bc275626U, 0xbcb4d69b3c97fae8U,
  0xbc0395dabdaee685U, 0x3be8e627bd0e42f8U, 0xbd5090ec3ca69712U, 0xbbbdc5dfbcfba7acU,
  0xbd268054bca8bf12U, 0xbd2fe670bc8bd8f2U, 0xbc576d11bd05a4c0U, 0xbc603581bdd677d3U,
  0x3d09954dbc0fdf03U, 0x3d0a79e0b99cfdaaU, 0xbbf265673b25b057U, 0xbc9332c93a59d998U,
  0x3d3d97d63c81f728U, 0xbc2db877bd8f7641U, 0xbc192c67bce0f6d4U, 0x3d36ec2b38b203f2U,
  0xba9c5b64bd3ac58cU, 0x3c911371bbcfbf5fU, 0xbd0729c63c3e8e7bU, 0xbc66c348bc544d73U,
  0xbd0a1838bd171317U, 0x3d975c83bdcf2f3aU, 0xbd1f38b7bd90fec7U, 0xbda7d6cebdddebeaU,
  0x3d1d27dfbd1140fcU, 0x3cf63be33c8a34f2U, 0xbbaf4501bdaec45fU, 0xbdb334e1bc49b042U,
  0x3c47967c3ca3d32dU, 0x3cf98829bdc78938U, 0xbce2c73fbced5562U, 0xbd095b63bcb8e99bU,
  0x3bf8c46abc142d05U, 0x3d339273bbb54257U, 0x3c954e7a3da1ce9eU, 0x3d5ab82a3ce7c26aU,
  0x3d8ca543bc25b13cU, 0x3ba25c253cf3dcd8U, 0xbd10750e3d374567U, 0x3ca519c23d1de824U,
  0x3d38bdd5bd5f967bU, 0x3c5f41243c31d766U, 0xbbd055cbbda49a36U, 0xbbba2e6fbbfa9912U,
  0x3d36e3953cce15ffU, 0xbb9e33e1bd388070U, 0x3da766853c2403adU, 0x3c6de97e3d4a8b53U,
  0x3c3ce717bd5b8d2cU, 0x3c7585f03cdf59fdU, 0x3d7b98a23d7fe29cU, 0x3d6d9a9d3c012254U,
  0xbc43fea83dbb9c97U, 0xbcf109433d541b27U, 0xbc74cf203c4953c1U, 0x3d30a976bcee9d5dU,
  0xbd815b85bc154572U, 0xbd5c66ac3b04cf59U, 0xbd416774bc2e807cU, 0x3cb126ca3875c8f1U,
  0xbcc75ad2bbc91624U, 0x3c969bffbd27a76eU, 0x3cb58fbb3c871701U, 0x3b263caf3c76ca58U,
  0xbbccc94e3c8fa2ddU, 0x3cfd92883cd222b2U, 0xbdb208bdbc80f41cU, 0xbd2f7bebbc956af6U,
  0x3db6bfc1bd1ecb11U, 0xbd5e43d2bb6f262aU, 0x3d7351073d29ea70U, 0x3c9c3ebdbcb81274U,
  0xbd7303d43a08f50bU, 0xbd6d32dcbc8534beU, 0xba85931ebcd46158U, 0x3c084d263b43a84cU,
  0xbcd8133abcbde80eU, 0xbbe0f4b3bd842bc9U, 0xbcc06e20bd20fb07U, 0xbd123f19bc290a2fU,
  0x3c2ff11fbd134a51U, 0xbc5f8aec3c4fdb21U, 0x3b8193113be8bb6cU, 0xbc0d2ccd3c062887U,
  0x3c01c7ba3d3fe17dU, 0x3d0525b03d292501U, 0x3bd77022bc666691U, 0x3d47c905b8eca151U,
  0xbbde686bbccb533cU, 0xbc5d0505bcaa97d7U, 0x3c00a0de3a169094U, 0x3bd0a94339d0475aU,
  0xbc9e5403bc0ebd0cU, 0xbcf85cdf3be70a4fU, 0xbc065b06bbab5559U, 0xbc40e9b03ca7f72bU,
  0x3c4e2e793c07f8a4U, 0xbbf78a2d3bcb78c4U, 0x3cb1cd8c3ce4a084U, 0xbc3720afbc377ba0U,
  0x3c5ebb8b3cef694dU, 0xbc245e983cd8c56dU, 0xbcc80e963d04cdabU, 0x3d02d61e3c66bf2cU,
  0x3c06cbc2bc921362U, 0xbbb3c190bd0a662aU, 0xbc054a0c3a0e42faU, 0x3c03acb9bc70735bU,
  0xbcd2559bbc0ffe03U, 0xbd15e95c3c52c942U, 0x3c4cfc893ce9528aU, 0xbcb11e2e3b1522d0U,
  0x3cde3a993cbab1a1U, 0x3c6eafddb921c87fU, 0xbd0413373b8df7f4U, 0x3b5f1a2a3cd46516U,
  0x3c1dc78e3bcbf339U, 0xbcced5d63c8d3dccU, 0xbc47d225bba9cddbU, 0x3ce57d6e3c6e9f05U,
  0xbbe654ef3ad7645cU, 0xbc995890bcb9b1d8U, 0xbcbf875d3c272177U, 0x3a94302b3c57f173U,
  0xbc1fa23fbbe39e53U, 0xbc14f0e0bcb59e7cU, 0xbcfd61773cc3bc9aU, 0xbd18169839cdbddbU,
  0x3cb3c9163d115845U, 0x3b3a2e5b3ba54942U, 0x3c0a9d13bb7afddbU, 0x3d280c14bc49984bU,
  0x3c81aaa73c981321U, 0x3ba81a283cfbcb37U, 0x39ea7c25bc6dd20bU, 0x3cd7ed083cd90d1fU,
  0xbbfd03273b167eb3U, 0xbcc04b4bbbb82228U, 0x3c8368fb3bf8e8aeU, 0xbbbf566ebd1490e5U,
  0xbd067533bbddbda2U, 0xbc7a5addbc9ebb47U, 0xbcc73fc33ce59d82U, 0xbd6bacc53c0e4b81U,
  0x3d462d6d3ba1e03eU, 0x3ca572d23c3eef08U, 0xbcbc50fa3cad8802U, 0x3d62fe913bc8d1d8U,
  0x3d074834bc26ab4dU, 0xbcc259b63d1b9f15U, 0xbd1df44f398a94bdU, 0x3cf05f67baa6477eU,
  0xbd4719433d19bc9eU, 0xbd8edd1cbc966cf0U, 0xbc781cd4bc1d1097U, 0xbb91b8e73bbc5f2bU,
  0xbbe9f379bc3ad481U, 0xbcc1773dbb3460a8U, 0xbc1879273aa420c7U, 0x3cefdd8d3a820c7dU,
  0xbc099363bd1f8119U, 0xbbfcbdc13c30a0d2U, 0x3c4e5dfebbed410aU, 0x3b74c9e73d06300cU,
  0x3bdc1cb63d699ff7U, 0xbcd5a6cf3d0d18f2U, 0x3d1d3a22bc9c6607U, 0x3c2b66ccbc3c286cU,
  0x3c14670abb26d69fU, 0x3c94523a3d36f8c4U, 0x3b6f8dd1bcf8cd11U, 0x3cd7d1843d1ddadcU,
  0x3adbadb83bcd89b2U, 0xbbc8fb0bbd3fbcc6U, 0x3d247a61bc499d76U, 0x3bd56505bc02231fU,
  0xbb0623583d1b8e87U, 0xbc908dc7bcc8aef6U, 0xb94415013b86592fU, 0xbcb4302fbac59342U,
  0xbc6b30023c9faed6U, 0x3cb43acc3c6f4c6fU, 0xbba79b283cd0c039U, 0xbb83c76c3c0171eeU,
  0x3d49b1603c192392U, 0xbc2fa3843cc8af5fU, 0x3cb99f3cbc6fb181U, 0xbc8e0eddbd49f511U,
  0xbc5504453ac8e2b6U, 0x3c41b7aebcd86726U, 0x3c24900fbc4346d9U, 0xbc3c4e25bc6fe038U,
  0x3cf465e43d161061U, 0x3bce550b3ce2e322U, 0x3cf3af9d3cc61029U, 0x3d19bb0d3a30f8a2U,
  0x3c2825223bd79fb8U, 0x3ca29b823c895e09U, 0xbb2837ae3bdb64a3U, 0x3b253870bcb6958cU,
  0xbccf85ee3ca7c1a6U, 0xbcbd0480bc580c4cU, 0xbc0183593d02262fU, 0x3c96a64c3cd02941U,
  0xbc1b266dbd07dfb4U, 0xbc000b8cbc741fb4U, 0x3d34c754bc42078bU, 0x3c932cb03ba5821cU,
  0xbcb61aa4384e4638U, 0xbd02464dbccc888dU, 0x3c1369e53bc57598U, 0xbba87cddbca9e31aU,
  0xbcfe1ebabcc2996dU, 0xbcf20a70bc1caf11U, 0xbce4f4d23bef3d6dU, 0xbd0a0349bc9039b0U,
  0x3c0265213b822107U, 0x3bd4b4283cb005d7U, 0xbcd59b5c3c018875U, 0xb82a53c3bba54f05U,
  0xbcab1cd9bd13b382U, 0xbd03cbf63c00e8ceU, 0x3cc72780bd631b92U, 0xbca0c677bcc8464cU,
  0x3e111ea2bf800709U, 0xbeccb25fbd8bebecU, 0x3e624595be8729fcU, 0x3f01de60be35419dU,
  0xbedffde0be43796dU, 0x3efc2d163e99a633U, 0x3f4400f1beffff17U, 0xbe82da01bd855a6aU,
  0x3d5b3b65bcd67a68U, 0x3cd3b97abc211690U, 0x3d08b2953c813c0eU, 0x3bb91768bd4a8fc6U,
  0x3d643aa3bc22e140U, 0xbb587760bd34679aU, 0xbd19af393d66bae9U, 0x3d2f9e05bd28f902U,
  0xbcfe2f0dbd2f10e0U, 0xbd5b3cf83d2d2c33U, 0xbce8cf423d4f15e1U, 0xbcc7c4a43b8a8c58U,
  0xbb3bb6703d3e9749U, 0x3d454359bd1ac114U, 0xbca379de3ca1dbeeU, 0x3b630690bd3c7c17U,
  0x3d274279bcf19b4cU, 0x3d63ef693cfd45ceU, 0x3d0d71b5bc1d0b04U, 0x3c8e25463ba29f48U,
  0xbcda0074bb96d958U, 0x3d636b77bd6b6b17U, 0x3b50ca90bc7400b4U, 0x3d777f1d3d5528b9U,
  0x3ccfd28abcb8e2ecU, 0xbd28cc443cf751e2U, 0x3ca63d7abd0affc7U, 0x3d74cb7d3d6d98b7U,
  0xbc9b1f1abcdff056U, 0xbb8ac400bd608369U, 0xbd5bf95cbc2de98cU, 0xbd20a9863b108ed0U,
  0xbd5754343ba0d7c8U, 0xbd4cc49e3cbc2ce2U, 0x3d756a4fbce64eecU, 0x3c825a06bd4c9dcdU,
  0x3c458a6cbd5b57e8U, 0xbc075bc03d6ba7c3U, 0xbc7b0b78bce14f52U, 0x3d46c68d3c81e70eU,
  0x3d4ab7633cf085daU, 0x3d34857fbd445117U, 0xbcfbe9883c84746aU, 0x3c4a27dc3d6ecef5U,
  0x3d2fa4b7bc9b7d84U, 0xbccce3bcbd1ce94cU, 0x3cb6c6c23d50a5c1U, 0x3d627955bd680935U,
  0x3cff18d63b97a528U, 0x3d34f46b3d75682dU, 0xbd385d103ccd2232U, 0xbcf709d23d73404bU,
  0x3d178c1f3b1eb970U, 0xbd4bedb33d12f8bfU, 0xbcf795aebd4809c3U, 0x3c44a40c3a541300U,
  0xbcb872143c9f61aeU, 0x3d6fd491bd49fb86U, 0xbd29851dbd5f10bbU, 0xbce01dae3cffd2d2U,
  0xbb376770bd20b108U, 0x3c8beb5ebc9ec51aU, 0xbd124ab4bc91cbfcU, 0x3c74c8ec3a4d1780U,
  0x3d36770fbc97bb68U, 0x3ca586cebd6e88e7U, 0xbd22d026bc78a8bcU, 0x3c9402b2bc40e37cU,
  0xbd2058ffbd508a16U, 0x3d29ce51bca67078U, 0xbc5fd3b4bd1461abU, 0x3cce848a3d310e5dU,
  0xbc99b9de3c9c21ceU, 0xbcdb0af4bd5789f6U, 0x3d65e6f13d0a2f07U, 0xbd4f33bebc636424U,
  0xbd621950bc634468U, 0x3d5e2ea93ce527caU, 0xbc540dc8bcfc82daU, 0xbd29567cbb959870U,
  0xbd0973a6bd280d0aU, 0x3d56d695bc4f579cU, 0xbd2a60dc3c850842U, 0xbd50426fba964fe0U,
  0xbd099f06bd0ef30dU, 0xbd579c9abc863728U, 0x3c9aa7aebd69aca6U, 0x3d1db6e7bb698190U,
  0xbd5b53bcbc7db96cU, 0x3bb78e683bff9618U, 0xbd5f73c7bb9de948U, 0xbd571306bc0f1ad4U,
  0x3c34649cbcfcf28aU, 0x3d58d31dbc6b5dc0U, 0xbd039b003c7a4c54U, 0xbb2f80d03ce502d2U,
  0xbba698303d5574a3U, 0xbd2e3b5bbc47cc50U, 0x3d46fb77bcd5ef10U, 0xbcbad0babcf079fcU,
  0x3ceb38963ccfd19eU, 0xbd10eab53d615e71U, 0x3cb2bf8abd22a470U, 0x3a84f3a0bd695378U,
  0x3cc1bf92bcd0aa72U, 0xbce25ebabc3b4bd0U, 0x3b55d8903c464af4U, 0x3d5f456bbd1ea588U,
  0xbce473cabd234ccbU, 0xbbd89b303c71f6bcU, 0x3d459d8f3c6060f4U, 0xbcf3d138bc41a9e0U,
  0x3d3eae313ccd181eU, 0xbbea95a83d5380c3U, 0x3d5b074dbd41d886U, 0xbd541bc9bd3630a8U,
  0xbd058e74bd4113aeU, 0xbc3c1c90bd2477fdU, 0xbcdfe5e23d30bdd3U, 0xbd0f701cba40ce40U,
  0xbd14c57e3c31e81cU, 0xbd132e823d737e0fU, 0xbd2b75433b97b738U, 0xbcc47c143cae3a1aU,
  0xbcdd89383c60459cU, 0x3cb3dbc63d136fbbU, 0xbd262753bbaf55d0U, 0x3c54a2a4bbb728b0U,
  0xbd743a063cad93baU, 0xbcd66aa8bce47a46U, 0xbb8121903d204ae1U, 0x3d3587613ce74d8aU,
  0x3d39e2473cfe63eeU, 0xbc0b9df0bd3dbffcU, 0xbd6f0ec33d1654c5U, 0xbcf2fa9e3d78b55dU,
  0xbd2b4800bc8b7984U, 0x3a6ec40039d3fb80U, 0x3be85bf83d05f335U, 0x3cb06fba3c0b26acU,
  0xbb44c560bd68e19bU, 0xbce9a632bcff3d2dU, 0x3c81a3a6bcc19bb0U, 0x3cf14576bd6700b4U,
  0xbd63f679bd69cbabU, 0xbd0e91a63d4e8b0bU, 0xbd641b57bb2e5890U, 0x3d1f3ab33d443181U,
  0xbd3e51e4bd7507acU, 0xbcc34c0e3c2e1b7cU, 0xbd24676c3d403935U, 0x3d765f7d3cdf63f6U,
  0xbc651868bd7686f2U, 0x3ca8267a3d012519U, 0x3bd148d83bf12db8U, 0xbc8a243ebd0a34ebU,
  0x3d6447eb3bf11888U, 0xbc57d46c3cc17042U, 0x3c89109a3d3019f7U, 0x3d622b9bbd6956daU,
  0xbd06a77b3c878c9eU, 0xbc54c658bd589f61U, 0xbd3eea033c89280eU, 0xbcd867f63d35325bU,
  0x3d18b77b3d0a966dU, 0x396fbb00bd3e2ba7U, 0xbc908352bd63ff00U, 0x3d21c1653cd17b9aU,
  0xbc14f4a83c05e60cU, 0xbd74a7e63d502efdU, 0x3cdf045abcb8f358U, 0xbcf3c8a23d726b4dU,
  0xbcdb627ebd42edcaU, 0x3d5223b73ce706daU, 0x3d04f75fbd067560U, 0xbd32488cbcbe3d22U,
  0xbd0a2478bc94a65aU, 0x3caa2a0ebd19d509U, 0x3b5be6f03d7403dfU, 0xbd354792bc0a2724U,
  0xbd2cc67c3d60e7adU, 0xbcf34e223d317361U, 0x3bf588b8bd23cfdeU, 0xbc96790c3cc12332U,
  0xbcff01353c85087eU, 0x3d0bc743bcded7baU, 0x3d5245a1bd0310f0U, 0xbcbf97123bd69008U,
  0xbd0456c43b87c818U, 0x3bf6cf383d29fa93U, 0x3cae15c6bc46e094U, 0x3d66e367bbb6b8f8U,
  0x3c5e24ccb9b4d700U, 0xbb1fcac0bc1300ccU, 0x3d0e7cff3d6a1b83U, 0x3cbbca423d27e617U,
  0xbd1b00013ce76592U, 0xbba4bda8bcf8c012U, 0xbba8f8203c426714U, 0xbc6db3a0bc889c78U,
  0xbd0bf43e3c88559aU, 0x3d5322df3ceacd7aU, 0x3d63b1273d2b6617U, 0xbd26bd40b93ff100U,
  0x3ccb4036bc51b088U, 0xbd4f7e843c713064U, 0xbb9655683aa672e0U, 0x3c467accba1ff340U,
  0x3d0eacf1bd2135ebU, 0xbcdb38563cddc90eU, 0xbc0124f83cf2ec06U, 0x3d27aeabbd0d2ca4U,
  0x3cb91a5a3cfb905aU, 0xbd066f4d3cab1f4aU, 0x3b41a5f03c13d054U, 0x3d138adfbd0c4f20U,
  0xbc069220bd63b90eU, 0xbd1d97cebc01598cU, 0xbd3a803bbd00a0f9U, 0xbc903afcbd55d6aeU,
  0x3d24bafbbcf941aaU, 0x3ce5b47abcc67cecU, 0x3c4a068cbd143c6bU, 0xbbb70060bd4b8c8aU,
  0xbccb66703cf0c196U, 0xbc1c91bc3d3aadc7U, 0xbcb7a46e3ca726b2U, 0x3b63c0703ce03d06U,
  0xbd077f543d38a351U, 0x3d30db13bd01deb8U, 0xbd0e2b8a3d5b3e33U, 0xbc86d53a3cf40f7aU,
  0x3cd51a9e3ba685c8U, 0x3d075cc73ca23b6aU, 0xbd1bbd113d0ea4e1U, 0x3d783f4f3d5554ffU,
  0x3c1528bcbd1883adU, 0xbcebd9c6bd503006U, 0xbaa015603cbf5deeU, 0x3d57439f3d05e7ebU,
  0xbc424c38bb971a68U, 0xbc5782ecbccb9e9aU, 0x3c84e24e3d527cc7U, 0x3cf3c88a3d2d817dU,
  0xbc9e4ed6bd3bb00aU, 0xbd729a0ebcca61c0U, 0xbcda6f0c3cfd30c2U, 0xbd3afa0b3d3a7181U,
  0x3d6fe9d7bd609328U, 0xbd4ff270bcab9386U, 0xbd39cffdbd14f723U, 0xbcbd2a42bd592de8U,
  0xbbaa4b083d43ac8fU, 0x3d698f9bbc9119d6U, 0xbd5db048bbc276f8U, 0xbc9546e4bd1ca19eU,
  0xbbcd2ac8bd68b49fU, 0x3bb30528bba13170U, 0x3d1d304fbcfb0a48U, 0x3d58404fbd285486U,
  0x3d75e169bceec5f4U, 0xbce16f5cbcc1aa2eU, 0x3c8e0e72bd31cb00U, 0x3cc118523cb0287eU,
  0x3ca05e263cc6d27aU, 0xba4bf0003d66aeddU, 0x3d683cff3d4257c9U, 0xbc7ad7d03d24b7adU,
  0x391b5500bcb4dcf4U, 0xbd22f804bb4bf770U, 0x3a61d640bd12b232U, 0xbd3fe0263d1bbb39U,
  0xbcd42be63cc4ca3aU, 0x3d5f21553d4330bdU, 0x3c6e26a4bd2d949aU, 0xbd0562b7bb8baf60U,
  0xbd73a13cbceca8daU, 0xb9c9a2803d38013dU, 0x3b5d06503d1205fdU, 0x3bcf8c483d4bafc3U,
  0x3d375a17bc580b30U, 0xbcc3dd08bc645f68U, 0x3c2389ac3d6a126fU, 0x3cc91096bd0e8a72U,
  0x3ac92fe03cbd616aU, 0xbcd900763ce5a54eU, 0x3d5dc76d3d13e0f5U, 0xbc9428c63d6a91f7U,
  0x3c409f243ba96e88U, 0x3d2159373d20223bU, 0xbd301e3e3ba08338U, 0xbd350bb83d4580a9U,
  0xbcaff664bb874140U, 0x3ceb18363ca60236U, 0xbd1e3f713ca6679aU, 0xbd7875a23cdc5e9eU,
  0x3ca680163d0d6a3bU, 0x3d3a9b133d76124fU, 0x3c9b5c723d6767e3U, 0xbd520b95bcb9ea90U,
  0x3d2909f5bd6009b0U, 0x3d63d27d3c24fe4cU, 0xbd6baa79bc13cac8U, 0xbb4c20603cad4ad6U,
  0xbc8936403cac8cd6U, 0x3b3dd890bd77664aU, 0xbd61f908bc5252d0U, 0xbcead0a4bd0c74aeU,
  0x3d1d22bd3d3318a9U, 0xbb131ff03c34d9b4U, 0xbce4fed43d17bb6fU, 0xbcc6aec03cb9dd86U,
  0x3d18dbe93cfbad72U, 0xbd00a965bc950a8eU, 0x3ccc02c6bcfc45c2U, 0xbd4d2f2cba4a79c0U,
  0x3d1e3643bcd22efcU, 0xbd7217e9bcb1bb80U, 0x3d6edef9bd3e0451U, 0xbca54b22bc81344cU,
  0xbd78caed3ccb374aU, 0x3d65d501bc99a9c2U, 0xbca365303d1070a7U, 0xbd335f7e3d14b61dU,
  0x3d4b32db3c687494U, 0xbd7298ce3cf89002U, 0x3c99f7d2bba61e98U, 0x3d6a44633c8828e2U,
  0xbcbaec423c3b2d2cU, 0xbd557c063d2f7ba9U, 0x3d10c1a33ad1abe0U, 0x3c9dc42a3cf95326U,
  0xbce9b33abca34a72U, 0xbd0ca9aebd53d73aU, 0x3c4588f43c9879caU, 0x3d3a798fbd697db3U,
  0xbd51000f3d60601dU, 0xbd10f1f03d26933fU, 0x3c4c9f7cbd491434U, 0x3d3494573be71178U,
  0xbcba1b063cf2ea0eU, 0x3c404ab43d73ddf3U, 0xbd1e53bebcb71816U, 0xbcbdef22bcba8ce6U,
  0xbc81ed2cbd2fe434U, 0x3d2b865dbcefa27eU, 0xbc286d483cc81246U, 0xbd7912653bf7d4a8U,
  0xbd455e32bcde8bccU, 0xbd564526bab99b40U, 0x3cd1ba3ebd17880aU, 0xbcda76923c75dec4U,
  0x3ca9fa92bd39301eU, 0x3d48312dbc72da6cU, 0xbc8fe8243ce7c556U, 0x3d3d0815bc62b3bcU,
  0xbd384ed43b961c28U, 0x3d03bcc3bd2d658cU, 0x3c8dc8e63b84d888U, 0xbc8a1f403d73472dU,
  0x3d0678353c6a2254U, 0xbcdb5af83d60da01U, 0x3cf3818a3c05c314U, 0xbd2b78ac3c897b9aU,
  0xbcbccb8a3c86dd72U, 0xbd1ba73e3b194630U, 0xbcdc81eabbe48b80U, 0x3ce78a763d0bda95U,
  0x3c8c9e8a3cc47b12U, 0x3c06029c3d50bde1U, 0xbc15da6cbd1f1e4cU, 0xbce20758bd0bc61eU,
  0xbd79237f3cee32d2U, 0x3d0495fbbcdbd704U, 0xbd0b8e61bc9c82d8U, 0x3d3781afb9d40700U,
  0xbd5417d8bd5ae364U, 0x3bed3ec8bd10f726U, 0x3bf03978bd12e87cU, 0x3bf0dad8bc8bb962U,
  0x3d028095bc7fc03cU, 0xbd18ff36ba509d00U, 0x3d329865bd086efcU, 0x3d0a5d9f3d3e9e37U,
  0xbf0b101bbe82a94cU, 0xbf418d0dbead4728U, 0xbee1f08dbdbf9b30U, 0x3efddbf3be6384ffU,
  0xbe8777f1be8abbaeU, 0x3eb92623be5bc60eU, 0x3dec290fbea8c743U, 0xbf2e01193eb13b2bU,
  0xbce9ca99bd8b5090U, 0xbd9b1fe53d33988bU, 0x3c372c783caecd60U, 0xbe1f4b75bd8c738dU,
  0xbc4c47f23c8387b1U, 0xbdaa73923d7984a2U, 0x3c8634b7bcb68eddU, 0xbe13386dbce2eef8U,
  0xbcc5a62abd162c91U, 0xbb9d0ab83d4124dbU, 0x3c5678bc3c8e455aU, 0xbd4e7ae23c59829cU,
  0x3caeb4fa3d09f41fU, 0x3d04a1bd3c407364U, 0xbd02d7e43d1e5d9fU, 0x3d19d3f1bd4d29ecU,
  0xbcc442eabc403aa0U, 0xbd34c6c03ccf5756U, 0xbd33f62abc85a19cU, 0xbd4b33a6bcac08b0U,
  0xbd389ca5bd48631cU, 0x3d72feedbd140279U, 0x3d70182f3d7238f5U, 0x3cee55e63cba0ebeU,
  0xbd5c9792bcaafe8eU, 0x3c22514c3cc3bc12U, 0xbd0870ac3c5d4ebcU, 0x3d732ef13c0b88dcU,
  0x3ce43fd63b37a070U, 0x3c8a0c4ebd77ed94U, 0xbd77e88ebcc99d18U, 0xbd64af033cee581aU,
  0xbd58966d3d27154dU, 0x3d649d4d3c33c764U, 0x3d42e383bcb8f0c0U, 0xbd566b25bd35ca71U,
  0x3d331335bd22b3d2U, 0x3d408585bd55cf40U, 0x3d201f3bbd69bcd2U, 0x3c9ebef2bce51be2U,
  0x3cc897aebcaaa18aU, 0x3d51e7cf3d141abbU, 0xbd55a184bd14f302U, 0xbd3ecea13cf39706U,
  0x3c87f572bd134b3aU, 0xbcf79bb63d6d5f5dU, 0x3d68f55fbcc332deU, 0x3d0e496f3d73ce83U,
  0x3cac92d23cde3872U, 0x3d035191bd26d762U, 0xbd6f84023c9e42a6U, 0xbbc7e2d8bd42b6cdU,
  0xbcdb221a3ca5643aU, 0xbbd8b4c8bc7683f4U, 0x3c6aa8a43d0c447bU, 0x39c71b803c386bc4U,
  0xbcf97e1f3d3a4a61U, 0xbd555a563ba8ede8U, 0xbd12b0003cad3abaU, 0x3d5330bbbc7a96b0U,
  0x3d3ed539bd5777ceU, 0x3c7944ac3bdca1b8U, 0xbcf515c63d726675U, 0x3c4093fc3cef9eaaU,
  0x3d146f7339621600U, 0x3b540d503d42612fU, 0xbd765dc83cfe546eU, 0x3d5321813c588fccU,
  0xbb766a90ba990e20U, 0x3d23788fbcd6b81cU, 0xbba4e408bcd8119eU, 0xbd26394cbd5d6ff4U,
  0xbcb524aebd3fa161U, 0x3c8e461e3d64f837U, 0xbd5bd7ad3c8d38eeU, 0xbb264320bc521eb8U,
  0x3d526d333d34df31U, 0xbd7095513d3048afU, 0xbd727f6b3c32d2a4U, 0xbc9f66b6bd1f0b52U,
  0xbd248f66bd0f2644U, 0x3d1d407b3b1a06b0U, 0x3d11eaaf3d33a867U, 0x3d0fc07b3d502eedU,
  0x3b9156d8bd2cffceU, 0x3cf1914ebcdc3672U, 0x3c8a6f4a3d6ac87fU, 0xbd3c700f3cdccbe6U,
  0xbc8014723d3dcca9U, 0x3ce5069e3cc2c292U, 0xbd7086073d44162bU, 0x3b169070bc199c80U,
  0x3ce356423c9fbdcaU, 0xbd0f2575bcc82d3aU, 0x3d3e3113bc9d4a5eU, 0xbc84922cbca1ca3aU,
  0x3ca9a58aba125700U, 0xbd2e30dd3bc50ca8U, 0xbb9f7de0bcd4bf38U, 0xbc933f2abd580728U,
  0xbbd7bc40bd552913U, 0xbd4c0a7b3d559b41U, 0xbd77b3e9bccbcc0aU, 0xbd408cdcbd307173U,
  0xbcae60cabc8416eaU, 0x3d3c1c7f3d47ae59U, 0x3d4b6041bce35fe0U, 0x3d48b5e7bd5b55d6U,
  0x3c4dc0c43cf9d1b2U, 0xbcbac5003d48bd5fU, 0xbd54a106bd037e5eU, 0x3d36c7c9bd31215bU,
  0x3ceddf663ba793e8U, 0xbb99aca8bb1a8ac0U, 0x398785003d07e5abU, 0x3c262d74b91d4c00U,
  0xbd0c3512bc8defaeU, 0x3c33ac1c3b0fe530U, 0x3d40053f3bd24e28U, 0xbc295b08bd4a7021U,
  0xbd32c21abd4ec07aU, 0xbd3c469fbd2ef5cdU, 0x3d336a713be531b8U, 0xbd769077bc79f90cU,
  0xbaf01440bcfe0572U, 0xbd66ff83bc154388U, 0x3d1a2465bcf84d18U, 0x3d60c367bc3bbd58U,
  0xbcce04f4bce4c7a4U, 0xbb99fa80bca6b5aaU, 0x3bd0ff48b9001e00U, 0x3cbeeb023d3ccb7dU,
  0xbd36e7d43c767374U, 0x3b0570903d465683U, 0x3ccdff9e3d701777U, 0x3b0b9f30bbc444d8U,
  0x3d73de75bcdcc614U, 0xbca90756bd71281bU, 0xbd3a77d6bd49d5edU, 0x3c8bb88e3d47e763U,
  0x3a8dc9403c1ca52cU, 0xbca0c5ba3d5330e7U, 0x3ce866c23ce4ae06U, 0x3d33c087bc8ea108U,
  0xbce3bc323cc4943aU, 0x3cd81dae3b10d4f0U, 0x3d0ab8bdbbde8b20U, 0x3d070b513d31e0b1U,
  0x3d50d5633d361187U, 0x3d713d85bd39fc61U, 0xbd684d76bd00aa9cU, 0xbcd2497c3b333bf0U,
  0x3c1d9384bc923d78U, 0x3cc92822bc7fae04U, 0xbd04b3823d0a87afU, 0xbd2342fcbb9546b8U,
  0x3c0586c43d6f25b7U, 0xbd1262523d6e34d3U, 0x3c18aadc3d51612dU, 0xbc4e06443cefb80eU,
  0xbca24a4ebcfa8b84U, 0xbd3108563c8ae45eU, 0x3d21ce53bbb88368U, 0x3d00e2973d4881efU,
  0xbc7cb6c83be8c408U, 0xbc87f26ebb0b83a0U, 0x3d43cfc13b5bec90U, 0xbce64d863d178661U,
  0x3d5468bdbd0ff282U, 0xbcc27398bd5f3a23U, 0x3c58451c3ca67532U, 0xbd717065bd385bdcU,
  0xbd5f0fc23cbe5be6U, 0x3cd328faba36b780U, 0xbd28f5723d269bdbU, 0xbd372741bc857a52U,
  0xbbb0f158bd1921acU, 0x3d785a4bbd1aa9d7U, 0xbbe00ee8bb6fd200U, 0xbd49f7a43cfc5486U,
  0x3d668dc1bd5eb33aU, 0xbd02e919bd46b0fcU, 0xbccf3550bb02e4d0U, 0x3ca3ef123d5ef637U,
  0x3d374e0f3baa7b68U, 0x3a46ab40bc955710U, 0xbd0409123b5ea250U, 0x3d03f091bb8b2b10U,
  0xbd4075dd3d6e5341U, 0xbd42b5b83c56edecU, 0x3d001a4f3d1b766fU, 0x3c7a4c343c64960cU,
  0xbcf17a763ad03aa0U, 0x3cb7d532bd77e462U, 0x3d005bd93d684cfdU, 0x3d059bedbb37c1d0U,
  0x3d27685bbc786a30U, 0xbd44ea00bd5217acU, 0x3b835f483ca2a466U, 0x3c1f51e43ce4bf72U,
  0x3d6980e93c9e13e6U, 0xbd6d6021ba93bf00U, 0xbd3cd7d7bd6b0827U, 0xbd17e69c3d4532ebU,
  0x3ca802d63ccb9bb6U, 0xbbbd20a8bd5c2b40U, 0xbd76ea213c3a5894U, 0x3ca07b2ababdd520U,
  0x3cc5c60ebd365e0eU, 0xbd0c4e723d0f9c2dU, 0x3be182383c808a2aU, 0x3c777c3cbbb03500U,
  0x3cdd9ef6bd193aecU, 0x3d5a68c5bd555489U, 0x3d7477173c75e3e4U, 0x3d7039dbbc7fd1c8U,
  0xbca81be83c83cb32U, 0x3d4bc7cfbcaac194U, 0xbcc55fa83ce24c92U, 0x3d57c4ed3c0c6ddcU,
  0x3c2f59a43d4dede9U, 0xbcb10ec0bd25923cU, 0xbd3985303c15094cU, 0xbd6ffcfcbc426ed0U,
  0xbca6131ebd09ef30U, 0x3bfcced8bd373142U, 0x3bdef7683d5626c1U, 0x3c3db99c3d778a2fU,
  0xbc86770e3cceec12U, 0x3a454c40bc25a1d8U, 0xbd0d02bcbd5f8256U, 0x3d49623b3d5b4c83U,
  0xbd65db5ebc305684U, 0x3d1cb2a53c45b51cU, 0xbc9324babc264640U, 0xbd3823c6bcf566e9U,
  0x3d12333f3cc1669aU, 0xbd76afedbd5410eeU, 0x3d3de7dbbbf14960U, 0xbcf1f5f03c9b731aU,
  0xbd5ac5493c50dcccU, 0x3cfd6afebd101243U, 0x3ca000fa3c3df66cU, 0x3c9bbe6ebc8cef60U,
  0xbd4b1017bd0bf752U, 0xbb690ab0bd07fe24U, 0x3d234791bc223b70U, 0x3bb7fa98bd553898U,
  0xbc0f2050bd0886f0U, 0xbc37a428bd514ebfU, 0x3d6b4a273d2e1195U, 0xbc40befcbcadc584U,
  0xbc2f0b243cafa416U, 0x3d10e095bd6aaa7bU, 0x3d69eabdbc468034U, 0xbc1a0420bc583bacU,
  0x3ca37c26bc7aba24U, 0x3d12378bbc7f54f8U, 0xbc918bb0bd7041b2U, 0x3d40fbb1bc39f798U,
  0xbcc8e0eebd1e1e17U, 0x3cfad8b23d6a9845U, 0x3c6a712cbd1395b2U, 0x3d3b928f3d462857U,
  0x3cdf475abd113684U, 0xbcc82f1e3d4f1981U, 0x3c0312ac3cf6802eU, 0xbd56a80bbd15b596U,
  0x3d21b879bcef4dccU, 0x3d37f5bdbcca6800U, 0xbd726a1dbd0963fbU, 0xbd20b4663d62b3ebU,
  0xbd5e12acbd62e82eU, 0x3c524a943c60a244U, 0xbd1942b8bc8b1162U, 0x3d22c163bce72714U,
  0x3d67fcd7bcd74732U, 0x3ba532d8bd0b96b6U, 0x3c9ebf223c80c46eU, 0xbc46f8743ccf6f86U,
  0xbd781b86bd01cb90U, 0xbd30c32ebd19c22eU, 0x386c8800bc5331e0U, 0x3b462210bcf6a854U,
  0x3c2178343c1af00cU, 0xbd3753673d504d71U, 0x3c5cb5f4bd6e7f09U, 0x3c48917cbc2dac24U,
  0x3c2fda5c3ceed86aU, 0xbc5b36543d4bed23U, 0xbcc9ff02bcb93206U, 0xbd0567703d2dcdf5U,
  0xb99ade003d0c9fc3U, 0x3d7518abbd1497b6U, 0x3c6fc9ccbd581d2dU, 0x3c991c6e3bd1fe68U,
  0x3ce7a4febd40e86aU, 0xbb709340bd0f3ae6U, 0xbd5edb7e3c39dcccU, 0x3d42e6e93c80ce6aU,
  0xbcca0daa3c0971bcU, 0x3bc874c83d657695U, 0xbd78489ebd39fe60U, 0x3d5fdcfdbc72977cU,
  0xbd737df3bd1263a2U, 0x3ce2c26abccef846U, 0x3c31540c3d76383fU, 0x3c42e364bd5a830eU,
  0xbd2b7432bd030ad8U, 0xbc89ad56bd2816c2U, 0xbca6a964bce29eb8U, 0xbd4199573cd81962U,
  0x3c2bdc1c3ca26976U, 0xbaafa5203cf73262U, 0x3c9bae1a39cbba80U, 0x3d758931bc01c980U,
  0x3cd12a06baa418a0U, 0x3d409e1d3c0a859cU, 0xbd23f690bd11495aU, 0x3d06d425bcd5e8d2U,
  0x3d06cb453c1b055cU, 0x3d5bd375bd2e55c4U, 0xbc9016683d39058dU, 0xbc11e9043c934f0aU,
  0x3d3dc0f5bd54e09eU, 0xbb55f9c03cc9a3aaU, 0x3d74e54dbace4320U, 0xbd26c749bcdfdc4aU,
  0xbd3bce393b864b48U, 0xbade69003ce867eaU, 0x3d3970233d658f35U, 0x3d5a44b13d205307U,
  0xbb8bf3d83ad70560U, 0xbc9f19703ceaf9f2U, 0x3caa3f223d2376f1U, 0xbd73292cbc4e5d10U,
  0x3d2358373caa53deU, 0xbd620b61bd2c9ee4U, 0x3d64c36fbcff99fbU, 0x3d05e359bd031c54U,
  0xbd034e81bd75101fU, 0xbd6be5a33cc75996U, 0x3c3ec68c3cebd636U, 0x3ca0ac823d355c85U,
  0x3d2f0ef1bc22e1fcU, 0xbd1a1d503c579d2cU, 0x3d1928153d74ad9fU, 0x3d10e3a73c81ff32U,
  0x3d367761bd184f52U, 0x3c83190ebb4ce820U, 0xbc3d1248bd427d9aU, 0xbd3fae18bc130b74U,
  0x3ba85ed83ca7647eU, 0x3cf8cb02bc84fa66U, 0xbb4e67f03cb9dc56U, 0x3c980d063d41a955U,
  0xbb1eb9e0bd553294U, 0x3c9937aa3cf590a2U, 0xbd2eeb6e3cb290faU, 0x3b921d88bd3eabd5U,
  0x3d3ff6e7bb1fd6b0U, 0x3c26061cbd13c4fbU, 0x3d1fdfd33c38167cU, 0xbd2e1419bd02f1b0U,
  0xbd02adcc3ae64620U, 0xbbb4d5b0bcc134f4U, 0x3d6c0bd13d601bc7U, 0x3d3103913d1b64d5U,
  0xbd16004cbd4b01a8U, 0x3c03ab643d390659U, 0xbcebc0c4bce527c2U, 0xbc82d1823b2e4590U,
  0x3d62e31b3c6deca4U, 0xbd674ec7bd60b994U, 0xbd560922bcd0fe24U, 0xbd1231963ce95136U,
  0x3bf66c68bc8ff730U, 0x3d13f5e1bc704dd8U, 0xbc2b27dcbd744a32U, 0xbc4c7d20bcd15b18U,
  0xbcac78323cc921a6U, 0xbc4ec1f0bcf62250U, 0xbced0338bb46a900U, 0x3d270505bba1ef98U,
  0x3ca0216a3c872d2eU, 0xbd15724ebd39a9feU, 0xbd59428e3cdc14c2U, 0xbd30ebd8bd104b24U,
  0xbca998a6bc897b34U, 0x3c8a97f23c056784U, 0x3d6db4ebbc7efb00U, 0x3c7fb764bd038b64U,
  0xbcec9ddf00000000U, 0x3f13f912beb0a997U, 0x3f38ac793e501176U, 0x3ef709d73eaa7c1cU,
  0x3e5e89ce3e828cadU, 0xbe18c697bddf3b73U, 0x3eabbdb7be02091eU, 0xbd12ea5abd58d9c0U,
  0x3edc5529beba8368U, 0x3ead74183e40f19eU, 0xbd5efe603e26c0deU, 0x3c2c0fc9be6e3acaU,
  0x3e0ce73fbe761fcbU, 0x3f1dec7bbe459203U, 0xbe17ad983e429124U, 0xbeb42165be885ffbU,
  0xbdb6430c3dfd6bb5U, 0xbce37d5bbe43fda3U, 0x3d89f4b1be4e1872U, 0x3bf40405bed1425cU,
  0x3f0735fdbc1fcafaU, 0x3e867252bcfa2145U, 0xbbc273803db72973U, 0xbe754e723e3aaf7aU,
  0xbe10086dbe9870d0U, 0xbe8383c8bd1a45c0U, 0xbe6244a3bc9df330U, 0x3e00282abd70286aU,
  0x3f0c21d33ea868b5U, 0xbe8ca45a3daebc5dU, 0xbe28be1bbe27dc50U, 0xbe43db75bd22bf8dU,
  0xbec9b1703cd5b13fU, 0xbeb9046dbe910af8U, 0x3e9d97a7be118c05U, 0x3e9439ae3eddac7cU,
  0x3dacdb42be426ec2U, 0xbe85d23abdff85abU, 0xbd630e563dc7f612U, 0x3e379f4dbe9b81d9U,
  0xbe796793bc04805dU, 0x3e0e04a7bee094a1U, 0x3e2b22923e417112U, 0x3dc40beabdebb227U,
  0x3e86f5d2bc59c179U, 0x3f11feb83e695269U, 0x3f43e60a3ed71101U, 0x3f200ab8bd00da73U,
  0x3f49cf38bd93350eU, 0x3fa9ad643d8b4c6cU, 0x3fd83ccebfa8885aU, 0x40185b5a3f878786U,
  0x3de29384bfb24c7bU, 0xbe524dd5be557595U, 0xbcf726933f27c3dfU, 0xbec00f81bf58234eU,
  0x3e808dcfbea9c560U, 0x3f85b6fabf32f56dU, 0x3f3ef164bf100009U, 0x3f6f10ca403452fcU,
  0x3e6a696a3edd2c76U, 0xbfd44c663fb224bbU, 0xc02784333e4f0211U, 0xbf01cc5cbf840756U,
  0xbf7abef4bfb35eebU, 0x3fa198233f3a117eU, 0x3fe79e28bfa4d6acU, 0x3eaec5123fd633f2U,
  0x3fecde653ff1b935U, 0xc034e840be8333d8U, 0x3f2026df40050935U, 0x3f6efae73f0fda08U,
  0xbfc433c4bf8c6ad5U, 0x3fa7443f3f837d4eU, 0x3fecafa93eb293feU, 0x3f9719a03f7c1ce4U,
  0xbf08e035be905f1dU, 0x3f4a2c0fbf8ed61fU, 0x3ebe965bbf588680U, 0xbe9ae486bfc030d7U,
  0x3eba2b2c3d71d79fU, 0x3f4f613e3f07600fU, 0xbf0e13423f3c66a5U, 0xbd7440963e0e6524U,
  0xbfa686263d9e6a68U, 0xbf2e4d62bf374ce1U, 0xbff665d13f0fc373U, 0x3eeec94d3aea8d0bU,
  0x3f14d1563f58431dU, 0x3ed48bc53fb9e098U, 0xbf210da83fd69d5eU, 0xc002355bbf58ed37U,
  0x3fdb480fbf939c85U, 0x3fd453a93f2406d0U, 0x3f5424813bb7c9d2U, 0x3f38f2963fcb55daU,
  0x3f80e966bf6f82e6U, 0x3fbb67d93fd4075cU, 0xbf2c4cb53e8aef59U, 0x3f9d5c1bbf192b1dU,
  0xbea68a26be78f227U, 0x3f6a36723fb65b22U, 0xbe9e2d493f50202aU, 0xbeeec194c02d1938U,
  0x3f4464c6bf5797d5U, 0x3f95933dbf0751d0U, 0x3cf455653ed02c45U, 0xbeea8d94bc57d05fU,
  0x3e573036bfb0b36aU, 0xbef9ded03f750ea7U, 0xbf8be8b23fae931bU, 0xbfb8e4853e117730U,
  0x3ed2933fbfdf7fedU, 0x3f194128bf83164aU, 0xbed28239bfa71727U, 0xbf7cc641bd2c8c97U,
  0xbe1a51e6c03be56aU, 0xbe9323f13ea3cff1U, 0xbb8d042d3f83ec2cU, 0x3f8d6b8bbf788829U,
  0x3f90fc86be2fc329U, 0x3f22088dbf8040e4U, 0x3f38befa3fa2ef52U, 0x3f6fbd973dc0484eU,
  0xbfd5a7da3fcba878U, 0x3f5416d3bfa814bdU, 0xbefb996e3f1d8b08U, 0xbff3663a3e00109aU,
  0xbf9e09cdbf6afbeaU, 0x3f1a78033fc0dddfU, 0x3f89958fbe50e00fU, 0xbf39c1aa3fb1318dU,
  0xc006edb4bfd7f4b8U, 0x3ed89ebabe33c8e5U, 0xbebce88bc012714cU, 0xbf3018eac002ece4U,
  0xbf93e6953f299a5cU, 0xbdd9065ebd8d3e68U, 0x3fc9d741bfc3ece5U, 0x3eb353133fa2bfd4U,
  0x3f91effbbfb8d3c8U, 0xbf22c824bf88e396U, 0xbf910185bf5ba3a5U, 0x3f2545a63f0328fbU,
  0x3fc5905bbffbf0a1U, 0xbf8b33603e9cefe4U, 0x3fa03be03fa179f6U, 0x3f9c343f3edc6c0bU,
  0xbfb37a053f7d48aeU, 0x3b059758be4677eaU, 0xbf044829bfa095dcU, 0xbf09d596bf6631dfU,
  0xbfa24c57bf4aa910U, 0xbe689ccf3e72a471U, 0x3fa9ed323fdd72edU, 0xbe16abb53f3be718U,
  0x3dcd1e113e63ec80U, 0x3e45cb89bf0089f7U, 0x3e85f40fc02abf9fU, 0xbeea6d5ebfbb7612U,
  0xbee9dd91bd051586U, 0xbf47d91b3f87a268U, 0x3fb396c740035188U, 0xbedaf0c0be892404U,
  0x3fa6b1b4bfd5b2f1U, 0xbffc13bcbfb481e6U, 0xbf67557fbfbf739eU, 0x3f7a6d9c3ebabddeU,
  0x3cdbc0fd3e2ba537U, 0xbea9f58a3f835420U, 0x3f76bcf8bf992118U, 0x3dc434033f2f8756U,
  0xbf5847983fdb5f90U, 0x3d90011bbf92c091U, 0xbfcbfa2abda28979U, 0xbf6e063bc01faffdU,
  0xbf323704bfc2f945U, 0xbee187083f85a0a3U, 0xbb6642e3bf254465U, 0x3e1259903f927e0aU,
  0xbffc16123fb70493U, 0xbfa6a40c3f2fb797U, 0x3f2c713bbf787f7cU, 0xbeb8dce4bef29a17U,
  0xbf043b43bfcc9563U, 0xbef2b71c3e87fa7dU, 0x3e21b8973f0fdce3U, 0xc00f24963fa2f05cU,
  0xbf3566d93f34e6ccU, 0xbdd7a5fd3e105223U, 0xbea003c23f544412U, 0xbf1485953cfbf44bU,
  0xbf3b9e7dbe80beefU, 0xbfe94b303f98945eU, 0xbe87d38fbfb31c09U, 0x3e6f108dbf54be2aU,
  0x3f527710bfd90b98U, 0x3e3ae6eac00378feU, 0xbfcd4028bfc2fba3U, 0xbf148991bfe92d51U,
  0x3f00abfc3fdd838eU, 0xbd4632d6c035477cU, 0xbf67f9d3c008f8ebU, 0xbcca6a7c3fcf5e6aU,
  0x3fdf21d5bf92c597U, 0xbf0e1b513fadefd9U, 0xc0205ba03fd0f655U, 0xbf8263bc3f53b8b1U,
  0xbf96e0cdbfd68467U, 0xbfc4c005c00b5bfbU, 0xc020cd253e2f3b4eU, 0xbfb36e80c0421283U,
  0x3fb43c6040077febU, 0x3f28fe083ff3d4a9U, 0xbff945a33fb08397U, 0x3f3a90dc3ef76007U,
  0x3f8d5c10bee2d4c5U, 0x3f959ba7bef22837U, 0xbf25d5343eadb741U, 0xbff293d3bd3c6a78U,
  0xbf14d687c000045eU, 0xc07fe4c4c0103fa0U, 0x3eb356ebbfafbe18U, 0x3e35223cbf2aff13U,
  0xbe6d7fd03f01148aU, 0xc00f75f73e22a256U, 0x3e8bad11bfd04700U, 0xc00d7b69bf32af0aU,
  0xbf6a2ac33e3a5fabU, 0xc00f3a173e86db5aU, 0x3f0a0b64bfa9c663U, 0x3f5fe6003f3601a6U,
  0xbf1ebe8d3f1089b1U, 0xc011c1efbf8a65a2U, 0xbf87c406bd2112f9U, 0x3fe49c1dc0351d0cU,
  0x3f87b296be6a3ff5U, 0x3f20482e400d64abU, 0xbfb26d573f0c7b8cU, 0xbe11c946bef700a1U,
  0x3dacbc343fd503c3U, 0x3f758c0dc013d043U, 0xc05c6742bf00241fU, 0xbf88d9fb3eb466e2U,
  0xbeca34e73fe75147U, 0xbfcdcaf7c0224df2U, 0xbffc70a63fa1c9b1U, 0x4020ad26c030e9f0U,
  0x4039634cbf5e4dc7U, 0x3fd6f4b24019deaeU, 0xbe60918ac0151fb9U, 0x3f3fff42bfb818e4U,
  0xbf302600be89d995U, 0x3fc224b8bee3a700U, 0x3f6e113e3fb4ff22U, 0x3fb0e4e5bfd54212U,
  0x3f450a24c011b881U, 0x3f9908adbf5dfc02U, 0xc0340a10c04b6804U, 0xbd879f33bed67f84U,
  0xbf0881d83e9108d2U, 0xbf59b56c3f966a77U, 0xc006c5363faaf74fU, 0xbf4408ecc0166f65U,
  0xc0132af1bf521c9dU, 0xbf036b9ebfc508e1U, 0xbfcf323ec01785a1U, 0x3e2d41d9bf38e7c2U,
  0x3f34d364bf0f2f5cU, 0xbeff10473f008c63U, 0x3efc6fb53f32126cU, 0xbff6301a3fbae973U,
  0x3e794be63ef83686U, 0xbc233496bff311fbU, 0x3f873dd7c023a171U, 0xbfcaa4f1bf5e4bf0U,
  0x3e98e6f13fc59a41U, 0x3e86fc643ff27157U, 0xc00c982abedc4420U, 0xbeadefc7bf002be4U,
  0x3f28d39c3f3a8264U, 0x3fad2238bf6aa52cU, 0x3f9b64b8be1699cdU, 0xbed6cafebf0b7150U,
  0x3f39fb1b3f5a3effU, 0x4019062fbffb9d96U, 0xbf56dffabfb6d803U, 0xbfebb4bdbf5ba3e2U,
  0xbe9ce2783f635605U, 0xbd3d99923f5e34abU, 0xbeaa3420bec0465fU, 0x3e492987c0184633U,
  0xbfbc844cbed3bb51U, 0xbd60fb003e7ab91fU, 0x3ec35ad7bfa47312U, 0xc012c580bfabb2e1U,
  0xbf8fef4dbfd69658U, 0x3d0a4312bee73197U, 0xbf4db8edbf639c4dU, 0xbf38caf03dbf108fU,
  0xbf76eb933e714c5bU, 0xc011ed173fafb65dU, 0xbf2da0f9bcd5f2a8U, 0xbdc23c6abf4d46d9U,
  0xbfa302c13da26a95U, 0xbcf8e497bf91fd2dU, 0xc01c7bb0be0548fbU, 0x3e945ed73f1dfe8eU,
  0xbffdca78bf54d057U, 0xbe8fe100bfa9dc1eU, 0xbfaa896cbfcd6cf9U, 0x3e198bbb3c1348a0U,
  0x3e42cc0d3fd9c5d8U, 0xc0130565beab938bU, 0x3f0236643e030478U, 0x3f9db0c3bef07475U,
  0xc04e2e22bf40efbdU, 0xbf061df8c0025a56U, 0x3fb54090bf464292U, 0xbea21c3bbf3d155bU,
  0x3f608a813f9150a9U, 0x3eed352dbfa059b0U, 0xbcebeca5bfc36202U, 0xbe89c4d73fce0b52U,
  0x3f4ffaedbff0d6d1U, 0x3eb569e3bfc8204aU, 0xbed5d4413f095c94U, 0xbe83f23ec02e24b9U,
  0x404930e33dc4107eU, 0x4017a10bbec501e5U, 0xbfd6a373bfef7f34U, 0xbf578fd2bf0c3322U,
  0x3fcc2daa3f1cca16U, 0x3fb0eee9bdeac77cU, 0xbffe599cbe57fc4aU, 0x3f6fa494bfd20397U,
  0x3f5c0a03bf536961U, 0xbf4621f5bea1944aU, 0xbffa87cc3d9c7fbfU, 0xbeeed25cbd09c4daU,
  0xbf5a6c144016639eU, 0xbee26b7a3f82a3e6U, 0x402491d5c02f6bf9U, 0x3f25a69c3f40bfc3U,
  0xbfc1c328bfaf1cecU, 0xbc221b133efbac64U, 0xbf89e5ac3fa5183fU, 0xbfe0ab8fbf36743dU,
  0xbf2dac00bf57f94eU, 0xbf57d0f33f4983caU, 0x401e6d3b400a33f3U, 0x402b9ab83fa9b41cU,
  0xbf706826bfb92223U, 0x3ea404f53f89db90U, 0xbfb701f63f607f63U, 0xbf9603373d6c44aeU,
  0x3f4243d93e4563f5U, 0x3f97be56bf3d9ceeU, 0xc02efd3f3f251e4dU, 0x4016b7733f4b4218U,
  0x3ff5be9b3f4d4beaU, 0x3f9f88e4401953d6U, 0xbf2a20ea3e1b3aa7U, 0xbeba16263f7b6f79U,
  0xbf85ca263fcd99feU, 0xbee3e375bf63a31eU, 0xbf6fc956c000e1fdU, 0x3f922e5f3ff45709U,
  0x3f07dd4fbf884815U, 0xbf9952263ff86cfaU, 0x3ff31e2b3fad33f6U, 0xc0025953bde7fb4aU,
  0xc021d5ab3cfff2bcU, 0x4003d188c00eb278U, 0x404a57623fb4e28fU, 0x4016046e401e5053U,
  0x4046a6c53e980206U, 0x3d3d0085bd0a600bU, 0xbfbab65abe402d35U, 0xbf54f9a0c00cddc6U,
  0x40522b21bef64047U, 0x3f6336993f8d03c2U, 0xbefba030be93f7dbU, 0x3f9edc763f61d64dU,
  0x3f3711d5bff1c612U, 0x3e33ca13bf1cacbeU, 0x3f0a86c3bf793f9cU, 0x4002e07cbee93755U,
  0x3fc2e84a3e470734U, 0x400b97033ea6f111U, 0xbeb0b4d9bfedb035U, 0xbf8d5e2a401b613eU,
  0x3f90274fbf80a966U, 0x3f6df52ebf02efafU, 0x3fd7d4c2bfa645a6U, 0x3f6e94513f541759U,
  0x3f9b4e653ee74be4U, 0x3f1e61dc3fd74171U, 0x3ffde547402111edU, 0xbf9d61e240761502U,
  0x3e16af0ec009286bU, 0x3f132d68bf48f3eeU, 0x3f66510dc088c408U, 0xbf1fefe1bed205a0U,
  0x3f23b5e93e2c6db1U, 0xbea8b0633f49ece2U, 0xbf4fb3a8400e29d6U, 0x3f8cc1943e8e9c6cU,
  0xbc9ca3e83ea421a3U, 0xbf7bf8a5bf69a127U, 0xbff191a53f847dcdU, 0xbf56574bbf29fd48U,
  0xbf6ae2c5bfbef1abU, 0xbe3b6c833ee64ecdU, 0xbe2d800d3f3f11cfU, 0xbe4125033e339b4eU,
  0x3fa9b0793d6e2403U, 0x3ec40b39bee97d48U, 0x3ff3d85bbf52f07bU, 0xbea80590bf6236d4U,
  0x3f9348d4bfe86005U, 0x3f1aa930bf7c907fU, 0xbf3c37f0bf8676b2U, 0xbfabc9523f04822bU,
  0x3e6e0f68bf2b63a5U, 0xbff31c5bbc55896aU, 0xc011fe66beec990eU, 0x3e05e6d8c004d358U,
  0xbf8d15babf641807U, 0xbf24a391bf15ca54U, 0xbf03884abf2f3176U, 0xc01dabf7bf3255ebU,
  0xbfbb3dc7bf4a1d06U, 0xbf4961cabee58dcaU, 0x3fdca4d1be832c80U, 0xbfcd6b52bfb06bf3U,
  0xbfc7137dbfb24d9aU, 0x3f9c8d863e679343U, 0x3dbe08843f3b9985U, 0xbfbdf513bfee72c6U,
  0xbf28a3243f9fa25dU, 0x3e5889e2bf634c91U, 0x3e4e86c1bf822661U, 0xbf648296bf7a47b2U,
  0xbefc86afbfbb9ce7U, 0xbe8f3ff7bfae2ee7U, 0xbff7db7dbd121d04U, 0xbfe5bb313f9e07e8U,
  0xbee67dc9bed0feaaU, 0xc006cca4bec905fdU, 0x3e585a4cbf0d5f5aU, 0xbe74a17fc0450785U,
  0xbfae1e623ee105b8U, 0xc0092d8dbfc7114dU, 0xbf6dd66ebf99b38dU, 0xbe6690a0bf2a2a62U,
  0xbf3689f63f2a3579U, 0xc062387ebf1aa640U, 0xbf46c1893f517191U, 0xbf5cf155bf78707aU,
  0xbf7f4758be39061dU, 0xbfa572f03e955a53U, 0x3f567100bf096087U, 0xbf7db70b3e0d6333U,
  0xbfcc70303f804940U, 0xbf71fef3bf90f512U, 0x3f9ddfe33fb1e911U, 0xbfb0dd6fbf6098dfU,
  0x3e781d72c013c652U, 0x3fba1f16bf39c070U, 0xbd0f5f82bf90c672U, 0xbf4f7f233e4658f1U,
  0xbe9efb83bdd34060U, 0xbf8c63d1be4e6c19U, 0xc011b7b3bee47e65U, 0x3f0be762bf0d0782U,
  0xbe284a4ebf62e524U, 0x3ffd9683beb0552dU, 0xbeb424e2bfc06d58U, 0xbfca2741bd736dfdU,
  0xc003b4793f2d42b8U, 0xbfc7b4d7bfa67a6fU, 0xbc735e6340155124U, 0xbf5ae409bf89389aU,
  0xbfea2fe83ebc86ddU, 0x40042fb2c03688cdU, 0x3f8b6f4e3e431063U, 0x3ffa05b4beba867fU,
  0x3f701bdb3d55c852U, 0xbeb9bb3f3ef432a2U, 0x3ee5d7c03f8a4bf2U, 0xbf08a8d63f9020baU,
  0xbf8add753f8e314aU, 0x3faecf5dbfd65859U, 0xbed80df13f320350U, 0x3d414d48bfb14882U,
  0x3f49419b3fdcd41eU, 0xbff55fd63d16d769U, 0xbf1f2facbef6e598U, 0xbee236cabdeecedbU,
  0xc03d83953dc0f295U, 0xbf875bbdbf0d07afU, 0xbf703adc3e4b2e2bU, 0x3edb82c2c00d4165U,
  0x3f6099d93f940751U, 0x3eeef471be2bbfb6U, 0x401153d9becd91bfU, 0xc015832a3f88cdc5U,
  0x3fde2ce63ec6ca03U, 0xbfe96cc5c009944fU, 0xbfc03313bf71a6faU, 0x3fd0ad5fbf4890eeU,
  0xbf4440823f233713U, 0xbd90b80d3f9c075dU, 0x3f33013abf73795dU, 0xbfbdca85400512d1U,
  0x3ecbe40a3f71fbf9U, 0x3e8f4bd2c060f44eU, 0xbe30c295404aa7f9U, 0x3ff24660bf28b358U,
  0x3fcb9ab6be1c6eb3U, 0xbffd68db400cd162U, 0xbfdc9e6e3f8c0bbdU, 0x3f931867bf997169U,
  0xbedfdec3bdf92b05U, 0xbf16fc0fbff882cbU, 0x3e06ee25be0d5356U, 0xbdc808d2c021e906U,
  0xbeea36183f2e8794U, 0x3f0c0fa0bf31b279U, 0x3f1691953eee5594U, 0xbdf0948c3f414a01U,
  0x3f8906b9bf12306bU, 0xbfad85d6bff94045U, 0xbf3ded143f37967cU, 0x3e4696b73ea71ca6U,
  0xbe089b69c06d5621U, 0x3f1e320fbf3c1039U, 0xbe2068753d31595fU, 0xbc5023853fbb5832U,
  0x3fa3387fbdeba7d0U, 0x3fc23f523ef7a7caU, 0x3eb78072400b9a61U, 0x3fe8a021bf0d661aU,
  0xbf12e6fbbf1b876bU, 0xbe9b30babe21a279U, 0xc00bd7363da3ab18U, 0xbf21319c3f8bfb8dU,
  0xbf2c3ce4be368896U, 0xbf4d1cf83f792b05U, 0xbf5a676a3ef3aae0U, 0x3f729a66bfc5ab50U,
  0x4010381ebf0e63dbU, 0xbf2262a53d4359b0U, 0xbf92737dbee65860U, 0xbd8d6ddbbfc11664U,
  0xbfaebf03bd6623bdU, 0xbe9c8d67bf951344U, 0xbd109166bfaccf8eU, 0xbfdc1c943f1e418aU,
  0x3eb8123d3f836bd3U, 0xbee22052bf15e361U, 0xbf93ca0b3f2f876eU, 0xbe857319beb2ecf2U,
  0xbf9f1782bdf3468eU, 0xbe4f0fa2bf395eceU, 0xbf208414bfdfd98dU, 0xbf37044bbf167b44U,
  0x3f0baf4a3ea416e0U, 0x3e3b97fdbe2cab17U, 0x3dfc59e0be70734eU, 0x3f10a717beba4a06U,
  0x3f3eed1c3eccf5a0U, 0xbe4e6052bfb743d0U, 0xbe1305723d89e599U, 0xbfd50584bd397bcaU,
  0xbee64cc73ed5f07fU, 0xbfc2c8103f64c41aU, 0xbdb2e3e1bf7596a4U, 0xbe20ed56c0035c6eU,
  0xbeaac072bdfbfa7dU, 0x3e2bb9873ed27c30U, 0xbe232b7bbfd97df1U, 0xbf9c1790bf02b7b9U,
  0x3f1f5b7f3df6da2cU, 0xbe8ab4ebbf8c1641U, 0xbf5c6c873f3b8a22U, 0xbe1b98bebda181bfU,
  0x3f8b89b1beee6ea7U, 0xbd9b90f53f71cd5dU, 0xbf00d1d03f84aa44U, 0xc007a4ed3e20182aU,
  0xbe43506f3efb959dU, 0xbf826c69be913386U, 0x3f02e9223f1f5a8cU, 0x3f2eee1abe7c2571U,
  0x3eaacc6f3f8f2a07U, 0xbf8fcd7bbf1bf0c1U, 0x3e355716bfd6e012U, 0x3f05c60a3ecf4830U,
  0xbf09268fbc51b90aU, 0xbf9490e8be399628U, 0xbeda96483e83e1f4U, 0xbf2616e8bf777d52U,
  0xbf3f208ebf2bd6ffU, 0xbfcaf90fbe29bc61U, 0xbee50837bfaa8ffeU, 0x3ddcb0c0beb16838U,
  0x3f01b6793f04d9beU, 0xbfafaf75bf0967a4U, 0x3f1fb9333f8976bfU, 0xbfed34bdbf9882c6U,
  0x3f3315a6bf487719U, 0xbe5d64763f2de732U, 0x3c858fff3f414302U, 0xbe867d0bbd27fe84U,
  0xbbad84bcbc85c9e6U, 0xc000ba77be4b4d53U, 0xc020b01e3f81937aU, 0x3ecae988bfa8d49aU,
  0xbf103f27be582954U, 0xbf0c35173f800b0dU, 0xbe83f2fec0023953U, 0xbfa556af3cc9a0c2U,
  0xbd910590be1f62a3U, 0xbf3f02efbf363fc2U, 0x4012805c3e223ef9U, 0xbf815574bf354ac7U,
  0xbe70f24c3f99141bU, 0xbfd00fa3bf146983U, 0x3f291ebfc0066142U, 0xbf86294a3e82cd4dU,
  0xbf62b5b73f20c462U, 0x3e3796a8bfb9b826U, 0x3f638fb63f8eb261U, 0x3e9644f3bfce1b63U,
  0x3f9fbdb03d5ca31eU, 0x3fa8e0c0401afe87U, 0x3f87443ebedbf267U, 0xbf85ce3a3f971dfbU,
  0x3eddc7f2bf4a9527U, 0xbeb21e51bfc7df9aU, 0xc05e9edec00abdcdU, 0xbfd0e3e8be9790d5U,
  0xbd16487abecd4baeU, 0xc00f1b2bbe2563b6U, 0xbf42cd19bfb864e5U, 0x3f9b830bbfe2dc2dU,
  0x3f4c0b283fdab3f7U, 0x3f3e04a93ed98166U, 0x3fafbb6a3eee6191U, 0xbd4eca19bfc694f4U,
  0x3cbbc8453fa9289bU, 0xbe9b1fbb3f730556U, 0xbf2f79adc037bbd8U, 0xbfa70c97bfeadc1aU,
  0xc0587ae9be91da79U, 0xbed8aded3fa5fc49U, 0xbf7c5f0040536654U, 0x3f5a83f73dd8f180U,
  0xbfe539e63d9364e3U, 0x3feb696fbeeb319aU, 0x3fc0fde33f69e2c4U, 0xbfcc8f0dbfbc78d4U,
  0xbfa33b99c05d4a97U, 0xbfe2c743becb1659U, 0x3f485c263f94a427U, 0x3fddbd023f13d262U,
  0x3fb87561c03442f8U, 0xbeb535b9c079a7aeU, 0x4016fd8040006292U, 0xbd9cbcfabf4f51c0U,
  0x3f9d415b4045503cU, 0xc0098e37bf7e178bU, 0x3ebc801abfe09e9dU, 0xbedf60e1bf576095U,
  0xc08118d3bf396479U, 0xbf416796bf764f5dU, 0xc0340c493fea988cU, 0x3f41393cbcd54a47U,
  0x404026623fdd6fc1U, 0x3fe798793da0cd7eU, 0xbb82c97fbfdb6925U, 0xbe945a2fbca9a186U,
  0xc03ed9fcbfb36fe2U, 0x3f07a28f3f1a6203U, 0xbf268cfdc00c5973U, 0xbe35c165bf7984ebU,
  0x3f2e1c99403f6be1U, 0xbe2e0b30be193f62U, 0xbe6e94ff3f995823U, 0x3fee2d3b3ed9d628U,
  0x400419c0bfbd85bbU, 0x3f5e3ab83ff2a351U, 0xbf8c45223f2e9416U, 0x3fb951873e4de5f6U,
  0xbf86b4e0bf6a3b06U, 0xbeadba773f136272U, 0x3f9eecf7be345e32U, 0x3fd44f70bcd9db0aU,
  0xbf58de30bf8e6bceU, 0xbeee23a3beb1aa03U, 0xbffcb9f2bf526090U, 0xbf6725e1bf89dffaU,
  0x3f6f1fa9bf851be4U, 0x3ea83f3b3cba0e15U, 0x3f9fb9e23f941bc3U, 0xbf9012803eff1adeU,
  0xbe2fed7fbefce94eU, 0x3e17b1503fd20447U, 0xbe34b5803f5faab8U, 0xbf87247ebe1823aaU,
  0xbf08197a3f8f6ee4U, 0x3f91b170bf881c9fU, 0xbe497aba3e417e29U, 0xbf64dc7dbdb4fd18U,
  0xbe54ee3f3e3c792cU, 0x3fe8d6963eeec6fcU, 0x402bb9c03fabfc78U, 0x40058fd3bee12403U,
  0xbc8564e8bfd9e172U, 0x3ee25792bf413f98U, 0xbe9d4234bedf1bc7U, 0x3f4f9f6c3f96075cU,
  0xbe99a25a3f4e983cU, 0x3f7ec556bec5062fU, 0x3f214c48bf9a1feaU, 0xbefd5122c0262600U,
  0xbf802739bf810f6aU, 0x3f8976083e4f9a54U, 0xbed6d74a3ff64d15U, 0xbc8a4a0e3fb0f933U,
  0xbfe61714c0009fc0U, 0x400176593f1b9023U, 0x3ca446bebefc4bdcU, 0xbde0a1983f095b24U,
  0xbfbfc22f3f916934U, 0x3ef003d93f295d0bU, 0xbf90c3293f9ab69bU, 0xbeb26d2b3f48f1ccU,
  0x3f4db4ccbf3df444U, 0x3f17011cbf27cfe1U, 0xbecadc4d3fe718a2U, 0x3df79b7c3edb05c5U,
  0x3f355d13bee40176U, 0x3ed59b0c3ef33df2U, 0xbf010b663f4dc526U, 0x3e8d09b63f3ae7ccU,
  0x3daba2f13f29f45bU, 0x3ed6a5c2bfc2f5f7U, 0x3e78635b3e54f86bU, 0xbef09747bf9efbfaU,
  0x3e925dd53e6958b6U, 0x3f806e18bc81fe67U, 0x3f65a48dbcecb932U, 0xbb1f6a613fa72592U,
  0xbf2882013e2d6b3cU, 0x3eb616233edc7f79U, 0x3f0f4e4dbfd1b12dU, 0xbf8a46fdbefe1484U,
  0xbe8089543f54191dU, 0x3f31ca59bedbbad7U, 0x3ee5ed1e3e8e8150U, 0xbea0b05d3f6aa740U,
  0x3fa83c433f71c3daU, 0xbdf4d458c0287ab8U, 0x3f0370b63e5488beU, 0x3ed12a9d3f359544U,
  0xbf688c7cbfe904e9U, 0x3fef1a944016beb2U, 0xbf13342640567100U, 0x3f21c6173fb6bec5U,
  0xc00635debf82ac99U, 0x3faf6b8abfe6474cU, 0xbfceb9ba3f9674b7U, 0x3fb66decc0038503U,
  0x3f58ebdcbec6d1c9U, 0x3fdf3c393fbcae77U, 0xbfd0baa53fc4bc22U, 0x3fd98328bee69fd9U,
  0xbf4339e03f479d46U, 0x4007aadf3f1412c2U, 0xbf723fb5bfb82b5aU, 0xbf815344bf86e091U,
  0x4004afd5bfc0ef95U, 0xc011f003be8a531dU, 0xc0531f713f8014bdU, 0x3e9e162e3f8527bdU,
  0xc04513e9c048b57eU, 0xbf7e61523f8fc157U, 0xbfafd3dfbe557771U, 0xc026b414bfa31c74U,
  0xc06db9b83edd0767U, 0x3f376549bf3cacf2U, 0x402d12673fb9a0a7U, 0x3da2663a3feeee92U,
  0xbf13777fc0309130U, 0x401d4c4ec033e481U, 0xc002e1753e22239dU, 0x3d8d46a0c01e19a1U,
  0xbdce76d04010f8b0U, 0x400652e03f47d77eU, 0xbfec06c13fb72b5bU, 0x3f76e4a03f6636dcU,
  0x3ec8435c3f34f26eU, 0x3f878870bf182ac3U, 0x3fa4a4033ff946c7U, 0x3f9bfb74bffa95d0U,
  0x400ca8123f86c8faU, 0xbfc000d93fa10dd0U, 0xbf4e7246c04066c3U, 0xbfb2e6263f256758U,
  0xbef7bba6c0169435U, 0xc029f6c4bff01678U, 0x40350cefc00917a3U, 0xbf4189ab3f181d8cU,
  0xc045e60abf813b3aU, 0xbeadde12c00959feU, 0x3f9cfda53f46862aU, 0xc05b8a043e4313b7U,
  0xbf69b9203e5dc397U, 0xbf6b2499bfcbcf95U, 0x3f062eefbd04ae64U, 0xc0355b2840189fafU,
  0xbf67743c3e85c107U, 0xbf0fdd5b3c9a3e62U, 0xbcf93b103f422d5fU, 0x3f0cce5b3e8ed749U,
  0xbc9e1fe43f428bfbU, 0x3f37f818bf863e72U, 0xbe65aa303f722bcdU, 0xbf09f035c0384513U,
  0x3ebd0a323dcaa6dfU, 0x3f2e52083f81777bU, 0x404044bc3f1e4ed2U, 0x3f51b2643f8b1903U,
  0xbf76cbd2bf824756U, 0xc01df1af3d3f418eU, 0x3fe8e777bdfc0840U, 0xc02af7813de8ccedU,
  0xc01361873f301664U, 0x3fcfbd3c3e9a0931U, 0x3fe47e88bec22edcU, 0x3fe340ee3fc1e4edU,
  0x3e1c0932bf06f488U, 0xc051f93fbfc432e0U, 0xbf37b7363ef3aab3U, 0x3e7ce49cbea34fbdU,
  0x3f31b587bfcb70f8U, 0x3f856d6e3f5b8313U, 0xbf88aa05be26a1cbU, 0x3eaf8c473f93a26dU,
  0xbe23f222c00c1111U, 0xbfd64618bdae571bU, 0xbf8656683f2e6deaU, 0x3fde73f13db9e87dU,
  0xbf830289be764497U, 0xbf3dd1713e98a892U, 0x3c9ef6a7be027a6eU, 0xbf518d3bbf3a7b21U,
  0xbeda589e3fe3250fU, 0xbf8581903f72d2dfU, 0x3f21aee8bf8d8445U, 0xbf2291ec3fb79eacU,
  0xc01446cabf9cedcfU, 0xbf9bd430bf66b0d8U, 0x3fe32be8beb66fcbU, 0x3f8783ee3fa06ab0U,
  0x4048b9dcbfdf02a1U, 0xbe7913e5bf990d4cU, 0x3fda121f3de7235eU, 0x3d1b44ad3fa3e57eU,
  0xbfb133d6bf81581fU, 0x3eced00a3f91e639U, 0x400112dcbfc61943U, 0xbe62b3913f9cf167U,
  0x400d0aa3c0441251U, 0x3efc217abf15441fU, 0xbf88dc1f3fe530c9U, 0x40140413be84052aU,
  0x3f91bf02c0574814U, 0xbfa3313bbdc5e0b1U, 0xbc67b517bfd125d1U, 0x3f779015bfff51c0U,
  0xc010a40ec00d2ab0U, 0x3e4c1c623f349409U, 0x3f04329cbef8368cU, 0x3f6814f0bf1229a4U,
  0x3fab90f8bf80e978U, 0xbf3f583fbf954251U, 0x3fda64eabf5dd0aaU, 0x3e1b7209c0544d01U,
  0xbfe6a1febef7ce11U, 0xbe9481093e3dee60U, 0xbfa35c84bef878dcU, 0xbef97c253f2d9710U,
  0x3f1dcba23fb6fc27U, 0xbf11bb563e3602e4U, 0xbe86970abf04bc2dU, 0x3e356ec1bfa526a1U,
  0xbef3c48dbf65dd66U, 0x3ef83d193ee78096U, 0x3e6b1f1a4000d835U, 0xbe8edd9eb9d73e46U,
  0x3f069fcdbff43ba8U, 0xc0120e60bf1a6cbcU, 0xbfe81e0dbed4a4a1U, 0x3eab898dc007dbceU,
  0xbf5ec1c13d6f4ed3U, 0xbef1f7613fb0db71U, 0xbf6eab8ebf9a3c61U, 0xc0030b17bfe63b46U,
  0xbeaa1c5b3f8b7df6U, 0xbf17e6ecbfd4a470U, 0xbfa60bdb3fb587aeU, 0x3ec92ef33fa1de8bU,
  0x3f352e13bf8a9371U, 0xc01f6ae9bf86a5dbU, 0x401b5fdf3f987f80U, 0xbeb806f1bf27634bU,
  0x3f34f33ebfa43d1cU, 0xbeec168cbc9fc903U, 0x3fa9f441c003b75aU, 0xbebeea613fad8af0U,
  0x3f3e03fcbf20f6adU, 0xbfa1315c3edcc6f0U, 0x3fdd35a63fcc6b80U, 0xbf2ad7043f9b5020U,
  0x3fbe9191bfdae418U, 0xbe674265c0026637U, 0x3f67c6a7bfabee68U, 0x3e358b23be59f4a1U,
  0xbf58f78c3fb1ef2aU, 0xbf244afdc007570dU, 0xc021de6e3fe70624U, 0xbfc37cdabf7abcdcU,
  0xbf6d4a08bece4c28U, 0xbfa69a00bf86ca72U, 0x3e9735e23d95d412U, 0x3f155c12bfcf31f0U,
  0x3dfdb17bc0002a92U, 0x3f37d7febfcb767aU, 0x3e075ae1c01c5802U, 0xbf1c69533fea1758U,
  0xbf2711844048cddaU, 0xbe9b287e3fc3a50bU, 0xbd104f72c03131f3U, 0x3f06ae15bf35200eU,
  0xbe91258bbdbd7258U, 0xbef0d9523e45e21aU, 0x3f39d5d13ec9494dU, 0x3f8a83dc3f8bed05U,
  0x3fc13bba3f09c44aU, 0xbfab08cc3e376509U, 0xbf6193a1be8b609aU, 0xc08b8903be9dcd70U,
  0xbfb67265bf101ba0U, 0xbf810d8c3fe2a996U, 0xc03bfcfa3f5dac87U, 0x3f0d6246bf958ed4U,
  0xbe05b26b3f88e424U, 0xbfa1909dbfdb1d04U, 0x400eca923e901eabU, 0xc022e795c03d2fb0U,
  0xc060fe653eabf29dU, 0xbf856adc3ee07276U, 0xbf7e0a31bf1e88e9U, 0xbfcd8b36bfbd7d47U,
  0xbf68d1303eef56abU, 0xbee3f840bea93610U, 0x3f78a1b1bf6efcc0U, 0xbdca201bbfb671a6U,
  0xbe4c6fc53f182aeeU, 0x3fdc74903ee72301U, 0x3fe10fd3bedbef2eU, 0xbff51890bf869248U,
  0xbf90fc10bff55c4dU, 0xc0528469bf8abfe8U, 0xc017676cbea4cbb0U, 0xc007b66ebee37b85U,
  0xbf1f68f73f78164aU, 0xbf7c9346405eae1bU, 0xbe3969603f0b27a6U, 0xc05c782cbfb0a2b4U,
  0xbf42eb9a3e82d7aeU, 0x3db7a40dc059cda1U, 0xc00c3f6e3f7f672fU, 0x3fa19d4d3f401211U,
  0x3d8958a93fcbac1dU, 0x3f408585be98c7a2U, 0xbf3dceb73f91df02U, 0x400c3a77bfa3df5fU,
  0x3f75f8dbbd6ced97U, 0x3fbe97c33f1984c8U, 0xbff2aaffbf2c8e2eU, 0x3e09cc3c3e81a536U,
  0x3e909f8c3cd9eec8U, 0xbf3d41a63f344e01U, 0x3fe393403fc37995U, 0xbea34b76bfa8a265U,
  0x3f79cd5fc057b093U, 0x3f223024c0227f80U, 0xc0320aaebe855205U, 0xbe6f82f8bf655a4dU,
  0x3fb30a6cbf8d4d1cU, 0x3ee1f1843fb74949U, 0xbef763a3bfce774dU, 0xbfb30de7be0c07a7U,
  0x4027c223be90a330U, 0xbdb22601c009ebceU, 0x3e7fe7493ff9e0eeU, 0x40058a5d3f958faaU,
  0x3e6d2322bf92c06fU, 0x3fea38853f47c978U, 0x3fb3c4f83ec5822fU, 0x3f86ea2dbd8b9ba2U,
  0x3fbe579d3ec0b3a3U, 0x3bcba37f3f5409cfU, 0x3fce349d3e3ca397U, 0x400189343fa09721U,
  0x3cc923f9bfd3dd4bU, 0xbf5edebcbebf2d63U, 0x3f2740a83f656d38U, 0x3f298d26c00fac8bU,
  0x4000ce0fbff26e9eU, 0xbe9f2c573f1f69bbU, 0xbe14d4cebf2042aaU, 0x3f3816013f8a2454U,
  0x3d928251c03495f7U, 0xbf576473bf6239fcU, 0xc002255bbf8b3342U, 0xc01c0d6abf388bfcU,
  0xbfc18064bfb07db0U, 0xbf3c9b0abfb2256aU, 0xbf8e1e663e83f48bU, 0x3faef03f3c395de3U,
  0xbe56f5db3feaa3f6U, 0x3d1b0a73c00c1afcU, 0x3fdb98e73f14ce57U, 0x3f159c7d3ddf1ac5U,
  0xbec7cf113fdce9ddU, 0x3ff4c3bd3fc386d9U, 0xbf86367a3e255b58U, 0x3f5c9b94bf4e9edbU,
  0xbf09273d3efb44d8U, 0x3feb9c78bffaf381U, 0x40231a7a3f98c0f1U, 0xbf4043acbfc43f27U,
  0xbf2144f2bf0e92b8U, 0x404d68b23f2464dfU, 0xbe99a026bf8a9489U, 0xbee1bf5f3dfb5618U,
  0xbf750a813ea37d75U, 0x3ea8c46f3dc54b9eU, 0xc037a3fdbfe605ccU, 0x3f8411ccbee8aa39U,
  0x3f0dd3fd3f0a3d80U, 0x3fb11fcd3fe6c1a8U, 0x3f4549223f5afab0U, 0x3f97774b3f90fbf1U,
  0xbf09fb3dbee19209U, 0xbcd8df52c07bd4b1U, 0x3f0564563fd6a5e2U, 0x3fe9a02bbf930a21U,
  0xbfb08be4bf66b3daU, 0xbf6785bd3fa1d377U, 0x401c3f944033f679U, 0xbf2592e13fdf3adfU,
  0x4014db77be914decU, 0x40344f043e6d482bU, 0xbf77d6073f728674U, 0xc0353342bf153adcU,
  0x3f5db1073f50139fU, 0x3e43b8f1bfa5caf6U, 0x3d9a6dec3f2f2ba7U, 0x3ed8b942402b53ddU,
  0x3f7b3becbf53a4e7U, 0x3f2bb4b0c00d9b31U, 0xbfd59f1b3fafa543U, 0x3e6de8503dab026fU,
  0xbf0910e9bf9cc7dbU, 0xbfae37dc3fcf5a8aU, 0xbec0540dbfd7f4bbU, 0xbf994f4c3ef86f1aU,
  0x3f058872405a8d43U, 0xbf3e585c3e999edaU, 0x3d8f35623e9a2f10U, 0xbf53e9053e573f27U,
  0xc0560b0fbf069711U, 0x3e1f0b95403fa11bU, 0xc03835bc4007b697U, 0x3f4239703e981282U,
  0xc061aadbbf34f368U, 0xbf058b35bf1e4878U, 0x3fac3e72bfd39a29U, 0x3e006ae13f560168U,
  0xc0018e15bfbbc26aU, 0x3f6877533f1424dbU, 0xbf9338403faf8a68U, 0xbfc92d973ed1c533U,
  0xbee97badbdf1815aU, 0x4002f394c0403a21U, 0xbfbeeb29bece0813U, 0xbfe32bccbec1cfe2U,
  0x3efafe7f3eef7115U, 0xbec7ccf93fa2f91bU, 0x3ff70754c00bfc45U, 0xbd1fe5523daa8e26U,
  0x3f2d3a243e060997U, 0xbfbed7993f262c61U, 0xbfe04689bf56d6acU, 0x401540d63f2c5d2cU,
  0xbe9b19e5bfd4218eU, 0x3f8044163f073672U, 0x3f9237f7bfd9c865U, 0xbf8056cdbe06c658U,
  0xbfec8a2b3e8bf182U, 0xbfaa9b9f3f2a5e43U, 0x3f505060bf37d0a8U, 0x3ea6c7aabd17506bU,
  0x3f14115b3e87517dU, 0x400539233f5401b1U, 0x3f6b1f78bf9540abU, 0xbecb288dc017e066U,
  0x3e8aa1e5bfb4400fU, 0x3f8f65df3f0120a0U, 0xbfa5e99c3f863d75U, 0x3fd5b526bd83727cU,
  0xbf839a42bf6d6533U, 0x3f50b7b6401bd38aU, 0x3fc19f673fb08031U, 0xbcf317e240028eb2U,
  0xc0214769bf61b9b6U, 0x3efe8a7bbf10520fU, 0xc04a77a2bbe45f09U, 0xbfabb9163fee29f2U,
  0xbe9616aac02ce36fU, 0x40012d2e3d58e1e6U, 0xbf5c9a463ff0513aU, 0x3fe83f5a3db112c6U,
  0x3f675196bf36c115U, 0x3fca7369bf7e459eU, 0xbeda7c20403bfd8aU, 0x3f7e90a0bfb928e3U,
  0x3ef4f1ccbf154b17U, 0xbf02be5a3fd3b358U, 0xc0305abf3cfa7d97U, 0x3f31e722402b3e53U,
  0x40073a17bedb7ff5U, 0xbf3d2eac3f60c255U, 0x3f7bddba3f4ad0c9U, 0xbf1ce08bbd782fc0U,
  0xbfaa8dcabff7b02bU, 0x3f94b4093e19c8b7U, 0x3f840246401cf4aeU, 0xbf835966beafac44U,
  0x3c13d5c13f3c30f5U, 0x401de1323fe2a833U, 0xbfa0e716bec2cc64U, 0xbf8a4b433e22b201U,
  0x3f84c3d9bfb4621bU, 0x3e93635a3fb4da05U, 0xc04a2b3f403efe4fU, 0x3fb50f7b3d891bd4U,
  0x3fc0dbbbbf33dc2aU, 0xbc33d5fbbee3c404U, 0x3f680f553efc621cU, 0xbf92ee7bbf46f164U,
  0x3f41cc243dbfd33fU, 0xbf9599bfbeb8e4fbU, 0xc0406d633fc6a086U, 0xbf3e91313f5dd448U,
  0x3aa229233f955402U, 0xc0254e04bfefa834U, 0x4044b096be8b48b4U, 0xbf4240f8bf99ff30U,
  0xbe1287cebf2ea501U, 0x3f8221283f8673abU, 0xbfd7e65e3f678ab8U, 0x3ec7e3363ecec354U,
  0xbe54e9debed2eea4U, 0x3f8b83323f75d5e6U, 0x3e8c2c4a40089e0bU, 0x3f0d23053d886ae4U,
  0x3f5eeca93f4f8aebU, 0x3fb4452ebf04c07aU, 0xbf47eb403e7a6793U, 0xbd1b88393f5952afU,
