/**
  ******************************************************************************
  * @file    network_data_params.c
  * @author  AST Embedded Analytics Research Platform
  * @date    Mon Dec 11 22:54:21 2023
  * @brief   AI Tool Automatic Code Generator for Embedded NN computing
  ******************************************************************************
  * Copyright (c) 2023 STMicroelectronics.
  * All rights reserved.
  *
  * This software is licensed under terms that can be found in the LICENSE file
  * in the root directory of this software component.
  * If no LICENSE file comes with this software, it is provided AS-IS.
  ******************************************************************************
  */

#include "network_data_params.h"


/**  Activations Section  ****************************************************/
ai_handle g_network_activations_table[1 + 2] = {
  AI_HANDLE_PTR(AI_MAGIC_MARKER),
  AI_HANDLE_PTR(NULL),
  AI_HANDLE_PTR(AI_MAGIC_MARKER),
};




/**  Weights Section  ********************************************************/
AI_ALIGNED(32)
const ai_u64 s_network_weights_array_u64[8739] = {
  0x3e08b9a83ea39405U, 0x3e5d9a533e868545U, 0xbe1aa5b13e03e999U, 0x3d516aedbe5573efU,
  0xbe951c35bcc968e6U, 0xbf05e67e3d4b8eb7U, 0xbebff22a3d392317U, 0x3f08a3f6bcd2a452U,
  0xbd0814b83e9e1c91U, 0xbd63702dbe4b61c0U, 0x3d0068d33dfd3d20U, 0xbd8c7e21be29454dU,
  0xbdef9bb2be22d51bU, 0x3c8e0abebd084746U, 0xbe0153a8bd54bc01U, 0xbe03ee73be510fc1U,
  0x3c0db79dbe2861cfU, 0x3df3fc27bd97fc37U, 0x3ebd38063ed85ad9U, 0xbc88389c3ec71f88U,
  0xbe09c726be3de131U, 0xbea56328be9c3b3bU, 0x3f01c7cabe321958U, 0x3ed9f4a8bdd73801U,
  0x3bd7916f3dd2b7d0U, 0x3df55e603e2b5131U, 0x3b918303be489c9bU, 0x3e0a25f63e2edabaU,
  0x3c310aa1befc4994U, 0xbdf600fd3d8e4cffU, 0xbdf25066be3ed1b3U, 0xbccb7f3e3d219cd7U,
  0x3d8ebbc9bf05dd3cU, 0xbeb833073e0b3256U, 0x3dfe7681bee60a65U, 0xbafe0dc6bdc15e42U,
  0xbeb8efe4be623f3eU, 0x3ea2f662befa71edU, 0x3e90151cbe54cf80U, 0x3f21a84e3ed8e8ecU,
  0x3e7143ba3f3630feU, 0xbd25a26ebe7dbc43U, 0x3d754083bf3ac072U, 0x3e8b9f783b8d31c6U,
  0xbe36d01fbe16ac56U, 0xbe0b2cccbe576d86U, 0xbeae80aa3dd0d11cU, 0x3d4eeb09bcdda8a4U,
  0x3dd4ec443d874f67U, 0x3b790628bddcc4c5U, 0xbec93cf13e872841U, 0xbe3c9f24be56f752U,
  0x3c6f32b23e042087U, 0x3e8f6fa4bf0235daU, 0x3ec7323d3e67a86fU, 0x3ea1b60fbee74754U,
  0xbef6c0333b32e366U, 0x3cde308b3eb68146U, 0xbedf95fbbf06299aU, 0x3c7776593d25b568U,
  0x3da498bfbf0abc2bU, 0xbeae2a4c3e5c7bb8U, 0x3f0372463e95456cU, 0x3e822d35bea22e77U,
  0xbec056bcbdce2eb0U, 0xbe9e990f3e2b3079U, 0xbe7a1c203c99ffbaU, 0xbe45686d3e4a0ab4U,
  0xbe19a593bd9c8ee0U, 0xbe70eaebbd2065f2U, 0x3dcf673f3ca04146U, 0x3cc6104dbde4be40U,
  0x3e151746bec995d4U, 0xbcd694c8bcc29c85U, 0xbdbec6513e08317eU, 0x3eabe91d3e97f20dU,
  0x3e880e8ebeb8f079U, 0x3e4e38a13e87c8d5U, 0x3dde9a503e130b3bU, 0xbd0a09ea3e5f7ca6U,
  0xbe3e4eed3eabb4f8U, 0x3dd3a9c1bcd93eaeU, 0xbda880b6bedad2e8U, 0xbe117829bd82fa6aU,
  0xbd36f2713ec3d314U, 0xbd1c02fcbe62bf35U, 0x3e092ebdbe35c654U, 0x3d028f46beb66ea0U,
  0x3e5753a23f07c2cdU, 0x3db889e83c0415f1U, 0x3e238294bde4b6d0U, 0xbc52320fbe8ff8a1U,
  0xbe015ca63e4f2c32U, 0xbe4c0e43bb34fe0aU, 0x3f2868dcbc9fa973U, 0x3cfc7e0d3dd341b6U,
  0x3f17b5863f10838bU, 0xbde76dac3d914475U, 0x3c44b35ebd58c345U, 0xbe1c2b853e765d6eU,
  0xbe8560193f02019cU, 0xbd3f263bbd69df4cU, 0xbea829ee3f4fcb54U, 0x3b958bf7bd01ca16U,
  0xbf27f0cfbeca7f34U, 0xbd8e0ca03d2c1496U, 0xbe19fedd3e4cb387U, 0xbd1f47c43d4bb3f0U,
  0x3d95e700bebfb8cfU, 0xbe1b7b5bbdbfa4e3U, 0xbf0584cebe17057cU, 0xbd40a54bbe4a4260U,
  0xbec28b1d3e3941e8U, 0xbd2e51a73d47704bU, 0x3e04302e3e55d047U, 0xbdc445753d96135aU,
  0xbc7fe102bd3091a8U, 0xbe8709ba3dbb2e39U, 0x3ea4de92beb00926U, 0xbd2c5306be67ef4aU,
  0x3e34b47f3d06dee8U, 0x3da868f73d2bf1abU, 0x3e1945be3e94ab01U, 0x3d90876b3eb2fcb3U,
  0xbc24ca43be8d0013U, 0xbc2ee81ebdd7c502U, 0xbf2dfeb13f22e8f4U, 0xbdff84d2bcfefeddU,
  0xbfc6036dbf432b69U, 0xbdeb45ec3cfa94a8U, 0xbf2318efbf371eeaU, 0xbe9a0923be8a97ccU,
  0xbe01913ebf210f35U, 0x3e8419bebf00be6bU, 0xbf102f19bf273cb5U, 0x3d8d7c23be61a680U,
  0xbf21ad4ebe9757a6U, 0xbdc493103dc42072U, 0xbf12f4cfbe403f15U, 0x3ed6ee7abdb5ef67U,
  0x3e084529bf1688adU, 0x3c0dacf8bd839f8eU, 0x3deb5815bf4c3d4aU, 0x3db7001b3e9b7a22U,
  0xbebad08cbe4fdea2U, 0x3d3bab92bd8dd86bU, 0xbf337c88be997de8U, 0x3e78e9a03e8e3579U,
  0x3ed5ce52bf39f10bU, 0x3e74c79fbd9606a8U, 0xbf84c5f33e8884bcU, 0x3db2dee93f3c85bdU,
  0x3d11b16bbe072debU, 0xbdbd776b3d8f7a84U, 0x3ca3ebf5be0ea245U, 0xbe7c76b33cd65a04U,
  0xbca779143e89f6ddU, 0xbdd047873e216a61U, 0x3ee0f5eebf01b030U, 0xbdcb049f3dbaaa54U,
  0x3e25259b3d750c25U, 0x3d15a88ebddcf93cU, 0xbc2a4492bead6b2fU, 0xbe5f5ff8bdf394e8U,
  0xbe8c9fd13e4ad9d9U, 0xbe55e108bda8a353U, 0x3e323b26bde77c4fU, 0xbb1b2d5dbe49aa28U,
  0x3ec25273be709d17U, 0x3cc663983d55c165U, 0xba84c2cfbeb0f16cU, 0x3e4593a43e6f2e12U,
  0xbe33319d3dfc4c65U, 0xbe0783b33de5342aU, 0xbe0451b03e6732d8U, 0x3da732d7bbf5caffU,
  0xbe54c7143d460775U, 0xbe0b86e53da6c18bU, 0x3d19277fbe3f5782U, 0xbe4c7a433d06a745U,
  0xbe2719e6bcdd122bU, 0xbe5adfaabd5a32c9U, 0x3e947f98bea21171U, 0x3e0db5763d1d680eU,
  0xbe2a7d243c84232fU, 0x3dd1d285bc17a6a9U, 0x3e262da3be2685f3U, 0xbe1be073bde13042U,
  0xbe68c50a3dad4032U, 0xbe5e8f80be4df3c1U, 0xbc7dfc243e3b938aU, 0x3d9a5df6be80a8aaU,
  0x3da7b029bd09f789U, 0x3df755ad3de37670U, 0x3e65c0c4bca42180U, 0x3d764d0f3e3bab1aU,
  0xbe3f8da93e47d939U, 0x3d7c492cbe008e00U, 0xbeb139623ebb407cU, 0xbd4007cabe142789U,
  0xbe9614e9be34949eU, 0x3da45bb1bdd241bbU, 0x3e8cc0a43dba9e22U, 0xbdc8f88c3c73d1d3U,
  0xbd2057e7be2d81c9U, 0x3dd636abbc87c1cdU, 0x3df74651be9400f6U, 0xbdde1ad8bc147fb7U,
  0xbe85ee6dbdcc73b7U, 0x3c797517bdcfd771U, 0x3e5358fa3e9fa720U, 0xbe441b33be1d8283U,
  0xbe6dc07bbd3da7f9U, 0xbe1e2089bd509ec9U, 0xbe5859d43d636d67U, 0x3d12fcd03d282a24U,
  0x3c4932aebe24e775U, 0xbdd47dabbb5e0ca4U, 0x3c2914ca3df7f685U, 0xbd8952ef3e8f4e28U,
  0xbe54b084bde3f7e9U, 0x3ceed5debd74b1f3U, 0xbe17958c3f018c17U, 0xbd1f787a3e0a4930U,
  0x3e0ba1003eff8457U, 0x3dc209e0bdfee00aU, 0xbd52aadbbeab4a5dU, 0xbf28a2c4beb748bfU,
  0xbfaf4abd3ea4ff8bU, 0xbf712db2be9d4a24U, 0xbe36f3223ed3ec4dU, 0x3bae821bbe881d98U,
  0xbcefa1e63e8c5b4fU, 0x3df4891dbd1471adU, 0x3d922095be481ff3U, 0x3e63dbf6bdf00ce7U,
  0xbf6894013e5f9430U, 0xbf2ef587bf1f8446U, 0xbe56dec43e66e3d8U, 0x3d068bb4be013065U,
  0x3dc1384b3d855f6eU, 0x3de262c13dc6454eU, 0xbdda2f78bdbccf11U, 0x3f202a883eb30780U,
  0xbeab6487be9b1595U, 0xbbb9a1abbe0afc12U, 0xbfae2a4f3e09b134U, 0x3debdbaabf126f36U,
  0x3e7a7d203db01650U, 0x3b833357bdbed1d0U, 0x3e0ffcc83cfe8dacU, 0xbf0f5a863c530775U,
  0xbf957cfb3ddadd5bU, 0xbf628d4cbf1558a4U, 0xbeaadb273eae3420U, 0x3daee54cbf02fbbeU,
  0x3d8f83ae3d870fb8U, 0xbded408fbe17e05eU, 0xbc1cce323ce61159U, 0x3d2527d73dae636cU,
  0xbf3231fa3ed7b5ceU, 0xbf41d59bbef9f6dbU, 0xbea3de743e395ca2U, 0xbd17cf1bbecc85d7U,
  0x3dae85f8be565870U, 0xbe06d90f3d75947bU, 0xbe0e6fd53dad0727U, 0x3f3039cf3eea6eeaU,
  0x3dcb02723e750fcdU, 0x3eb2b921bc176ffeU, 0xbf6cb5b23e5f26daU, 0xbdf76b3abf4b3dddU,
  0xbf8bf6ed3e13b643U, 0x3d788e023d3dcbd6U, 0x3dec05773e03925eU, 0x3e889029bcbc2f64U,
  0xbf22ce80bf2f2041U, 0xbf09f2bebee9bf90U, 0xbe31d5953e483145U, 0xbdeaf1a2bf41f1abU,
  0xbeed37d1be543e00U, 0x3d1524f53db7e05dU, 0x3e087292bd448941U, 0x3e8de613bd6d5863U,
  0xbe85b988bf0c2c0dU, 0xbe3fced6bea0a866U, 0xbe83b9a93e1a59f8U, 0x3c869cdcbdbd39d8U,
  0xbf3dea5dbe74ed50U, 0x3da650ec3dea6571U, 0x3d5d2d203c426d85U, 0x3e6b10193e09a200U,
  0xbe7775dcbf1dd889U, 0x3ec37985bea86bbaU, 0xbf86cab73e402160U, 0x3dfe65bdbe535172U,
  0xbdad64c5be84bdb7U, 0xbc3a4a5bbe03c642U, 0xbe835a5bbfca7e90U, 0xbef9128ebe10dd85U,
  0xbefff0d3bdf7831aU, 0x3e5c4ae93e79f0e3U, 0x3eb1dbe5bf349858U, 0x3e0528ba3e7ec9d2U,
  0x3e3c9358bebb3d6aU, 0xbb42a87d3dc7ce3aU, 0xbebde0a8bf91778fU, 0xbf428bd73f05640dU,
  0xbe0b54bb3d22772eU, 0xbe259fa83df00d88U, 0xbe94e95d3e203516U, 0xbdcf74453e2be4f0U,
  0xbdac5fb9beb2f850U, 0x3d8433b4bdcc42b9U, 0xbf2cb586bf8cc2ebU, 0xbe9c42b13e25adebU,
  0xbd7153ccbf04848dU, 0xbef911f73e8fc68aU, 0xbf99a90c3c4bbb48U, 0x3d481b693ecfd787U,
  0x3df66c5ebd7022c0U, 0x3dbf282d3d61c2ffU, 0xbe5c8c283bac18d5U, 0xbfcd760abf1116aeU,
  0xbfbb9c1dbb9d6cf2U, 0x3e368d363e75cb24U, 0x3efd22b3bea2bbeaU, 0xbd90e6fa3d461057U,
  0x3eb668733e062bb7U, 0x3daf5b91bdc0e43aU, 0xbccba4473d5f81b0U, 0xbfdc47ce3ea6897fU,
  0xbfac4c8c3e75dae1U, 0xbf23efefbe3249a4U, 0x3dde7efc3ea6934bU, 0xbd501e2dbf5e1478U,
  0x3e0073c33dc75f68U, 0x3d267d52bdb8c348U, 0xbedb68acbd0de243U, 0xbed13b393f117170U,
  0xbec3ae133df69cc6U, 0xbf036df53f00ba00U, 0xbee1a8033de6c6bcU, 0xbc625e2abf039d80U,
  0xbf2da939bf06ae4cU, 0xbe07eafc3d8ba02cU, 0xbdb8dbe33f066c19U, 0xbf21a6303e28baa0U,
  0xbe3748f7bf20d10bU, 0xbecec0ce3ed11fbaU, 0x3e5645dfbf3dd592U, 0x3cdd8ea93dfc7f87U,
  0xbcfd0292be857e41U, 0xbcec3ac7bb829856U, 0x3d53133a3eca9a5cU, 0xbf2455363ef010ffU,
  0xbf2a34c2bf2c744eU, 0xbf54e7d3bf59e0e9U, 0xbcb2d05d3e7080dcU, 0x3dfde186bf853376U,
  0xbec6db96be1879e7U, 0xbdde641cbd20311aU, 0xbe5e9e833e980399U, 0xbe33c8793ee0c05fU,
  0xbe3d1faabf1d2e81U, 0xbd33cca6bf6c8950U, 0xbf86d9c13e0a4efdU, 0xbc57c279be9e8b20U,
  0xbed814c8bed79b8fU, 0x3e0b2ef9bdf7a72cU, 0xbefa9c22bf327f39U, 0x3ebecc42beaec174U,
  0xbe7ba0b7bf154c23U, 0xbe9313f7bed94590U, 0xbe886c6e3ec66bcfU, 0xbd88936dbe812f95U,
  0x3e5c5a7b3eec7248U, 0x3e0056ac3d8fed3aU, 0x3ee477fe3e12ef3fU, 0x3e8c85f6be4a1a12U,
  0x3d7ca3533f210d7eU, 0x3e160812bc7c3680U, 0x3eaf35babdfe369eU, 0x3ddb6ff93cd80704U,
  0x3e0ad6353f421b21U, 0xbcc3c2243d0b30c6U, 0x3f06c4783e07de9cU, 0x3e8707febe9a64b4U,
  0x3ea5a4ec3df285d9U, 0xbe8cba89be66968bU, 0x3e904dfcbe1c3925U, 0xbc4b79b13ef57861U,
  0xbe13dd0bbf10d33cU, 0x3d16b9643c000facU, 0xbf14b111bf4bc5ddU, 0xbe8687bcbf3fe57cU,
  0xbebd6db8beb481cfU, 0xbf22609fbf108d45U, 0xbe91567e3f838f0fU, 0x3d06fdaebe2f5666U,
  0x3ec41a3f3e063ee8U, 0xbd34cc773ce3cd84U, 0x3df088fe3e90bf1cU, 0xbf53a52fbd6c3601U,
  0xbd2e5a253f14b8eeU, 0xbe21ed1ebe1c7179U, 0x3f07517f3e5952dcU, 0xbc6ca2b53c83fef9U,
  0x3d6b4aeb3efd8d12U, 0x3c1c1f393d19d89aU, 0x3e8f9e5e3e4e037bU, 0xbe025e53be8c29d5U,
  0xbd94867a3ebbb20cU, 0xbed31f20be6c23ffU, 0x3e5036953b0f2ac3U, 0x3d5b86d6bd86d245U,
  0xbed03892be778f33U, 0xbdddb799be022ab5U, 0xbea8615fbf5d3891U, 0x3cfe256dbf77b982U,
  0xbf2e8b41be0a8659U, 0xbec17d0abf211405U, 0xbe82fd203f09f49dU, 0x3deca7f9bea38e43U,
  0x3e0c284c3e9a98aaU, 0xbd39a2bfbdfb3df3U, 0x3e97baa83e1a0ed7U, 0xbee8d41ebc97fc83U,
  0x3dec0b0b3f48e1d1U, 0x3d2688d13de71b64U, 0x3e0815303dc7d05bU, 0xbcda69703e97b007U,
  0xbe3021a43e7b04e3U, 0xbcdd5bb2bd8ab4ebU, 0x3eb0e4dc3e8d292eU, 0x3e8114bfbeee54b7U,
  0x3de03ddd3da24cc6U, 0x3e152d6cbeba8b01U, 0xbc9585e7bd877b97U, 0x3c2504f13e172ff6U,
  0xbef51debbd41b47cU, 0xbe070912bd6e1b03U, 0xbd92ec8a3f22306aU, 0xbe89fba63e5790a4U,
  0xbe93d9a5bec7f12eU, 0xbe813121bcf0bf4bU, 0x3da74a3fb9d67d66U, 0xbd8c610cbcdf1579U,
  0xbe658ea3bdeda260U, 0x3dfd372fbd20fb65U, 0xbc8c68583ee0dc94U, 0xbe434984be03ebc6U,
  0xbe5978cdbe3706dbU, 0xbdf7d526bd203dd1U, 0xbd759cd73e60762aU, 0xbd169e3dbeb63302U,
  0x3b20d711be5cd859U, 0xbe008edf3d4b6208U, 0xbdb94d0d3ee4f74eU, 0xbea1c884bc24f8f6U,
  0xbe0486a7be9b05e9U, 0xbde006f8bd822be5U, 0xbec014153e9374d5U, 0x3dd627183ca174e9U,
  0xbe8b8cb1be3380fbU, 0x3d9a88233e07c986U, 0xbe0e9e25bded9e6cU, 0x3d3fac503dddf7c6U,
  0x3de02295becdbf5dU, 0x3ddc996c3e9bdd57U, 0x3e36031ebd5317fcU, 0xbd8ed6463e146ff8U,
  0xbe0b9e30be9ede1fU, 0x3cf88190bdf031a0U, 0x3dc4ce89bb947c7bU, 0x3ea0b0753d18006eU,
  0x3d985816be56439aU, 0x3e62f25e3d060b96U, 0x3e97ae733e0577e9U, 0xbd179d33ba1cb903U,
  0x3cd89887be7f8977U, 0xbc5e13ad3dc6d200U, 0xbe92c686bdc7c74eU, 0x3e40d81d3e9b8f29U,
  0xbe3d143cbe175277U, 0xbd9ba3a3bde390a6U, 0xbec0af1b3edcf416U, 0x3d16fc743d90fc20U,
  0x3f2e8937be7c10e8U, 0x3c42a471bc59ccacU, 0xbe66d856bf041d59U, 0xbe83594abe626a30U,
  0xbf0418a43eb05b07U, 0xbf5805443e2cb4b0U, 0x3ece6445be8f8b47U, 0xbdd3f8b63ddd8ccfU,
  0x3ec22309bea98cf6U, 0x3dc8eaf33c954f0eU, 0x3ba73a6ebecf011fU, 0xbe555f43bda855d6U,
  0xbf053bec3e332174U, 0x3dac70acbc339bdbU, 0x3e10d9963e821b43U, 0xbdd870afbe29dab6U,
  0x3e7553efbe9c923eU, 0x3c81a8733df15410U, 0xbe965716bdaa358dU, 0x3d912b6e3ec6cfbcU,
  0xbe95e7723df1a8e6U, 0xbea1ccfbbdecdffaU, 0x3e8778223e96918fU, 0x3e16f572be633e44U,
  0x3ece5495be2aaf03U, 0x3df076bdbd98a93cU, 0x3e46a8cbbef16b3cU, 0x3e8b6bc6be00dae5U,
  0xbdbf69783ef83bdfU, 0xbeb100dfbea44c87U, 0xbe71dac53f137a77U, 0xbdac564ebd8432ccU,
  0x3d83f703be1efb32U, 0x3d548a2abdce1f3cU, 0x3e0f6aeabd5c8126U, 0xbc503a83bdd86b9fU,
  0x3e0308ce3e83a9beU, 0xbe306cc3bbc30b9bU, 0xbd9da7903e635eecU, 0xbd0f56783e2b5064U,
  0x3da8393a3da711e9U, 0xbdc827c03dfd8c31U, 0x3e222aaa3ea19ab8U, 0x3e9b8fac3e5ed0b6U,
  0x3ebb7145be51dcd6U, 0x3e6682493e0b714aU, 0xbe69aa663da3e154U, 0x3de37a8e3e99d60fU,
  0x3e530a5a3ea0c546U, 0xbdcc7ce03c23f684U, 0x3eb84b5ebead0862U, 0x3e02a080be556f42U,
  0xbe99dbfc3f0c9221U, 0xbef74d12bf435490U, 0xbed778c23f015f3eU, 0x3dbe52b4bf478ce1U,
  0x3cd457e4bd3ba834U, 0xbc8638e0bc2cf024U, 0x3df4816fbe09c9eaU, 0xbc481adebbfa3f40U,
  0xbe99d5bc3ef7f1c1U, 0xbdd4b28ebec1ec6dU, 0xbe30ef5d3cfbf725U, 0xbcfbd1c4bf7dc8afU,
  0xbdc67f02be713b5bU, 0xbe11e931bdf45a3bU, 0xbe0ecc17be22fd4cU, 0xbd6e676a3d8a395cU,
  0x3c79fb603e64c26cU, 0x3db8bf77bd2bab57U, 0xbe2e3c3ebddf58d8U, 0x3d02bc12be32a838U,
  0x3c6d487f3eec54feU, 0xbe10d3263ddf046cU, 0x3e9b6b973d55230cU, 0x3e1c7a3ebe71c100U,
  0xbee0b7383e485ba6U, 0xbe38b323bf347b60U, 0xbf08e9c53ee4324dU, 0xb8190588bf69270cU,
  0xbe9a83f73e74f718U, 0xbd8ce807bc430992U, 0x3dc6c80ebe2192f6U, 0xbdaf81b7be022d11U,
  0xbd09dcc03e2b15cbU, 0xbe8f6913be704297U, 0xbef9c732be337f22U, 0x3debdd36bf02711eU,
  0x3d7b52813da786c4U, 0xbc98194c3bdff532U, 0x3cd41d5d3d3500a8U, 0xbe69abdd3de0549fU,
  0xbd877a8cbcbb5d16U, 0xbdcb1511bdd73d17U, 0xbe9314d0bd1d8204U, 0x3d310afabeab7cd5U,
  0x3e239cebbe0c2a7dU, 0x3d56e1f8bd882689U, 0xbe819553be9cecc6U, 0x3e3c05903ccdbe75U,
  0xbd8d41393ce82eb9U, 0xbe8af382bc968909U, 0x3dbc2357bf236cefU, 0xbd2caa763e3829c2U,
  0x3e85f18dbe3ae2e5U, 0x3dd34540bbb86c75U, 0xbe0c15633b725936U, 0xbd8a1e2cbde47459U,
  0xbe9c5b453e945557U, 0x3c92c6423ea587d7U, 0xbdfa7d7cbf00f3b3U, 0xbe107cafbe5c5f79U,
  0xbe52eb29be9c263fU, 0xbcb02a423d1f40f4U, 0x3dfd7e3b3eb1e8bcU, 0xbe82c625be02dad7U,
  0x3f032037bec7a6b7U, 0xbe3f1e7e3e789f26U, 0xbe356244bf27b99aU, 0xbdbbe8d4be49e7b8U,
  0x3e90b9dbbf1b84a3U, 0x3e05c0c0bd6d3222U, 0xbd659ce7be96bdbfU, 0x3d0c07d33e0f7eabU,
  0xbf0fb9a73e30151cU, 0x3de91b20bd02fd81U, 0xbdfcc5033e702930U, 0xbc05b32dbe35db74U,
  0xbec788b7bcf51bbeU, 0x3cb78e03bcb2813eU, 0x3d558e7d3e8e0da8U, 0x3e9036ac3d5a1f48U,
  0x3da4a2d5be66a579U, 0xbe195b9a3e122994U, 0x3cb8d40bbdf220f8U, 0xbcbd8a3d3ef4d044U,
  0xbd0adcf2be809140U, 0xbe0052c5bd8f820bU, 0xbe8c32d03ea0d90cU, 0xbe95ea903e2c7f73U,
  0xbe49f2a23e3edea0U, 0x3e77393bbd582587U, 0xbd0f0935be41cb3dU, 0xbdf016213e8cc702U,
  0xbe2c40f7be1e1654U, 0x3a07468bbe02eafeU, 0x3e46a7f3bddbeaa7U, 0x3ca7758f3e66fbe1U,
  0xbf03b518be2760fdU, 0xbebbec16be5f612fU, 0xbebc72fe3df5057fU, 0x3d0187edbf26e96eU,
  0x3d9cd8f6bd2773a0U, 0xbdb7e61f3d309746U, 0xbe4de4903c495d78U, 0xbd9adfd53eba6596U,
  0xbe893effbea95dfaU, 0x3ec7dab8be484680U, 0xbbf6fda33e15a5cbU, 0xbdb654723e9eb200U,
  0xbc32a4573d82af1eU, 0xbe036888bc94b808U, 0x3d4fb48c3aaf92d5U, 0xbe6c12673e1506f0U,
  0x3eeb992bbd6c8e82U, 0xbddb22163d7335edU, 0xbf89f3c1be03f025U, 0x3b979be3be674722U,
  0xbe85870abf958f49U, 0xbde0b1ad3dcdf9eaU, 0xbf622284bd2e7103U, 0xbebf409fbd43b3e4U,
  0x3c678e12be8f4ec4U, 0xbc986a2bbc19ad9bU, 0x3eb6b9d3bebc5492U, 0xbd5f34213dda6e49U,
  0x3e00573bbe645826U, 0x3de0f2d73d91455fU, 0xbe819347bdee3790U, 0x3df6d06a3e8b4e0cU,
  0x3ca61fbd3c4ed273U, 0xbdb1d9b83e5ebe73U, 0x3dd5533c3e1aa2d6U, 0x3e03ae56bddbbed7U,
  0xbdb35ca7bf342131U, 0xbd0c8dca3da8144bU, 0xbf4a888abd434b18U, 0x396a4d5b3daa0264U,
  0xbdcee5d3bf1c9178U, 0xbd446b91bd477ca6U, 0xbec94dda3d5a58daU, 0xbe14a707be32d729U,
  0xbe903fc7bf62f563U, 0x3c8e255c3d68eb83U, 0xbef8cd15bce23033U, 0xbd96e035bcb57cf5U,
  0xbd653b3fbf16868aU, 0xbcd7e87d3e8b7fd8U, 0x3eaebbb7beb899b2U, 0xbcb093ff3e9322ebU,
  0x3d8c7db03e6a5b91U, 0x3ddc073b3e0e2881U, 0xbe020b003e2800ddU, 0x3da7c08e3e6c66e4U,
  0x3e0af4123d9cc39fU, 0xbab35c243e430af7U, 0x3df241013e47d72cU, 0x3e008ab23e0ee934U,
  0x3eb4abcc3ebd5182U, 0xbda650413af55123U, 0xbf0c2221bd7778fcU, 0x3de263d73e9f87b0U,
  0x3e0c4228bf15e3aeU, 0x3de4cd073e160dd4U, 0xbe97777f3eafe9d5U, 0xbcf9f8fd3e88a8cbU,
  0xbe5e4e16be71ff6bU, 0x3deea3a1bdea16a5U, 0xbf15a39abea8ddc4U, 0xbe226b1abd4cc400U,
  0xbe08a964bf8c1a73U, 0x3ba79b7b3e1e248bU, 0x3e2b868ebe733f86U, 0xbc149b463d8e3246U,
  0xbe0bc657beb13090U, 0x3d3242773de1f4ccU, 0x3be341ad3d8b2933U, 0x3e0955503d95c394U,
  0xbdef50adbf2abc13U, 0x3d9345843d8087e3U, 0xbe2695e6be360640U, 0xbc0902aabd50fc84U,
  0x3ea256d83f496901U, 0xbd2225f93cbd5cc4U, 0xbf2b589ebe12ac93U, 0xbe970bd63eaa11d1U,
  0x3d65c088bf6df09cU, 0xbc2918943d7b2838U, 0xbd8bcf433e61b4cfU, 0x3c4bdb153e441297U,
  0xbdb33dbf3e57e009U, 0x3d05af663d707422U, 0x3e8c4cd63d8a5262U, 0xbf1a75bebdc1ab88U,
  0xbeb1f4e73dd7323bU, 0xbe989a8cbe869009U, 0x3db2d549be2f93d2U, 0xbd10028bbede8ed0U,
  0x3e2439223ea9bc42U, 0x3c33822cbd859cdcU, 0x3e617f0e3d6c3e65U, 0xbd903c8f3e0ab445U,
  0xbe654ee33e07c5adU, 0xbe894e4dbe184b64U, 0xbd7af0ec3e9a47c3U, 0x3af5e69cbe9f724cU,
  0xbcff11023e2977ccU, 0xbdc687123dda502fU, 0x3e388aecba8086feU, 0xbd04f868be57884eU,
  0xbec67f12bb7d091bU, 0xbe0990d53d30ad9aU, 0xbe16133a3df59f81U, 0x3d9c9a28bea780a6U,
  0xbe0486debd1883abU, 0xbdd788a83df6e441U, 0x3e8f432d3e14b8a2U, 0xbefb0f89be382cfdU,
  0xbec51615bdd3b37fU, 0xbe8d3703bdd1afb1U, 0xbc1ff6d03d88d332U, 0x3c3fe702be11a805U,
  0xbe77ce823e34db29U, 0x3dac0184bdcebfe0U, 0x3eb2dafa3e3e47fcU, 0xbe4c8c44bd8c5095U,
  0xbeb74c90be475a62U, 0xbea7b147be2d97a3U, 0xbe885f1f3e9f70f7U, 0xbd404333be3f1402U,
  0xbe917d893d8afbd0U, 0xbdc839043e005281U, 0x3e5dbf423d5d3428U, 0xbea8a044be00eb28U,
  0xbe6f3176be8a4619U, 0xbec441bdbeaa0a1aU, 0xbe3e2e3cbd8fe9fcU, 0xbb816115be90c439U,
  0x3db68bb1bd152820U, 0xbd8db757bd3992f2U, 0x3dd693d03ebbbf68U, 0x3e116888be2290d2U,
  0xbbbc35dfbd815209U, 0xbc98cae1be3af022U, 0xbe68f1073dd21b8bU, 0x3bee9ce23e101f37U,
  0xbe09e16dbe4373bcU, 0x3d5da42dbbd5074cU, 0x3e45f2163eca17dfU, 0x3d5b8337bd817baaU,
  0xbdf1bc6fbd8bc029U, 0xbcd9133dbdfc9b7cU, 0xbda84f343ec2105fU, 0xbdd629e83e463026U,
  0xbe6384d9be076a77U, 0xbe023274bdbbbd1fU, 0xbdfc22443d6761a3U, 0x3d537ddcbd47374dU,
  0xbc9573b3be01acebU, 0x3dfb78e5bdef5940U, 0xbe824bd63e0d14b2U, 0xbb81ffff3dad61d8U,
  0xbe1be98fbd216f91U, 0xbde178b53d7447f7U, 0xbe40960ebe05fa1cU, 0x3dcab25a3bdca593U,
  0xbdb62d6abd052766U, 0xbe0357adbdf88101U, 0x3d3168493dab6292U, 0xbe09b66b3cc53636U,
  0xbd9454c4be2f6d94U, 0x3aebfb80be099799U, 0xbe43d4493ddd1c3cU, 0x3dc1f7a4bc737f3bU,
  0xbc962bd4bdfa3094U, 0x3ded99ebbdd4f2f3U, 0xbd4ffbd63d632c8dU, 0xbded3172bd85ce55U,
  0xbe1039cfbe0916caU, 0xbcfbebc03d9ec2b8U, 0xbe1a4ab6be248936U, 0xbbdf9a2bbd2542d6U,
  0x3d4266d63a6fcd41U, 0xbe0939bd3bc77d95U, 0x3caf92f93d9c49c1U, 0xbd8e4c6b3d98885dU,
  0xbe192e7f3d9a76b7U, 0xbe12a3023d49f96dU, 0xbde63efabdaa85dbU, 0x3dc27b1e3ddf2466U,
  0xbd9b1ac2bd849860U, 0xbd9ee7a73d8cbcc5U, 0x3c72a3bd3d079b10U, 0x3e0cf8c53dd7a573U,
  0xbd7e7002bd514d57U, 0x3c2015c0bd9ac334U, 0xbcd526b33d29b8a0U, 0xbdb19ecf3d85f342U,
  0xbda808de3d5f0c50U, 0xbe07825bbe462c52U, 0x3d254a6bbda427eaU, 0xbd52a34ebe0b8f13U,
  0xbe2efc5cbda57263U, 0xbc3f6bb13c5ebfddU, 0xbdc960dc3d63d457U, 0xbcba633fbdd6d723U,
  0xbde5af71bd847af8U, 0xbe2a19cfbdc07d8dU, 0xbdeef8753d7bdbbcU, 0x3d205f47bcbee50aU,
  0xbe1296d7bd1c4543U, 0x3d34950cbcb5b85cU, 0xbda53727be28ce4aU, 0xbdd713a5be16509bU,
  0x3d38a7783dbcc871U, 0xbd847c56bd9ca27aU, 0xbbdc83e6be47a3a8U, 0x3dd4fc0cbe049252U,
  0xbda270aabe053c07U, 0x3dac61aebd5356bcU, 0xbd9e92c53c94f750U, 0xbd6fec27be2a6bd1U,
  0xbc6ab535be11aeccU, 0xbe49f7023d6da935U, 0xbca339e3bd92e722U, 0xbd5cabf9be43812dU,
  0xbd7b3d653da00c5aU, 0xbceec9443d35e1e4U, 0xbd13155abe1abde5U, 0xbe43334b3d6df3e6U,
  0x3cc2768c3d7f0d28U, 0x3c9a89cf3c811c6cU, 0xbc45a98dbd2a3dbcU, 0xbd1d9bf0be1de3a7U,
  0x3d452a6f3db4abbfU, 0xbd5f18363c873336U, 0x3d0fa82ebe9ffea3U, 0xbfa8f898bf3fb08cU,
  0xbeda8fe83e010aabU, 0xbe59a1163d934574U, 0x3e587a88bf37c2cfU, 0x3bbbaf4cbd5f2b7eU,
  0xbe0e58173e3e5281U, 0xbe0066fc3c085d68U, 0x3e5470ffbe19c4fcU, 0xc021ba47bf5cbae9U,
  0xbfb64b7c3e25ecf3U, 0xbf488d7fbee7e300U, 0x3e26c5ad3daeb644U, 0x3c0615a0be813aaaU,
  0x3b8ee8eb3e6ca887U, 0x3c1cfb80bdf9e305U, 0x3da565a0becfd461U, 0xbfc251243e345436U,
  0xbfa9c1b83e95e88bU, 0xbfa7f2a9bf6407b8U, 0xbe00ab753e205f8fU, 0xbc01ecc5be922e86U,
  0x3eb114ae3dc9f5a1U, 0xbb5d1e04bd0bc471U, 0xbdaa2aa43e0eb9bbU, 0xbf7a27d9be7e39deU,
  0xbea8be8d3ea7a926U, 0x3dcadcbebcb836f5U, 0x3e95a5c5bec73d24U, 0xbcf0fe71be6f643dU,
  0x3e8f38633e5bac4aU, 0xbdbc9218be093ed1U, 0x3e1ddc4d3eabee44U, 0xbff1b55dbedf415aU,
  0xbf9f00a23e1f50d4U, 0xbfae4e59be9564bdU, 0x3e95849b3de5ef6aU, 0xbd057f31bf27b58eU,
  0x3e98527a3e74f8c6U, 0x3d65680c3e0c869fU, 0x3e56b9643ca11a5aU, 0xbf5080bd3dd499acU,
  0xbf8926983e497300U, 0xbfe0fc90be625229U, 0x3ee9ec433e186893U, 0xbd739d28bf154bf3U,
  0xbf3c07893e014bcdU, 0xbd19855dbdf2695bU, 0x3d29fa01bd9d4b53U, 0xbf79f3033d85bc48U,
  0xbf3822bcbeeb1ed9U, 0x3f5b6467be4b2daeU, 0x3cc66e32bf7684c1U, 0x3df1c4673d8618c6U,
  0xbf12f3f13e835752U, 0x3d9006aabd6b97fcU, 0x3e0df31cbe302d4dU, 0xbeab4b37be6978ceU,
  0xbf80e7cfbf0dcb24U, 0xbf263985be144942U, 0x3e5eebbcbe246fabU, 0x3dbe0fd3be9ad572U,
  0xbe8bbeee3e4d526aU, 0xbc671e083dc9183dU, 0xbd5f9d27be376b8eU, 0xbd7e58bcbeabfc81U,
  0xbf901cbabf3a9adfU, 0xbfa0d371be01743dU, 0x3e3c7ea23deb0706U, 0xbd8455a1be8246ffU,
  0xbebe9f76be898f26U, 0xbd840c7cbd7bd8bbU, 0xbe4f6059bea77dd5U, 0x3db4f8293db74af2U,
  0x3d5a3692bea93721U, 0xbeae8d9c3a4ffabaU, 0xbb00fe68be89ebd5U, 0x3d6964a8be5ccabbU,
  0xbe748ffbbeaf4b2cU, 0xbce1d9103dcb9e1fU, 0xbe2c2c67be55a4baU, 0x3cf2ca5f3d981372U,
  0x3b82ffefbd60026aU, 0x3df529613ce75b19U, 0xbe8c9aac3d9c51ebU, 0xbbae6a693cfd690eU,
  0xbf27f890be95ac04U, 0x3caf4b88bd17ee60U, 0xbe90ce10be3b6ddcU, 0xbf274eefbd5440e3U,
  0xbe8ad9853d75215bU, 0xbddce4cbbe008f25U, 0x3e143568be7222ddU, 0x3c8c3b05be1fc63aU,
  0x3e646b0c3eb383f3U, 0x3dc623a8bd921e8bU, 0x3ca2dbb83ea5a377U, 0x3dba37a83ee056a7U,
  0x3e41d81abe84dd27U, 0x3e31189f3e949bccU, 0x3e5d31b7ba87180aU, 0x3d6bcf9f3ef3a161U,
  0x3edc49693ddd8079U, 0x3e016c5d3d05e8ceU, 0x3e3a23393ea68c75U, 0x3e3ebe593ef59ab3U,
  0x3e9a4f453df1bb09U, 0x3ead75573e75f6a7U, 0xbd6f932c3eab3d46U, 0xbdb9ccba3e87b543U,
  0x3e8b05eebeb84437U, 0xbcad3453bdef36f3U, 0xbd817601bd94cc1fU, 0xbef19bbdbd580cd3U,
  0x3dd32eeb3dee49f7U, 0x3d4d089b3d97e983U, 0x3d0d4c7bbd7e13a9U, 0x3dd3457e3e83b494U,
  0xbd4ee7a4bee1b493U, 0x3e0dd06fbd681b2dU, 0xbe4a4083bf0214caU, 0xbdf1e3e93d99915fU,
  0x3c66efb4be6024b2U, 0x3dd7f9013dadbd28U, 0x3e387da4be55edcdU, 0x3e0700a33dc7ab31U,
  0x3e7ae1ecbe25db4dU, 0xbc179e56bd88a08eU, 0xbd41dea3bef35a90U, 0xbbeb3dffbd7eea6fU,
  0x3cebcfdcbe022bbaU, 0x3d1fdf76be1576b4U, 0xbe83bbb8be0d38deU, 0x3ac54945be70ac72U,
  0xbe061905be130322U, 0xbe089e463cff8157U, 0x3d8f85ecbe48e13aU, 0xbee69928be81a9c4U,
  0xbe949980bef11eecU, 0xbf00ee04be4dec1fU, 0x3b08765abeaa8b8dU, 0x3e303947be45020cU,
  0x3b1b7505bc646a35U, 0xbce894dabdf4f5d5U, 0xbda192a1bdb0681aU, 0xbed29f12be56961cU,
  0xbe4d11493e80fe1fU, 0x3dbb8ce93df99567U, 0x3daf6262bea1b278U, 0x3dfd66e33e98dd65U,
  0x3b3746f3bc732754U, 0x3db3bbcd3de2be9aU, 0x3d3ecc2dbcc37845U, 0xc011ba59befbbae1U,
  0xbf2971303ebf45ccU, 0xbebed239bda2e95cU, 0x3de3c9163ecaac9cU, 0xbd837064bd6c7233U,
  0x3e7d4daf3d97eb61U, 0xbdc2369f3db94936U, 0xbd4b91d1be9ed20cU, 0xbf9b21bfbca856c6U,
  0xbfd2069a3efef8efU, 0xbfdb6ab6bf083160U, 0x3ddced383ee76faaU, 0x3d7f96a5bfa51c31U,
  0xbe8db24ebd8e1027U, 0xbde7b502bc96c4a0U, 0xbb9bb9f73e717109U, 0xbefad6c3be04f1f6U,
  0x3e56775ebe27e43fU, 0x3e5d431d3e16c7a6U, 0x3d179dd1be5a9601U, 0x3d4ed878bcf5b8bcU,
  0xbdde0191bd1f025cU, 0xbcaf4ee7bdaf88a9U, 0x3e3fabe33e8f2d44U, 0xbff6efefbec73af4U,
  0xbf7ed8613d8a2af5U, 0xbf9771d1bb58f1a7U, 0xbcc2b7763d29d24bU, 0xbd60af79bf233814U,
  0x3e27b01e3db000d6U, 0xbe09a64d3dc587d8U, 0x3e2138c83cf88f29U, 0xbf89c39e3e0671caU,
  0xbfc123d0bd56cab4U, 0xbfad378ebe995157U, 0x3b05a2403e80d859U, 0xbdd0d396c00172a4U,
  0xbf4d4d5cbe0a838fU, 0x3d9d8320bd260e30U, 0xbd387caebda4f4e1U, 0xbf4454c03e1aa912U,
  0xbd95da39bf606733U, 0x3e2a02023e6fc6c7U, 0xbe935f1abeae1f83U, 0xbdecdc043dbbfb50U,
  0xbf6654a4be1ebfb5U, 0x3dda756a3dda2787U, 0x3c911b15bc6159d2U, 0xbf5d36ed3ded0c3fU,
  0x3d4398bdbf6c5ef0U, 0xbe473edb3ceff34cU, 0xbe5f789fbe03dbccU, 0x3d68b7a83e4b0861U,
  0xbedaf074be98405fU, 0x3dd328393d66fa79U, 0xbdd904adbd30e574U, 0xbf04db3c3eb6cbdbU,
  0xbeb17dd0bf24dcb4U, 0xbea8c278bddbaa10U, 0xbea2a0b23cf36cb2U, 0x3d98f8b1bf246ce2U,
  0x3eaa2a243db6eadaU, 0xbddb8aadbdecfeceU, 0xbe55b0353ec776f2U, 0xbde223083e6acc84U,
  0xbf8a7a6b3de26ea1U, 0xbd8b91c83dbaf8eaU, 0x3e66da8abea7e58bU, 0x3dc43652bdf58c68U,
  0x3d052015bf115537U, 0x3e0fc27b3e13528dU, 0xbe336c063d9e3542U, 0x3eb51030be8ab98cU,
  0xbcdad6f1bc320c0fU, 0xbdc780263d883636U, 0x3e9fe5b4be91c092U, 0x3cdd7e4dbf367733U,
  0xbda27710beaebff5U, 0xbd3020223c646f6cU, 0xbd4c9dcabd9b38adU, 0xbcbcf5973cc60989U,
  0x3f5fb068be5f9440U, 0x3e6c94df3e7c69eaU, 0xbf6710053ebbcf24U, 0x3e1816b03f08ff67U,
  0xbe9789babf472a08U, 0xbda4b26ebe0bf619U, 0x3deb6f80bf025e84U, 0xbd784f9b3dd53861U,
  0xbc8a0b99beb5efddU, 0xbef6c4593e82f294U, 0x3d96d66cbf04cd5eU, 0xbcb12b1abd92b249U,
  0xbe2abeb7bdf04f04U, 0xbd8dade5bc689d90U, 0xbdb9ddc0be296c26U, 0x3e0ee03a3e498b6eU,
  0x3db803a6beaa553aU, 0xbbc17d243ba8ae40U, 0x3dc2229bbebb07f2U, 0xbd7f31613e114f22U,
  0x3e7c36673d862957U, 0x3dbb5887bd2d1743U, 0xbe8de2be3d3042e2U, 0xbf273a933e679c99U,
  0xbf3d286e3e485e61U, 0x3e2b8a86bea3768fU, 0xbe4f8b87bdc6db39U, 0x3dc19f543ead4dadU,
  0x3e6a2399be07b8edU, 0x3cd413a5bd102d48U, 0x3dad0ea53e946c3dU, 0x3d2cc71cbeb21db6U,
  0xbf3189b2be45bbe9U, 0xbf6d8da63e11f20dU, 0x3d6d08f83ed99049U, 0xbdd2510b3bddb346U,
  0x3e8b5ff6bea0e41cU, 0xbdd02f453b4cb403U, 0xbd383c133e43ee80U, 0xbe7ce32e3f0e0c23U,
  0xbe01b76dbc98ca84U, 0x3ef4b6efbe23b50fU, 0xbe902bae3df429bcU, 0xbc927a94bd9edeabU,
  0xbf27239dbe089bb9U, 0x3c0b1e833c892f0aU, 0x3e19e3a7be25b6feU, 0xbf405e4c3e01e93cU,
  0x3e900301bd9e44b9U, 0xbd49ca75bd1529c1U, 0xbe29feedbf0fc83eU, 0x3bb74f183cab1848U,
  0xbbe741debc9d0a16U, 0x3d8917a43c4bca27U, 0xbd5509583bc4746fU, 0x3e5f6d283cb54e6eU,
  0x3ed9506e3dad23ddU, 0x3ea494453d9e0aa3U, 0x3da34ebebf1667ddU, 0x3c09f24c3e0c82c0U,
  0x3d4410c83e7aa61cU, 0x3c60b5373d8fea1aU, 0x3e87115ebd8a0d84U, 0x3d847a2bbe9d8fe5U,
  0xbd776dc23cc1bbb9U, 0x3c8a5ef43d8cd6ecU, 0x3e400b2bbe9a74a1U, 0x3dc1d0a93d989aeeU,
  0xbe7f80cb3ebc1284U, 0x3dc1e8ca3d757670U, 0x3e99d7243d02f027U, 0xbf227ca0bf222a03U,
  0xbf049cab3d336a05U, 0xbdfffff3bc3c2d92U, 0x3f0edb39bebd4b1bU, 0x3e1943e9be7ca798U,
  0xbebe58773e638e14U, 0x3e02bb863baa46eeU, 0x3d10df1abad286fcU, 0x3ec688da3d844b5fU,
  0x3efa63343e38e7b0U, 0x3e4993983e31899eU, 0x3c966f86bec1595eU, 0xbd284c2c3caf6d68U,
  0xbe7502da3e26d22dU, 0x3cc334f8bccd45b0U, 0xbc9589773dd10993U, 0xbe012f70befcdda1U,
  0x3d5927173e402bd3U, 0xbe89068e3e188c8aU, 0x3d30f675bf1afd0bU, 0xbe171fb5be47fd9fU,
  0xbe65b75cbe0325ecU, 0xbdff9687bd6c2f4dU, 0x3e7eaeb2bb39d795U, 0xbf7ff5a4bf056416U,
  0xbec82bea3eb452ffU, 0xbcd9f2c0bbddfda1U, 0x3e855be2bf13059aU, 0x3d1c9e25beb4c892U,
  0xbe37fe043f37abb2U, 0x3d2bbf883df27874U, 0xbcbe5773bd9b6d83U, 0x3e839e3e3d0e83f3U,
  0x3ebb2d253d2f1f13U, 0x3ec6838a3db265a4U, 0xbdfc6a4cbe878cb6U, 0xbd22e43c3e249d3eU,
  0xbddb90413e17e6a0U, 0xbe10b1773dd28ef5U, 0xbd51f44c3dc14866U, 0x3ec55836be5e1b24U,
  0x3d91068f3b2fc721U, 0xbe2cb43b3ca80d0dU, 0xbed08fa2be4b3c0cU, 0xbddc87b83d9e2d35U,
  0xbeae04a5be045e8aU, 0x3e061d38bc49b1bbU, 0x3e55159a3d757b50U, 0x3d852e09bf0b69b6U,
  0xbdcc54763b01efc6U, 0xbdc725cf3dd9546bU, 0x3cd26a9cbf31c454U, 0x3d2a2f613dbb6157U,
  0x3eb6af223e4cb76dU, 0x3e748124bd76244eU, 0x3dc6b04fbee4fc0bU, 0x3e917789be911379U,
  0x3e42ff1d3e50d59bU, 0xbceaab3bbcdf79edU, 0x3e71258f3e7b65f3U, 0xbd3e985b3e7d4c4dU,
  0x3d1efe58bea52246U, 0x3f28b52ebea5e7dcU, 0xbf6b9140be18a424U, 0xbf3378eebf4e6d60U,
  0xbe67a44bbddc4ba2U, 0xbed36bfcbc7dfb7bU, 0xbb978dde3f333159U, 0xbf0d8867be5f60e9U,
  0x3d923fb53eab6df6U, 0x3f7e0f25bd24321eU, 0xbf26ee25be4db5a7U, 0xbf5dfb9bbe6237fcU,
  0xbdf4c53dbef5b336U, 0xbe93ca1b3e13e455U, 0x3dd1f9763ebc42bcU, 0xbe900be2becd4e03U,
  0x3e170307be2a9706U, 0x3f71dfaebe6bbf8fU, 0xbf25aae1bfa85f79U, 0xbefd486c3e3339c1U,
  0x3b86ba16befd7219U, 0xbe9c1930bbbaf854U, 0x3dc34649bd76bd62U, 0xbe3fe2b1bf21ac20U,
  0xbe19ad0d3c833002U, 0x3f9a16a3bec93a92U, 0xbf8e05eabe7be437U, 0xbf3d3953bf156d8aU,
  0xbe450abcbfbdf826U, 0xbd207a2e3cac38a8U, 0x3ecf28543f1f6846U, 0xbd8642babf211361U,
  0x3e820eb03eb01fa3U, 0x3f7496be3e5fd1c7U, 0xbf318799bd7e8db6U, 0xbf8510be3d03b390U,
  0x3de6525ec04960d1U, 0x3c71660ebd8d4d6cU, 0x3ede23983ca645efU, 0xbcf8fc94bfcd186fU,
  0x3dfdd8df3e712cf5U, 0x3f2dd00f3ea9e163U, 0xbf4d70debfae1513U, 0xbf75b0723e4ffcaeU,
  0xbcef7761c04a56d1U, 0x3d7d351dbd505750U, 0x3ec16c3fbf716d2aU, 0x3dde787ebfe671c7U,
  0xbdbde1273ebcc647U, 0x3fd06bb3bf0a5756U, 0xbf2d3a5d3e0d16e9U, 0xbe99f320be60aed5U,
  0xbe1f3589bf84d4d3U, 0x3da2691abcb3956bU, 0x3f1564c43f00f160U, 0xbe0b7149be0ed67eU,
  0x3e8be45b3f0040aeU, 0x3f6f1c39bae35a36U, 0xbf5878053dc0fa30U, 0xbf1a8989bdc8f79bU,
  0x3e3acff2bfcbc6aaU, 0x3e8426b6bd1fa7b8U, 0x3f218dbabe8afd75U, 0x3e13b95dbf6e962bU,
  0x3ea669593f2b9432U, 0x3f6d41c43eac3f66U, 0xbf8c8351bfcc4d51U, 0xbf82692d3ebb10bdU,
  0x3e927a02bfd3809fU, 0x3e5a65f7bdde6a4fU, 0x3f14633cbf77e09dU, 0x3e1043fbbf82c563U,
  0x3d0eec4a3ecf45fbU, 0x3fbd660fbec9cb3dU, 0xbf0eb6cf3d928442U, 0xbe4ac68cbf38375fU,
  0xbe4609e6bf148e86U, 0xbe13fa783df71f1bU, 0x3cebb4313f76c42aU, 0xbee421423d5cc0b5U,
  0x3d84e7893e9c8e6fU, 0x3fac4bcfbe3b05a6U, 0xbf024f8b3d86c918U, 0xbeb20dbbbde0daa8U,
  0x3ae0b497bf321b19U, 0xbdcdfbfc3da486c2U, 0x3e9b5dea3de76c05U, 0xbe8eed54beed557dU,
  0x3e1ec4b43d621f68U, 0x3fa7b827bdc445c6U, 0xbf055122c016e47eU, 0xbd990136be67e016U,
  0xbdfcf883bf68b254U, 0xbeec4e333dd0ee5fU, 0x3e4cf31bbc3b0810U, 0x3e49da4fbf0fd1baU,
  0xbd6879093f0c4debU, 0x3fccded6bdaa4d21U, 0xbf31db8a3ecdb46eU, 0xbc5d2846bf3f0daaU,
  0xbe4d4914bfc630fbU, 0xbe9bb2ce3c59414eU, 0x3f08597f3ee6af7cU, 0xbeb73a9cbdab1a78U,
  0xbcdf73be3f149bceU, 0x3fa6cf843e2dbe6eU, 0xbf28c0e23de7dfb2U, 0xbef3014bbea452f5U,
  0xbe085f6ec004df48U, 0xbec131003d94a747U, 0x3ec9c0c1beb90287U, 0x3db330a4bf78dff0U,
  0xbe03d7e83f14f0d2U, 0x3fad6e3e3ca2950cU, 0xbedd7daac00d3a09U, 0xbda515f8bea0e439U,
  0xbd6f5a9bc0031ea4U, 0xbe862deebdeab151U, 0x3ecc4878bf49d9bbU, 0x3e130cefbf2672fbU,
  0xbe3c5b8b3efd71ebU, 0x3fd1a6a6bf047126U, 0xbe8e22363eeb40feU, 0x3ee93849beb43a6bU,
  0xbe999353be96a55fU, 0xbeec988e3e3e0452U, 0x3f07189a3eefb19cU, 0xbd8eae743d8f5bc0U,
  0x3e18a5ce3f1a3ad4U, 0x3f9d415fbc97be6cU, 0xbef910b53e869af8U, 0x3ea8c81abc2a4004U,
  0x3d9b0d78bf18eec8U, 0xbed9a297be13a074U, 0x3eccda7dbe5c348eU, 0xbb738eb8bf0ba5a2U,
  0x3c82ef413f18d38eU, 0x3fa6881bbea3141eU, 0xbed7587dbffecc89U, 0xbd5ec604be364ae3U,
  0x3d5d5405bf541708U, 0xbeba5ef7baa38c87U, 0x3ee5961cbebc64baU, 0x3eaa0714bf03d23eU,
  0x3d359d97be3edf13U, 0x3fcd5a9bbf137fc9U, 0xbde30493beadb3ccU, 0xbd84b5fcbea02bd6U,
  0xbe3c7cd1bdd02630U, 0xbf9dd8343d426fabU, 0xbf854780be541f01U, 0x3e9ed6ba3e50e973U,
  0x3dba237cbe399be5U, 0x3fc0666dbf0efeccU, 0xbd7a9013bd9e9d2bU, 0xbdbb0d643d22bdd1U,
  0xbe15f5e9be604a1eU, 0xbf9b1e32bd070431U, 0xbf9d299abe3c61efU, 0xbd9f3e7a3de6bcfaU,
  0x3e12d6eebefe0c14U, 0x3fc5a0d3bed64d76U, 0xbda5b99abf23b1a6U, 0x3e1ddd233e6cb717U,
  0xbe35375ebed6acf1U, 0xbf836e5f3d8bf819U, 0xbfe0f34abeaebe7bU, 0xbe92702e3d5d20c8U,
  0x3d5f8b773ee29bacU, 0x3f317807bef865d8U, 0xbe2d867e3dd9cda4U, 0xbf1b7018bc0306a2U,
  0x3dfa7fa6be1028e7U, 0xbf5bd0e83da2d731U, 0x3f3865d4be774710U, 0x3f2446033d89bb6bU,
  0x3e9337953ef6eae5U, 0x3ef49bd53e408adaU, 0xbeb6e9f33d843a40U, 0x3d2c00e03f0cbe33U,
  0x3eb2647dbe92a777U, 0xbf15e3d03be9b3b8U, 0x3f568cccbe8c52a2U, 0x3ef298373e38a1b9U,
  0x3e7e9d893ee3fad5U, 0x3ea21cc33ec33511U, 0xbedca7483e9e2b8dU, 0xbedabc0d3f33570eU,
  0x3e4dbf5ebe43bd1eU, 0xbed7f6d23e09d02cU, 0x3f35aa6ebe9dd320U, 0x3df9b3793d2e6f87U,
  0xbe5bde35be5a06e8U, 0x3f24e2f0bfc12af3U, 0x3f055bcdbd279a05U, 0x3e8b8a17bed82570U,
  0xbe447d6abe2c6505U, 0xbfb63130bd83aa7cU, 0xbf83b93fbe7f2b6bU, 0xbf030579bddb2f3fU,
  0xbe8795e2be1c22ecU, 0xbe5efb90bfae431aU, 0x3f1233a83db4d0efU, 0x3e4f91a6bf348768U,
  0xbe573221be329609U, 0xbfce4f46bd879189U, 0xbf826044bd86d72eU, 0xbf41bf5f3cbaf90bU,
  0xbeb7ec1cbee081baU, 0xbf7d37d1bfc31ef3U, 0x3f08ce5ebea9087bU, 0x3dfde1b3bf75aac9U,
  0xbe272b11be46802bU, 0xbfb9868bbca0c3d8U, 0xbf7aec50be1c5fedU, 0xbee68aaf3e6f5d7bU,
  0xbe88b5743f519e13U, 0x3efe7becbfded200U, 0xbe63f6b4be59c389U, 0xbecfb402be2dacf4U,
  0xbf488a85bea58343U, 0xbf8cd44c3cb245d8U, 0x3f64e3bebed51848U, 0xbe5d363dbe80c398U,
  0xbe1bbfda3f8727deU, 0x3e989acebf28ec9cU, 0xbe13efadbef57dacU, 0xbf330e433e5b8ff8U,
  0xbf242293bf0e1bd3U, 0xbfd4b2423c42083aU, 0x3f000968bf5dbc9dU, 0xbcc6b805bf080f55U,
  0xbe69ed8b3f3c2695U, 0x3e241666bf0b607bU, 0xbe8befb5bebe23acU, 0xbf01d14d3e941aa8U,
  0xbef9e77abf604304U, 0xbfb4d11c3d5f42b9U, 0xba64be2abfbef1faU, 0xbe8fdd25bec91306U,
  0x3e5bcc18be94657aU, 0xbf2b378dbfa0aeadU, 0x3ea168503e2fa21bU, 0xbde8a89cbe908f89U,
  0xbedca00abd2e7f1aU, 0xbf98ab95bcfc1ea0U, 0x3f3e0f0abe6de036U, 0xbdf579debb185dacU,
  0x3e1a82ffbdbe4100U, 0xbdcb7056bfc810b7U, 0xbe0c910b3e1caacfU, 0x3d94ab3e3e7a56faU,
  0xbeb6e7a7bd8a79b4U, 0xbfbfc9d43c1a4498U, 0xbe36c8d6be867346U, 0xbd6e70413c1a1418U,
  0x3d0405253e82d3e9U, 0xbf3d7303bf21d906U, 0x3daa9da83e2f9b75U, 0xbe822d3d3ecb9bd3U,
  0xbeb4e449be3d3b0aU, 0xbf8d38423c17f8b4U, 0xbe667d54be30abc3U, 0xbe0b68ffbdd78491U,
  0x3eabd8afbd44b8d3U, 0xbdcc2195bf3053c3U, 0x3f0777e03eb59818U, 0xbe72b5e6be2db86cU,
  0xbe955e2ebef6a1eaU, 0xbea750eebdbba353U, 0xbf16c6b5be245663U, 0x3e38f85ebdffbbb3U,
  0x3e9f9e6abe7be417U, 0xbe90446bbef332f6U, 0x3df3ef5d3ed60351U, 0xbea9b9c33e80a0caU,
  0xbdec68e0be985ab9U, 0xbe9063e6bd2f135eU, 0xbf88c9debedae932U, 0x3ebb19f5bf44c3f9U,
  0x3e7e55dd3ea88affU, 0xbf2c3ddbbe1d7620U, 0x3e2ac73c3f3752d2U, 0xbf30c7d93ec50858U,
  0xbd9374adbebb9b0bU, 0xbe0dc5273cf678bdU, 0xbf62c954bf08217dU, 0x3d8fa26bbf01cff6U,
  0xbe92ef863c3a6a73U, 0x3f235d9d3ed884d5U, 0xbf30fa2e3e145b2cU, 0xbef75ab03eb32bf7U,
  0x3ed5fd05bf46a395U, 0x3f049d4c3de15dbfU, 0x3e95f0f9be3f1b4dU, 0xbbdb4871bcaad04bU,
  0xbeb5906e3f2f28a6U, 0x3f15c2f23e43c6caU, 0xbdeeedb6bee09fccU, 0xbb96a9073e78edadU,
  0xbbc803c13e194ca2U, 0x3e74e5cfbdb14f2aU, 0x3e4b91bcbe632464U, 0xbf7211963e0811ebU,
  0xbe9a338bbe2426f4U, 0x3d9e8acb3e5b0017U, 0x3d8c06cbbeb9c3c3U, 0xbe4dafe03d84df86U,
  0x3d71cee63ea21e3aU, 0xbf50ea91bde94f79U, 0xbedbfb4c3e952ba5U, 0xbf6e88a2bead9c62U,
  0xbe336a39be682300U, 0x3ee4654b3ec60189U, 0xbf5a0156bd5f8c73U, 0xbf584ad23eb1046fU,
  0x3e50a6d5bf43050aU, 0x3efa92abbe20fa35U, 0x3eb448ffbef3e7f0U, 0x3f135254bc92dc4dU,
  0xbee3144c3e21a542U, 0x3e79373a3c15e4adU, 0xbdd04382bf0a7013U, 0x3c17131b3e551a79U,
  0xbeef8da33e283e7fU, 0x3f2a673f3d662121U, 0x3eed3be0be107fc8U, 0xbb18315fbddaa446U,
  0xbec3ce79bf8f64d3U, 0x3f5c9d68beae3687U, 0xbd08c76dbf89b4c4U, 0xbe736f8a3e0c234cU,
  0xbf4049973e6ca4adU, 0xbfa925683ddd4754U, 0x3e8eb4653d264faaU, 0xbe86ee39bead0228U,
  0xbd466624be480017U, 0x3f555eb5bd190627U, 0xbf54c971bf99eb4cU, 0xbf1623d23f0ad3b4U,
  0x3dca4a0cbf7bf804U, 0xbdcb36d73cc0deadU, 0x3d6312aebef80aa9U, 0xbdf88ce33e188e45U,
  0xbe7e3b123de22797U, 0x3e47d7debd8a6080U, 0xbd0e88c3bf0ca43eU, 0x3ec9f6733e7c49eeU,
  0xbecc47473e972a52U, 0xbdaf9b08be17b1ecU, 0x3eaf31c6bee80127U, 0x3ef7aabc3b7f3b88U,
  0xbe1b23edbf90cdefU, 0x3f9af1183e90673fU, 0x3de9565fbfa8b14fU, 0xbd873182bd5cdaf9U,
  0xbf44b8073e86c8d4U, 0xbf4688b73dd0be91U, 0x3f3d93833e5f16a0U, 0x3ed5875ebdf9bde1U,
  0x3e0236573e936964U, 0x3ef3eca5bf38bb6dU, 0xbd9194e53e67c89aU, 0xbca8dd77bec50e76U,
  0xbe74968cbda19fbeU, 0xbffe3e8f3e2aa85eU, 0xbf5620bdbe3b04c9U, 0xbe689388be03fe24U,
  0x3e8fdf9b3daddb01U, 0x3f21663bbf951a9aU, 0xbde095423e51fcacU, 0xbeadf9823d9ddb6fU,
  0xbd8b2d81bdfdef3cU, 0xbf8e4172bd83410eU, 0xbf073c2ebcd77cfbU, 0xbe174803bdffea5bU,
  0x3e1edb283e15935bU, 0x3f67e148c001661fU, 0xbe519ed83eb56d53U, 0xbe5cfcfabe173013U,
  0xbc67b4cabe6fada1U, 0xbf91fc683d817f00U, 0xbf6ecde9bd6d8b61U, 0xbedeb094be04124dU,
  0x3e3b2a4e3e6c5e66U, 0x3f1b9db2bf11c81dU, 0xbe3fd68d3f1463e1U, 0xbe5afed53c957f95U,
  0x3dfd2cadbe052c52U, 0xbff8f1533d293793U, 0x3f29d3adbec29b1bU, 0xbeda4d90be00f884U,
  0x3e71c3433e59639dU, 0x3f6b6a5cbf192cf2U, 0xbd2b5a993e1387aaU, 0xbe88c5193e9480feU,
  0x3e907219bdc57254U, 0xbfb32689be1f12cfU, 0x3f2934b5be5a3c71U, 0xbed30eb7beaf497dU,
  0x3e8f554abdb5b051U, 0x3f85aee6bfa5b402U, 0xbee44d3abe673325U, 0xbe68f063be9e2055U,
  0x3eba1746bebfb08eU, 0xbfc87c32bdd7823fU, 0x3eedd080bdfd01ceU, 0xbec3656dbe34cebfU,
  0x3e0c74683ee9b8b3U, 0x3f622812bef1b581U, 0xbde5e0ef3e82144aU, 0xbd625afcbdfe72b1U,
  0x3ec97bebbd1de274U, 0xc00020fdbdba84beU, 0x3e44aa13be58f7bdU, 0xbf7d458bbe6f8765U,
  0x3e8b6c873ddbd1d4U, 0x3f032005bf56527eU, 0x3cd8f3733e5cf5e2U, 0xbd986b61be95062aU,
  0x3ec07b1dbe203389U, 0xbfa71c883da399d0U, 0x3ed9ecf9be71b8dbU, 0xbf26cdc6be683d7eU,
  0x3d7b5b25bdb6ba8bU, 0x3f143162bfc858fbU, 0xbdf94827bda0338cU, 0xbddca491bf3a36ffU,
  0x3e87c79abe92e073U, 0xbf901011be1ecbf8U, 0x3ef33a18bca02f53U, 0xbed281aebda64e5eU,
  0xbd87c4c43fa1f4e0U, 0x3e75ec0dbd0e373aU, 0xbf07e882bd23264aU, 0xbfa184883c355e9eU,
  0xbe41d35cc01c39dcU, 0x3e84c5193dae21a3U, 0x3f203a8dbf39e430U, 0x3e0aab87c032f32bU,
  0xbe00831e3f84cb71U, 0x3ecbbc323e5c274bU, 0xbe8b2cc93e181719U, 0xbfabe4d23e4811e7U,
  0xbd711812c0128e52U, 0x3e824b61bd06de2bU, 0x3f2b106ebf92dc6aU, 0x3e654d8bc02b54c1U,
  0x3c4139743f6289b3U, 0x3e43d369bd899cb8U, 0xbdb0a5d7be8ba479U, 0xbf66487b3d4bcf45U,
  0xbc226f28bfe1b760U, 0x3eadb3fb3dbce575U, 0x3f3d0030bedaf842U, 0x3dfd6692c014f23dU,
  0x3bbbe1e8be0cfda4U, 0x3ed0c3643dce8990U, 0xbf09cfeebd52e03fU, 0xbf33dbbe3e7bd15dU,
  0xbd4de260c00f4384U, 0x3d871f94bde3d6d5U, 0x3f3402c4bfb6c074U, 0x3e864e78c02f7559U,
  0x3d88fde7be4a0f3dU, 0x3ea6ba753ddd415bU, 0xbf1150093dd0c167U, 0xbf4c83e33e14343cU,
  0x3d673843c00f6492U, 0x3e8c1d693decf09fU, 0x3f033263bfeb2990U, 0x3d2fd837c020d7efU,
  0xbc9508e6bec8c7dbU, 0x3ea61a6cbc4a34c3U, 0xbe878598beeadf35U, 0xbf1d1268bd035f57U,
  0x3d3075c0bfde65b9U, 0x3e89fd2e3de6f5f1U, 0x3ef9e5ebbf9f042fU, 0x3e1c6e50c008e118U,
  0xbcc518e1be1cf9eaU, 0x3f0858593e2fc3a6U, 0xbe826c02bc23d7adU, 0xbf0f0d9a3ded160eU,
  0x3e1f42e6bfb78ee4U, 0x3e51959dbd57f2adU, 0x3f3883cdbf85e99dU, 0xbc908144bfcb2343U,
  0xbdcc59babd8fd61cU, 0x3f08de4b3e001192U, 0xbe129cb03d78a55bU, 0xbf2a9fbfbd430a84U,
  0x3e2b4c9abf295e4dU, 0xbc1383fc3c9750f6U, 0x3ebfaf63bf8bf20aU, 0xbcf3dd73bfe0cb4fU,
  0xbe3d3cb9be93527bU, 0x3ee52040bd060b45U, 0xbd626833bf49ae03U, 0xbebfb5a93d8e42cbU,
  0x3d84b03ebee3d58bU, 0x3de941453d5c986fU, 0x3ec16809bf13db60U, 0x3e576f23bf08d97aU,
  0x3e3d3648be9d00d0U, 0x3e3f56d4bf822eaeU, 0xbd9d431c3d4b96dbU, 0xbdeded63bf4e4e75U,
  0xbe49f08bbe1ceff4U, 0xbfaf3c01bc5e9b32U, 0xbf9f66e2bb8f2be1U, 0xbe7d699e3d7000fdU,
  0x3dc238fabe9c7527U, 0x3e7125afbf6658afU, 0xbdd11ee3be510fb5U, 0x3dde454e3d317112U,
  0xbde1e895be406f38U, 0xbfbd899cbde9c863U, 0xbf60f0053e2d50baU, 0xbe93a0fa3d0dc915U,
  0x3d9fccfb3d4f81e6U, 0x3f007919bfd5b3fcU, 0x3d35a848bf1e0a47U, 0x3d2c4869be8ad7b1U,
  0xbdc1b50b3d059b57U, 0xc01156823dbfe594U, 0xbfb32e8ebc3f4420U, 0xbf8153043d3adc41U,
  0x3e9aa2bd3edfce40U, 0x3f1051ecbf794ad6U, 0xbd2384e2bd3b3e96U, 0xbbd368a5bf282dc8U,
  0x3dfb905d3dff952bU, 0xbf9784a7bdc277f6U, 0x3dc8f4c73e84eca1U, 0xbdd641363cd5c47eU,
  0x3dc0f4b13e3b9fdeU, 0x3eedba41bf9b89baU, 0xbde0cfa93cce461fU, 0x3d944d2d3e1b5503U,
  0x3dece80bbd024388U, 0xbfde53943d9ccec0U, 0x3dc378f03e65f0e0U, 0xbe6fffd0be4e0782U,
  0x3deb333d3e7446f3U, 0x3f2507c0c02833bdU, 0x3d013d5dbf9b2098U, 0xbcef61b2bf04db2dU,
  0x3e5601073d03749bU, 0xc02c54e2bd7dd90cU, 0xbf3e00a43da7088cU, 0xbf882d20be5b3da5U,
  0x3e6b04493e8f206aU, 0x3de84e3dbfc45030U, 0x3d974c1cbd8a30caU, 0x3c05fb85bf87edb5U,
  0x3d7d2238bd33ecf5U, 0xbf46d258bdc2cbcbU, 0x3dd9c53fbcf1cf2eU, 0x3c730a6dbe4dbc9eU,
  0x3e0949883eaf7dc8U, 0xbe49637abf8d1f05U, 0xba3040d2bc7f5e34U, 0xbdb9d397bf478959U,
  0x3db3a86bbdae5924U, 0xbf60054f3ccc5d18U, 0xbc7770c93e2fdb31U, 0xbe9027653c415c1aU,
  0x3e0630fc3ea0873eU, 0xbec8b3acc00fd040U, 0x3da4697fbdb4b617U, 0xbd8718c8bf1f1d78U,
  0x3dca2373be33c8d5U, 0xc012bc74bc836822U, 0xbf9e4733be423260U, 0xbfb700c93d686978U,
  0x3d2d2cbe3e8865c0U, 0x3e229931bf1060e5U, 0xbe816221bf24fa2dU, 0xbecc4dad3b53e7c8U,
  0x3e29316cbeab17c0U, 0xbf388769bd40dc71U, 0xbe765597be130e65U, 0xbd060692be63cc23U,
  0x3e8def893f03a28cU, 0x3d8153d4bf1904a0U, 0xbe3d0327be881826U, 0xbeb2681b3da2bfbfU,
  0x3aa87ea7beca2b4dU, 0xbef2de243d7a14c1U, 0xbe6a5435bec56600U, 0xbe74ac67be324406U,
  0x3e8744efbc9979c4U, 0x3e5f7b4cbefc42f5U, 0xbe97e6fcbda235efU, 0xbeab0f533e211e18U,
  0x3d5c467bbe0d1062U, 0xbf171ca7bdfefdcaU, 0xbe189ecbbea5ccffU, 0xbe858767beb4fbcbU,
  0x3e5aba35bc953179U, 0x3e8c5da8beb3629aU, 0xbefac95cbf065af3U, 0xbf003d75bdc1afcfU,
  0x3a3ef0eabf2127cfU, 0xbf22690e3c630e9fU, 0x3d76b80bbec7af57U, 0xbbd69779beb3e4acU,
  0x3e8b5c103d94bc78U, 0x3e887519be3069f6U, 0xbebe4187be0dea64U, 0xbec07c4fbd691bc1U,
  0x3e5d1101beb98220U, 0xbf14d859bdd4f305U, 0xbd1ddd42beadb56aU, 0xbe1fe10bbeb73328U,
  0x3e4883cebc6ac8e1U, 0x3dcd5714be647cb2U, 0xbeb4045a3cd98efaU, 0xbef69553bcfe71c1U,
  0x3e379d96be797707U, 0xbede15573de3b269U, 0x3d6fdfc2bebaaa54U, 0xbdf94eadbeddb1ebU,
  0x3d06429a3da85ebcU, 0x3f1f0572be9930ecU, 0xbe98b770bede2600U, 0xbd9230e5be0e4602U,
  0x3e39daefbe7a0f5dU, 0xbf0bbadbbd359b95U, 0x3e6357a4be53a20cU, 0x3c2e1ee8bec5e5adU,
  0x3e68d9d63e34080bU, 0x3f19b62bbda1f858U, 0xbe9da26cbe80383eU, 0xbdcef470be5a8306U,
  0x3dcd6a9fbeb0f93cU, 0xbf1686483df40c9bU, 0x3e192dcabe2a73adU, 0xbd3a757dbec04e96U,
  0x3e934dd9bdc2fb30U, 0x3f1b9016be2e7a59U, 0xbedec1b23e6e9841U, 0xbe546deebe4bd22dU,
  0x3e7db648bea73facU, 0xbee16a44be187a4cU, 0x3d7c6763bef9b9edU, 0xbc3458c7be1b644fU,
  0x3e59dc163df086a2U, 0x3f83b9f6bd01185fU, 0xbd57bad43f1698eaU, 0xbeb29c983d55971eU,
  0x3c2766babec51848U, 0x3daa52b43df5e357U, 0xbeefdf113d20065bU, 0x3e4f7b1bb9ed6288U,
  0x3df8b7633e3cbe11U, 0x3f8f8793bcb0dc83U, 0xbe8904ba3f0110d8U, 0xbcc976403e61b594U,
  0x3d9f585ebec9df10U, 0x3d3ca39a3c970722U, 0xbe9b5194bc151a70U, 0x3c3a4060bd621c4fU,
  0x3e80f0dbbe431e05U, 0x3f89da4b3dbdd3f5U, 0xbe16739dbf3b7a8aU, 0xbe151cf83e0d66a8U,
  0x3e251b17bf111047U, 0x3d555575bc2472d9U, 0xbed743d4bcade018U, 0x3e3e296dbe03222aU,
  0x3e4dc5623e8eb818U, 0x3f8afeedbc859817U, 0xbeb79b523f03d617U, 0xbe23d4bb3e15b28cU,
  0x3de6bbaebe9349b9U, 0x3e19b4b0bdd446c4U, 0x3dae64abbda0d22aU, 0x3da6001b3e219c6fU,
  0x3e97f2d53cbb7e3cU, 0x3f8202ab3e2b55b7U, 0xbe88d4973edfdaadU, 0xbe68a66f3e0bd4faU,
  0x3e345d26be95f5e0U, 0x3cc045b73dfbaefbU, 0x3dc9752ebe034ab1U, 0x3de15f713c802d6eU,
  0x3e64fab03db8ca3cU, 0x3f8bb3a2bc11d788U, 0xbece2f96bf3eda49U, 0x3d2446153e5813bdU,
  0x3e0f90a0bf12f5c8U, 0x3d6af3bebcce63d1U, 0x3cb46b2cbd8cf1d4U, 0x3d737af3bca30779U,
  0x3eb7246e3e2c9815U, 0x3f63add9be0de08fU, 0xbe0aa7f43ef912ecU, 0xbe56beca3bd626beU,
  0x3d1ee09ebecc6ebdU, 0x3e1da8dabdc95822U, 0x3c14b809be0f91fbU, 0xbcacb2413e0c4e08U,
  0x3e3c0d8d3d7afa86U, 0x3f89fb743dd533f1U, 0xbe2e7c813f204d45U, 0xbdf1ecb33d6ede30U,
  0x3e541405bee5ec08U, 0xbccfafc93bdfce6dU, 0x3e0c6941be3f2e62U, 0x3e709bdabc0970c9U,
  0x3e6faedf3da7dea9U, 0x3f999f2f3da063f2U, 0xbb57c109beec0612U, 0xbda25ab03e206cebU,
  0x3e4b2d82bee99b0aU, 0xbd09ecc9bdc1c850U, 0x3c98ec2dbdaf6a7eU, 0x3e44f355bda71ac8U,
  0x3ca4695ebe6bfc2cU, 0x3f1fedb0bf065313U, 0xbf2fe6623e55e9f8U, 0xbf4d5292bf945e6cU,
  0xbf25c44bbee28ea3U, 0xbeb2d7353d35d0b5U, 0xbcf1678c3f1fedefU, 0xbe41522abf1fed5bU,
  0xbd6252923e15e384U, 0x3f6c6c203e2fea58U, 0xbf84d58b3dcff38fU, 0xbf245788bd7fc0e6U,
  0xbd95d452bf4a782dU, 0xbe4d77783cf79b98U, 0x3e936f843f0f3a9fU, 0xbe68d4babfbbf0edU,
  0x3e4840413dd8fd4eU, 0x3f83adff3c88d565U, 0xbf9b73c0bed9f03dU, 0xbea84a493e42f59bU,
  0xbccecb8abf8d018eU, 0xbe37dca5bdfb5289U, 0x3f036742bf03c785U, 0xbf115e4ebfcf6882U,
  0xbe0247803ef41073U, 0x3f95efdebe9600d6U, 0xbfd0b6a83dd4ca2fU, 0xbef4ccfabf0cf666U,
  0xbec02a17bff092c1U, 0x3db703cdbda47997U, 0xbe9e40a43ebadb19U, 0xbc0cddd4bf62a331U,
  0xb937bde43f1fd38bU, 0x3f6ce6f83e41cf3aU, 0xbfe992fd3e48fddbU, 0xbf29e3433d6ed400U,
  0xbbb491afc01d76e8U, 0x3e3390713d60fd3cU, 0xbdf23f93bf645b46U, 0xbd34c515c003730dU,
  0xbd39e1093f2f8685U, 0x3f4f7d483e77d7e6U, 0xbfa43db5be912b0bU, 0xbee0eb593d0e279fU,
  0x3e1a8914c026a2fcU, 0x3c9fc4913d4d9184U, 0x3e4fadebc029c935U, 0xbdecf08fc020c4cdU,
  0xbd2f69323f1d75e2U, 0x3fe36bd1be0b0825U, 0xbf8a7cd83e09c3ebU, 0xbf4958d1beabcd95U,
  0xbe2674c1bfff8801U, 0x3e9a97fdbd144685U, 0x3e935b183e774a20U, 0x3dcc08bebfcea54fU,
  0xbd376f8f3f4ae7d7U, 0x3fa093cf3e184a50U, 0xbf93a1bc3e16a5aaU, 0xbf92fdb03daa3914U,
  0x3dd0c9e1c014c00cU, 0x3d891797be25d09dU, 0x3ea46323bf842bafU, 0x3dd3dc97c01aeb06U,
  0x3d8f73ea3f64e6d6U, 0x3f7b18cd3ea6f6a3U, 0xbf0fc808bf08070cU, 0xbf939ad53e73a35bU,
  0x3d8f08f5bfe0f98dU, 0x3eae6f613db8f14fU, 0x3f006742bfe918c7U, 0xbe039633bff83036U,
  0x3e7dc808be7f0114U, 0x3e2bc517bf2e0decU, 0xbe99a19f3eabaa5fU, 0xbdc9e05ebe7ff3ecU,
  0xbe55ad9dbe01a266U, 0xbfea11623e19af6dU, 0xbfa49c3f3d757c88U, 0xbf113b79bd879afcU,
  0x3e243a96be32363eU, 0x3eaef15cbfc81d75U, 0xbe7f21333d3e5cc8U, 0xbe87a2a83e0f07b8U,
  0xbe8bb201be8686e9U, 0xbfcb5f77bc1380bcU, 0xbf80b8eebe3c1b6eU, 0xbe8955ddbe21711aU,
  0x3decbe9abe42b29dU, 0x3eb0652bc003d0c8U, 0xbe03da7d3e06b7fcU, 0xbd820ebebb9f991aU,
  0xbd7ae553be495fc2U, 0xbfaeea473c7a91e5U, 0xbfab10d0bd32eaceU, 0xbea13ad0be2f2a94U,
  0x3ea166c23e8d93ecU, 0x3f415153bf893722U, 0xbec8bdcb3ef50aa0U, 0xbe37e7dabd2a4262U,
  0x3ea12ec2be5c65c8U, 0xc00e561bbd68f6deU, 0x3ebd117fbe45fef3U, 0xbf472e4fbdccf1edU,
  0x3ee0edab3d1fe350U, 0x3f12a562bfacbb89U, 0xbea7986c3e21fae0U, 0xbdff5ac33ec55b40U,
  0x3ed0874ebe900b3cU, 0xc00aac01bd9bb8acU, 0x3e8c81c8bea33de8U, 0xbef3f44ebe5a6fbdU,
  0x3ec4068dbc20c690U, 0x3f1bbef7c00dd285U, 0xbf098f2bbb827234U, 0xbe04323bbe95fcf1U,
  0x3e9d421abece8212U, 0xc01365d2be296a73U, 0x3e141a49be9e3b88U, 0xbef15a90bd230219U,
  0x3e0b3b2a3e2e322fU, 0x3f27f867bfa269bcU, 0xbe8b91063ee60c14U, 0xbe0dc903bf1b3948U,
  0x3f07ab39be802550U, 0xc007f49dbd06a576U, 0x3e8b225bbd9b8bcbU, 0xbf80d6c9bdf849e0U,
  0x3e194e273ea36cd1U, 0x3df20363bfec720bU, 0xbe137a303e2c3d53U, 0xbda2f9ddbf4758eaU,
  0x3ed66547bee1d345U, 0xbff2cc843de3e214U, 0x3d9c08cbbc8c61a3U, 0xbf1b7cbabdf09df2U,
  0xbc52c2d43e1d685cU, 0xbe5bd36dc03727adU, 0xbdb5e5823c1f83e4U, 0xbca672f4bf781677U,
  0x3e5629bbbe8c0df9U, 0xc02d84f3bdb07a8fU, 0xbc147fa03d4b149bU, 0xbe92a0d5be62ecb0U,
  0xbfa860b63f0beecbU, 0x3d021673bf5ae5dbU, 0xbe90bcd4bef1e931U, 0x3c146052bf58a3daU,
  0xc0081a383ddf2decU, 0xbe3892523daa44adU, 0x3d10c191bdba5e31U, 0xbf0fdf4dbe273519U,
  0xbfa011ff3f0509a5U, 0xbdefb088bf007248U, 0xbe4ef1fbbe75937bU, 0xbdd8170ebf6644caU,
  0xbf2901ecbc2f5086U, 0xbd4dd13b3b152145U, 0x3d04f4ad3d4e21faU, 0xbe81cf943d02b77aU,
  0xbf9ba845bf43ebc6U, 0xbdcc8c14bd59e0d7U, 0xbf0e5902bee9e0aeU, 0xbd677232be0d97a5U,
  0xc00ca2d73db048d1U, 0xbdf6c3a13da4505bU, 0xbef65c9d3cc0a6f0U, 0xbd05a0a3be3db29cU,
  0xbf8a25c8bdefcaf2U, 0x3ede042cbe7097d8U, 0x3dccef99beea0cadU, 0x3c882b6b3d87f207U,
  0xbe3d78eb3c54b9bdU, 0x3e743f8bbdbac830U, 0xbd7311a4bd007d2eU, 0xbd8d1942bda89d32U,
  0xbf937f25be7db7b4U, 0x3e20c17c3d42318bU, 0x3e34fd88bf1e715dU, 0x3d2b4f4c3f2e5880U,
  0x3f9bb0af3e0da9c5U, 0x3d5522a13c6e79baU, 0xbd1c996c3e3a7263U, 0xbf159c9dbd84c6e1U,
  0xbf96518abed9ad35U, 0xbe130dc7beadac1dU, 0x3d1cce40be7c72ddU, 0x3e6f0cec3d466cd3U,
  0xbf36b69d3e3532c1U, 0xbe0818d53dafff35U, 0xbd67f9c63e40c4aaU, 0xbed5aa1cbe8dc8aeU,
  0xbf7b048cbe6701b4U, 0xbe9e612c3eaffbcbU, 0xbecfe4ddbe7f2fdbU, 0xbddc5e813f11dfabU,
  0x3ebdb39a3e37b146U, 0x3ebcd5d23d30a9c2U, 0x3d3edbd8bc9e4487U, 0x3c5899c8be8839f5U,
  0xbf904300bda31d6eU, 0x3d8ed56d3f11ee9bU, 0xbea6d839be9b1941U, 0x3d84af0a3f1b57e4U,
  0x3fa2b82a3daa8a1aU, 0xbd69e4c53d72efb7U, 0xbc2532d7bde98f47U, 0xbf6dae27be242158U,
  0xbfa657d4bef5e7ccU, 0xbd76ed44beee36cfU, 0xbf0ee5bfbe6b7921U, 0xbde834d13f043e66U,
  0xbf2178323d69152eU, 0xbd8be7363da65238U, 0xbe81311dbad9e503U, 0xbe833afcbef2c75cU,
  0x3e8e0361bf954d39U, 0xbedc9982bf824b91U, 0x3ccc781c3e94addfU, 0x3e01ddf2bfc01127U,
  0xbda220cdbd5d5571U, 0xbf2cbbf63e0f3601U, 0xbf981c2ebb065d2eU, 0xbe77d7a33dd42473U,
  0x3e389040bfad01bfU, 0xbeb9b6a1bf9f66d4U, 0x3e0112a83da968f6U, 0x3b8ddec6bf72acccU,
  0x3db6616dbd60c731U, 0xbf9d74dbbe1aee96U, 0xbf5cb1eabdbac4b4U, 0xbeeef44cbd82d9c9U,
  0x3e70ddefbf91f679U, 0xbebbf5afbf64822aU, 0xbd3ce016bef4c40eU, 0x3df32ffebf14b1ccU,
  0x3e1abd2dbd38a7e1U, 0xbf8d3251bdcb5cbdU, 0xbf63d11fbdf06bc4U, 0xbf9b3b283e2b2e12U,
  0x3eb43862bdbfdb53U, 0xbdf1125bbfa3e2e5U, 0xbdc1e21e3eddf9ecU, 0xbe03b53fbfb38236U,
  0x3e0a0480be0a96ccU, 0xbfbedb553d65fc02U, 0xbe77d53dbcaba5bfU, 0xb89653ae3d7433d5U,
  0x3e1364db3e0f34ceU, 0xbe16728dbf99b325U, 0x3da51e463e82f211U, 0x3d6ee0f7bf2bd699U,
  0x3e2aa3bbbda91781U, 0xbf923330bb80c809U, 0xbea827b8bdf90a4bU, 0xbf2393873d9fb249U,
  0x3eae1be2bcb6854bU, 0xbdbf6fe7bf8024e5U, 0xbc0102ccbf54c974U, 0x3e2971d5befe87eaU,
  0x3eb48fc3be40f84eU, 0xbf8e00e43de8a8b6U, 0xbf6d7209bddd5280U, 0xbfbebf2b3e1f3130U,
  0x3e3123f43d5a942fU, 0xbfd2a811c0057f13U, 0x3e43fbb43df0a288U, 0xbe242a08bfabc9ebU,
  0x3ddaab9e3ba5995bU, 0xbfc40607ba9e3b1eU, 0xbf1deac0be2365e1U, 0xbea3f96dbdf50763U,
  0x3ea57359bc07cdc2U, 0xbfcc8efbbfb95cbeU, 0x3bc3580fbd0a3117U, 0xbe449da1bf969e40U,
  0x3db6f267be040c6bU, 0xbf753ab3bd4270b8U, 0xbf4cd103bd90707eU, 0xbf5159aa3dbd7329U,
  0x3e64eec73da57776U, 0xbfc927fabf618344U, 0x3e219785bdf06dc4U, 0xbb9b57f8bf346e6aU,
  0x3e97a7eabd933b67U, 0xbf1f53773cbd8648U, 0xbfa6f824be233881U, 0xbfd7cc5b3e2060b3U,
  0x3de62c92bf56c1e4U, 0x3f205015bf33c46eU, 0xbe78a8a73d2fc64eU, 0xbd34eaf9bf82beeeU,
  0xbebb065bbe159f27U, 0xbf731eb6be1c5bd4U, 0xbec87428be2183c7U, 0xbea2f9e63da93482U,
  0x3e170921bf09a923U, 0x3f205642bebb8f77U, 0xbde5430abebf78ebU, 0x3d7be882be6ea1b6U,
  0xbe3fb6e5bd56d0bbU, 0xbfba53b63c6328e2U, 0xbf64482fbe2b0450U, 0xbf05fad7bd50a16aU,
  0xbda099dfbee27656U, 0x3f0f74a8bfb5c427U, 0xbec22cb93f1f23a8U, 0xbe19eeeabf2c02f6U,
  0xbda3a6f23cbcff3cU, 0xbfe2b9b3be0666adU, 0xbf91bded3de2d0ebU, 0xbfa5f26b3e48b14bU,
  0x3dd8aafb3d8a5c03U, 0x3f87ae98bfac249bU, 0xbe354d053e8cd0c3U, 0x3c4f4247bf97389dU,
  0x3d28e38b3d7b8ad3U, 0xbf9f5d88bd63c97cU, 0x3e8d2f7c3ddced4eU, 0xbe8df923bda43867U,
  0x3dcaa4333e8ad01aU, 0x3f4e9817bf5bb808U, 0xbe0568d8bda842b4U, 0x3d161730bdcad5c2U,
  0x3bc92502bd292355U, 0xbff94a4a3dd4ba64U, 0xbd5f1dbc3d0de24aU, 0xbe67c6823cd40a90U,
  0x3d81c9eb3d35d386U, 0x3f206fc4c00ff751U, 0xbdb7d5f03f314ff6U, 0x3c88f6f9bf44a396U,
  0x3e8071e0bcbe43b4U, 0xc024a7a23d50b642U, 0xbe64de233e28aae8U, 0xbf9281963acdd343U,
  0xbd8c4d96bb9b39e6U, 0x3eeea280bfef0101U, 0xbe758a44be4324adU, 0xbb2a379ebfc19f8bU,
  0xbcda0fdfbdb3ab12U, 0xbf87a3bf3c538178U, 0x3e8023073babfe30U, 0xbf105b6abcf51505U,
  0x3e177afe3e81e7b2U, 0xbd454b0ebf5cc1c6U, 0x3d91886bbec673edU, 0x3cb8f8afbf0c80c9U,
  0xbc7637eb3d1c9765U, 0xbfa69e5b3cb62e52U, 0x3e6bbc9dbe07ca32U, 0xbf52d36abd492f2aU,
  0xbde2e9b83d4372d8U, 0xbee0b49cbffd52abU, 0x3d3a2a613eb1a432U, 0xbd471169bf3ebeefU,
  0x3e1a494a3da6de32U, 0xbfa4600e3e078f73U, 0xbef1eb133d9261f2U, 0xbfc86bc2bd025839U,
  0xbeee9ab0bf4f7afeU, 0x3e8e10b7becce025U, 0x3de256a5be0b12b0U, 0xbeee4ee9bf5e3f51U,
  0x3f04cf8c3e25ddcfU, 0xbf2ed6a0bc67b812U, 0xbe9ca27fbe1ae4c7U, 0xbf398e46bdbb591cU,
  0xbe635691bfaba9d7U, 0x3e65794ebf12ff36U, 0x3da7a35f3eacd6e6U, 0xbe8d76a2be2a693cU,
  0x3ec2857c3e282df3U, 0xbf8a594a3d850834U, 0xbfb43dd93d896139U, 0x3d9dd3bf3e3d9714U,
  0xbe4cc4e1be0aacf8U, 0x3ec955aebf126beaU, 0x3d2a0757bd3d17ddU, 0xbdd6c9edbf83749dU,
  0x3f23817d3d52d88cU, 0xbf260f23bd85d5e1U, 0xbec34a32be2845c1U, 0x3e88377b3cfe965bU,
  0xbd3ceadc3efdad0dU, 0x3e3cd26ebf4b3c6cU, 0xbdd66f153eb4ef86U, 0xbe10353abf89eb47U,
  0x3e20a67fbe1a90eeU, 0x3d069d153dc80446U, 0xbec3a06cbde5d30dU, 0xbf98db353e88e18dU,
  0x3ca8730b3e08658aU, 0x3eb5b827bf1cb5aeU, 0xbe620f993eca9ad7U, 0xbbf8aa033b19f4c5U,
  0x3e522363bc6156f3U, 0xbf15e93cbcee1231U, 0xbea83211be13cd7dU, 0xbe1387d23e93c41fU,
  0xbe1939693edbdb00U, 0x3e360145bf3b4065U, 0xbe0256d93e8e3bcfU, 0xbcc22bfcbf220ea3U,
  0x3ec7eb2ebe82bd87U, 0xbfabd571bda01398U, 0xbf46bdcebe3928b5U, 0xbd0a10b53df46d2dU,
  0xbe74275d3f10602dU, 0xbf46af57bf9760c4U, 0xbe6e78573eb21d23U, 0xbe056184bfb73b23U,
  0x3c743a52bd4ff138U, 0xbebfbb253d36bb26U, 0xbee317d93de3059eU, 0xbf8eab8dbcd7e7dcU,
  0xbe7b522c3eb4d231U, 0xbee8312bbf0d6d9eU, 0xbe227bdabda9ac21U, 0x3ca8793cbe8c2dfaU,
  0x3e4e8146bde043c8U, 0xbf7010dabdb695ecU, 0xbefd87f63e318083U, 0xbf13c838bd5f8cd9U,
  0xbea63af43ed03b64U, 0xbf837d19be47c551U, 0xbdc4dd263de692a9U, 0x3cae2f38bf8e7ec6U,
  0x3e0f74063ce15c65U, 0xbf277ed1be030a7fU, 0xbf451057bdf4eec3U, 0xbeb147c9be036f81U,
  0x3ea4d7c93e689ac9U, 0xbd9e3ec9be4cf24eU, 0xbcd4475cbc34046dU, 0x3e043d01bf08f4d2U,
  0x3e65f9c3bd106238U, 0x3d1d01e1bd86df7aU, 0x3dad8ef43e0b3cb7U, 0xbd9ddbbe3e30dd6eU,
  0xbe03efd0bcee8168U, 0x3cdc68803e3f85a6U, 0xbda434f93e3844a6U, 0xbd9949e63e3a194aU,
  0xbdd550c6bd4957c0U, 0x3d8c8238bc0f3e50U, 0x3d4d7b68bdcb15f6U, 0xbdfdbd34bdef3722U,
  0xbdd4a9363c893750U, 0x3ccde3003d234ba8U, 0xbc25c220bdfa3c28U, 0xbd74c290bd744f48U,
  0xbc13e660bddc6df8U, 0xbd5d577cbd619fd8U, 0xbe07ffe6bd3af81cU, 0x3e1e54aabe1bb1d2U,
  0xbf4e4fbbbf05d3ccU, 0x3ddc4896bf293298U, 0x3da751593ec90102U, 0x3ea158b2be7c3bbbU,
  0xbf0e5990bece809bU, 0x3ec026c2bc97f5a8U, 0x3ec900b73e13d9feU, 0x3e94399b3e1a0210U,
  0x3da1e892be60a2e5U, 0xbdb4a3423f38f90dU, 0x3e9f85d33eee31c1U, 0x3e3069753d722a96U,
  0xbe8c353d3e0601a2U, 0x3ec7a146be3d1d99U, 0x3dcc0edebe7d3d25U, 0xbc9c0d02bdbdfe2aU,
  0xbe6f74e3bd08add0U, 0x3e095b58be6d89cfU, 0xbe429e84bdb6bac0U, 0x3dfcabf43b3d0a66U,
  0xbd7c95adbe83a88fU, 0xbe0c8be1bd14dd0dU, 0xbd9957ef3de1425bU, 0x3d31c820be85380eU,
  0xbd0dc23d3f2be437U, 0xbef2535fbf096a94U, 0xbec5117cbc853f1bU, 0xbe3c2f2ebe79d661U,
  0x3e83db1f3ea8ac6fU, 0xbeac16433e5475e5U, 0x3d97ef52bd93df59U, 0x3db93369be8150c1U,
  0xbe29127ebf2e854fU, 0xbd882bb8be6b152eU, 0x3e9eec933e8a4a43U, 0x3e56f328be8b6dd0U,
  0xbec486283dbe34d2U, 0x3f12abb6bec783bcU, 0x3e0044bc3de7fba1U, 0xbd6bef3c3db69996U,
  0x3e22ceb13f100960U, 0xbe9e3ee0bec8b168U, 0xbf1882103e9f954bU, 0xbdad703cbe97114cU,
  0x3e4aa9b33ea9aed0U, 0xbe5f798f3d5d9754U, 0xbda7b522bd715dffU, 0xbdd8ce9fbea23dc1U,
  0xbea54e33bf439b2fU, 0xbdcf714dbeb77b82U, 0x3dc2ad893ec0447fU, 0x3e4d5b95be5a6356U,
  0xbee11a94be312125U, 0x3f23ff3abc018403U, 0x3e5df8833e35851dU, 0x3e3e636a3dc0484bU,
  0xbe829eeebf13dcb6U, 0xbd497147bec78ef1U, 0x3db94f69bdb6a767U, 0x3e83fe6abc211e13U,
  0xbea8e3e0be398a88U, 0xbc54a25cbe477235U, 0x3e4759673e1907c7U, 0x3d7a44e43e22a712U,
  0xbf1c60f6bee3736bU, 0x3eb83f153d8d1204U, 0x3e6c81843f07b9aaU, 0x3e011d923e7ba925U,
  0xbd42bb43be4010b8U, 0x3eacc383bd8e6838U, 0xbdcc6187bdb60de9U, 0xbdbfbab03e691f52U,
  0x3ee061a13eca0e2bU, 0xbe82b8ee3f0190b8U, 0xbf0b64703e48bf5aU, 0xbf54c9c5be34e199U,
  0x3e3ea52d3e2b142bU, 0xbefb2d533d166392U, 0xbf5f73d23e30ddbdU, 0xbf601208bdb6e440U,
  0xbe2855d0be1ba57cU, 0xbdf7158fbdf13785U, 0x3e0fb0b13de5aaffU, 0xbe1d040dbd5b2715U,
  0xbe2e988ebca7bed0U, 0xbe1dc0053e39e58cU, 0xbca8bba63e0206d0U, 0x3dc6854fbe332153U,
  0x3db18b163e25bc91U, 0xbd23de1fbd91efe0U, 0xbe5242f43da1f2baU, 0x3e0148b1bc11f27aU,
  0xbe15f8d0be247f85U, 0xbb3cfa3ebd2df340U, 0xbc5078d23d89c7f3U, 0x3d77914bbe62ac4fU,
  0x3e96b54e3ea130f5U, 0xbf0755e83d3e5708U, 0xbf07db4d3cb33757U, 0xbef8c521be3304eaU,
  0x3e6290813e612caeU, 0xbef6b5193db29886U, 0xbf14e0793da6a936U, 0xbea6b93fbcf93d83U,
  0xbcc9297e3d36110cU, 0x3de7d7d5be514d5bU, 0xbe4a3c75bdb7d498U, 0xbd7b2f88be495a6cU,
  0x3c13f4b2be37818dU, 0x3dd787fcbd71f99cU, 0xbce5745a3c24a7b7U, 0xbe48b3d6be5f472fU,
  0xbf360d7abf04d253U, 0xbdebc7efbed66eebU, 0x3c80ff743ec6ba72U, 0x3e108860be1aced1U,
  0xbef80ea7bf1be920U, 0x3ed1b3b73e066914U, 0x3ed419383e026fedU, 0x3ed78bc53e4a9622U,
  0x3eb55e2a3f569981U, 0x3dfe864a3edbb34eU, 0xbd99bd2ebef1e682U, 0xbdd495753d1e2cffU,
  0xbe18edbdbdd78436U, 0xbe3c0a4c3f700616U, 0xbe3e5a903e7096e8U, 0xbcb086f3bd1fff2aU,
  0x3eef662f3f04625aU, 0xbe8465453da10ad8U, 0xbf16d20fbd70da49U, 0xbecbaa52bc22050dU,
  0x3e866d2dbe12f688U, 0xbde103153f059b76U, 0xbed56ac7bd40d3d2U, 0xbeb055f8bedf2878U,
  0xbdbd7ac83dfa0081U, 0x3d5059c33e3cbafcU, 0xbe39318bbe4913afU, 0x3ddc20f33d582467U,
  0xbd0388ec3c8113ddU, 0xbd8b90233dcd13e7U, 0xbe33c07ebddf1d7aU, 0xbdf24353be10f245U,
  0xbd8940f93c4bbb30U, 0xbf5dca78be824079U, 0x3e2101883ebf40d3U, 0xbc4b0e74bf1ec6beU,
  0x3e2b25613e882e9eU, 0x3db775bfbf91762eU, 0xbe91c63dbf0e4953U, 0xbe630e6dbe090ee7U,
  0xbf1680debe0923b8U, 0xbea356af3eba91bbU, 0x3d8070d83f05c39eU, 0x3e618342bd950b55U,
  0xbe16ff1fbe516a69U, 0x3e98e2173c98a659U, 0x3e24713ebe835171U, 0x3e0d74b63e10f2cbU,
  0x3c23d810bdd709a8U, 0xbd2b33243e1ee600U, 0xbb5ec840bdef22c6U, 0xbdb3621ebd899e88U,
  0xbd8e02ec3d3bcd90U, 0xbe32b60ebd25806cU, 0xbc8093503b3cf980U, 0xbded7d83bd6faeccU,
  0x3de1534fbf34c70eU, 0x3eebc2523f181bc3U, 0x3ee48a2cbc933f0fU, 0x3da6e13b3ed4306eU,
  0x3b694563be0a4707U, 0x3e3c4f22bf1dc059U, 0xbe94022f3dcb2246U, 0xbe87d8abbd6b623aU,
  0xbe4bcb11bee4f552U, 0x3e1996e73ed0e205U, 0x3ea18dc33f107fd9U, 0x3e45fd433eea1283U,
  0xbe22ffe4bec919d9U, 0x3d733c37bdd30930U, 0x3dfec650bd8effdbU, 0xbedee84e3e60191fU,
  0xbf6ec1f63dc6db8bU, 0x3ee1074dbfd25448U, 0xbe8e87883e46b417U, 0x3e316ca93ecb14f9U,
  0xbc8b3bf43e936c76U, 0xbf0cdb05be2fb09aU, 0xbd92ff0cbead22b6U, 0x3e8e75f2bc1f7eb6U,
  0xbe560f52bf2c4814U, 0xbdb556ccbccda8f4U, 0x3e1550d03f15e5f3U, 0x3dfb5f4dbe602db8U,
  0xbec73acfbd7ef757U, 0x3f18375fbe59acf4U, 0x3e86ba033e1b9f3bU, 0x3cf74ebc3e1adf1dU,
  0x3d0e18b43d9c4d37U, 0x3e297cd9be2c3339U, 0xbe0124cf3d00f430U, 0xbe6300d03d58e141U,
  0xbe24c19d3de25948U, 0x3da0ef7fbb9e8f0aU, 0xbe0446ac3d25185cU, 0xbce8a2313cc04c59U,
  0x3d40f7873f3bb9e1U, 0x3f084e2ebf35418aU, 0xbea3c771bf23f837U, 0xbdb105423e927fedU,
  0x3d681243be415ecdU, 0xbe8ae6c23ed69a03U, 0x3eb5c8c03d109fd0U, 0x3ee3c49d3dac37ebU,
  0xbee1ef48bef20ef7U, 0x3e03d297be145331U, 0x3da0a29a3ee06870U, 0x3e5f0b1f3eca8081U,
  0xbe82c59cbdf055aeU, 0x3e7e82583f0018d0U, 0x3dbcf8adbe5ccf30U, 0xbdd859ff3da27d61U,
  0x3de07c343de8ecacU, 0xbe4bb8203d7b8198U, 0xbbfbf7403d074120U, 0xbd8308bebe0b5681U,
  0xbddca050bc2c5070U, 0xbbdf4c80be344ef7U, 0x3bac8580bcca5de8U, 0x3d79ea50be0da06eU,
  0x3ea4dd113c919c9bU, 0xbf5bc4b2be803733U, 0x3e555a5dbe863458U, 0x3cc2c279bf8fd321U,
  0x3dff1d973e8ad17aU, 0xbe49a15bbe9d845bU, 0xbdf9eaeebf873599U, 0xbeb15777be982cb2U,
  0xbe078e663f327ed5U, 0xbed41074beea7d56U, 0xbea053aa3e9785e7U, 0xbe899773be35c1e4U,
  0x3e3afadc3ed4d2a3U, 0xbde9ae813e95323aU, 0x3dccf588bda404c8U, 0x3dd90efebe8bfe7dU,
  0x3d1f46973d2ea399U, 0x3e4ac4cc3e11391bU, 0xbe0195b63e3f25b4U, 0xbe40f5b7be30a06dU,
  0xbd9042973da2c03cU, 0x3e0c4cdcbdab89a3U, 0x3db515743daf46e0U, 0xbe41f5d9bdec43a8U,
  0xbf993ac7bc71f1f7U, 0x3f0a3de9bf7b9e0eU, 0xbde4d24abf075538U, 0x3e27e33f3ef66af3U,
  0x3d56e6a83d5fed04U, 0x3eb5778cba5ae34fU, 0x3ebfe16dbe818dbcU, 0xbcafbe353d9190edU,
  0xbdc034c7bee8a435U, 0xbda01ed9bd8a8733U, 0x3e8c5820be232dc2U, 0x3d9f337abfd853b9U,
  0xbe100d083f0c7d2eU, 0x3e22ad11bf8232bcU, 0xbdecb6d5beb6a9baU, 0xbd26a0dd3de7e909U,
  0x3e916b78bd93d658U, 0xbf06a4b3bebd18d3U, 0x3e751aa7be22093eU, 0xbdfd9413bf42d13dU,
  0x3e17673f3e9e561aU, 0xbe275d75bf0d1096U, 0xbe81e537bf32302cU, 0xbed51157be72be65U,
  0xbeb6420abe93f072U, 0x3d80d5aabe39cc3fU, 0xbdf213733eb73ea4U, 0x3e2eb9aa3e64b46aU,
  0xbe82a028be9bbd8cU, 0xbcd50a983ee99e83U, 0x3e6bf0a6be5fd589U, 0x3e7f68ba3e46e14cU,
  0x3ddf24c0be0f2d56U, 0x3dc8cb64bd816a9aU, 0x3ce959d8bc349c30U, 0xbe44f3923e2c6d6aU,
  0xbe39eef2bd883a82U, 0x3e446a22bd410d10U, 0xbc766d30bd99eb9eU, 0x3e2fd02abd965da2U,
  0xbe43a5ebbe331c07U, 0x3ddea4e0be06cf00U, 0x3df6ec18bd74e608U, 0xbdebec2ebd3b36b8U,
  0xbdf657363d747b48U, 0xbbbc86c03e35f958U, 0xbcad28a03c4e0360U, 0xbd66f21cbe3648d3U,
  0x3d9cd85e3ec9375dU, 0x3f2207713e49d50fU, 0x3e3aa418be4d5e5fU, 0x3e036c9e3f164467U,
  0xbe398ae2bed89917U, 0x3ea76e593f382064U, 0x3de48bcebe3cbc90U, 0xbdc46972bc3bef89U,
  0x3f15d0983eb674f1U, 0xbe7dc255be0ac080U, 0xbd8ffd3abf596bedU, 0xbe7bf5973d09cd69U,
  0x3e9b0cadbe2535deU, 0xbdee9afcbeebd02eU, 0xbe36dcbe3e3a7ce4U, 0x3e272a1dbe38efa3U,
  0xbf996b6bbf6ecfa0U, 0xbe12bd283e881d3eU, 0x3ded10c63f8484d9U, 0xbe1505133db89b22U,
  0xbd501511bcb0b024U, 0x3f11ab3bbf4b03b7U, 0x3e88f0d33e9f04d9U, 0xbf14ab1a3de63854U,
  0xbee9c14cbf5d01f5U, 0x3d1e0a04be630069U, 0x3ec13e953d35d076U, 0x3e2d5c32bdf94e8fU,
  0xbeca42043cec264eU, 0x3f0b2a943d974628U, 0x3e4095e73e87ff2aU, 0x3ce15d2d3e1666d7U,
  0xbe8c41ee3db788cbU, 0x3e8c33dfbfaec9a0U, 0xbeeda4373e0f429cU, 0x3e84de473db65a6dU,
  0xbe74f439be5108eaU, 0xbf081afb3f0b34dcU, 0x3e5e2981bd8f7312U, 0x3ef9f9cfbdb8250eU,
  0xbdd9b442bb44a5d8U, 0x3d051df7be45d08dU, 0x3d8a0aeb3e366f19U, 0xbe4b85f23c296a7eU,
  0xbe36b1293cb06eabU, 0xbbeb03803ca748b5U, 0x3e087e9bbe574be6U, 0x3e3270213dda7c6eU,
  0x3efe0b013ea63350U, 0xbed9823bbf236df9U, 0xbef21e94bee918c4U, 0xbe0896553d656fcfU,
  0x3e7cfd513e922652U, 0xbf106cd6bda0d7dbU, 0xbc58ef52bdf3baf0U, 0x3e2a1d22be7a5ae1U,
  0x3e5670aa3f142b13U, 0xbe8e6d29bf131eafU, 0xbe6ad591bb0e832bU, 0xbe926712be61af69U,
  0x3e899e893e71923fU, 0xbea56d25be1b3f3aU, 0x3c921758be3359b2U, 0x3e3adb05be945364U,
  0x3dfc10703ccdc2e3U, 0x3e12fa01bd9988f5U, 0x3d9a0dea3d8760c7U, 0xbb9699fabb898de0U,
  0xbdf2c061bd1392a1U, 0xbdd107d2bcbd2240U, 0xbe21f8a8bc6730e3U, 0xbe5afb75be0bbaeaU,
  0xbf0013febeaedad0U, 0x3ef351d6bfc8e8b9U, 0x3d9f11143d8cd79eU, 0x3e3704113ed6a847U,
  0xbcde2d5d3ec6be03U, 0xbeec2177beb055fbU, 0xbe1784eb3d81a354U, 0x3ea4bbea3d0231c4U,
  0xbd0e42523e7f288fU, 0x3d9e42babe56fea5U, 0xbe04e2e63eb8168fU, 0x3ddcc4bb3e9a5a93U,
  0xbf0a53f4be838250U, 0x3de485583f54588bU, 0xbde50395bdc0addfU, 0xbeb0879d3e3457ccU,
  0xbd5e251fbe72c441U, 0x3d8f7489bc5939a2U, 0xbdfed3b2bdb423e2U, 0x3df7e3ddbd81f067U,
  0xbd09f35ebc1e3e59U, 0xbe4172e23e13c49dU, 0xbddc882bbd88e8edU, 0xbe12dc70be380858U,
  0xbb058d593bacaeb1U, 0xbdd4cb7f3e021335U, 0x3d14d8053d9653c7U, 0x3d56a9503dc916a0U,
  0xbe4831403d2298c3U, 0xbd89ff073dca9675U, 0x3d1e716b3ccc1639U, 0xbdc4bcddbd802b17U,
  0xbf58c3b1bf0f2ec0U, 0xbdad9ce3bee4d11dU, 0x3d2c4ad13ecd6d69U, 0x3e2644f9be9f3365U,
  0xbeeecca2be9b58c3U, 0x3e368ba7bcad0073U, 0x3f0288a63e3910b5U, 0x3e5d975a3e92e21bU,
  0xbe9a38ff3e626106U, 0x3e0bf9c7bf4c5f1fU, 0xbe9f9dd93e355544U, 0x3da73b053e349cf1U,
  0xbe8f5d53be3bfabeU, 0xbe4196493f15978bU, 0xbc332974be019513U, 0x3e8e8ecf3e8ebaadU,
  0xbe1f7743bf3b9b30U, 0xbe9d646e3d5c95dcU, 0x3e0a4cedbeb71979U, 0x3e0bb25abfd50155U,
  0xbe2fdb0b3e8b4610U, 0x3e700e98bf5d4458U, 0xbc5a006bbdea914bU, 0x3dcfe7d03e45d3c9U,
  0x3d1e526b3ed2fd22U, 0x3f2df1503bb79af9U, 0x3bf40e09bf0c5edfU, 0x3e3651eb3f03c1fcU,
  0xbe02a529bed02d9eU, 0x3e27a76b3f5c98b1U, 0x3e8465d3be38e608U, 0x3d9925ca39e9a4e2U,
  0x3f0ec8f3bd81874cU, 0xbf54ab46bf446505U, 0x3eb07572bf84b7c2U, 0xbe1fd966be18405fU,
  0x3e8501d93ef1c71eU, 0x3d4a73c6beac407bU, 0xbe022babbf75ecebU, 0xbf613c60beedfd83U,
  0x3e180376beb0ef5dU, 0xbf3539bbbee62b4dU, 0xbda28ff5be83dc72U, 0xbe074d85bfae4dd9U,
  0x3e4d7daa3e9f7b91U, 0xbe4d527cbf610071U, 0x3e004fd3bf1b81d1U, 0xbe2cef6dbc354859U,
  0x3f2b5f1b3e9c0483U, 0x3d564393bddfc46bU, 0xbef1a9b2becd9c6fU, 0xbf0124363e4cfa28U,
  0x3e1aea0ebe90488fU, 0xbc2cedf93f2fd767U, 0x3d878c40be8b0865U, 0xbe60e58dbe975af3U,
  0xbe86fdc13e9e5f44U, 0x3e96bd43befb7c71U, 0xbec31309bf200426U, 0x3e1df4ed3e633243U,
  0x3da7db5dbeb0604bU, 0xbcad934e3f278a41U, 0x3eb2d3f1be28f57fU, 0x3e95fc8e3e3b004aU,
  0x3dd40bd2be19ee5dU, 0xbddd96b6be300245U, 0xbd8ae289bdb7b7d8U, 0xbdaec941be540779U,
  0xbe4710323d046046U, 0xbe1e7a4fbe627e4dU, 0xbe6bf7b73dfef856U, 0xbe488d92bcd9d984U,
  0x3e8691f03f5e700bU, 0x3eff29eabee5e5b5U, 0xbec909a6bf199ea7U, 0xbe302a383e782e49U,
  0xbd5851613dc6d27eU, 0xbe83a6b03f35139dU, 0x3e011299bbb6fba5U, 0x3edfc5943d6351deU,
  0xbdfae43bbb334a76U, 0x3d7f5f3a3d00b1ffU, 0x3d27f965be2c8ff1U, 0xbe2759e3bdb37713U,
  0xbe04dba83d845e5eU, 0x3d775d0cbe00c675U, 0xbd3f2b5d3e08cdfbU, 0xbdc89d78be5a8e19U,
  0xbe33429a3d3faf97U, 0x3dfa56d33daeaa00U, 0xbce0587ebdb383c4U, 0x3e6a7c983e91d463U,
  0xbe37f4c9beaa08c9U, 0xbb00390a3ee38516U, 0x3eac6dcebf054ea4U, 0x3dc97dd93ea1d145U,
  0x3f4b099d3e724a32U, 0xbe69412f3f27e533U, 0xbc89df1fbe2e3407U, 0xbe08591c3d30439eU,
  0x3e4a124ebe779f41U, 0xbefefc033d067d90U, 0xbf1869de3db6725bU, 0xbeeb33abbe6650a6U,
  0x3f6c300b3edfedd9U, 0xbe2aaea7bf179943U, 0xbe113ef7bf1265dcU, 0xbef17da4bcc9274cU,
  0x3e7e3bf53db3231cU, 0xbe0240503e8961b9U, 0x3d65cfd0beb63ddbU, 0xbf0872b8bf1ec02eU,
  0xbf2925e7bea2f397U, 0xbed3b0063efee262U, 0x3e94958f3efc6834U, 0x3d509a2cbd727f60U,
  0xbe1c03eb3da34ed6U, 0x3e8d36afbe63d419U, 0xbd22a09dbe4d6488U, 0x3d6c47673e3b25c3U,
  0xbef0f7a6bf5d79f3U, 0xbeb9fb00becae70fU, 0x3e9c3e873f2ae4faU, 0x3e7e36cdbe9525b2U,
  0xbedc7009be733a3aU, 0x3ea3d5f4bd8fba31U, 0x3e8c35eb3e21ca88U, 0x3d085e1e3e4c0378U,
  0x3de4be0e3f22a96fU, 0x3e82cabe3e5c1f00U, 0xbea3e2e8bea3a7f2U, 0x3e29f6273e3043a8U,
  0xbe90e730bf0aebf9U, 0xbd8d9eb13f2215c3U, 0x3d5b9ae9be980790U, 0x3e499a603dbdbe0bU,
  0xbeb588bbbddb3e4eU, 0x3ec61198be9fd54fU, 0xbeac61b83e8760f1U, 0x3e949e093e331d4aU,
  0xbea47d8dbd04975fU, 0x3e0c9fc73ee9b4b0U, 0xbda1e6aabe944ba0U, 0x3e9523903e694a78U,
  0xbe350c163f036ebbU, 0x3e720abcbf5df2ceU, 0xbf0c72babeb037d6U, 0x3db75fc23dc52fbfU,
  0xbe866a86be993b1bU, 0xbf1dceba3f267bc3U, 0x3e8c611bbe3c1ac4U, 0x3f125e3d3e6d7eb5U,
  0x3f455fe33ed20950U, 0xbe31a689beea2af5U, 0xbefddaebbf0175f5U, 0xbe864da73d80a9baU,
  0x3e70ff0ebe8d6071U, 0xbe470b493f22f2c0U, 0xbe948ec4bebdb7f8U, 0xbeb8202ebef9a40eU,
  0x3f30512f3ecaabcaU, 0xbe34512abf4e9527U, 0xbe3e676ebdc28707U, 0xbece191bbd03c322U,
  0x3e3e0e143dfca40aU, 0x3db3cdf63e982839U, 0xbce5a60bbe62b93bU, 0xbf18c260bf02997dU,
  0x3ed2e7e33de1dc2dU, 0xbded35fcbd6ef775U, 0x3d9a68dc3ec87c31U, 0x3cc5f4c2bdf33913U,
  0xbec52030bd1e4d42U, 0xbe88378d3f17a567U, 0xbeddb101bd4c9c4dU, 0x3e071da33e721dc6U,
  0xbf90c241bf58622eU, 0xbcb8605f3f1af435U, 0xbdb618573f96888bU, 0xbd77c186bdc28f2fU,
  0xbdd01ba1be6d78c5U, 0x3ec44443bf2cff68U, 0x3ebbf9b63e4b14f5U, 0xbec367553d5eede1U,
  0x3e09be903e2e0f70U, 0x3e3d7e4bbe3c2cb8U, 0xbdf562a83cb9a192U, 0xbe861cf93df82b90U,
  0xbe3f69abbd761b80U, 0xbdd83bbbbe4f048aU, 0x3d4fbe9e3e48ceccU, 0xbe959b1fbe629582U,
  0xbe560ff5be847c33U, 0xbf6659e13c8524b4U, 0xbcd4ab993f512a8fU, 0x3e1e6507bf0e172dU,
  0x3e17df913f053242U, 0xbcba6782bf83a5fcU, 0xbe73addebeb121f5U, 0x3d000dd1be0c877cU,
  0x3dc4c5613d773977U, 0xbd98bec5be4a46c6U, 0x3d34ecfa3d7fde71U, 0x3a86281c3e296d3cU,
  0xbe1423a4bd473d62U, 0x3df8a197bcfa183eU, 0xbde125c63d669be9U, 0xba2eb4f63d455b72U,
  0xbe0f90cbbc5a70deU, 0x3e205be3be4279c8U, 0x3dbe3a8e3cea49f2U, 0xbe09e06abe0467d5U,
  0xbca779e03c38f013U, 0xbd866c0abd34877eU, 0xbe48f511bde341adU, 0xbd6ffda8bd85f118U,
  0xbf9904acbf82e8c7U, 0xbea7fa443f219a61U, 0x3eb80bfe3f2d02a7U, 0x3d01b33abe23df6aU,
  0x3ad2262abe44f721U, 0x3eacc770bf4726e6U, 0xbd1c5c4f3ea6b422U, 0xbec814b33e2d625cU,
  0x3f1c16d73ec8aa99U, 0xbec87e34bf200cc1U, 0xbeb7bacabea52912U, 0xbee924a1bd96b9ffU,
  0x3e7c3e0dbdd56c2dU, 0xbb7f91a33ef5def1U, 0xbe66aa4bbea7eb3bU, 0xbf2c64d1bf0d9236U,
  0x3e206b603f245d34U, 0xbf0188cdbf4b4332U, 0xbe32cb0dbe25045aU, 0xbe9b7eacbe6270c0U,
  0x3e98f4353e7f7272U, 0xbecb30aabe234897U, 0x3e12346fbde6f20dU, 0x3bd169a0be36d019U,
  0x3ecacd533f6c7c9eU, 0x3dbc4998be8aa901U, 0xbe93bc31bf1eb839U, 0xbd61befc3d239e00U,
  0xbcb70ad7bd063981U, 0xbe93ab623f188b8fU, 0xbdda74a73d8aac2cU, 0x3ea971dc3cfd10aeU,
  0xbe2fb661bde25cd5U, 0xbe1a1c053cc28c44U, 0x3e29af8c3edf6eb0U, 0x3ddaa0c33e261c6cU,
  0xbee3e8093daa2069U, 0xbe8c62c93f32a719U, 0xbd82ccd5bda155d9U, 0xbd02a3ad3e638cf0U,
  0xbe544cd3be4d06b5U, 0x3cfd699e3e11894dU, 0xbe6ecec0bcfe5ce3U, 0x3d8e0a72bd476598U,
  0xbded73dcbe454206U, 0x3e1e6900be1a6b48U, 0xbdf39c293dc584b4U, 0xbe3c57a4be34b640U,
  0xbdba0d29bdd30347U, 0xbe46a0663d1aa4cfU, 0xbb3fb28bbe2e4324U, 0xbe5eab0e3e03e5afU,
  0xbe3180abbd7d6a66U, 0xbe19745cbc2c26d0U, 0xbe5a7b4bbe102bcfU, 0x3e25aa373de5cf12U,
  0xbeb357d6bee74bc7U, 0xbd1ebbe8be9b2486U, 0x3ec0176f3e7d7ee1U, 0x3e2f80dcbde09325U,
  0xbed63079be49f353U, 0x3f324fb9bd1d883eU, 0x3e01b5ec3e23aa4bU, 0xbb7b3b443e79c8cfU,
  0x3ed9f7fc3e0bd433U, 0xbeee13503f619127U, 0xbf0261ea3ec0d2c5U, 0xbf595378be83f943U,
  0x3e4d04a33e65ae51U, 0xbf0ed451bd49672dU, 0xbf870b4a3ebc049aU, 0xbf4a1e71bdfe1c89U,
  0x3ec559f43f430291U, 0x3d6a79643eaacd2fU, 0xbe6afa11bf374106U, 0x3d73e0b0be19245bU,
  0x3cc91885bea740f4U, 0xbe9a042c3f414b25U, 0xbdeb9d243c38397cU, 0x3e1693babe59de4dU,
  0x3ea4a192bd0db6baU, 0xbf3bb93dbdd32125U, 0x3d5b3c4d3d180517U, 0x3da0fd69bf555da7U,
  0x3e3e774d3e6c41ceU, 0x3c83034abe2fd89bU, 0x3abee772bef7fcb4U, 0xbe4b5545be6797c0U,
  0xbe34eaf6bf56c7b4U, 0x3e0e01e0be98c145U, 0x3edf1ac53d91879fU, 0x3dfb8583bd969ff7U,
  0xbed438f33df3c162U, 0x3f229836be68341dU, 0x3d5bb8233e05af1eU, 0x3e2bf8623e4295beU,
  0xbda475bd3f3ec3b7U, 0xbee2718abf3986c2U, 0xbf132d6e3e87e1edU, 0xbd190783be2c738bU,
  0x3e69ae923d9e5469U, 0xbe9faa203eeadb02U, 0xbe0ba349be533809U, 0x3e2467adbd92841fU,
  0x3ee00b493f048d5aU, 0xbddab87ebda16974U, 0xbc702accbf091498U, 0xbe3b70dfbe2f7793U,
  0x3e9cb9123ca394fbU, 0xbf00d22abeea4bf5U, 0xbcd433ac3e0a88a7U, 0xbdad3ea8be6cfe73U,
  0x3daecf2e3d13678dU, 0xbe2bf8dcb9ba0516U, 0x3dd6b0ae3eea6625U, 0xbd988e72bd9aaec0U,
  0xbea7ecc9bdfce377U, 0x3d2bfe6b3efbc34cU, 0xbef9b3d9b96c7709U, 0x3e16aa733e4b1566U,
  0x3f02b07f3ef0c619U, 0x3d0f18f3bf0176c0U, 0xbef8ff60bde74c3aU, 0xbedc72b1bd220194U,
  0x3e40865e3e785f17U, 0xbf18709c3e85f222U, 0xbed98bc7bdf451bdU, 0xbb5d1cf53d6c228aU,
  0xbdf574b9be163811U, 0x3d184c63be1c3bbbU, 0xbac5507bbdbb8c0dU, 0xbe6d94a2be18443eU,
  0xbe5d80523d654eaaU, 0xbe2c5509be24b5d3U, 0x3e0006e23e15ac9eU, 0x3e1c17ecbdf63b20U,
  0xbf0cd208bef2b118U, 0x3e8c12183e190008U, 0x3e9b5fbc3e2039e1U, 0x3e2c09af3ee68769U,
  0xbd8a14fcbce862ebU, 0x3eac5459beb768f3U, 0xbdbe3f103e2d64a3U, 0xbe82d25bbc8e1f7cU,
  0xbe1312f5bdf31c64U, 0x3d8380bf3db69a80U, 0x3c5ba6c6bd91b3c3U, 0xba698a7a3da88212U,
  0xbe5e4bf7bd0e06caU, 0x3d9eab0d3f0aa2b0U, 0x3d21ad37be96376aU, 0xbd3301d53d848b12U,
  0xbd0dc53dbbbd7cb7U, 0xbf4f8000be7718ecU, 0xbe3331bc3ed2671fU, 0x3d88f896bf67c24dU,
  0x3e6cfaa23ebe72b4U, 0xbdbebc0bbf20fda1U, 0xbcd2bfbbbf40036dU, 0xbe838810bea86f02U,
  0x3e49e8983f11bb25U, 0x3eecfb8ebea5b59cU, 0xbdf25dd4bf3b3250U, 0x3c07762b3eeae14fU,
  0xbd8e12b1be9fbefeU, 0xbd8697523f100e69U, 0x3c9eb3383db1a2f0U, 0x3e7b1922bbda9168U,
  0xbeb134fbbf68367fU, 0xbd4a36003e68ec98U, 0x3f123f0c3f0c23b2U, 0x3e5a9982bdbb9077U,
  0xbcd67ade3e9bc657U, 0x3ebf560cbf929b43U, 0xbe3f773e3e116e0eU, 0xbe8ddccd3c44a49fU,
  0xbeadfd87bf196788U, 0x3cbf9046bde442a8U, 0x3ea045653ec0c14bU, 0xbc1e907c3d03a0a6U,
  0xbe6fec76be151566U, 0x3ec15221bcb4d6c2U, 0x3dddbc6b3e2bdb43U, 0xbe2c55d13e862381U,
  0xbd908ee0bd857975U, 0xbe48b574bdfa8076U, 0xbdd3f9f93daef0bfU, 0xbe0cdca8be68a884U,
  0x3b9128bfbe20a547U, 0xbe005c44be3ec383U, 0xbe01f64a3e018a05U, 0x3e0e05fdbce54886U,
  0xbf9058a53e0109ecU, 0x3f0087febf7809e7U, 0xbdcc9932bf312d85U, 0x3d94fdae3ee91852U,
  0x3d452b493c842c39U, 0x3e2e7f243e5c3a80U, 0x3eda3225be2a3548U, 0x3e2dbe623dff2652U,
  0xbde3357c3ca29210U, 0x3dfeaa44be3ae818U, 0xbe07fd663e3966e0U, 0xbcf6fa383c804c00U,
  0xbdfcd896bdaa904dU, 0xbe20b0cf3be8be40U, 0x3d0a1884be2edb3aU, 0xbe500f9c3df84fd0U,
  0xbf4e869e3d788f74U, 0x3e888a3dbf25f33bU, 0x3d1ef58e3d5c0c42U, 0x3e134a7d3e98cd50U,
  0xbc9feada3cddbb02U, 0x3e1b88ea3e70b2c9U, 0x3eacb9c7bed3e8a8U, 0x3d5beb393cfc7501U,
  0x3edf0c4c3ea0a6b9U, 0xbf21db733f5a9bccU, 0xbf37165d3e3f7866U, 0xbf47dce5be56fffbU,
  0x3e7e60c33dded909U, 0xbf0b05773da7152eU, 0xbf859e8a3e047e8cU, 0xbf1fbd6fbc31b159U,
  0xbd825a7f3ef0434cU, 0x3ecfe46fbf5cc651U, 0xbf2c02c2be5781f1U, 0x3e4435cd3e802d22U,
  0xbe632b01be8a96daU, 0xbf5b89303ee8fe99U, 0xbe60127bbe8387e3U, 0x3f04864b3e514246U,
  0xbf873194bf77673dU, 0x3cc30e8a3ee13a8aU, 0x3dd329d43f1ded35U, 0xbe34e02d3e037eaaU,
  0x3c946e13be710193U, 0x3f1921d1bf48c481U, 0x3ea821d23eba4c22U, 0xbee8ec39bda96cc3U,
  0xbf03a968be2e8b4aU, 0x3e4631d7bf0c252fU, 0xbe1003463ecb2b70U, 0x3b9c1f3c3e80caeaU,
  0xbea5144bbe344ee1U, 0x3d6290663edbbea6U, 0x3e610373be5d15ebU, 0x3e99d1bd3e6965cfU,
  0xbe0fc330be020d2cU, 0xbe0a4525be3feb0dU, 0xbe2b37edbd7a025fU, 0xbe77cc32bca58df9U,
  0xbd695790be6bca60U, 0x3c8ccd2bbe0e19d1U, 0x3e1c819f3d9d35deU, 0xbd9ad3c23dc4332eU,
  0xbd1b1e273ba3a493U, 0xbe4af1ce3da9e3d8U, 0xbe364a4fbbde174fU, 0x3e0b4e67bd97c40dU,
  0xbd8fd3da3e00a6e0U, 0xbe3aeb0f3db20ee9U, 0x3cc2b6b5bd499794U, 0xbe198603b90765b0U,
  0xbe0ab15d3d17d2e4U, 0x3dca45073b988e40U, 0xbe63ede8bd04864fU, 0xbe29504b3d0748cdU,
  0xbe67d4b2be6a53afU, 0x3dd9efee3e02d0bdU, 0xbdcd65643e2a0316U, 0x3e3213cbbe1b643aU,
  0x3d97b76abe17db55U, 0xbc20998cbd8e01c6U, 0x3d06041ebe2d236aU, 0xbe58ba783b5825dcU,
  0xbd2cf185bd50999fU, 0xbe1f2c503e2264a2U, 0xbcea96c9be42c6b2U, 0xbdb10b62bdb60244U,
  0xbe4c6e073dc3f024U, 0xbe4331e0be305e22U, 0xbe4130d53cf34e08U, 0xbdd4f3b83d3fdd08U,
  0xbe4c32f83c7b1100U, 0x3c954ac83dc63e78U, 0xbdf6d59e3d58b1a8U, 0x3d75c1e03ce2f3a8U,
  0xbca9e6ef3f158eb6U, 0x3e9b867cbf94f2c7U, 0xbea4ca6abf0b2962U, 0x3e4e2e023ee6b5bfU,
  0x3d056522bcace324U, 0xbf0c8a1d3e97226cU, 0xbe1d76a8be2e9bcaU, 0x3f2976083dc47de8U,
  0x3ecacb5c3ebca253U, 0xbe7562a0beb5834eU, 0xbf0ee8f43e18de23U, 0xbf1a001abda81457U,
  0x3e68f9213d27f711U, 0xbc5a08683f1d7c61U, 0xbdfd9eecbe57489fU, 0xbe61d511beb65024U,
  0xbe9b125dbdd75437U, 0x3ee231febe880b49U, 0xbe9a40753eaeaff2U, 0x3e309be33eb0744eU,
  0xbe9f6b71beacc701U, 0xbe6355eb3ea53e8aU, 0x3dd30e8dbf026ad7U, 0x3e7a129d3e656ff3U,
  0xbf582b78bec891f9U, 0xbeaf6fd7bdb1e4b2U, 0xbc9660ef3f3117d9U, 0x3e36c056bed2d8acU,
  0xbe99aa91bec0133dU, 0x3e9a7ea1bc793b73U, 0x3e9425d23dcf7ed5U, 0x3dd4435d3c8bf05aU,
  0x3d9ec1fcbdf9a111U, 0xbde0d8cfbe1b9b86U, 0xbe581f75bc975013U, 0x3e107ae73b4bf2e6U,
  0xbd9140f5be2a70d3U, 0x3db807c73e2dd828U, 0x3e1129503c645c90U, 0x3d3b36ffbe60f373U,
  0xbdb1c8773f1542a0U, 0x3f30c8dabf2d66b4U, 0xbec6ccd7bf00eb53U, 0x3e26b8f43ea77106U,
  0x3d323d00bebea4a1U, 0xbe1b8cb53f20ccc6U, 0x3e7216d5bd4d31ffU, 0x3ec73068bdd20110U,
  0xbd9fbdbdbf368b91U, 0xbefa25d83e4cbfd2U, 0x3e642bd03f021561U, 0xbd533bdbbefcf45fU,
  0x3e12a4333ec4c59bU, 0x3ce1eea7bfa4e3e7U, 0xbea9164bbefbe2f8U, 0x3d1e84a1be0078cdU,
  0x3eeba40e3f5330e1U, 0x3e0e0872be5a72edU, 0xbe99dcd3bf2cea7dU, 0xbd1e237bbe57f62fU,
  0xbb3accf83dd1aa34U, 0xbeeb4d5e3f09074eU, 0xbd4ce2f43e563f0bU, 0x3ed05290ba31e0dbU,
  0xbe632dcdbcfb91d9U, 0x3c68c2b6bc348086U, 0x3e09485e3db2fc5dU, 0xbe5d2860be26dcbcU,
  0xbd1ee5c5be40417bU, 0xbddb40c13da73f95U, 0xbde3216c3dc41c9eU, 0xbdeafc9fbd023370U,
  0x3ead8c6d3ee2eef0U, 0xbebc1ca5beb99396U, 0xbf42f68c3e514cdbU, 0xbe5f3462be3cc504U,
  0x3e44a2253e8fa383U, 0xbf15bf073eb5864eU, 0xbeeafdabbe307ba4U, 0xbe193008be4c3aa8U,
  0xbe06c46ebe5eb76cU, 0xbf429c13bd93b072U, 0xbd260f523f480e4dU, 0x3d4307abbf0fa8ecU,
  0x3e05504c3f008d00U, 0xbd01c8debf51bf67U, 0xbe1cb892befe13faU, 0xbd14db48be22d675U,
  0xbd5a0e753f3b22f8U, 0x3e57b3f4bf3baa3fU, 0xbed0f9bfbefbcc1dU, 0x3e4cc8283d15ccf8U,
  0xbddfae96bd391f10U, 0xbec94a353f16c433U, 0xbe088c93be3e4b93U, 0x3ede8ba33dcdad90U,
  0x0U, 0x3d466ece3e137fe9U, 0xbdfccbb8bd8f3507U, 0xbda6d52b3e0b3318U,
  0x3dfc8a0e3e0833a6U, 0xbde4d7543c9d54f4U, 0xbcc57b4dbca2c50fU, 0xbd0b7097bdf81c18U,
  0xbcd34bbb3dfc62bcU, 0xbbb6237dbe914206U, 0x3da3c7bb3e275754U, 0xbd8818d000000000U,
  0xbcc47014bb911cc1U, 0xbd00fb4c3e0e2f62U, 0x3ddba1e4bde436fcU, 0x3e17634800000000U,
  0xbcd5decdbe0d1144U, 0x3dff48a7be2434abU, 0x3e0447a43da48f00U, 0x0U,
  0xbe1ea0bebe53c560U, 0x3e14f059bdcc478bU, 0xbcd9bdc43e326a1cU, 0xbdbfa2a0bdf3fefaU,
  0xbd185ab1bc6b6600U, 0xbd7a95583d529fe1U, 0x3df89620bb8c331dU, 0x3dd1509d3e209b7cU,
  0xbd6579c3be4acf3cU, 0xbe42f3f23e103e2eU, 0xbd0207eebe020542U, 0xbd72730dbd1849bbU,
  0xbe0839573b805339U, 0x3d88bdccbe5309feU, 0x3c982a073e077688U, 0x3e076b683e3ebba1U,
  0xbe396dd8be5e0329U, 0xbc6177f43e1c3754U, 0x3d86dc56bd3d588dU, 0xbce74331bd177f74U,
  0xbdcd3d0fbca8ec19U, 0xbd31844abdec0f74U, 0xbd01f3c83e445a2eU, 0x3ddc7c59bcc302d8U,
  0xbd75ebc9bde7c023U, 0x3e04761c3d0840feU, 0xbe182121bde5acb6U, 0xbdeaa5a13e3c8066U,
  0xbd5276ebbd1aa12eU, 0x3df09145bb05d788U, 0xbcecc745be3e3fd9U, 0xbd80abbfbcfafd12U,
  0xbe1ff5bdU, 0xbdc7cc41bd832c5cU, 0xbdc558613de785ccU, 0xbd8f4a063e429502U,
  0xbd01d991bc4dd0f2U, 0xbd20c0bdU, 0xbe5a88fcbd626d1bU, 0x3e0d9f0d3e17f16bU,
  0xbe08b7dabcd22a9fU, 0xbceffa5f3e1173dfU, 0xbce3232bbd4d62e0U, 0x3cc508063dd763c8U,
  0xbd0572c4bc96ef10U, 0xbe4d39423cec3d18U, 0x3c41b8dfbd4af1eaU, 0x3c4d0b55bcc44e8bU,
  0xbe459542bd225510U, 0x3cec430f3d5fc0f1U, 0xbdc1ee253e2c7d1dU, 0xbc1e02f0bdb236a7U,
  0xbe31bedcbd8883f9U, 0xbd521b00bd8cdf31U, 0x3dd64bbebe119539U, 0xbe3bb5bc3e0899e3U,
  0x3d384d12bd5b1a34U, 0x3d2a48b0be0bb7a0U, 0xbc5921e2bdd7f49bU, 0xbcee58ce3e144835U,
  0xbe061f6abe2c07a7U, 0x3cf465c8be1812f6U, 0x3cabec82be0ad8e9U, 0xbe229ba73c5a35d0U,
  0xbe04f494bcccecabU, 0x3cdb7e6fbd3ea801U, 0xbc74f5f6bdef5a5fU, 0xbe18ecd4be0d6b91U,
  0x3c00f881be20f686U, 0x3d6152283d912dd3U, 0x3dd9aed73ba2af28U, 0xbdff7a2cbe46c4bcU,
  0x3ccebc713dbe2b53U, 0xbe055ce33deeae62U, 0xbd8ed14f3df55fc7U, 0xbc8d3008be2042bdU,
  0x3bb4448bbe4f69b5U, 0xbdfff1433c98cd01U, 0x3cccc88abdb316feU, 0x3db53eacbdbf35acU,
  0xbd834dd83dad4a10U, 0x3b8908a03ce9a3f7U, 0x3e14a8523e2a7519U, 0xbe33c19d3ba8a35fU,
  0xbe4de376bdee6ee1U, 0x3d3464503d16b16dU, 0xbc589360bdbfc47bU, 0x3dade76839669c00U,
  0xbd92a4c33d12f3aeU, 0xbdcb8c3fbd4ea1ccU, 0x3db5b3c6bd022a34U, 0xbddc295c3d53ae04U,
  0xbe2ee5fc3cf94f30U, 0xbd9cb2eabd3dfa56U, 0x3ccff3eabe29e24cU, 0xbd7d9778be0e3405U,
  0xbdf8f969bdc868bdU, 0xbc1648a8be190d92U, 0x3dec9dd2be4ba166U, 0x3dee6426be2b9bd4U,
  0xbda985c6bc3799faU, 0x3b6a9e40be0f37d4U, 0x390b0f6dbdb272f4U, 0xbc9abd69bdd17371U,
  0xbe19ae373e0839e8U, 0xbd52c87fbe4f3c32U, 0xbe4e26153d30148cU, 0x3cbd82fbbca0cde7U,
  0xbca8a6b03d130674U, 0x3dc6a0dbbfc40202U, 0xbf12946c3d6d3ff6U, 0xbe6c6124bef62596U,
  0x3e29d788bf6f482cU, 0x3e9c0c293d8e6bf5U, 0xbd4deee5be0dcc8cU, 0xbe26bd6abee4ec5eU,
  0xbc23e4c4bf97c12aU, 0x3aa450c2be9ba8f9U, 0x3ce0e30ebd13f529U, 0xbed592b3bd3eaaecU,
  0x3eb534b43e1bf9d5U, 0x3d3c7c08bf079867U, 0x3e7d88ae3babbb92U, 0x3e52d1653dc83b0aU,
  0x3df17862beb9d504U, 0xbd1d81ccbcf8d951U, 0x3e2519e83e9740caU, 0xbdad8d0b3dbb582eU,
  0xbef6b28bbde6baabU, 0xbf8f6083bf843784U, 0xbd388a0d3dec49ffU, 0xbf0d9524bf4c7fbaU,
  0x3e517a0ebcebe9b8U, 0xbd9021813e0b4be6U, 0xbfb42375bda1e659U, 0xbf1413133ce77384U,
  0xbea947c23cf42c6cU, 0xbe156bbabf0622eaU, 0x3b94ff95bdcf488bU, 0xbce8a2603dea6c5cU,
  0xbe597ccf3e04ac23U, 0xbbccdfbebe943f33U, 0xbda825cebfa35224U, 0x3a0fb6ef3e650b02U,
  0xbf130f6bbeff9249U, 0xbf63d7463e9b3426U, 0xbf310cd43df5fba4U, 0xbdd75130bdbb2c28U,
  0xbf1e8eedbf3c98dbU, 0xbbb2e632bf333228U, 0x3d8a0b623e569690U, 0xbf553420bdbd2aceU,
  0xbcad1acfbe8410daU, 0xbf62c9c5bd262a3cU, 0xbf2f4e983c65da84U, 0xbf0597e13e5c004fU,
  0xbd832e1f3e383fc1U, 0xbe9ead123e6213d9U, 0xbf83ca66bf409d8aU, 0xbd7df2d5be986c98U,
  0xbdcc59febdd8a5f1U, 0x3ea1a1bc3db6d638U, 0xbf0d7c803e165e37U, 0xbe27afd23e044ffeU,
  0xbe23a79abc754227U, 0xbbb8d900bdfac45eU, 0xbe9b26a83dbf6951U, 0xbf9da5aa3e3a5729U,
  0x3e1390e53cb2a3f6U, 0x3e3b37dbbf0e5323U, 0xbe449cb83d240879U, 0x3e4ff7e4bf263cc9U,
  0x3d8def96be18d4ceU, 0xbdebcea1bf6f86f0U, 0xbf534b82be0febbbU, 0xbf593681bf1c988dU,
  0xbd087bb7bf72779cU, 0xbea5181ebd54562eU, 0xbde3a528be3ceb98U, 0x3cdbf7e7beeca1f5U,
  0x3d8944d8bf38da68U, 0xbda162e6beec5f36U, 0xbd1c4f56bcd0c58fU, 0xbeb8a262bd2d9f94U,
  0x3ead37fb3e3fcabcU, 0x3e316671bf262cc8U, 0x3e17532c3db43fa9U, 0x3ec2c874bdb8db5dU,
  0xbe2c0c03bf358948U, 0xbdcae07dbe619c56U, 0x3e1b25023ea05589U, 0xbd1290fcbe1039bcU,
  0xbea555b4bd692b87U, 0xbf42a6e6bf155aa7U, 0xbe383ab03d6c1becU, 0xbefe81a3bf3081e9U,
  0x3e5a8d51bdf5267dU, 0x3bbe1c263cde649aU, 0xbf0d54333e30e2adU, 0xbf05798fbd750bafU,
  0xbc18bf90b92414fcU, 0xbf124364bd1434e2U, 0x3da5bb9a3d6d8575U, 0x3e002d173e265900U,
  0xbe2d9a273e84819dU, 0xbe2ad28abca3ab43U, 0x3e17e8c8bf82cdd5U, 0x3b997ac33dbc7daeU,
  0xbf46ab32bf393ac3U, 0xbed93de83b13876fU, 0xbf5fff903c6f89c7U, 0x3e13052bbe1cdb5aU,
  0xbeefdd69bf355423U, 0x3dfdf9d4bf38122bU, 0xbdbcc040bdb2a38aU, 0xbef9aec5bd0949d0U,
  0x3c3d8787bf30b0b7U, 0xbf4d2b233d6df560U, 0xbeef8b69bec522ecU, 0xbf1b60473e1a689fU,
  0xbd35e88a3e29923eU, 0xbd3928263dca8e75U, 0xbf654d0fbf239cffU, 0xbd8b0012bd2aa39cU,
  0xbdc77da9bea59792U, 0xbeca0e02bd8f3543U, 0xbedb29f13e5cee3eU, 0x3e22d1f23da967c2U,
  0x3dd2d99ebe30a046U, 0x3e29ebf9bde79a64U, 0xbd53ecfc3e3fb0feU, 0xbf2145643e131ef0U,
  0x3e6cac4a3d8818cbU, 0x3da43d42bf2db397U, 0xbf15a2943e145d81U, 0x3d5be0dfbeaf4b2bU,
  0xbd5d9754be2474c6U, 0x3c8d6cd83db798e1U, 0x3e0446163e020b7aU, 0xbc3580cebcef49eaU,
  0x3d97d56a3d1de792U, 0xbed599173eb175c5U, 0x3d8fcbf63e406f92U, 0xbe088560bdcb1b48U,
  0xbe7a496f3dc7f887U, 0xbe2465e1bec379e3U, 0xbe3781f3be006ac8U, 0x3e901e6f3e0c3cafU,
  0xbe2ab2953e473847U, 0xbdcd5698bcd004acU, 0x3d98c81ebd155332U, 0xbea8a0a6bdea0c4cU,
  0x3cde8d003e13f0c6U, 0xbf2d39853e60fcc8U, 0xbde11d94be39fa18U, 0xbb539b80bc523cc0U,
  0xbd7d9db8be66c7afU, 0x3dfd2ae7bda75541U, 0x3e3ed1ad3e929162U, 0x3e2e4811bd4152a8U,
  0xbdd39560bc825965U, 0xbc9dcab63ebc071bU, 0x3e8751f6bc02158dU, 0xbea92bf23e4659d6U,
  0xbda50e3e3c06a82fU, 0xbf18e6ddbf09b1aaU, 0x3e10e93b3db6908bU, 0xbe2d997c3d07e20cU,
  0x3ca0261b3dca89cdU, 0xbd220abebea3188cU, 0xbd475f2b3daa5668U, 0x3ecd2b75beb0a8a0U,
  0xbf461ef3becb18c7U, 0xbe9acc19bdd494bcU, 0x3d3b223b3e436442U, 0xbe0437b9bde4c816U,
  0xbf1540603d1b978dU, 0xbdd343913e23fae2U, 0x3db0c13ebe53353dU, 0x3bf85dd4bcf29fe5U,
  0xbe7d7f03be4023b4U, 0x3e33e267be190607U, 0x3bbf8cf63dd90ea3U, 0x3d8f98fbbe408648U,
  0x3e95329d3e2840beU, 0xbe850dd23e657d22U, 0x3d73664fbe5c8308U, 0xbca920d63d9056d7U,
  0x3e2237513e2a3614U, 0xbe9252ee3e96cbb8U, 0x3e1e23663d0640e3U, 0xbd199419be25c6cdU,
  0xbd345be83d8d6f56U, 0x3e2003ab3ce5b468U, 0xbea9e0bdbdfa5782U, 0x3a2e84713e2bb475U,
  0x3df1c147bdce5ad6U, 0xbe6de0f33e0258a4U, 0xbd6de9ca3db497beU, 0xbe8bf021bdbedb1fU,
  0xbded9619be17e359U, 0xbb26cb57bdf38bf5U, 0x3d6e87613deebf61U, 0x3bcb28afbda08795U,
  0x3dfc412abd72e1feU, 0xbe40a627be28d5adU, 0xbdc2adcc3cda37e5U, 0xbe03eacc3d404b51U,
  0xbe2136fcbc847ed8U, 0xbdd78182bc9ca5a6U, 0xbe05ca183d5a2b43U, 0x3bf5c8a53deafb1eU,
  0x3d6003d03d8fc9a9U, 0xbe34a0f93d0f3fc7U, 0x3da931d4be000289U, 0xbe0de0723d93be58U,
  0x3e2d4a0bbdccd30bU, 0xbdc6b837bc596ca2U, 0x3df8ddda3d23b378U, 0x3ded33e63dc8b606U,
  0xbcdcaf59be5401bbU, 0xbde74ec33e2838e5U, 0xbe1a4a9f3d936941U, 0xbe08621d3d02551aU,
  0xbe09fce03cb61148U, 0x3d2705dcbcde83d6U, 0xbe4ca5c2bd424727U, 0xbd9de4febd1e144fU,
  0x3da8ce2abc96a1daU, 0xbd83d4d0be2a62c1U, 0xbdabaf70be2d82e6U, 0x3d83e492bdccd3d4U,
  0xbe2e1e5abe46f742U, 0xbcddade3bdaa97f7U, 0x3d8ff49ebd5be374U, 0x3de08abb3d91e142U,
  0xbdff6868bd2e6d1eU, 0xbe011859bd29ac70U, 0x3d804f2dbe1ced17U, 0xbbb079c03cf84ee8U,
  0xbde46d953d2a4299U, 0xbe23a6a53da6c77dU, 0xbcf7dfb0bd4118b4U, 0x3e0bcd87be1b0f54U,
  0xbbd97fdbbe4e42e3U, 0xbe204008bd3008cfU, 0xbd6d05333e06e95eU, 0xbe31d1493d843654U,
  0x3c3443923e1dd598U, 0xbdba334ebe1d2f67U, 0xbdf8db41bccf1f5eU, 0x3e1c1af1be225839U,
  0xbddaf564be0ad357U, 0x3ced4ac23d0e8d46U, 0x3e107ce8bdbe6c04U, 0x3e0f91c1be2490c7U,
  0xbd3cb3e8bc4f30b3U, 0x3dc7edb6bd3ecbacU, 0xbe31c939bcdc25c8U, 0x3d86a35bbdd546e1U,
  0xbd0dae12bb995df3U, 0xbe4147e7bd92309aU, 0xbe85fe583e0fd385U, 0xbe0bbe78bd02bc7eU,
  0xbe08c9cebe0b1de6U, 0x3ce83f3ebf81be39U, 0xbd8ad648bdb634dbU, 0xbd495311bf41d8b3U,
  0x3ddcce3abf596646U, 0xbe8d96783be0e5adU, 0x3dc907753d2066e6U, 0xbc1c2ad8be696143U,
  0x3e13c6b1bf5906faU, 0xbdc682ffbf055069U, 0xbdf6373bbe4cd8a5U, 0xbe8dbf8ebe196749U,
  0x3ed28212bda39c1cU, 0x3d31bb18bf86397fU, 0x3e10bc653e007490U, 0xbe12b88dbd377a18U,
  0xbcad02e03cfb5477U, 0xbe97355b3de69a76U, 0x3d643754bd15d733U, 0xbdcb43263ca43158U,
  0xbe74f352be336f07U, 0xbf56d52fbf44fd14U, 0xbcff50693e338433U, 0xbd11ea62be31b12bU,
  0x3e8b952cbd65b754U, 0xbd57affebdcae1f2U, 0xbf32fbe83cfc2208U, 0xbf240fad3d180492U,
  0xbef69c55bdf90311U, 0xbf485909bf0913ccU, 0xbafee2803e441ba5U, 0xbd89451b3d833dd2U,
  0xbe906e9ebdd6b3f3U, 0xbd8b76c6bfb0a099U, 0x3e6223bcbf8402a6U, 0x3e0642633dbcfbf0U,
  0xbf6e2387bf9c9c80U, 0xbf0fc1c6bd698944U, 0xbedfb4233de6ef9bU, 0x3dd20675be15c7b0U,
  0xbf928e7fbf0b0f66U, 0x3dd783ecbdd76189U, 0x3cd16a30bbbc018bU, 0xbf61beafbce29c10U,
  0x3df7f949bf02c07eU, 0xbf85c573bd05127eU, 0xbe3198e93c953e09U, 0xbcdd1999bc6bb755U,
  0xbdd8a3de3e27c19eU, 0xbee6efb5bdc58ccdU, 0xbf156ebcbdcafc26U, 0x3e03da98be82eaabU,
  0xbce8b5903cb740a8U, 0xbe562f4b3d9c1a95U, 0xbef5a3c03df9eb37U, 0x3cabca47bd8e1ff5U,
  0x3e2c16a1bda40720U, 0xbdce99333df6c902U, 0xbf35fa083e63c4c6U, 0xbf2e43d03d27a308U,
  0x3e1e99aabded5281U, 0x3d111b85bebc8445U, 0x3cc654d1bcaef291U, 0x3e8b37d9bea89bebU,
  0x3e26118b3d668e08U, 0xbbf152013f832026U, 0x3e7276413e2748feU, 0x3e5563993e4bdd69U,
  0x3f0996973f13fe85U, 0x3e8f2f023dea6577U, 0xbde604f0bcb7c7d7U, 0x3e07d5753d1c4420U,
  0xbf3c657b3faa13d1U, 0xbdf984f23dfc608eU, 0x3d1462dc3ef8e66eU, 0x3dd4f78aba8d4580U,
  0xbde2a7113dafb470U, 0xbd89183f3c239cb8U, 0xbcf07218bf05ab04U, 0xbdc305a83dab509eU,
  0x3d21298f3d923db6U, 0x3eb54cfdbf0a5aa4U, 0x3e02abf53e38c1faU, 0x3db309563e26078dU,
  0x3db8983bbe40b8afU, 0x3eead5f53f7234a1U, 0x3df1ce4ebdd6bbc8U, 0x3d7f1196bea8c5d7U,
  0x3e5b82c73ce4a528U, 0x3d9278233e24b547U, 0x3f4fa383bdbf50e2U, 0x3f27aaffbe09268dU,
  0x3e72be80bda1a1dfU, 0xbe0556e83f3326d3U, 0xbcdf8fd0be88ceafU, 0x3e0b982fbf8c5413U,
  0x3d69ead03dcab02fU, 0x3d168cae3d7ff081U, 0xbe7573683f2c87beU, 0xbe988f753c97c5b6U,
  0x3ed97092bd1158c6U, 0x3f2a55b3bf1e0356U, 0x3f56c624bbcb21b1U, 0x3c417450bc800084U,
  0xbcbf685e3f1a3832U, 0xbf8f88bc3e673826U, 0x3e2f4d5dbdaad7dbU, 0x3f184b773d08a560U,
  0xbf84514c3f1d18f1U, 0x3e61a5803da4e194U, 0xbda39b27be6035fdU, 0xbeb8006abe97c775U,
  0x3e60d111bc9bd4f2U, 0x3e857477bda071e5U, 0xbd9a8788bed92480U, 0xbda3ff6abe0f82a6U,
  0x3e2decbfbf14a09bU, 0x3e2a01ff3e13ce19U, 0x3efcd8bcbea09cccU, 0x3d971e123dbce256U,
  0x3cf462e03e1d5f3cU, 0x3e326bcf3e21fb6bU, 0x3ecc2522bfa1b079U, 0x3eac9760be211c84U,
  0xbf70eda13d46ae46U, 0xbf95d5f5bc35d0e8U, 0xbe834cdebdc604eeU, 0xbef76c883f0f8295U,
  0x3d87008cbe290cabU, 0xbd09faacbf8c5d5dU, 0x3eff0d483e12de1cU, 0x3edfd254bf2a70b8U,
  0xbd86b4d2bf17ea67U, 0x3ea110a8bda29942U, 0xbd9fbfc4bdde9a87U, 0x3e207bc03e908963U,
  0xbce9da34bf5a7874U, 0x3e0a0c2b3daf93cbU, 0x3d9ffff2bf52be5eU, 0xbe15a3c3bdab4d0fU,
  0x3dcb4095be8c66f0U, 0x3c1a8d20bf1fea61U, 0xbe39bd3f3d885d9aU, 0xbf73ecddbd922d81U,
  0xbe3136ab3f04ba51U, 0xbe236c313f02643aU, 0xbe202da9bf5cc071U, 0xbde8d59c3d99cbbaU,
  0x3ac4fd023e8eea15U, 0xbeb7ce1cbf2936fbU, 0x3d4a4a263bca8915U, 0x3e35e2d43e7f80f5U,
  0x3d60752b3ced62b0U, 0xbdc3c08abea191c4U, 0xbf2839e0bb5c47c2U, 0xbf03c83c3d8543b2U,
  0xbee9b02e3e8f97d9U, 0x3d0ff1a8bf22c9e0U, 0xbe1599ee3e9e5f77U, 0x3daf7a723b906550U,
  0xbe57200ebcd33e1bU, 0xbdf1818fbf06ca65U, 0x3e3a1606bf810e58U, 0x3e369a28bced4244U,
  0xbee916e7be1ab236U, 0xbeba60943d660685U, 0xbe5173cf3dd91e90U, 0x3e20c4c63de31610U,
  0xbec88ed9bee13bb0U, 0x3df2b5c93e7ce89cU, 0xbdde6043bd177339U, 0xbf5e8f553d96ae1aU,
  0x3ddced843e86a537U, 0xbeb88494be9405a9U, 0x3dff5d0d3f31c215U, 0x3ec3a0b0bd454a16U,
  0xbe3bc9773e20f9f1U, 0xbf34d6a4be03c705U, 0xbecc4b243f012009U, 0x3b6d5a85be8eda2aU,
  0xbc91f0e03e86b77fU, 0x3f5978553ea05e95U, 0xbdd21c5dbe0a51b8U, 0x3dae3ae0bd379517U,
  0x3d0434ec3de647bcU, 0x3da4a10abdd2d2acU, 0x3ecc2cf1bdba6198U, 0xbf15f434be208527U,
  0x3d5c6b013dfdd2bcU, 0x3e830628bf0758d8U, 0x3f4d30bc3d845c9cU, 0x3db0ba88bee8f410U,
  0x3dca36eabe219f0cU, 0xbf353b6bbe8066a4U, 0x3efc3483bb599ea0U, 0x3f1b84f9be2c268eU,
  0x3cc1df29bde8e9e4U, 0x3f6c89bb3d93baa6U, 0xbd93b306bd0acdacU, 0xbd7c43513f451a9bU,
  0x3d3a7d09be73b454U, 0x3dc5fc913f8bfc20U, 0xbf1c5745be85757cU, 0xbe86494abd67c8f4U,
  0x3e9c7c39bea9c009U, 0x3cb96a68be2903c6U, 0xbeb8ea37be0f5d56U, 0xbf53f9803de610c6U,
  0xbd0f73d03f109f97U, 0xbdf824b73ef7e393U, 0xbf1986c0bf23efdfU, 0x3d253118bdce0362U,
  0x3c2a5dc53e952906U, 0x3d8875803d5f4e65U, 0x3d93a224be29fa9cU, 0x3e61b16a3ec62856U,
  0x3dda6a733d6d2434U, 0x3e1785b0bee42b36U, 0xbd8f24e5bc689781U, 0xbdc710e8bea3015fU,
  0xbf2717873e94760fU, 0x3e80e19bbe8282cfU, 0xbd1dc1c83e8201eaU, 0xbe1337ebbdb12baeU,
  0xbb111ff83e1bf349U, 0xbf43c5dbbe96c16cU, 0x3dfc33a9be5b1687U, 0xbd891178bf1e3ea0U,
  0x3e1e675ebc6f22fbU, 0xbe0e9a23bef5f7a2U, 0x3f388e173e40e1a7U, 0xbdbc2eba3dfb8fdcU,
  0x3f023215be15edc3U, 0x3db26ce53e9938faU, 0xbe2dbeafbf149fc6U, 0xbeb66b863e2ff9bdU,
  0x3dd184d23f0fdbaaU, 0xbdcf687ebec0a5a2U, 0xbcd704be3e84a4b0U, 0x3e99c58dbf0a4a52U,
  0xbd1a838cbcf1c333U, 0xbf0f41b5be455933U, 0xbe146d373e8ef9b2U, 0xbc20f265bebdefb0U,
  0xbe2fd5943f3098aeU, 0x3f5f4ec93e8a893bU, 0x3f8e172c3cb0f406U, 0x3d82eae8bf620b94U,
  0xbdbaaf56bdad8d9bU, 0xbd8f8d33be0bb3d0U, 0x3f933219bc9ba55dU, 0xbe47b34abf8c8527U,
  0xbe19f4143dbd284aU, 0xbd94e90d3eaa543cU, 0x3f1f911b3d8850cfU, 0x3e2db1133deb0d09U,
  0xbd8642b7bd97ee30U, 0xbdd468823cb0843dU, 0x3a735bc4bd2d38c4U, 0xbbe93b04bdbced1aU,
  0xbeb1f19fbe5cf57eU, 0x3f8a2571bf089552U, 0x3d8bd446bd6d1589U, 0x3e2288693ebc8fe7U,
  0x3e291920bd8df8f6U, 0xbdd63da83fb12704U, 0xbd5fd119bdb63c9eU, 0xbfacc6003cc67130U,
  0xbe85c6ebbf22e929U, 0x3c9a76903dae9b95U, 0xbf23bc543e23c6eeU, 0xbdea8c6dbd0d32fcU,
  0x3d3dd0123bd91b5fU, 0x3cbae84e3ced8321U, 0xbed6c052be88625bU, 0xbe0386263df2d922U,
  0x3c6ebad43e9fa881U, 0xbe08fe7d3e50bde8U, 0x3dcc0e0dbf9b8e64U, 0x3d01caab3dab9382U,
  0xbf82a4fa3ce2dc88U, 0xbdb5b888bf87106eU, 0x3b6819f6be1cfc1bU, 0xbcc08f6ebf4eae2eU,
  0xbecd9f6a3e953836U, 0x3f47b0ea3eae99caU, 0x3cca3a203db36a4dU, 0xbe10b1ce3e1d3232U,
  0x3dbe8ac6bde3a516U, 0xbebe75003ee8d429U, 0xbe93103cbe41dd4eU, 0xbf4d4ea3bf823918U,
  0x3f146fff3f2a9979U, 0xbc2f9f90bf6ad645U, 0x3ec12583bd4340f3U, 0xbda0ab373ceb93b7U,
  0x3f2167773d977de1U, 0x3e752ec0bde66961U, 0xbde0873bbfa52fd4U, 0xbe5317103dbe1236U,
  0xbbb2b5313f92fa39U, 0xbe6703913e04e98bU, 0x3c96ce103d49a4cbU, 0x3ddd1ab3bf09427bU,
  0xbf56f4163dbb6d8dU, 0xbe10d6e7bead43cbU, 0x3dd0f3113e66b311U, 0xbc877adfbe9ec05aU,
  0x3e01db8d3dfb4a35U, 0x3f5aa2e13d2f8954U, 0xbca57a0bbf2b5db8U, 0xbbd1ef00bf7aa0cbU,
  0x3e01dcf1bca40c73U, 0x3d90feaa3df860baU, 0x3fa0d5873dbab1e2U, 0xbd2342d4bf6a8068U,
  0x3e5d3b7c3bb422ceU, 0x3d6fb188bef23122U, 0x3df6d484bdca83d6U, 0x3d0c57743e98608aU,
  0xbe18d7913cdecfc0U, 0x3e4d7e55bee932cdU, 0xbf24f2f73e2eba5aU, 0xbe871f553e32f367U,
  0xbe82871b3db911beU, 0x3ef015193df0c42cU, 0xbe1287e73dddc2deU, 0xbe0d9312bec380b9U,
  0x3e0cfc2ebd652597U, 0x3dcdf981be41361aU, 0xbd411767be4e463dU, 0xbe40e2f8be0afae0U,
  0x3e08512ebd286024U, 0x3c440d0dbc9a3192U, 0x3e8a0146be28b7b8U, 0xbddd8b86bd9e2eb9U,
  0x3d91766abe2dfac0U, 0xbf15d1673dcbb0f5U, 0x3ecebdefbde003b5U, 0x3e1ca67d3e204ae3U,
  0xbebc19903f297040U, 0x3c0838543f56eb4aU, 0x3b69fb663e644198U, 0xbf478796bf261a73U,
  0x3ca007a0bdccc37fU, 0x3d225b453e3d50d4U, 0xbd8363433bf0a1b0U, 0xbeab3b573e007663U,
  0x3dc8fc513eda0a4bU, 0xbd4695c3becb33dbU, 0x3d9a7d243e308b3cU, 0x3c320da8be68faf9U,
  0xbd11bb2e3ed97205U, 0x3e162361bdf2a0e5U, 0x3e9508a73e85b80eU, 0x3e2cf51a3dcb24caU,
  0x3e1be37d3d99a806U, 0xbe16a0cc3f090451U, 0xbefdcbc33de3516cU, 0x3da5a2113d2e3184U,
  0xbdf7cf4bbe6f7a29U, 0xbd5c6dddbf3350c7U, 0xbdc6d7bf3edf1d9eU, 0xbe2c14243c041851U,
  0x3da2e50d3f12c161U, 0x3d9144803d208a49U, 0xbec1b545be192842U, 0xbe9bb9813f01e9d2U,
  0x3b95cccbbe00293eU, 0xbdb794ae3e522c4cU, 0xbbc348c5bf1ad1beU, 0x3dae419e3de76516U,
  0x3e1492a13e31c345U, 0x3ecc1f3b3e597348U, 0x3f0307943e9c1e2fU, 0xbd233e2d3eace6d1U,
  0x3db7e3f7be01e172U, 0x3dba5cf63e073639U, 0xbd669b77bd3265b5U, 0xbe060a093f1490a2U,
  0xbe2f73333da9ecadU, 0xbdf3218fbea5d2dfU, 0x3d8ded7c3e05022cU, 0xbdcf33fcbeb2749eU,
  0xbdd0996fbd80b2b1U, 0xbd3e15d8bb910d93U, 0xbf60fa92bcb44ad8U, 0xbe9cecf2bddfa804U,
  0x3e622fbbbe1f6808U, 0x3e7fb2623e470eedU, 0xbd9d4e323d59ea58U, 0x3e1eee3abe2fd529U,
  0x3d52d806bda47780U, 0x3de427cdbea786edU, 0x3e8336f23dac5cb8U, 0xbe3519423de11b32U,
  0x3e00b2b13e217e31U, 0x3c4542c0bdd93259U, 0x3d80db7dbd0c41e2U, 0xbe9499df3d97ebf6U,
  0xbd7c1f34bf04ca8cU, 0xbf0cdac13e8b1842U, 0xbd3fd6ddbe703f1aU, 0x3ced50803e185ba3U,
  0xbe10c6543f00ea08U, 0xbc437cd7bea7431bU, 0xbe13a2ca3e718738U, 0xbef5f8f3bf0ec1fbU,
  0xbd697b4b3d09143eU, 0x3d6e64da3e43e612U, 0x3e98f7e4bd19d7f1U, 0xbf0e8f0b3e3d7a22U,
  0x3dfc2df73e8196b4U, 0xbdea669fbf11ebe4U, 0x3cb18318be0a5d5aU, 0xbd0667e33bdd85a4U,
  0x3db2b22f3cef8c53U, 0xbba238ebbe804a75U, 0xbd481f8abe50c12bU, 0x3dd46c2a3edd415bU,
  0xbe87cda7be8d9962U, 0xbe9073383f1d312dU, 0x3e8533433ed02510U, 0x3dbfaa42bda1bc5bU,
  0xbe4a70983e29cda8U, 0x3d8880aebf05544dU, 0xbdb7528b3f04085dU, 0x3d57bec3bb27ed98U,
  0x3d8ac30e3e25ddefU, 0xbc38d180bddb3d58U, 0xbdc15f5cbee29228U, 0xbeccf3f33f1cca9eU,
  0x3db9ea71bdba1f9dU, 0xbe274ce33e3a353dU, 0xbda3146bbf555f51U, 0x3d9f22dbbe619bdaU,
  0xbdcc74f33dd7885aU, 0x3e83893b3e0836f4U, 0xbe7cf24c3ccd2cd4U, 0x3d366bedbd933691U,
  0x3dff00de3d5e43d1U, 0xbcab0c78bdff431fU, 0xbe960dddbdf77a82U, 0xbe23274c3ebe6087U,
  0x3df065d93dcaf64cU, 0x3d173a903cf2c3caU, 0xbea95c67bd636c72U, 0x3e469dbb3da12be0U,
  0xbe1a731a3e019f0dU, 0x3e2f5200bdfcec2cU, 0xbf009fadbdc94564U, 0xbef0a7313dc5995dU,
  0xbeb6bee53e449f3bU, 0x3ebe800d3e4edf13U, 0xbdcb401dbd2decf6U, 0x3d771cbcbe073b11U,
  0xbd8f261fbe445796U, 0xbdadbbb3bf1b20ceU, 0x3e914345bd93b3d4U, 0xbde8b658bda60326U,
  0x3ea54aa33de71b37U, 0x3dbe412cbe695247U, 0x3d6304eabdcbb69fU, 0xbe8462353ddae69aU,
  0x3d2e5d50bdbbe1f3U, 0xbf5b4c9abca63231U, 0x3e4c7032bec03d9eU, 0x3dd8e8de3e224d79U,
  0xbf1259253ea08c6dU, 0x3ea5e29e3f422ae5U, 0x3d8d45683d6b31b3U, 0xbf487d9fbf0f5dd8U,
  0x3d82cbcb3d9d1e15U, 0x3dba5bdb3ec516b1U, 0xbe6d71bf3c6664dcU, 0xbf156be63e5ce5feU,
  0x3e653b793eb17fabU, 0xbe15581fbf51b538U, 0x3dde0dd9bceb9f83U, 0xbdad3cd5bd3b3c9bU,
  0xbef828d83f142bb0U, 0x3e06947ebe828f3dU, 0x3e8ee4883ce79d1cU, 0x3da8b0f53e70a479U,
  0x3e03e61b3c3ee33bU, 0x3e7665593f0a5768U, 0xbeda2be2ba271fc9U, 0x3dc08ff73d710f91U,
  0xbd4cc3763d142a1aU, 0xbd4fde66bf364b70U, 0x3db87f3c3e9a8afaU, 0x3c902f273d6a6cb8U,
  0x3b09ba4a3f35c446U, 0x3df194223d372eabU, 0xbf0d879fbe0b11b9U, 0xbec3f4313e9ffae1U,
  0x3d4528abbd955891U, 0xbe6fba493d52499cU, 0x3dbfd17abf30283bU, 0xbd91f8cb3db46292U,
  0xbd827dd3bd8d7335U, 0x3eeb88c73eec5f78U, 0x3f61387b3ea5e9efU, 0xbcd1fb353e588724U,
  0xbe1d4c42be127232U, 0xbcba2ff0be2a5b71U, 0xbde7715e3c8cc2beU, 0x3c9931673e8f8e63U,
  0xbb2dd6993cba0393U, 0xbd108c9abe9ffcefU, 0x3d0d56173d607e75U, 0x3e8122f6be39c95bU,
  0x3d09da1c3c3d45a0U, 0xbd1f46243f6f1337U, 0x3e8ad85a3d96c4a9U, 0x3cb821f13e89ab07U,
  0x3e77f4353f0a521cU, 0x3d8f38ec3de5427cU, 0x3dad02c2bd879d3dU, 0x3e0f0c1bbdd5dc34U,
  0xbf8945a23f9c9557U, 0xbd4f7dd73d92757bU, 0x3bcb7bab3ef6a0acU, 0xbdda1a9d3c092900U,
  0xbe92d74bbcfeab48U, 0x3e1180ec3aee43d2U, 0xbde8eaa5bf4cbc68U, 0xbd238b43be187c89U,
  0x3ca1be103e0e814dU, 0x3f082e47beea050aU, 0xbde0a5893d8238f8U, 0x3d31272cbdab1d2dU,
  0x3ec47ef7bea36d6dU, 0x3ef12cd43f821c2eU, 0xbcff25ebbc52e8cfU, 0x3ea38efdbed74382U,
  0x3d0c5dafbd0f87ecU, 0x3e15947d3d1433a8U, 0x3f8bafdebda57085U, 0x3f396c28bdb3c40dU,
  0x3ea2370abeb112bdU, 0xbedaa21a3f71a583U, 0xbe019e7abf11cebeU, 0xbce9d8b1bf8edbceU,
  0xbe2e880c3df2383fU, 0x3d18e9af3e088de8U, 0xbe2992b63e7fb944U, 0x3d1929753d96d984U,
  0x3ec759653c93ccf3U, 0x3f1ecc68be4ea65cU, 0x3f4809f83e09548cU, 0x3de76ba5bcffd760U,
  0x3ea9d52a3f2169b1U, 0xbf8f2f5d3eed4752U, 0x3ddba4eabd843f7cU, 0x3ece1bdebe284c42U,
  0xbf4ac2503f08af04U, 0x3ea32587be0f768dU, 0x3c8ce41fbedaf347U, 0xbeed88d8be12d5d3U,
  0x3e689974be017be6U, 0x3e9237cf3e182c39U, 0x3d2fca66be310f36U, 0x3d181ba23e23025cU,
  0x3d737958beca7631U, 0x3e4a10e9bd4a068fU, 0x3f32242fbea9012aU, 0xbda97fb23e180573U,
  0xbde8dc22be09f038U, 0x3e2045953dd7b152U, 0x3ed49039bfab803bU, 0x3f249f943d925fefU,
  0xbf51135e3df94481U, 0xbf46e79e3d161e1fU, 0xbed3e4bc3da3f4e0U, 0xbe6af2823f3144ebU,
  0x3d9dc27ebcf12d20U, 0x3d31412d3f7fc8e4U, 0x3d3c66463d805176U, 0xbe064b873ea62340U,
  0x3e9badc73f270dd4U, 0x3d120fa43d94aa15U, 0xbe1ca2313e2f342eU, 0xbe01a9f1bd8520a3U,
  0xbf42cdeb3fac34ebU, 0x3d50257d3e0e4ad9U, 0x3d4da5c83e4af088U, 0x3e0c3f083db97e0aU,
  0xbdd64a8f3d292dbbU, 0x3e30422b3e926312U, 0x3de7adaebf86c226U, 0xbdf31e47bc9f83c8U,
  0x3e1ce1c5be441087U, 0x3f727193bf0e7257U, 0x3d3560163d84e3d3U, 0x3c8569b0bde063daU,
  0x3ea0c9d0bec7e126U, 0x3e7be9353f8a8875U, 0x3ca671ef3ccde0b5U, 0xbd907d61beac9415U,
  0x3cdad66fbc233b00U, 0x3df6a5733da03d32U, 0x3f4bdf57be388babU, 0x3f711ce5bd18409cU,
  0x3e9705e4be9b397dU, 0xbee3d2823f6ca5c6U, 0x3d926082bec54760U, 0xbe275d34bf760676U,
  0xbe93e7ebbd05b4a9U, 0x3d0ba36b3eea9775U, 0x3d317f373f1b2a05U, 0xbd93084f3c74a017U,
  0x3e8e01703d84214dU, 0x3f60b25cbe5e1380U, 0x3f48d8b63dc6e3d3U, 0x3c8a08133d80137dU,
  0x3e6cafa53eebdad9U, 0xbf2fc3743ea77a7cU, 0xbda33d91be3d22eaU, 0x3efab7443d548d04U,
  0xbf6108043f372defU, 0x3ed1e086bdb36f7eU, 0x3d7eeaa9be945d36U, 0xbe1fdf01bdee1373U,
  0x3d5a4fbb3d3dd50fU, 0x3d5d2475bd54d38cU, 0x3e975e90be93c1fcU, 0x3b749d773e135a70U,
  0x3c30ca90beea8fa7U, 0x3ee314a43cd633e7U, 0x3f41a5cebe8e8d86U, 0xbd01ae883e17ea28U,
  0x3e0a8d13be1f2e2aU, 0xbe1076c4bdf10af4U, 0x3eb62319bfa4f294U, 0x3f5fd258bd1558a6U,
  0xbf54cf6cbc96646bU, 0xbf4222733e9f91c6U, 0xbdb6868d3deeb2e8U, 0xbee807803f02c17eU,
  0xbdabef46bde6a699U, 0xbd9153d4bf8ad42eU, 0x3e863562bddcd449U, 0x3efd7de2becf2d9bU,
  0xbe9e6216bf6950ccU, 0x3ea53c58bead81f0U, 0xbda75c9a3d823aa7U, 0x3e1be5c43ed2e64cU,
  0xbbd50e15bf05f62eU, 0x3d2eb7983ee4a2f0U, 0xbd816cdcbf354b3cU, 0xbeca742a3d3671a4U,
  0x3ee98df8be1bf76fU, 0x3e03d5a1bf225d52U, 0xbc9f3143bc8ed5fbU, 0xbf2adc30bda85787U,
  0xbd2c4e083efb600dU, 0xbe80da063f3719a5U, 0xbda07d19bf0117f8U, 0xbe05a8d4be140796U,
  0xbe487b553eb8dd7fU, 0xbf54269ebf43e09eU, 0x3b339557bd0803efU, 0x3e34b24f3e3be4a2U,
  0x3dd504f0bd503cd0U, 0xbccfba0ebe43bea6U, 0xbf1ff3293dfad1a1U, 0xbecc530bbbea20d1U,
  0xbd113fe63da6f8e1U, 0x3be4ba3dbee29ae7U, 0xbe12fb7e3ecb57a3U, 0x3d7eed683be2a84cU,
  0xbe9def073e3168aeU, 0xbd711188be425b01U, 0xbe318c12bf585f0eU, 0x3d53d1403cfbd519U,
  0x3da7f9fa3dcd0ebcU, 0xbeb1a289bdc2299aU, 0xbe94c4babdb69c5fU, 0x3c08b6fcbe001376U,
  0xbd957a93bf0709a2U, 0x3db268303e07530cU, 0x39f942003da60848U, 0xbef4d4e7bd681804U,
  0x3e834a933bd56fbdU, 0xbf2ad1bbbe548109U, 0xbe4cc89f3efd2dfbU, 0x3eb3e8e43dbd662bU,
  0xbdb6002ebe001156U, 0xbefe59b3bd510853U, 0xbec3c84e3dd1b3e9U, 0x3db717883d8865e5U,
  0x3d4b44bc3f2dfbadU, 0x3eed20e33e645be9U, 0xbe85a8d1bd76ce37U, 0xbd9901613c4bf665U,
  0x3de0ec3ebbb8d43cU, 0xbd4b1b54be3d2c1fU, 0x3f19e647bc89acfbU, 0xbf0457633d2bbe5dU,
  0x3d5f8856bd492a32U, 0x3e39ffb6be845888U, 0x3ea5e3f23cdd779bU, 0x3d2bc8b2bee8939eU,
  0x3dbdff9e3d8bc800U, 0xbdb893f23e563838U, 0x3cff426a3e0c7bdfU, 0xbe9bca553eb149dfU,
  0x3e555ad93e217a63U, 0x3b85927fbdd2e96bU, 0x3dcde743bdb0defeU, 0x3d9b7b223d0cbd62U,
  0xbf2061e03ede76e9U, 0x3d9f99fe3d16001aU, 0x3d23bde33e99f23cU, 0x3ed39e2abda13cfbU,
  0xbe6ae8d1bdad6313U, 0xbd4680e43e8d90f7U, 0xbeaa70563e3c9b06U, 0x3e9e4b2f3e1474bfU,
  0x3dee872ebd910ed2U, 0x3f8932d0bf2efdc6U, 0xbce54b413dd92cdfU, 0x3db7a28e3e26af55U,
  0x3e510ee6bee752a4U, 0x3d5f4aa93f0460b3U, 0xbd7a456ebc808d99U, 0x3ced56153eac8042U,
  0x3d6c14503e2ae10dU, 0x3da8a21cbcd176a4U, 0x3ec907e43c280418U, 0x3f74ecc53d91bc01U,
  0x3e8d4114bf09229fU, 0xbe21c5243f2fcb22U, 0xbde41eb0be8258e6U, 0x3d85f6fcbc11c1a8U,
