/**
  ******************************************************************************
  * @file    network_data_params.c
  * @author  AST Embedded Analytics Research Platform
  * @date    Sun Dec 10 21:43:17 2023
  * @brief   AI Tool Automatic Code Generator for Embedded NN computing
  ******************************************************************************
  * Copyright (c) 2023 STMicroelectronics.
  * All rights reserved.
  *
  * This software is licensed under terms that can be found in the LICENSE file
  * in the root directory of this software component.
  * If no LICENSE file comes with this software, it is provided AS-IS.
  ******************************************************************************
  */

#include "network_data_params.h"


/**  Activations Section  ****************************************************/
ai_handle g_network_activations_table[1 + 2] = {
  AI_HANDLE_PTR(AI_MAGIC_MARKER),
  AI_HANDLE_PTR(NULL),
  AI_HANDLE_PTR(AI_MAGIC_MARKER),
};




/**  Weights Section  ********************************************************/
AI_ALIGNED(32)
const ai_u64 s_network_weights_array_u64[7779] = {
  0x3f03d5863e86d263U, 0xbde4921a3de5a060U, 0x3e4884263e00f69bU, 0xbe7ab7a7be7c9982U,
  0x3dd931fd3d7c463cU, 0xbec583803e0a1f08U, 0x3caa249b3cfff6eeU, 0x3ecb480e3e7bb94cU,
  0x3f10bb663de120f6U, 0x3c6db8ad3e59b491U, 0xbe17cfe5bd45e1acU, 0xbd0e13ba3e43d8cdU,
  0xbcaa1d043e02bc5fU, 0xbdfb10e3bd979e58U, 0x3cb6064db9d6dd61U, 0x3e7ae64f3e661c54U,
  0x3e5a525b3cc4086bU, 0x3ead3c173e59d7dbU, 0xbe9b41fe3e5001f6U, 0xbd82ce533e930490U,
  0x3cfc732d3e21852cU, 0x3de76c16bec494cbU, 0x3e0b9d203d911969U, 0xbe765ae53e2a5568U,
  0x3f1053d63e949085U, 0x3d61abcc3e156c8cU, 0x3daf9a71bd7bbbe6U, 0xbf068b16bd825450U,
  0xbdf421eb3e5a5c75U, 0xbdf262a93dfd6256U, 0x3d6fc544bea7c98dU, 0x3eba1f5b3db5980aU,
  0x3ed4a32cbda714acU, 0x3e0158e03dc6cffbU, 0xbea7fdf73d0cf7cfU, 0xbf1c7b47bc9e6ee4U,
  0xbe31929d3de290bbU, 0x3c369b413d815505U, 0x3c3c9065bd407e74U, 0x3d53a31f3e582481U,
  0x3ea1ecdd3eb8c3e0U, 0x3e9aa9033d45920eU, 0xbecd8cd83e16e059U, 0x3c804f133e57a39eU,
  0xbd7d7cf53dca8bfbU, 0x3e12eb5cbe5b4689U, 0xbd0241223db3235fU, 0xbdac97973e9b8df1U,
  0x3e4389963d7acedbU, 0xbcdf9ec7bd15d231U, 0xbcb2bd843d0e390aU, 0xbeaa7396be820f9cU,
  0xbe83eb85bdde3ef9U, 0xbe0e0d573e157880U, 0x3d61f91abefd5f4fU, 0x3ea7724e3e84f98fU,
  0xbdfeb99d3cf295d7U, 0x3e9f1383bdb5be1fU, 0xbd986fb5bdde34afU, 0xbe79db993dcbfbefU,
  0xbe8c24fa3bb79967U, 0x3e83b4b9bcd453eeU, 0x3dedd843bc88f871U, 0x3c7186bc3ea8c4d8U,
  0xbdae5482beed0d14U, 0x3ed4c78c3dc83693U, 0xbe238e43be10c389U, 0x3d8e6221bb879b0eU,
  0xbddf4a69be20ca42U, 0x3ec6e02e3d2ad95eU, 0xbda91db33e97a8a2U, 0xbeea79f23e9f1d6fU,
  0xbe8ac5e8be11486aU, 0xbe7497f5bcb7a753U, 0xbe823c9cbe09415cU, 0xbeaab192befbecffU,
  0xbcc71e8bbea1d8a7U, 0xbed2e72cbd1caf5fU, 0xbc808107bdb0e7d3U, 0xbdfd8845be2e7653U,
  0xbe06f75a3d18a0d1U, 0xbe1935ccbe57c0c7U, 0xbdf90083bf049cd7U, 0xbe887030be8a1343U,
  0xbebc9e15be23381aU, 0xbdaf0549be6a23c3U, 0xbddf5e95be15f33dU, 0xbe80b40fbe70e746U,
  0xbe6f7c3fbdb98b1aU, 0xbe0f0d7bbe820a43U, 0xbe35ec6dbf00f4ddU, 0xbe951390bdab2bd3U,
  0xbeb34a01bd3b68c1U, 0x3ad79f0bbee902edU, 0x3dec7092be3d9076U, 0xbe2f16bcbe9dbbb7U,
  0x3e251be83d3bb233U, 0x3e37d011bea0f4afU, 0x3e536579bece5991U, 0xbcfaa5823d2052b5U,
  0xbdd3b45bbe6c3dfaU, 0xbe400ccb3cf5e02fU, 0xbdac108b3c1ae5fbU, 0x3e977e8b3dd2e853U,
  0xbe3f2bdd3e34f056U, 0x3c886b3fbf087774U, 0x3df73e73beb0ea59U, 0xbed8afa6bd919572U,
  0xbe23dc9c3db860c2U, 0x3e18fff43d6c6062U, 0xbc9e9270be74fb1bU, 0x3e4f5c313b721707U,
  0x3d4f260e3ce605ecU, 0x3dad4308be2a0403U, 0x3da2ad81bed05411U, 0xbe6ff1eebdabced0U,
  0xbeb7ee8fbdd7e223U, 0xbe5cb7ecbda44a57U, 0x3d259684bf3f5910U, 0xbe02e4433e80c0beU,
  0xbe8c50053e664228U, 0xbe90f2debe5eabccU, 0x3e787c05bbab2ed7U, 0x3df5abb8bea0bc12U,
  0xbd46d3ad3d2360a0U, 0xbe3736e73cefc67eU, 0x3ba4563cbe0113a6U, 0x3ea29fb6becfdf53U,
  0xbf120341bd907e01U, 0xbe9ae951be9d5c6eU, 0xbbb6e458be5a4523U, 0x3e0d3c4cbd2b0d1bU,
  0xbe4aee2cbec12a98U, 0xbd68e48ebd33065eU, 0x3d9701dcbdc330acU, 0x3cb5b1a33d19cc9dU,
  0xbd3662b8bc256c98U, 0xbc9b9055bced782cU, 0x3d89f2f1bdb75835U, 0xbd4c0f88bad4920cU,
  0xbe8f6d13bd144133U, 0xbeedcee7bcabb5aaU, 0xbd53806dbec226d0U, 0x3d9b92b5bdbc203eU,
  0xbcbc41ee3c3e2f58U, 0x3d9babde3c2c65f0U, 0xbdf8d149bd5bde37U, 0xbde64af1be16916fU,
  0xbd5e3117bdfa8b67U, 0x3de4c7cbbdc33c99U, 0xbc9f49acbdff0573U, 0x3dad21a73d46f11dU,
  0xbd43ef253dc8e57dU, 0xbc8304f0be1d4e10U, 0x3d50a5893d8e0d82U, 0xbdd30e4abd6be404U,
  0xbd6d76cdbdd6e60dU, 0xbdb4b5453dc6d0f3U, 0x3dbf941b3db9ad23U, 0xbd8b53de3cb9fca6U,
  0x3d2868b7bd90c8deU, 0xbc0f14643c9191d0U, 0x3b4043d43d3664c8U, 0x3d0dd2a0bc3db265U,
  0xbe1e91063dba89a8U, 0xbde2212b3da6df7eU, 0x3e06b656bd92d061U, 0x3d875c54bdc0057cU,
  0xbd7b015d3d6c5655U, 0xbe0703ccbe08f530U, 0xbe0a2112bde5240fU, 0x3d4eded53d694caaU,
  0x3dcbe8b03d0de018U, 0x3ba08d23be00a448U, 0x3d32e25fbde946f2U, 0xbd967da23d89ed47U,
  0xbe291d0d3b85f50eU, 0x3daf353abc764cd3U, 0x3c9079d2bde780f5U, 0x3c4b80513c9e2e30U,
  0x3cebf5293d95d840U, 0x3d0beddf3d06d47fU, 0xba4d8f55bdf3c6f3U, 0xbd2a85193d87869dU,
  0xbe060db5be2482adU, 0xbdfcad70be245bf5U, 0xbe12ae003dead2c2U, 0xbdedae593d90c0e6U,
  0xbd9c9023bc432136U, 0xbe01b700bc5a6095U, 0xbce976923d8370d0U, 0xbdd426793da1af50U,
  0x3d4bb33dbe0bce2cU, 0xbd7ba1a13d8b05caU, 0x3dcb6d3ebd923ffcU, 0xbdcc70a33c503180U,
  0xbe1d3a283cde04d1U, 0x3dbe28bebbe52484U, 0xbde5c39ebdb2daf2U, 0xbc93e5c0b9f179faU,
  0x3ccb225b3becf9e2U, 0xbcbd2bd1bb492787U, 0xbe0687b7bd597385U, 0x3dd5c68ebe2869ecU,
  0xbd9b424cbdbc2843U, 0xbc6eb1abbc80fb59U, 0x3d3657a4bdf8d30eU, 0xbdc146ad3d9f5fceU,
  0xbd3ec611bdd5e471U, 0x3d662d8a3cc397a0U, 0xbdc4f6b83d455de5U, 0xbe0f4ecb3dc57443U,
  0x3da59690bdd7e80bU, 0xbe1a393e3d5e8f42U, 0xbd8d0445bc460051U, 0xbde907df3c3d4835U,
  0x3efab3d1be1e0fecU, 0x3c9d57d73d672006U, 0xbe611200bfeaae5bU, 0xbf2527c83dc3c227U,
  0xbdc60dda3dc64954U, 0xbe7ec614bef5b304U, 0xbd93ecba3e473b6eU, 0x3d935b87bafba8d1U,
  0x3e109787be0063a8U, 0x3d9163e23e85221aU, 0x3dc1249dbff8c21fU, 0xbf45b4383e175aadU,
  0xbe8a7d1f3ddf898bU, 0x3e57bcb83db6ed6eU, 0xbdfca8183e12ce22U, 0x3ecce3853e86a07cU,
  0x3ed4f0743c8dba22U, 0xbeb3be4e3dcf374fU, 0x3e25d18cbfe4ae81U, 0xbfd4ae68be308344U,
  0xbe4a8694be02a293U, 0xbd0e3c7fbf046bd4U, 0x3d74edb33e3e88acU, 0x3e7f41853e175527U,
  0x3ed7ec493e02d1c5U, 0x3e62d2a93e826f0bU, 0xbecfbe8bbfb09d8aU, 0xbeca331f3d128ffaU,
  0x3d65f0faba9a7af9U, 0xbdfe25d1bf0879e4U, 0xbd1d113e3eae1f35U, 0x3da00ebe3d7ee456U,
  0x3ec2e33e3e1ae2d7U, 0xbda1f6dd3e65fa0dU, 0xbe31f8c0bf1e8b57U, 0xbf053b723da5a55cU,
  0x3dcc8bac3dbb0918U, 0x3ebc84e93c234cdaU, 0x3d44107f3e5d7a8eU, 0x3e3818fbbde4441dU,
  0x3f704bfc3e653891U, 0xbecdce0ebd20e5baU, 0xbd1af84ebfbc2dbdU, 0xbf9a6ba6bdfb2aceU,
  0xbe87af493d9eb0b9U, 0xbec23069bea624b6U, 0xbde0dfa1be82812bU, 0x3e97c961be92856bU,
  0x3f1cfaf3bf159162U, 0x3e9e13943e1aabb9U, 0xbea26089bf09097dU, 0xbf0c5cc33e7817bcU,
  0xbd93a8d7bd7ba8d3U, 0x3e86cff9bf7aaedcU, 0x3d87ee6c3d52b8b1U, 0x3def6a26be6340baU,
  0xbd23aac8bd249e35U, 0x3d244105ba9d27a9U, 0xbe2975a6be8c087bU, 0xbe48234abd0739deU,
  0xbcdf60e33e0b4346U, 0x3e8da4c9bfa42d43U, 0x3df31f37be14940dU, 0x3dc59740be613504U,
  0x3f65bd1fbecedae7U, 0xbe030db5bddf0b92U, 0xbee21b7ebf125258U, 0xbf9b3f5ebe0beee6U,
  0xbe8eb9c13e086d36U, 0xbeca8321bf3a49f1U, 0xbdb32950be30aecfU, 0x3e771656be47d12bU,
  0x3ebda945be980e8cU, 0xbd9d05553d9ac41bU, 0x3d9a16babed76f62U, 0x3d0d36583e02df6bU,
  0x3ea5993e3e03304cU, 0xbe461b2fbf1f2298U, 0xbd33b3733d9ad4e4U, 0x3ce0513dbe813b28U,
  0x3f8e2e0bbeb375b8U, 0x3d2f7c5e3db62645U, 0x3d9c1d9cbf597f50U, 0x3cd2010abe3e6623U,
  0x3ec1a6d53e1111d6U, 0xbe9edf85be7467dbU, 0x3cec4431bd63c0cfU, 0xbd477fa1be8ed075U,
  0x3f562c51bdb9647aU, 0xbe1f6d553e387ee0U, 0x3d1773d5bf0e1562U, 0x3e1ad9e83e8fcd2bU,
  0x3e9cc5aa3cc88a49U, 0xbddda59fbe35f857U, 0x3da0c2f83eb4c71fU, 0xbe57d30cbed7e9ddU,
  0x3f01632bbf2dc52fU, 0x3c6848eabad81febU, 0xbd2e44dcbebf7b83U, 0xbd89ba0f3d6bff21U,
  0x3e034c81bd8e4330U, 0xbd9d17f6be3b6f3eU, 0xbdf14f653e9a1c9eU, 0xbc1721babd2d6185U,
  0x3f70193cbee83178U, 0xbe79c145bd330659U, 0x3e40bc23bf1ef98fU, 0x3d1671693cdf50e4U,
  0x3ddf5eb6bdaa3a42U, 0xbee3556dbc95cb38U, 0x3d12ef013d778144U, 0x3cd246e6be0af6d4U,
  0x3f768e74bd120a57U, 0xbe61409cbe95306cU, 0x3e4749f6bf8dcb7eU, 0xbd897298be7a5176U,
  0xbdd66255be8c585bU, 0xbeb73031bd4e3ecbU, 0xbdc4156fbe0ffc4fU, 0x3d078b14be4674adU,
  0xbd612fcdbf0d6246U, 0x3e91059ebec19f1cU, 0x3e94cd29be87ba6fU, 0x3e8ebb7a3e5fd83cU,
  0xbcbdc184bebed7b6U, 0x3eba15ce3ecbe5ebU, 0x3e0b9b723d547c59U, 0xbe91f3423ea10c2fU,
  0x3e240427be4a7540U, 0x3e00c2c3beef17e2U, 0x3ea49237bf45c608U, 0x3e2aecafbcd5786bU,
  0xbd00333abeb91d83U, 0xbdb8ecbc3ed841d2U, 0xbdb198703dba6f2eU, 0xbe4a3e383ef914b9U,
  0x3f0c33d63e83d957U, 0x3db653c3bf09689fU, 0x3eed0f64bef42fd8U, 0xbd446fd0be2bfe3cU,
  0xbc5e10c9beb2dc23U, 0x3e727eab3f1c00daU, 0xbd769519be01200eU, 0x3e898cb63e9d1584U,
  0xbf5a39df3e3042a4U, 0xbf1edb763ebfc5deU, 0x3e1998c0be3173e1U, 0x3d1c385b3e5621eeU,
  0x3d8d376e3eb33e31U, 0xbf37be8bbc9d01b1U, 0x3de6f8063ddb3884U, 0x3c1db7cdbf062453U,
  0xbe267d35bdb9be3fU, 0xbe18115a3e9b1c21U, 0x3e1d621bbea3499eU, 0xbe2c3fbb3cd06a3bU,
  0x3ea17e8ebb8d19f6U, 0xbdd46ab5be5383ccU, 0x3de226f43e6db926U, 0x3d2bc96937e5cb28U,
  0xbe3f79983eac2121U, 0xbe9d93ed3d005223U, 0xbcd48afd3c54a9a3U, 0x3ea52b853e71e875U,
  0x3e5d9ccabe14a61aU, 0x3dd591a8bef6250eU, 0x3cfaf7f1bdbfb6cfU, 0xbd14bfe1bef9b93dU,
  0x3ed46953bece01f6U, 0xbe34cb7e37d22bb8U, 0xbe11ccf8bec7fa3eU, 0xbe7576fabdebb54eU,
  0xbd4d1a05be104627U, 0xbe977f3abd9392b0U, 0xbdc48ca03b1eeed5U, 0xbe55b73c3e2f1e53U,
  0x3f53e5093e581471U, 0x3eab8bd43e7a89aaU, 0xbd6cb09bbeb18cffU, 0xbe8f3b913e4d06ccU,
  0x3dfeaa1a3ed879f4U, 0xbe0015053e1a9aa5U, 0x3c586c543d9e1131U, 0x3e7eabe5bc8a2e90U,
  0x3f205cc63e08b01aU, 0x3cb4bfd33dded991U, 0xbdde7715beaecdd7U, 0xbd59390d3e1f01f2U,
  0xbdb031f33d177ffdU, 0xbf1f86a5be168235U, 0x3d91e662bea10276U, 0xbe7cca2dbd72fbbbU,
  0x3f422bf83e4c5c4bU, 0x3ee401263e03f558U, 0xbde205f6be809d11U, 0x3cd1b3d63ca1cf1bU,
  0xbe0e89873e2342a6U, 0xbefc473f3a818aedU, 0x3c1482223dbe0d80U, 0x3ea8e2303e70062dU,
  0x3f295cdcbe7bb5c9U, 0x3c8f0cd23d031a2dU, 0xbe4a951bbe1bf9e0U, 0xba3ce370bc711141U,
  0xbd8cc81d3d9b730eU, 0xbeb2fe5e3e232db9U, 0xbdf16b973e0779c9U, 0xbd2be2bb3e57a826U,
  0x3f74b1403d910e8aU, 0x3e712c843e7be6abU, 0xbdf338413cffb82bU, 0xbc90c2093d38bd87U,
  0xbd296133bea6f776U, 0xbf5ce55f3eb6a6e3U, 0xbda0e3f63dfaa529U, 0xbd4dfa1a3e1c6ccaU,
  0xbbb94387bf02a1ddU, 0xbdce63573deb9043U, 0xbfd78f5cbf7a2917U, 0xbdcee8823d1d4cb6U,
  0xbe3be6bf3db7f8d0U, 0xbf3278adc05d92e7U, 0xbc62c1abbd714795U, 0xbe82caac3e3e9e56U,
  0x3e20e839bda8af65U, 0xbdc57e593e1001afU, 0xbfd46755bf29346fU, 0xbed538133e1c9907U,
  0xbd1995fa3e08a195U, 0xbf835e24c03e622dU, 0x3dcac86abe9f5f63U, 0x3e0459ad3d7b3647U,
  0xbd855403bc8f0557U, 0xbebbb94d3e2f4d16U, 0xbf79acb4bf7584ceU, 0xbe8b2b0c3dd0bf93U,
  0xbde240083e9d4168U, 0xbfb2d744bf466743U, 0xbd9f65afbec892a2U, 0x3e4b8fe93e02204bU,
  0xbdb94252bf32d819U, 0x3dd768be3e051a70U, 0xbfcb344ebfbda42bU, 0xbf0885a03e5c48b1U,
  0xbe958cb1bc356084U, 0xbf1286d83ec145b2U, 0xbdda2d96be062173U, 0x3d15932d3d584788U,
  0x3e44d397be63f9d3U, 0x3e19230b3dc7e028U, 0xbfb9f3a8bf9688adU, 0xbebc706c3c58bdb1U,
  0xbda740193d32ad64U, 0xbf7755bc3f047bf4U, 0x3dd099d3bdb821afU, 0x3e479ebf3caea825U,
  0x3cf03ed3beef6d62U, 0xbd98edff3e38f34dU, 0xbf675828bf9c0d4bU, 0xbec0d3803da0cc20U,
  0x3d90416d3e8604a8U, 0xbfa0bba6beb7260bU, 0x3d2c6d38bed11578U, 0x3e14c622bcbb6b16U,
  0x3ec1b6f23eae6c62U, 0x3f0647023e803d8fU, 0xbff31dc7bfadf731U, 0xbe149cb13e4f789dU,
  0x3e8dc4573dad55daU, 0xbeca66cbbf2df739U, 0xbe0925be3d7a86bcU, 0x3e2bceef3c0ee354U,
  0x3e48cdf03f2d28feU, 0x3e99f4ba3e0e71a6U, 0xbfc7575abf9ce821U, 0xbee5ad363d946dcaU,
  0x3e8619943e1c21e2U, 0xbf6676fabf03e209U, 0x3d8dcaf33d062ab5U, 0x3e94fff2bc67f102U,
  0x3e2950903cba5d76U, 0x3d01f9bb3e882d54U, 0xbfb7d0c7bfb87dc0U, 0xbe8265b83d95d5e4U,
  0x3dcddbe13e6976a2U, 0xbf9ef7f13eec6f1eU, 0xbd207cf0be9733a7U, 0x3e8a114a3d9b475dU,
  0xbb64b1a0bda1a8abU, 0xbdd6d92b3e6d80b1U, 0xbbf34b87bf404fa0U, 0xbd3347b73ab516fdU,
  0x3e759765be1e2bf2U, 0x3d39d832bcc3ede2U, 0xbe066848bd8e3fceU, 0xbe086cedbe180e58U,
  0xbec1db3fbe40583aU, 0xbd6630fa3de9f884U, 0x3e8a72dfbf19a5b5U, 0xbe9350fc3d964d53U,
  0x3d31d9c53e0687dbU, 0xbe9b7d13bd0811f7U, 0xbd97bd7abe434161U, 0x3de6cdd63cdc8e9dU,
  0xbe007f433f034e90U, 0xbca2b9a53ec67a10U, 0x3e4e6136bf1666bcU, 0xbf812981bd4fd309U,
  0x39267cc5be6c105eU, 0xbf23dd1d3d3d0f35U, 0xbcfd416bbe5fd316U, 0x3d28fe463e02c51bU,
  0xbd23c5afbd3031f2U, 0xbbbca3093ec32d71U, 0x39850ad6bec98111U, 0xbe520faa3d827a17U,
  0x3e8e197e3e3a9b32U, 0xbeb10228be8e1d7eU, 0x3d2c71863d27d8a3U, 0x3e5e26b0be83cb08U,
  0x3e416df7be9e8748U, 0x3e01fa3c3e20b0afU, 0xbcf8fcfabf5db13bU, 0xbe2976443d1fac54U,
  0x3c6d0f4b3e450559U, 0xbf0a9b0e3de3c8b7U, 0x3de00b3d3e0e9c65U, 0xbdd0a4cd3e32c088U,
  0xbede92a33dfd7010U, 0x3e5121463e75c62cU, 0x3dc2cf59bf5c76adU, 0xbef23f633e0c25cfU,
  0x3e281201bd0def80U, 0xbf56aa0c3d051a4dU, 0x3d4665cabe5943b4U, 0xbe384a273d34ac4eU,
  0xbe8cdcd1bf150dbfU, 0xbe1a85e03e5565e1U, 0xbc8729923d0ff13eU, 0xbde7c6fcbcae2e69U,
  0xbc1ca7eb3d9f361bU, 0xbeba82eebeefaf9eU, 0xbc8c30bb3dbfb478U, 0xbe8208ca3c540effU,
  0xbdb5eecbbd6ede2dU, 0xbda9251e3e7ef6efU, 0xbe02bababe205cc1U, 0xbe1ffb173e23de10U,
  0x3db252083eaea3beU, 0xbee92fc3be6878b4U, 0x3e174d4f3e64b240U, 0x3dcc8109bd7b5421U,
  0xbe9d6d24bf0108d2U, 0x3e788d8e3dab13f0U, 0xbdcad07abf146ae7U, 0xbd8171653e90792fU,
  0x3ec35942bcc02addU, 0xbe68235d3de4f764U, 0x3d2dd0663eb9eff4U, 0xbebdc63abd077656U,
  0x3e739f33bfb410c4U, 0xbe08fd8e3e7ef897U, 0xbe1aa883bf32680aU, 0xbfd4d0b53d419a5eU,
  0x3c94a9ea3e5265f7U, 0xbf6396933e9837f0U, 0xbcf5f246bd11f3f4U, 0x3d03ea2dbc176093U,
  0x3e361a903e8c905dU, 0xbdf726013e07180fU, 0xbdd0897fbee4fe87U, 0xbfa14a3e3e9df5b2U,
  0x3e092ae23d631139U, 0xbf5764283e92614eU, 0xbd47d3a13e1b68f3U, 0xbdc552f83d39a208U,
  0x3e4e1d713f925d81U, 0x3d5e2b793e878ed5U, 0x3e04b2f4be9dfebaU, 0x3f8eb7cd3e7b554fU,
  0x3e8d09123e3cb0faU, 0x3a127af63e013bb4U, 0xbc6833863df6a218U, 0x3d21f28cbc2c9ecbU,
  0x3e980858bf801a6bU, 0xbecff2083e239757U, 0xbe2d7ebebf3f8b7fU, 0xbf90bf733d7e483eU,
  0xbdb28a913e65dda0U, 0xbf8a57683e22f5b7U, 0x3d8124dd3d2b1da9U, 0x3ce12acfbdc88f71U,
  0x3cdac8d9bf25e378U, 0xbed9d97c3ea0ba20U, 0xbf0217fcbf9a29ddU, 0xbf4761af3cf272e1U,
  0x3d3b5d013e0951b8U, 0xbf6c3cd3bffbdf0aU, 0x3d1a0c603db7fa70U, 0xbe1cfa43bda57c58U,
  0x3e3d9025bdb4b01fU, 0xbe6ace613eb0e5b6U, 0xbe89ad47bed900eeU, 0x3f6a6a783e62fe8dU,
  0x3e8bc38d3d19239fU, 0xbd8ef4e3bfb228cbU, 0x3dff03fc3e6c7a77U, 0x3d413624be61eb03U,
  0x3eb0f509bf3b87f7U, 0x3d1371413d8e0123U, 0xbd697f71bffc06ebU, 0x3f9790233dc92692U,
  0xbe72935e3cfdf7b1U, 0xbf1e76de3ed33778U, 0xbdd7d4d7be6e6accU, 0xbe14938d3ddc9a5dU,
  0x3d69b3febeb88dd1U, 0xbd660d983e100699U, 0xbee8cdbcbff49aecU, 0x3f077bdc3d2e50ffU,
  0xbe4a6dd83d00722eU, 0xbf9a7c903e04ace8U, 0x3de3c19abeba48e4U, 0xbe115c273dbfb7d6U,
  0x3e966bc83eb12db9U, 0xbe4b08d63d4b9231U, 0xbed746bcbfc130ebU, 0x3f62a3993c2b071fU,
  0xbd02512c3bfce207U, 0xbefb041f3db001b3U, 0xbdd21cecbe127e54U, 0x3e0213293d435955U,
  0xbdf9e380bdd77cb9U, 0xbbf7356e3e87f2c5U, 0xbeaf4f1ebf63fb77U, 0xbe1a07803e146759U,
  0xbe02f90abe88a5c2U, 0xbe0a1d1fbe359fa5U, 0x3dd0977dbe14135eU, 0xbe9d3c183e3eaa35U,
  0xbf00fc86be00d5b1U, 0x3e403f8b3d23d2b1U, 0x3df9eaa5bf581c16U, 0xbe09a9193d70d90dU,
  0xbf0a4b393e272020U, 0xbe9be25d3e296c3aU, 0xbc9c62e7be1d7859U, 0xbd01e8fe3eaa956cU,
  0xbf0d2a6d3cbdaccbU, 0x3d0c13163e2b1df6U, 0x3ebc2a7a3c0e26fdU, 0xbc810a9e3e2bf18dU,
  0x3de34c023cfd3451U, 0x3d4eacddbdba2a8dU, 0xbd98e4723d184220U, 0xbeebbb953e3cc883U,
  0xbf3f8bb2bb84641fU, 0xbe1f23363db621faU, 0x3c20a493bf1efbe5U, 0x3ea6fa273d2994aeU,
  0x3df153293eb61d53U, 0xbf01b734bec3b1a4U, 0xbe05f255bcedf264U, 0x3e020b1b3e31ca6aU,
  0x3e25ce263dec8751U, 0x3dcfa3443e87e11dU, 0xbe2d7196bf8c2ea5U, 0xbd094c683eaa664dU,
  0x3eadffbe3ec3f27aU, 0xbeb478fdbddebc7cU, 0xbdb2f4023eb2bfbbU, 0x3eca7e253d5c4632U,
  0xbf5b72923e32bf94U, 0x3e9c58873ebbc80fU, 0xbdd62d62bf36a115U, 0xbf38f2753e9a2666U,
  0x3e1f5f54be5c08deU, 0xbf4b669dbcb74bcdU, 0xbdf6db423e26ae6aU, 0xbdbdadb2be373981U,
  0xbef445ccbe4fd79eU, 0x3e68a6cd3da6190eU, 0x3d0724e3be5562f4U, 0xbed19621bc3da514U,
  0x3dabf6a7be30eb7eU, 0xbf0bd1fc3d20fb51U, 0xbd198855be035a88U, 0xbe3ee63cbacc3c63U,
  0x3d91b1e7bdf68513U, 0xbe95c61b3e9640f8U, 0x3b6798ff3ea94d69U, 0x3d46b74c3d350292U,
  0xbd1a53e53e86e916U, 0xbe9ca08ebf01060cU, 0x3ded9d3abdfc306eU, 0xbd7099353e8254a2U,
  0xbf5810b0be39833aU, 0xbee6a803bdaa7794U, 0xbdb9ac413e6ab52fU, 0xbe193a94bd52a0f7U,
  0x3d84fcf33ea2ca0fU, 0xbf9afb7bbe81b56eU, 0x3d3e998e3e85a4e8U, 0xbec4221f3df0c2a2U,
  0xbf9f4d773ec79b07U, 0xbe47653c3d451423U, 0x3e85d1db3f0f14a5U, 0x3e42ca643da389beU,
  0xbb31ef943ce72379U, 0x3e55e7683eaf7bc1U, 0xbdbfe4f9bde3a637U, 0x3e96d6bbbbcc68e7U,
  0xbf5b90a7bcf40279U, 0x3dad4b36be19b616U, 0x3e4dc9e13ec76772U, 0x3e8a469e3db6a608U,
  0x3dc20a1fbca1acd3U, 0x3eb43df4bd8257b8U, 0xbd6c84873dbdd933U, 0xbd15505fbe2f5e2aU,
  0xbf87b19abd8b16ebU, 0x3def0cdabd41cdbaU, 0x3e8ab7753f02972dU, 0x3ecc97f23e84f868U,
  0x3e620c69be095eb7U, 0x3eb3feacbd76109dU, 0x3dc999183eaa32a6U, 0x3e396c52be025e51U,
  0xbf91a2a33e8ca673U, 0xbd9f8efcbd283ccbU, 0x3e0e33503ee3832bU, 0x3e1aff3cbdd8c5d7U,
  0x3baacf453b2022e6U, 0x3e51ba893eb2838aU, 0xbde2907bbde2943fU, 0x3ea0ea4cbea1136aU,
  0xbf69f4423e09ff66U, 0xbe1ed17fbeab1a05U, 0x3e3517d53e37d53eU, 0x3e3653afbd33e2b0U,
  0x3e18f0ebbe69a321U, 0x3e3c749ebb8185e6U, 0xbd91504ebd7889f9U, 0xbe1a17a0beb76408U,
  0xbfa13c5bbd949dd7U, 0xbd7bc869be8455d0U, 0x3db36b273e80a53cU, 0x3e8a289ebd65e55eU,
  0x3cdb37d1be9d650dU, 0xbd2140b93e49a449U, 0x3d8526373e5fdf3dU, 0xbcad8981beb2fa66U,
  0xbf85f0f73e7cbb71U, 0x3e170bb9bdaf3efcU, 0x3e627d363e82e7b9U, 0x3eb191b83d53f569U,
  0x3df570353e15f84dU, 0x3eb5c70f3eafb18fU, 0xbd707f563e5c2adcU, 0x3e44b5a6bdad5af3U,
  0xbf49ada13d9602f0U, 0x3e70f9f2be075f08U, 0x3e3011da3d9e0dd0U, 0x3d8c3ffebddb6c4aU,
  0xbc9286a3be0d2fa6U, 0x3ecf68cb3eaf4193U, 0xbb3ebea63da6a2e4U, 0x3e409a8dbe5ca2a1U,
  0xbfabbfa53e927b99U, 0x3e806acdbe540793U, 0x3d0436373ebb670dU, 0x3ea2b0d73e233a3dU,
  0x3dd297e6beb708f9U, 0x3eb9ed133e0ab5e9U, 0x3d8321a73e815dfeU, 0x3e3f71a6bea663b2U,
  0x3f1b1b063f10a10aU, 0xbc841c783ea9212bU, 0xbc398bce3ecace5cU, 0x3e9f114abd92f2aeU,
  0xbd9e1e5b3ecbf69bU, 0x3ea1290d3e34413dU, 0x3df8b5e23e0187f5U, 0x3efcbbc3bd8797daU,
  0x3e7d27e63e4bc10fU, 0xbe273f5abdba244eU, 0xbe56315abd3b0bacU, 0x3b81623fbe6f3aa9U,
  0xbe43acb3beab6f8aU, 0x3e82898a3e85d89fU, 0xbca8337cbdaa6a88U, 0xbe28ee6a3b5740b4U,
  0xbe795d943e6f0344U, 0x3f007c573e8ca442U, 0xbe4dfdec3deca964U, 0xbe24772d3eb2a986U,
  0x3e403afbbeec9d47U, 0x3ed18cf9be46bcc3U, 0xbe0a392a3e808407U, 0x3ca47223bebf077cU,
  0xbe5d27b6bd339b0eU, 0xbdbc1c443e3f9188U, 0xbd8bab2fbf68f30cU, 0x3dd301fbbe086b2bU,
  0xbe765854be7f370dU, 0x3dbdd2103e0db3b1U, 0x3e02bba9beba5ca2U, 0x3df120153e380f15U,
  0x3f0d681dbc80fae9U, 0x3e13b8d33d7b6cceU, 0xbce2392bbe735b98U, 0xbdb4b0143e198fbbU,
  0x3c969ef43da7b9f0U, 0x3c8fc1373e37417aU, 0xbca31efd3d91e2caU, 0x3df5edfbbbbff642U,
  0x3e80c3ecbd7cd92cU, 0x3e22fd833eac73e5U, 0xbe317a68beb19cd5U, 0xbe392f123d1ed221U,
  0x3d547f8cbe2927d9U, 0xbd16c7b53c81e45eU, 0x3deb4967be4d8aa3U, 0x3dac36e13e9d5895U,
  0x3f2087c53e2276caU, 0x3ea4a0a9be876a9aU, 0xbd89e4e8bf41491cU, 0xbda8fd8cbd52e714U,
  0xbe1d739d3d8ab01bU, 0xbf08a4fd3e2d1111U, 0xbd6ecd04bed53cd7U, 0x3de9c2213ef45042U,
  0x3e5435c7bd27c2dcU, 0xbe2594813ec8b277U, 0xbe266671bdab739fU, 0xbe1f08213e0063ddU,
  0x3dd431c1bcdba97eU, 0xbe7943f73debbb2eU, 0xbde50e4dbdd9721cU, 0x3c267b5dbd8f21aaU,
  0x3e1df0a63d48de81U, 0x3f31af0f3e5a18c8U, 0xbce39d423e283a37U, 0xbe896cff3da41d97U,
  0xbd118a2d3ece7677U, 0xbecbf69f3cdb1e83U, 0xbd26af413e207399U, 0x3e8c21de3c711735U,
  0x3f0c11583d2b820aU, 0x3f01d99abde3f295U, 0x3d2ca91fbe91c402U, 0x3dce14103ed59ad6U,
  0xbd8e3615be96ffe8U, 0x3d088618bdba66a4U, 0xbcaa8d7d3eed94ccU, 0xbe5b12133da31ee0U,
  0x3f4113833e8299a4U, 0x3ed4d3013c150e45U, 0x3e607a843c4843abU, 0x3d8fb3ab3e5c3fd1U,
  0x3e0d99e4be9042faU, 0xbc733c863e9345a3U, 0x3dd6e13c3e229f87U, 0x3e670edf3e5a3012U,
  0x3f3c37343e1eafa1U, 0x3e1c0b35be5b18d0U, 0x3df5660fbe932606U, 0xbdc6fb5dbed432bcU,
  0xbe5638fbbdf108fcU, 0xbbe0e8ed3e519976U, 0xbd99123bbf19af49U, 0x3eb0f4a23e95152eU,
  0x3effacb93d8b9b91U, 0x3e98ce4d3e59dae4U, 0x3e686e1bbc575618U, 0x3e1168f93f01a55cU,
  0x3e8e1610bdba7357U, 0x3ea929163dcffbdcU, 0xbd9de1843f058dc3U, 0xbbda5fb8bd3293baU,
  0x3eeb8e143e3263f5U, 0x3e44a81f3e054ba9U, 0x3e84c3383e93e19aU, 0x3df3c9f13e846891U,
  0x3ed133b63e3d52c5U, 0x3ec0e13e3eb1119cU, 0x3d332fbc3ec85bf0U, 0x3f0df59abd9776eaU,
  0x3f5202003e688606U, 0x3d720a273e168a35U, 0x3e9c62373e188daaU, 0xbda8a907be7776f5U,
  0x3e5ab5c73eabde82U, 0x3e77be3f3d0a2469U, 0x3cba7f57bdca73adU, 0x3f0216333da14020U,
  0x3ec5cd4cbc311fa5U, 0xbd5d74a23ed0a34aU, 0xbdbe9cb73e6a021dU, 0xbd1394133ee68399U,
  0x3e51dcc83dd01d11U, 0xbdc8f618be9d0a00U, 0xbd5274f93e93b506U, 0xbd99c5b2be96997bU,
  0x3ef5fd833e3c02f0U, 0xbe330fcb3ee5406eU, 0x3e9ad6e53e54da8fU, 0x3e4fef423e45b690U,
  0x3ea351f33e1c01faU, 0x3d74d8853a3db67eU, 0x3df0feda3ea27865U, 0x3eabb59abe9858ccU,
  0x3f20142c3c0c3969U, 0xbf27a4c73ed466a4U, 0x3e1818023e3a28fcU, 0xbe677135bebbf8e2U,
  0x3e372cfc3e85df6eU, 0xbe09d11cbda34f3dU, 0xbe1b4756be66b00dU, 0x3e753b94bea5cbb8U,
  0x3f356ea5bdc8afebU, 0x3d21d7a23e333a19U, 0xbd0fd577bf88a729U, 0xbce164723e67ca9eU,
  0x3ec4e92b3ae00691U, 0xbe8ec230be495326U, 0xbda8f5a03e91fba1U, 0xbe215d7dbe43f540U,
  0x3f20efb73e33854eU, 0xbd3520533ee1b8c6U, 0x3dd8533fbf7f860fU, 0xbe0ea7043e7c15abU,
  0x3eaaf1c13d7d043aU, 0x3dad7de6be158ce3U, 0xbacf30413da81b55U, 0x3e27dac2bdeaba56U,
  0x3f8a89373d1b78f9U, 0x3e72bdbebc9227b4U, 0x3e3dc037bf670031U, 0xbc8a59173e0c16d1U,
  0x3e18c743bcff37ebU, 0xbef2a879be89f42dU, 0x3df26735bb8a5ed0U, 0x3e2a70e9be7ca4e4U,
  0x3ca51f7cbee959c0U, 0x3c6825603db7554aU, 0x3cbabc51beaac39eU, 0xbe5752dfbce537e2U,
  0xbd8a3955be82866eU, 0xbba32802bdce1083U, 0xbd46d2243d97ddfbU, 0xbe069f40bdf7b82bU,
  0x3eeac334bc5ffbfeU, 0x3d658cb03eb05d20U, 0x3e1dc3eabf1c321aU, 0xbe99be603d9404e5U,
  0x3dc3727c3e9dcfa0U, 0xbd71ee80be50968cU, 0xbdcbee7e3e5506c5U, 0x3e400d663e1abf43U,
  0x3e31ed1cbecf0373U, 0x3e469950bdd11d0bU, 0xbcd1bedabf786557U, 0xbea104963e252b12U,
  0x3d422fcabe24e4ecU, 0xbeeb2e893df30d32U, 0xbd9f153bbe5ce83dU, 0x3db84560be45f662U,
  0x3e8a7d5abdcdc4c7U, 0xbb37bc04be8bc7deU, 0x3e5ff20cbf665daaU, 0xbdb3fd3dbdf1bf7cU,
  0x3ca03f94be9d75dbU, 0xbdee0b83bd5233bfU, 0x3dbaa357be96378fU, 0x3c626d26be5e6892U,
  0x3e5cf93fbe3c7a67U, 0xbdfff506be2ff1a5U, 0x3e736f94bf48c040U, 0xbd04603abe0d1a71U,
  0xbd8349a1be46d218U, 0xbe30ba05be4e8c41U, 0xbdae1f153db94107U, 0x3bad4d123e37913eU,
  0x3e9eb878be4604aeU, 0x3db8d25bbed5e13cU, 0xbd396344bf16047eU, 0x3dc0e2f33d8739d8U,
  0x3e073229be53d160U, 0xbea47698bdbc5015U, 0x3d9d07e73e8b38ffU, 0xbeae1b15bdcd5608U,
  0xbeeb133f3eca9ca8U, 0xbb4d34093e0104bcU, 0x3da7e86dbcffa431U, 0xbead0c67bd9ffc22U,
  0x3e60b9643e33056eU, 0xbe9469323e686f60U, 0xbbfe11773e1f19a5U, 0x3ea94ac0bdb86852U,
  0xbf042d3ebe4f22faU, 0xbdf32b683e4520b6U, 0xbda11da1be8d748aU, 0xbe41372cbbb7269eU,
  0x3e59c3b53b2d6b29U, 0xbd24a8e7be9c2cb3U, 0x3d8c1bb43e4eef3bU, 0x3e382d28bd7b4b26U,
  0xbea8ca1a3e4c1f26U, 0x3e0ce7b83ed090fdU, 0xbaf140053e74b008U, 0x3d73fa343e45f436U,
  0x3eb601db3c9b85c2U, 0xbda7af40bf3c667fU, 0xbd906ed23e7347dfU, 0xbd7e6838be0a7706U,
  0xbe98acf0be26d0efU, 0x3cd67de93e5403cbU, 0x3d13aa68be7be213U, 0xbf35fa173d0cbd2aU,
  0x3dc183e83d855811U, 0xbd9041273e1b49fcU, 0xbbce81f1bd50d0a9U, 0x3e202cb33e0ec700U,
  0x3ecbcf9e3db86e65U, 0x3d8bda003e439d3eU, 0xbdbf62fbbe916691U, 0xbe306f243e6eca74U,
  0xbd2328313e8f4db7U, 0x3e25a1cebd887e3dU, 0xbd248b7d3e2cb7f2U, 0x3ea2043b3e3c7eb6U,
  0xbe4986c3bdbf71adU, 0x3dc1d1c13e813af2U, 0xbe8f14dbbecd315aU, 0xbd55d694bd95e69bU,
  0x3c31148d3e5c5bedU, 0xbeaefce5bda3b497U, 0x3e11a56dbb922dfcU, 0xbc53965bbde1b5f5U,
  0x3ebaed55bd766a0cU, 0x3d219c863dbb3238U, 0xbdb990dfbeab415fU, 0xbe97790ebd6d15d3U,
  0xbddd334dbcda9aacU, 0x3dea848e3d1e47f0U, 0xbe13d33a3c7755f6U, 0x3e0e2193bd7ca8a8U,
  0x3d7543e1be6a8728U, 0x3cce07223e09e3c2U, 0xbe0672adbec629c9U, 0xbba0ec263ce28653U,
  0xbda45fdbbc04eedcU, 0x3dbe9893bbfa7d6cU, 0x3e083fde3d358bd5U, 0x3e2b4cbabdc1eba7U,
  0x3ec15bc83dfba554U, 0x3e5fdfc93d32dba9U, 0xbe9fa040bf072fcdU, 0x3e4b8e173dc1f7e8U,
  0x3dcadd2abe03eb51U, 0xbe281712be53f808U, 0xbe02fa753e47b1c3U, 0x3d987e2abe29bb2dU,
  0xbd116b703e92d07aU, 0xbf39b6353d8f9ba9U, 0x3e41a1ce3dd9b17eU, 0x3e35236abdee9ac6U,
  0x3d91fb6e3e9b4a71U, 0xbf0ccd9a3d2b39f4U, 0xbdd7666cbc815cd7U, 0x3e0f0118bf1cf03aU,
  0x3d9bfa3dbda8cb8fU, 0xbe984ee93e472000U, 0xbd5bb775bead41f4U, 0xbe1307e4bc679a2eU,
  0x3dda83e53da22f53U, 0x3de9ee89bdef21b2U, 0x3dda390bbc34c7cbU, 0x3e195899bcf24f15U,
  0xbf0735ee3eef1ffcU, 0x3d31d7a53dba27e6U, 0xbe318c69bc5c02f0U, 0x3e2689573e68c290U,
  0xbd4f69dd3dd80f33U, 0xbe14e4e0beb5b71eU, 0xbd4a91413e0d0200U, 0xbd975533bef3c8b0U,
  0x3ef740dfbe345a6cU, 0xbe5c15c73cbee59eU, 0xbe04baf8be2c73e5U, 0xbe4d9e89beabbe27U,
  0xb9d923183ce7e6c6U, 0xbe26db593e5efc8eU, 0xbdeb4260bca91c72U, 0x3dd927afbc0c4cd4U,
  0x3f7e46f83ea274fdU, 0x3df086233e3f43bdU, 0xbe510cd1bb97e843U, 0xbedeee693e5e7f4dU,
  0xbd280e063ecb98c3U, 0xbafc85dd3e4f4531U, 0xbdd0a5383d441746U, 0x3eb245043bad09ceU,
  0x3cd48a0dbe8d63dcU, 0x3d63fb153e5a8fafU, 0xbe2a289ebe32a003U, 0xbdaddeee3e68855eU,
  0x3de29712bd63dd03U, 0xbdb17254bde4d259U, 0xbd0ea62dbd819d7dU, 0xbdd6e16f3e3a8770U,
  0x3fab59ec3ded6043U, 0xbe43754a3e18399eU, 0x3d5794fe3d1af2f8U, 0xbe0cb2c6bdd9de1fU,
  0xbd55f9843e051c4aU, 0xbe83703a3e1fdf5aU, 0x3e078bb03da175c4U, 0x3e9d4d6d3d76cb45U,
  0x3f4bb40bbe1edb41U, 0x3df5dcfb3a682a52U, 0xbeaaab19bd48e213U, 0xbe809c89bc9eb59dU,
  0xbddbbcadbc30eabdU, 0xbc1d04f93e380127U, 0xbd726d823dc95604U, 0x3d9e809e3dfaf9eaU,
  0x3f1bae753e3764c0U, 0x3eadc1403e034270U, 0xbe576ccdbe2e695eU, 0x3de7c7f73e8a716eU,
  0xbd14efb1bd480f84U, 0x3df3ef3c3d364fe5U, 0x3b910e803ea4a909U, 0xbdef2bd7be248f3dU,
  0x3cbba84d3d572009U, 0x3dc8686bbd523904U, 0x3d5c34d6bc9858a5U, 0x3dda5d613e23c7ccU,
  0x3e0f9e013e163180U, 0xbe345360be9a55efU, 0x3e0b52d63ec474bdU, 0xbd8555773d00a182U,
  0x3e2b144d3d5265c2U, 0xbf4038ed3e0d4790U, 0xbf2387233d66f1f1U, 0xbe4e0b1e3fb04c17U,
  0xbef3b357beed1889U, 0x3ed9386ebf9789f4U, 0xbdeab578bcc639bcU, 0xbe0299c0bea9b291U,
  0x3e1f2001be3a924dU, 0xbf9798f9bcaff0dbU, 0xbf51ecb0bd2f21abU, 0xbeb072853efbc698U,
  0xbf1725dfbf3217b9U, 0x3ebc1567bf297e5dU, 0xbe162754bc4a745aU, 0xbdf23977be441116U,
  0x3e121c2ebd4a288cU, 0xbf15d126bdff114bU, 0xbf30d99c3d8c7fe8U, 0xbee7e2f63f3510c8U,
  0xbf181ebebf065615U, 0x3e949e61bf2eed98U, 0x3e30c36f3caf735cU, 0xbd7401bfbe828bedU,
  0x3e7041b03cc12c5dU, 0x3f088cc8bcf53521U, 0xbf38bc9f3dc3f71dU, 0x3e628cfabdfac284U,
  0xbd9ffd223e07dc79U, 0x3e460f61bda642b5U, 0x3eafd378bd36b45fU, 0x3dbae6cc3e0aa44aU,
  0xbc547418bd1ceea5U, 0x3ee5ded43d442c5fU, 0xbee302c43e77ac14U, 0x3e6826d33d916686U,
  0xbedb88a63f298084U, 0x3e8c91003e1ea6b5U, 0xbd44666d3dcaab4cU, 0x3d33afaf3cb3ff54U,
  0x3e1e9a733e3ab8beU, 0x3e8e8b693d24c8f4U, 0xbe64e6d03e83e14eU, 0x3eec1118be1c8abeU,
  0xbd39b3f7be3cbf02U, 0x3e26888cbe710350U, 0x3dd2b2833def6907U, 0x3bc23ff8bcebdec5U,
  0xbd0496f13da795c7U, 0xbe88c84cbe080295U, 0xbfd6de503e0679a0U, 0xbec5338fbe7e4842U,
  0xbfbe24c33e220ed8U, 0xbeff3c613f45d657U, 0x3c8c8b873df9e2baU, 0xbe68aa38bd09e765U,
  0xbeca49273d9e1d3aU, 0xbf142f0abdfcb615U, 0xbfaeaad53dc910a7U, 0xbf53d2fb3e3f2899U,
  0xbfca67083f0dfd29U, 0xbf0b00a53f2f2b3bU, 0xbe81d28d3cd79a9dU, 0xbf06b3c7be25050aU,
  0x3cb98a473e837824U, 0xbe90b8a13d86fd2bU, 0xbf0430553e25b7e5U, 0xbf3d4c47beb308faU,
  0xbf537d473e939948U, 0xbebd9d243ed7d4acU, 0x3dddd81fbd28aa80U, 0xbe0f09f03d11e6f7U,
  0x3e8eef33be52cfd3U, 0xbe35d3bc3caf5a32U, 0xbe9f63a5bbcae7d9U, 0x3e0d61ddc012a5afU,
  0x3edc6c98bf904454U, 0xbc502c6dbe70ec20U, 0xbcef06d93e123255U, 0xbed669bdbda6ec19U,
  0x3e08a750be8a9b63U, 0xbecdbed83da359c8U, 0xbdad77713d093836U, 0x3b0d0120c012cf8cU,
  0x3e5078c3bfdda588U, 0x3b65ad8cbe6e2036U, 0xbb0f3ed23e2a2911U, 0xbe1b60a9be1436cdU,
  0xbe620eaebe8dec10U, 0xbe1bf0023dc6bdcaU, 0xbe0fb461bd916b00U, 0x3b1cf580bfc1e9f8U,
  0x3e5b843dbfb28d78U, 0x3da69e99be16ea04U, 0xbdf674d53e814e2dU, 0xbe2183fabdc5efa6U,
  0x3d8e8c70bd49bb9aU, 0xbe9d08493df72ab4U, 0xbe2586b3bd486f2aU, 0x3e8aea82bfc6c8f4U,
  0x3f24394abf9a6b19U, 0xbe107619beb97dedU, 0xbd47233c3e6f3966U, 0xbe3b1c72bd21e036U,
  0xbd870b64be5f4a2aU, 0xbe48e285bd64856eU, 0xbe4c7662be216835U, 0x3e5c8070bfedd036U,
  0x3e4df94fbfcf5f89U, 0xbe212df4bdc0bb2cU, 0xbceec98ebb4393b2U, 0xbe4ae0b8be7ede0dU,
  0xbeae560abd9ada1bU, 0xbe1cd5d7bdcad56fU, 0xbdce2447bd568a5dU, 0x3cc4df37c013761bU,
  0x3ed9c3c9bfbc6d4cU, 0xbe9930dcbea53b18U, 0x3d1a6da63e513dcbU, 0xbe4207783c506195U,
  0xbeaa327e3d38b7b7U, 0xbe79c2923be84a63U, 0xbdf31b743e0c9d10U, 0x3ed4068bc01a418fU,
  0x3f03ac5abf9dac0aU, 0xbe1d5132be9c06a0U, 0x3dc133a73d7b110bU, 0xbdb1b88abccbb57aU,
  0x3c6df135be75d204U, 0xbeb0fb37bd45b362U, 0xbd559f1c3cb52ca1U, 0x3dd27292bec25f99U,
  0x3e884a29bf9cebf0U, 0xbe0d186cbe606debU, 0x3e1636943e0988c2U, 0xbe23f290bd09f0ecU,
  0x3d9251b3bd4a7715U, 0x3d308aabbd01d02cU, 0xbd88bb493d9c15a1U, 0x3e904b68c00e3d8eU,
  0x3eeaa80bbfa43befU, 0xbd0ae00abecacc8bU, 0xbd44a49d3e8681d6U, 0xbe164490bd92ff3dU,
  0xbd99626b3de16105U, 0x3ebf384ebd4e4ab0U, 0x3df39de33f0d39d2U, 0x3c66834fba552eecU,
  0xbdfc3056bc66890eU, 0x3eadd9cac04550a8U, 0x3e86dfdbbe53ca31U, 0x3e34f74fbd792f4fU,
  0xbc86d21cb8840400U, 0x3e6c63a6bdb44d68U, 0x3e274fce3ec4ba08U, 0x3cd227b23e2971a2U,
  0xbe691a6b3d633313U, 0x3df5f328bf0b01efU, 0x3ec28eb1be94f7a6U, 0x3e5b8873bdfe0e8cU,
  0x3db6c8ddbcee6e1cU, 0x3ea4ad05bcc2f387U, 0x3e3d66203f0be373U, 0xbdefdf843d8e5842U,
  0xbdae9bc7bca7af49U, 0x3e692677c0655bbaU, 0x3ed4c741be078456U, 0x3d9e3b2fbd770364U,
  0xbe0b023e3de21afdU, 0x3e50c7c03c12ac62U, 0xbdd6cff43ec41b0fU, 0x3cd3438f3e18eaf9U,
  0xbdbd9d2c3d8310edU, 0x3e963d00bfa097abU, 0x3d9d0729be6e9906U, 0x3df76741bd328fe6U,
  0x3d780f6cbdd00741U, 0x3dca04633a3c7dffU, 0xbd462b783e34e1ddU, 0xbde42c1e3cc288caU,
  0xbe094e463d0952e2U, 0x3e80118fbcce57adU, 0x3e576f0ebebb062aU, 0x3bc424b53de8bcc8U,
  0x3d9dad683dcb59c4U, 0x3d982be03e02d839U, 0x3d5df0cc3e9064d5U, 0x3cf26631bba58f7bU,
  0xbe10ce7c3e1644ccU, 0x3e208aa4c082e501U, 0x3db46777be8cf878U, 0xbb026229bd048850U,
  0x3d5d4658bdba555aU, 0x3ebaa68dbe071768U, 0xbcb44905be87abb0U, 0x3da434063e50751dU,
  0xbddec3b63e2c59f8U, 0x3eeab684c03a0549U, 0x3e891d95be4ed96bU, 0x3e905fc6bdce5f14U,
  0xbe562a433e1fc4b9U, 0x3eb48113bb0fd630U, 0x3dc11c49bf1a891fU, 0x3d1058843d918b10U,
  0xbe9eccd93d0dd5e5U, 0x3e9b1bc0c0267a4fU, 0x3e7156bebe05f3aaU, 0x3e0d554ebd4b90f1U,
  0xbe5b75193dd17009U, 0x3ebf364ebdf32524U, 0x3dcddce4beaddc04U, 0x3d8d9ece3e81add4U,
  0xbe5d898e3e200641U, 0x3ebc7ff5c082b9f6U, 0x3e152a39be57d09cU, 0x3e03f8ac3d0892c7U,
  0x3dea7411bd3cb2b2U, 0x3ddf8ccdbcd5c438U, 0xbd6e1d933e1af297U, 0xbd72c1d4be8939a0U,
  0xbc90684cbe5583e6U, 0x3e15b5d6bf2e93d8U, 0xbe0152653c8e1d66U, 0x3b87a0e43cdffcb3U,
  0xbda40d883d088968U, 0x3de950b9bd52a9e4U, 0xbda73695bcf5c6b2U, 0x3c5ffb02be8a6919U,
  0xbe47a2c2bd8525e5U, 0x3e089db2be8fc1dfU, 0xbe1e9d553e0f7b0aU, 0x3d2e2486be170cfaU,
  0xbd8c2b663b06b6deU, 0x3e75f0c2bde911e9U, 0xbcad72473dae9f2dU, 0xbd3f5858be922733U,
  0xbe1404c3bde8c3dbU, 0xbdb7a2f1bf2a01a7U, 0xbdb4215a3d68808aU, 0xbd973be73d85e24bU,
  0xbe77bf0f3dd01f0cU, 0x3dd630c53d6478d3U, 0x3c9829923d11fc16U, 0x3c2abbafbe9bf416U,
  0x3b4fc13abd61f36aU, 0xbd6686c4bef2cefcU, 0x3d7df8863d876013U, 0x3d238b173de535f1U,
  0xbe85de473d15f33aU, 0x3e8adb333dc21129U, 0xbdbe28e0bdcb9aeeU, 0xbe3561dfbe9761dfU,
  0xbc03f5f4be57ac23U, 0xbdca0670be69089cU, 0x3d76c6f93d417c1fU, 0x3cc4813c3dbca712U,
  0xbdd5612f3e289719U, 0x3d6787263d251d71U, 0xbdc37d2ebcc3fbf8U, 0xbe01e35dbe5ad084U,
  0xbe411f9abe8571c6U, 0x3d917107bf01df51U, 0xbe0c55d5bc0243c2U, 0xbca5c2483d4e6a28U,
  0xbe4b7b573e0cb048U, 0xbc450ce63d228e6fU, 0xbd3e93103cbe9904U, 0xbd7fe7a0be721d5fU,
  0xbe333fb0bdaedfbcU, 0xbd5d56dcbf07fa69U, 0x3d9644143abc9d60U, 0xbcbdc0ae3d9a0ed4U,
  0x3e72ac6e3d17675aU, 0x3e314902bbc6176bU, 0xbe35c971bcdef130U, 0xbdd4f8e0bed09e6cU,
  0xbe022906be98f07cU, 0xbdcd9581bec1fd53U, 0xbd890ce13e17bb0aU, 0xbb49aa0dbd6baf8cU,
  0x3e6279023e201bc0U, 0x3df846453dc7b17dU, 0x3c8db4b6bdbe5420U, 0xbc80a50fbed2f640U,
  0xbd1c163abcd37c87U, 0xbd9943f6bf1395b5U, 0x3c6368343e28de3fU, 0xbd3fb39c3dcbf7deU,
  0xbe05e1903b38c672U, 0xbcfe45653e00ba49U, 0xbd84d39abea70b92U, 0xbd408837bdb4d313U,
  0x3e31ac32be2947f8U, 0xbdc1c1153ea643d6U, 0x3ddf23b53da1021fU, 0xbdc38c6cbc451dbcU,
  0xbc9a6e30bd169cebU, 0xbb955186bca5ee59U, 0x3ce402dabdb7257eU, 0x3e17ea9cbe8a7071U,
  0x3e8bfa74bdc7e393U, 0x3caa77493ef4abf4U, 0xbc7f52f3bd846d1bU, 0xbe02c52cbe021917U,
  0xbd1db006be29ba12U, 0x3e6caf2bbe029262U, 0x3d9a93b4be88ac5fU, 0xbcda05b8bde8fe7aU,
  0x3e88d45ebe5d5599U, 0xbdf9366f3e7c3d50U, 0xbc8cb6be3d006e7bU, 0xbe53e4b33cb37280U,
  0xbdf2c83cbe2aed91U, 0x3e42bb95bdbf5428U, 0x3b2d090cbdb27362U, 0x3e7f2e7dbe760eb0U,
  0x3e93dd543cba2e6cU, 0xbdf219eebef634adU, 0x3c34e06cbd01152fU, 0xbd04a21ebd0c5377U,
  0xbdda01d1be0778eeU, 0x3e18339a3d8b39faU, 0xbb36b63e3d281587U, 0x3dad0d80bbe12d41U,
  0x3e95c040be2db8c6U, 0xbc0bd34bbecab334U, 0x3e60df3abdc3a9d0U, 0x3d1093bf3da00fa3U,
  0xbe0d43c6bbcdf538U, 0x3e3f62b4bd54f21dU, 0x3e0d77adbdcf0fbaU, 0xbb22a5bdbe108e28U,
  0x3e70c5e9bdad2794U, 0xbe64a7acbe9863fcU, 0x3d4ad5643d9b424dU, 0x3d367c4dbe2f9165U,
  0xbe4406cdbe012029U, 0x3e6c321dbe0eb1f3U, 0x3df393babe5b4833U, 0xbcfc2e6dbe02dd30U,
  0x3d3a39b2bde445c6U, 0xbc1b258ebf18b300U, 0x3e382d063d095720U, 0xbe147e813dba421bU,
  0xbddf56233d9dd298U, 0x3e8046abbdd870ceU, 0xbca39e3dbe4f5c52U, 0x3d48a1c5bd322223U,
  0x3e7b9266be423a7fU, 0xbe589020bf7517d3U, 0x3e2eb1413dfd2255U, 0x3d9ef7243ddcf195U,
  0xbd9e8de73d66383aU, 0x3e77c5fcbdf9929cU, 0x3cae3d48bde85056U, 0x3e58817dbe31407cU,
  0x3d11c9b23c927c56U, 0xbe524017bf8fc40aU, 0x3e087fdcbd2cd3daU, 0x3c89ada3bdff58eeU,
  0x3d413cc53e218d32U, 0xbeeabcf5bde2edb3U, 0xbda7f39bbde73e3aU, 0x3e1ba9bbbd366d21U,
  0x3e72b07a3e29ff27U, 0x3e2cbd563e9b909aU, 0xbea8c2e9bb91b5ceU, 0xbd35e1d33ca0ed98U,
  0xbe0e130b3e8c0d1aU, 0xbe0b5404bd425355U, 0xbd8a74f0bd1f4ac0U, 0x3e2ae730bdc4f3b8U,
  0x3ea1f6263d658cb0U, 0xbcaa0b453e9cd1bdU, 0xbeabf9eebe50ce30U, 0x3d9cb9cd3e2a0975U,
  0xbe361d823ed5ec0aU, 0xbe9789243dc0dc31U, 0x3d50c21c3d9021b8U, 0x3e6be784bb5b87c8U,
  0x3ef2627e3e4ec644U, 0xbdde22163e9bbbd2U, 0xbf319073be3c1a62U, 0x3ca3755c3e84f3d8U,
  0x3d0259ac3e4d312aU, 0xbf04cc88bdad305dU, 0xbe13c0073e3ac7c9U, 0xbd24221ebcd3d05fU,
  0x3ea50d053d6b406aU, 0x3e6e4c133ebf3e40U, 0xbf16499ebe3c1719U, 0xbd1fcd993e25dd00U,
  0xbd2712943dbb1c48U, 0xbee08d6c3de20b76U, 0x3c9d11743daeb5ecU, 0x3dc97fadbf310ebfU,
  0x3ec4a061be248a90U, 0x3dd86b493e39db90U, 0xbecb3aa4be6df3b7U, 0xbe15d71b3e3ea36aU,
  0xbe85fd523e002236U, 0xbf181058bdf50919U, 0xbc041fcb3bc7051eU, 0x3e3f3402be87cc25U,
  0x3f00ec0abde9bd1cU, 0x3dc4c5cb3e1615f3U, 0xbf0b13fdbe1d64bdU, 0x3d2d68db3d0c0eb4U,
  0x3e3e8cb33e865bdfU, 0xbf09cd2f3c8227c3U, 0xbba640cc3e8afadcU, 0x3e8195003eb41356U,
  0x3e6cf4e73e3ac7e8U, 0x3e9111533eb77610U, 0xbedd593abe433a9cU, 0x3e13685d3e142ca8U,
  0xbdd6f1833dc60405U, 0xbe5596c4bdc4fe5eU, 0x3b2494313eb82b30U, 0x3e582bc23e7e7f1dU,
  0x3e5dc7713ced7e7cU, 0x3e4089d63ec2cdd4U, 0xbed036a8be157d15U, 0xbdb6a36b3e409f0dU,
  0x3dbf0ce43e94261cU, 0xbee7c8fa3e05ff4fU, 0x3d8598783dbf0fc4U, 0x3dd9d2633e8e112dU,
  0x3ed7e9513eaf4e40U, 0x3ec1abee3e29cc63U, 0xbeef265abd1cc3f3U, 0x3e343ee63d818a30U,
  0x3dd6cfc4be24593bU, 0x3dd21bf7be11a399U, 0xbdfe27a7be1eb7e7U, 0xbd672a09bd573f77U,
  0x3d1fa1833dbe3047U, 0x3d9c32413d4a7f40U, 0xbd6cca3bbd52c276U, 0x3dcaff7cbdd4da00U,
  0xbc8b48cebdd0ae60U, 0x3dc48303be0ac6f6U, 0x3d87f3523dc746a0U, 0xbe1d8a82be0e1f17U,
  0xbe10f0e4bd92e3a7U, 0x3d82c0c03cc2eba1U, 0xbdc577cebde39952U, 0xbd51b26a3d2a4dd6U,
  0xbb2e2a3ebde052bbU, 0xbdb0451ebdb268f2U, 0xbe1e65bc3dc597b4U, 0xbcffaf36be0afe93U,
  0xbd130ce53d10d92fU, 0xbe167c233d2ab41fU, 0x3cc4a932bce9fa48U, 0xbdf9bb3ebd727276U,
  0xbe21b3efba161227U, 0x3cd803253ba471abU, 0x3cfd8d63bd5a7279U, 0xbcda9d51bdeb61daU,
  0xbe156cb33c47491cU, 0x3dd0fa723d9ac7e0U, 0xbde39eb1bc1d8bbdU, 0x3d234009bdabdee0U,
  0xbe1fe926bd8ecbdaU, 0xbd74f30f3db60718U, 0x3d8352dabe08ecfcU, 0xbe471c6c3d445152U,
  0x3d7ba314bcded162U, 0xbd187286bd02e263U, 0xbe04d9f6bdb29302U, 0xbb86596dbd42da0fU,
  0x3daedb2ebe004114U, 0x3dc90e563dabe75cU, 0xbddb70ad3c58693cU, 0xbc934dd5bd5a3d70U,
  0xbda23594bd5b398fU, 0x3d5b0b27bd41bbedU, 0x3d6addd8bdb2312aU, 0x3cf6a9f4bd8d9e36U,
  0xbe07fa75bb75dc2bU, 0xbdb5ecd1bd35f37cU, 0xbe2f8b6cbe28d624U, 0xbe289d323db66927U,
  0x3bcf9cb33d2d04d1U, 0x3db1f58c3be24d5cU, 0xbdf2e333bdbb49c8U, 0xbdd16e1a3c2c1b67U,
  0xbd63f1f1bcbb8d76U, 0xbc087695bd1df0cdU, 0x3d149d08bdd79e21U, 0x3ceb25673ccd91b5U,
  0xbdca4407be14f7e6U, 0x3d8367073da63173U, 0xbe151b853ca3d82eU, 0x3cd479253dc8cb10U,
  0x3da8cc0abdafc0ccU, 0xbda32f5ebd2a2a9eU, 0xbd861ecb3d85d1a6U, 0xbd6aec3cbe1cbf76U,
  0x3da84c8a3deef9adU, 0x3b7d68a6be02c2e7U, 0x3d1a4939bd38e6afU, 0xbdee5e31bcfba963U,
  0xbe8d65d0bfcbb905U, 0x3fd34b703d294d35U, 0xbf4e171e3e030073U, 0xbfb203913cd095a4U,
  0xbf93ad64bdfff02dU, 0xbf65a09a3eff9e5fU, 0xbe6fcc623e1678e2U, 0xbfb9cbc3bf15bebcU,
  0xbf0151f1bf5e7437U, 0x3f9e283b3d621d86U, 0xbf0714eabce1210cU, 0xc031a376be09c6d7U,
  0xc001860d3ff15ecaU, 0xbf0b84383f29228eU, 0xbf09d1c9be0e4f38U, 0xbf3107213c207f1eU,
  0xbebeb016bf83eb7bU, 0xbd8b46623d837fa9U, 0xbf3a8a603e09ee36U, 0xbf7362353cec72a4U,
  0xbf821896bff5011eU, 0xbf26f44c3f1ed456U, 0xbee01505bd0da208U, 0xbf8b4d3ebf9b8296U,
  0xbd2a3686bfe12bf1U, 0x3f16d2b53d3ef641U, 0xbe0fc2573dde1df9U, 0xbfae06163e0b1f80U,
  0xbf924e06bf28cc78U, 0xbfae48ee3f19dda4U, 0xbf35bba3be1aa41dU, 0xbf9eb67abe92b00bU,
  0xbe917e00bf2cb658U, 0xbf17563c3dcf9cd5U, 0xbe92ce51bde8904eU, 0xc00e1b53bdd9fedeU,
  0xbfd9733d3f438a9fU, 0xbef8282a3f33e52cU, 0xbf8e30283d18530eU, 0xbf0729bb3d39d451U,
  0xbeafa547bf986973U, 0xbe1d99bebe059324U, 0xbf3af5c5bde32aceU, 0xbf7ac180bdc62965U,
  0xbf1806fbbeb3e9cdU, 0xbf0b13e13ef807c7U, 0xbf1887e7bde8f61aU, 0xbf8a2349bf6f5996U,
  0x3c30dba9bf936752U, 0x3ebe46343d814b68U, 0x3d585fc23e460e0bU, 0xbfe6f0f33eb0e374U,
  0xbec0e66ebf289988U, 0xbfdc958f3f18a3abU, 0x3e85526b3d433c57U, 0xbf93f554bec73437U,
  0x3e73aed9bf3bef05U, 0x3f8b798dbd6d444eU, 0x3e5f78c73d948597U, 0xbf899f113d67047fU,
  0xbe8b46e73f437f6aU, 0xbef337fa3f0e8127U, 0xbe828a7dbdcf8922U, 0xbebd9e273e8e0a5fU,
  0x3c23c3a1bf638aecU, 0x3f2437febdbbc7e8U, 0xbecd78063dc57054U, 0xbeb6b2703e9ef20bU,
  0x3f8004e73e544ef0U, 0xbf5db3003ed73748U, 0xbdb02d363d0454ecU, 0xbf3b173abec63853U,
  0x3bc3fa783e1e78d7U, 0x3d8723abbb778768U, 0x3d45670a3d499f7dU, 0xbddbd8f5befe1b2bU,
  0xbe2535f9bdb2241aU, 0x3cd06740bf1e2889U, 0xbd928212bdbc8eadU, 0x3e5e59783d2ef54cU,
  0xbdd505133e17f390U, 0x3edaaa10bdd205feU, 0xbe4dfacb3e0f6253U, 0xbe610166bf3704baU,
  0xbee88f0d3d3d7146U, 0x3e361efbbe9d0c95U, 0x3d546fb33dcc4d43U, 0xbda9e05abdb308b8U,
  0xbd6f468c3e7fccb8U, 0x3db8348c3d045643U, 0xbd0253a73e36dfeeU, 0xbde436e6befb9fa7U,
  0xbda53af1bc1f9ec8U, 0xbd958c50bf04d8a8U, 0x3e1048443cbe7f07U, 0x3e1221c9be2e0d47U,
  0xbdf19b113e45164aU, 0x3de39a56be05195fU, 0x3d3fd74e3e1d2312U, 0xbe895b96bf147a5cU,
  0xbea8e24b3de99f36U, 0x3dd4b248bea8be04U, 0x3c1c13d9bda0964aU, 0x3e4606f13e04d011U,
  0x3c0dc8ea3c25e5f6U, 0x3ece69863d438291U, 0xbe190c6d3e53a769U, 0xbe1eff10bee313bfU,
  0xbe7858ef3d569355U, 0x3e36f4f9be87b1dbU, 0xbc861a813bfd4402U, 0xbdf5f9063e09a4a1U,
  0xbe0e5bd2bd7310acU, 0x3ea3a55a3df1124bU, 0xbe14b0cb3dc37876U, 0xbdc14570bf328b8dU,
  0xbe5fc5aebe3cfe78U, 0xbc34703bbe3d722fU, 0x3e167bd5bd10cca7U, 0xbc991a6dbda96122U,
  0xbd8ae7583e4761b0U, 0x3eabd5da3db28590U, 0x3c784b453e515afbU, 0xbe1b42d4bf1d918dU,
  0xbe980c2cbdec792dU, 0x3d0219fd3e422ff9U, 0x3e2915293df0c2daU, 0x3d59108a3e037695U,
  0x3e03b5543e179c65U, 0x3e981b2ebcd46a96U, 0x3d2d70e53e442223U, 0xbe9a49e3bec1e8bfU,
  0xbe6ccbe2be44bab3U, 0x3dabd1a73e9b1da8U, 0x3e728517bae1430aU, 0x3e13678d3dd41208U,
  0xbe195d633cbb73bfU, 0x3eaf8f2e3e02ec14U, 0xbbd788bb3e526156U, 0xbe59f503bf567788U,
  0xbe94373fbe4a798fU, 0x3da86cb53e1b6b5aU, 0xbd807dd63a3acbcdU, 0xbd9442653e0cbd57U,
  0x3e2fa5933d9d50adU, 0xbdb0aeac3d4e2136U, 0xbe561bad3e8c0cafU, 0x3e8e93843f183183U,
  0x3e6d041fbe84515bU, 0xbb3eaac9bf9ad829U, 0x3ef74713bdbcc063U, 0xbd8c1a62be443480U,
  0x3e177ac6bcc37392U, 0x3d017aa5bde43b40U, 0xbe90f82e3e753489U, 0x3e2a76423f11a7e7U,
  0x3e3205c5bdf61819U, 0x3dfb3802bf741269U, 0x3eabf4e3be3e4eb6U, 0xbe5669d7be33e8feU,
  0x3d81b98d3d92349fU, 0x3e1c4dc03cbd6226U, 0xbd805c203e96045dU, 0x3e67add83f1ce2b5U,
  0x3db35382bebc6330U, 0xbe286657bf7eb4c7U, 0x3e9566ecbd480ed2U, 0xbd246ca2be15c8f7U,
  0x3e19083a3e55310bU, 0xbe10bb96bcec1b1eU, 0xbe3d0e7d3e579193U, 0x3e3d2fb43ec6de5fU,
  0x3e9f3c3cbec9f48dU, 0x3eb31a883d551c0aU, 0x3ef0f31f3ce81affU, 0x3d9bbcc4be0f1885U,
  0x3dec92083d4441d6U, 0xbe67292a3ce43f4fU, 0xbdc973ea3e8be90bU, 0x3e9c18da3e3dcf28U,
  0x3e3d9de5be8e745dU, 0xbd8165ca3e043bb0U, 0x3df07a5ebd339c22U, 0xbdf5fe62be091395U,
  0x3e4a5ad13e7e2d9cU, 0x3cec679abdbfc0a1U, 0xbe1f0d8b3e197393U, 0x3e0ec6883eadd60cU,
  0x3da25f69bef6db36U, 0x3e0a146ebe8b5f78U, 0x3e242f68bd94f414U, 0xbaff7456bc8b3ec1U,
  0xbe685b8abda756a8U, 0xbe5fc8bbbdf1ea81U, 0xbde310e83e817b26U, 0xbdd44234bf406364U,
  0xbe712dbdbef59c25U, 0xbb653d693f850d5aU, 0x3f0c02c0bdd29a6aU, 0xbd866a3cbb0719e2U,
  0xbdadfb653e0c69e8U, 0xbe47e3673d8ff7e2U, 0xbd748d6f3e396b48U, 0xbd9cfc90bf8ff6b3U,
  0xbe62d2483de21546U, 0xbe39ce8d3f76e2abU, 0x3da03387bcd3846fU, 0xbdf25d41be73ad9dU,
  0x3d89eaf43e46f2c3U, 0xbe61477bbe04a688U, 0xbda70bdc3e5d86b8U, 0xbeee5405bf9ea3b5U,
  0xbe99e9bcbe9ce98bU, 0xbe8821ca3f13df81U, 0x3e32130cbdaf87feU, 0xbdf33851be740f45U,
  0x3b973cfebe8791aaU, 0xbdb9be2dbd3fd9e5U, 0x3d94d12b3d274458U, 0x3e9a371cbf1da92eU,
  0x3ee30921bf4ad416U, 0x3eef558abf016dbdU, 0x3ea0f95d3dfbccd6U, 0x3df0a3fc3d9603ceU,
  0xbdd926b7be22b578U, 0x3c369c72bdf30078U, 0xbd46d3703d082063U, 0x3ea8f76abf254d4eU,
  0x3ec6b2ecbf0d4716U, 0x3f12756abf008324U, 0x3c2d43e9bd86a49cU, 0x3d81921f3e46d269U,
  0xbe3fc926bea598deU, 0x3e29d7d43dd7251fU, 0x3e1ef5e83dcb434aU, 0x3eb51eecbf9e9ca9U,
  0x3e882e0dbf35cb87U, 0x3eebdc2ebebe74e4U, 0x3df9cbb23def6239U, 0xbd298fc2bcdf73d9U,
  0xbeba36eabc9e26f8U, 0xbdaf92023db8a418U, 0x3cfe97f93db87b15U, 0x3b6df4debfdf33aaU,
  0xbe171c59be6a5f06U, 0x3e1ab5c6bef0bc52U, 0x3ee92447bc24f5eeU, 0x3e82c5a03e6f6932U,
  0xbdfcff7a3db00352U, 0xbb66c793bdfa3644U, 0xbd9dcb2c3e34b954U, 0x3d6c4136c0157897U,
  0xbdd60be93e2afa73U, 0x3eac427fbd4915beU, 0x3e90f48bbc3a9fe2U, 0x3e72d9033e9195bbU,
  0xbdd1eee2bd48239eU, 0xb94cd6da3e134b92U, 0x3c7ebb1e3e77d628U, 0xbdfb0873c0102126U,
  0xbe126bd63d01f826U, 0x3e2d754bbe32fad1U, 0x3e5adcb23d1afda8U, 0x3e4b1ed73e84e574U,
  0xbda90d74beeb5189U, 0x3e01df923d168859U, 0xbe1c06243e8c7e49U, 0xbe07a833bfad4de7U,
  0xbe052995bf668e3dU, 0xbe47f2533e958fb7U, 0x3e85ec00bdcebb63U, 0xbe84c27bbe15a52cU,
  0xbea3cfa23d17b9a5U, 0xbe47b5503b73c91cU, 0xbe365eab3e4cf952U, 0xbe14ad8bc00b7fdcU,
  0xbdd4198dbee7be71U, 0x3e8310b83eb8b5ccU, 0x3dfe9003be406654U, 0xbdc341c5bd5480a8U,
  0x3e3c30c5be3a530fU, 0x3dca982a3ce810c2U, 0xbcef9fff3eb166dfU, 0xbcf84c41c025d878U,
  0xbda6c8d8bf34b8a1U, 0xbe5eb8f83dd2eb75U, 0x3e4e4d92bdb0353eU, 0xbe9c7788be7d1325U,
  0x3cd339ff3cdab96eU, 0xbe9543a13c0fe0a1U, 0x3d3053453e42fe87U, 0xbd4466353ee97202U,
  0xbea12eb2bdffcae3U, 0x3ea2ba76bf96369aU, 0xbdff0409beae48d4U, 0x3e5f7727bd4e5820U,
  0x3d9fb2ad3d95d329U, 0xbf19ae59bd153ff9U, 0xbd45ca543e9a3663U, 0xbc8e1727bd9a1b74U,
  0xbe689306beac12ecU, 0x3e50d64abf6e844aU, 0xbe5fba3ebe82c852U, 0x3e4769b13c25176fU,
  0x3e49555d3e984e9bU, 0xbea188d63d9cb0aaU, 0xbcf311b33e41ff54U, 0xbe0730403e8d20dfU,
  0xbe690e6cbdea747bU, 0xbdef01d7bf394f94U, 0xbe62982abe8d8c49U, 0x3d0fb3de3c44a3e7U,
  0x3e12d7643de3c5cdU, 0xbe860e51bdcdbeceU, 0x3d1672033e6f98adU, 0x3dbf84ac3e453274U,
  0xbee4003c3d01c9e8U, 0x3e9ff354bdd487a3U, 0xbc36e7f8bde0a2efU, 0x3dc773acbd5e5830U,
  0x3dd5b38f3e86b91bU, 0xbeda4dd1bc5c8721U, 0x3d9840e33e510d05U, 0x3d0612743f01115fU,
  0xbe96d07d3c896bbcU, 0x3e9b65713ddf19e4U, 0xbd0bf82dbdd597e6U, 0x3dba47663dbc893cU,
  0x3d43aedc3e9c62c8U, 0xbe9717473d9bde48U, 0x3d6eaa593e31f486U, 0x3d50fd1b3e3bfc8fU,
  0x3d040b2b3e610014U, 0xbc8a8572be64a31dU, 0xbe760722bdef07bdU, 0x3e8afd0c3e0a4585U,
  0x3e0565e83e4b37bfU, 0xbb03e99abdbdd852U, 0x3e310e443e85bfb6U, 0xbdaa38bf3e01f137U,
  0xbeb9b0f4be293ff8U, 0x3ea3256e3f785e3eU, 0xbe84e086bc0636d9U, 0x3d79d3b0be0fa11cU,
  0x3e07cbd33e904c31U, 0xbd2c11223e0513daU, 0x3e35af243e67f761U, 0x3e3785b4be25bdd1U,
  0xbcb8a539be9a4482U, 0x3d8249123f65c565U, 0xbdd11901bc44974aU, 0x3d947e6f3d838245U,
  0x3e27b5643de55e78U, 0x3d17d48cbde38c63U, 0x3e6cefa03eb3d348U, 0x3dedfd7dbf1c6fcfU,
  0x3e0787833e3eafc2U, 0x3c5b37343f29197bU, 0xbe8596e1bccbbba0U, 0x3e27b29bbd6ad805U,
  0xbdfcc3a13dfe35c4U, 0x3a27310bbd6a9134U, 0x3e2e1e1e3e98f174U, 0x3dd0ca6b3e9b2df9U,
  0xbdaafb483e536cf1U, 0xbd42995abf94590cU, 0x3e1fcb76bd8eafdfU, 0xbda5c0e5bd9c5c5aU,
  0x3dc4cb5fbbb8b711U, 0x3cdb437fbd863bd5U, 0x3e1ca8b33edc8879U, 0xbca9db3a3e23b217U,
  0x3b3ea3b33dfe7499U, 0x3ddb4483c002a1edU, 0x3e86200abe8e1e09U, 0xbd3f95c73d36578dU,
  0xbdfbbbbf3e330dbcU, 0x3d09455fbdb4c84bU, 0x3dc447963ea4e55dU, 0x3e7a942c3e35daabU,
  0x3e60687abcdfc569U, 0x3e1754acbf173698U, 0x3e28de1dbe9eaa69U, 0xbd154da83dc15b6cU,
  0xbe78f973bd4e79bcU, 0x3cbf2554bda39136U, 0x3d76271a3e0711ceU, 0x3e0628f23e1dcab6U,
  0xbdef7b4dbbb79b34U, 0x3b8b9741bffbf9f8U, 0x3d7a75b7be86610bU, 0xbdac589dbd6cde4fU,
  0x3bf89e213d99298bU, 0x3e69722b3d2d8853U, 0x3b86a23ebd5f93d8U, 0xbc90918f3e811d74U,
  0x3c05d4173de077fbU, 0xbdf3f9b9bd05b9c7U, 0x3dc9de88bea82904U, 0x3da917b9bd201cc3U,
  0x3db7769cbe29d161U, 0x3da3c0a7be02ead9U, 0xbdd690d73c0d3d8dU, 0x3d989f61bc100a7bU,
  0x3d26e0aabd1d4302U, 0xbb5fa528c01a900fU, 0x3e618bd9be5af616U, 0xbd0c386a3dab24f5U,
  0xbe8142c1bd278811U, 0x3e7f59f43d07ad22U, 0x3bf05a6cbebbcfabU, 0x3d710b5c3eb43884U,
  0xbcea578a3d42e0b3U, 0x3ea15f39c04d5978U, 0x3e5f698bbe0af02eU, 0xbcd7fa4b3e099fccU,
  0xbe7bbecdbd19eb36U, 0x3e81ba48bde84e52U, 0x3e5ca7c6be7430ccU, 0x3d34927f3e873e6fU,
  0xbda7059f3e5a7865U, 0x3dea8042bfe793cbU, 0x3cfa8d9bbd5ad048U, 0xbd3cb7653b4eda96U,
  0x3d2c94bdbe2347ceU, 0x3e69a8b5bdf61b9cU, 0x3e4fd758bedad129U, 0x3e51ed8f3e197a06U,
  0x3dbba1e43ce5470cU, 0x3e1ebda8c086da3cU, 0x3ceac79fbe1dfc38U, 0xbd02ea463dc31e1bU,
  0xbc6b57ef3d950f5bU, 0xbfb16300bda5f0afU, 0xbf877d0e3e8825f0U, 0xbf206e6abfad6ab4U,
  0xc00e30464008070cU, 0xbfcdbf4cbefda922U, 0xbf27fec43e8fb0aaU, 0xbf1454acbf85a955U,
  0x3d8180423f60dc66U, 0xc012c52abe0ccbaaU, 0xbff5341a3e53c5acU, 0xbffa6f31bfeae29bU,
  0xc04871d23f84718eU, 0xbf4526debf0bddf9U, 0xbf0e437f3ecf2f47U, 0xbf289709bf240769U,
  0x3e897143be014095U, 0xbf9dfbeabd4a82f5U, 0xbfa347a53ebbd36bU, 0xbfc12639be9a04b7U,
  0xbfdc1e53406b2942U, 0xbec8193bbeb2efacU, 0x3f47c3f23e8288bcU, 0xbf68666abf01b722U,
  0xbe8d652dbe89f7f4U, 0xc07ee21dbd9c202dU, 0xbf947e9b3d1a9141U, 0xbf8dedbdbe73844aU,
  0xc029f02a403981a5U, 0xbfe5c674beedb91bU, 0xbfbf78f73ee58a24U, 0xbf66361bbf068768U,
  0xbdd59a2ebed9d662U, 0xc0a821ddbdd76da1U, 0xbfcea498be6183edU, 0xc022633dbded667aU,
  0xc07c869e3eeca42fU, 0xbf25bce2bec67199U, 0xc017517e3e52c16aU, 0xbf67ffbabf758d07U,
  0x3e7b0c5dbed4966cU, 0xc054977a3d348c41U, 0xbf479eff3c880b9bU, 0xbfa143593d20380fU,
  0xc02726c740007ffdU, 0xbcd6a909bee00928U, 0xbfeac2373ec316d7U, 0xbf55af5bbf8a92a9U,
  0xbe6e3ba0bf1ffc72U, 0xbfe62627bd226038U, 0x3ebae3ddbf07187bU, 0x3ee2b4fcbff93ed5U,
  0xbe65d751bf20f570U, 0x3c558cf6bf234faaU, 0xbf29232b3ea92cc5U, 0xbef9d8ad3e663549U,
  0xbe6e51513dad745bU, 0xbfb9bbd93dfb9750U, 0x3da0202abf6206c6U, 0x3939326cbf204e0eU,
  0xbfda75d6bf79e003U, 0x3f39cb47bf0d0743U, 0xbfcae7ea3e7e6405U, 0x3da685d73e49bee0U,
  0xbe260228be2be4faU, 0xbf69d3f23d378b51U, 0x3db88983bec40257U, 0x3e2eae5fbf121bd6U,
  0xbf2de8c2be7c95fcU, 0x3dc1cbc9bf1dd701U, 0xbff038db3eac310bU, 0xbe26c413be5820f3U,
  0xbeeb63f2bee40f16U, 0xbf786dcbbcb6acdbU, 0xbdc00a793e9d3748U, 0xbdc4f7bac0774b9dU,
  0xbea2fda3bdfc5d5aU, 0xbf1eec5cbed475b8U, 0xbee873693e8a3034U, 0xbbb5153abeec6baaU,
  0x3d50a449bee73892U, 0xbf413c273df6a76aU, 0xbe588fe73e808457U, 0xbe6887c8bffe9c9bU,
  0xbe84d968bf22af12U, 0xbf096035bec40a6fU, 0xbcf11fac3e2aa078U, 0xbd0041fabee08754U,
  0x3e988830bee1fbf3U, 0xbf422f08be143ebbU, 0xbecec6f03e98edabU, 0xbebc1389bf150b12U,
  0xbe99a14ebf64a6fdU, 0xbdf65bc4be066076U, 0xbf07bbaa3e9908d9U, 0xbe5fab9ebe8e2ed8U,
  0xbe47b655bf1d346bU, 0xbf86cd353d83c6f1U, 0xbf03c7553e5c13cdU, 0xbeeca6c7beb06586U,
  0xbeb51e833e1bb25fU, 0xbed38d8ebe50d2bdU, 0xbef56afc3ebd3b0bU, 0xbe7b5826bef16409U,
  0x3e72d558bf50398eU, 0xbf80036d3ddf2c72U, 0xbec966e13e8041e0U, 0xbef00839be8c162aU,
  0xbeef31b8c011d09fU, 0xbe94200dbea5964bU, 0xbe852a5a3e8efe93U, 0xbe489ab6bf1bf97fU,
  0x3e0aa417bf03d492U, 0xbf4a5ab53cd5f267U, 0xbf129e263e9b30d8U, 0xbe6a8eb63edef598U,
  0xbec788d3bf88a6b5U, 0xbe2751abbe267a3fU, 0xbf20d2493ec8fd7dU, 0xbeead9bfbf0f3aeeU,
  0xbd947a72bedaedc2U, 0xbf9acd733daaf1f2U, 0xbe4d993bbdda8b6dU, 0xbeaecd9d3ec4059bU,
  0xbdfdb6973f0db311U, 0xbd067a5ebee624eaU, 0xbf051e1e3ead245eU, 0xbf03ca11bd84ebc4U,
  0xbe59d870befb56cbU, 0xbf7c60fc3d0be0a2U, 0xbd48bcfc3d244a53U, 0xbe7186da3efa1494U,
  0xbe9bdaf3bfc262e8U, 0xbc740a22bf07d23fU, 0xbe5618783eeb399dU, 0xbe5a86ebbe71a73aU,
  0xbe319d75bea9f85cU, 0xbf3ab80abdf93a9bU, 0xbec994c7be10549aU, 0xbd0da908bf3fd402U,
  0xbed2a8c5bf9a66a5U, 0xbe16c5d4be970e73U, 0xbed7bb573e1b2ec7U, 0xbe82558abe57cb22U,
  0xbdcefccabdbe1d09U, 0x3e8a268b3da9e79cU, 0x3d6aea70beed9f97U, 0x3e64dcf83ede4be4U,
  0x3e6e6eb23f0bfc0cU, 0xbed2e2a7bff015f1U, 0x3c92aba5be33b716U, 0xbddc1533bd758a02U,
  0xbd3b44b5bc98defaU, 0x3e515b003d47e298U, 0xbe119de4bf1381ffU, 0xbc4011563f095ab0U,
  0x3da9c7e63e7bee19U, 0xbe6ceb04bf4133a4U, 0xbe1342b0be19f951U, 0xbd4040adbe346f18U,
  0xbe1c4401be238807U, 0x3e9954d33bdab638U, 0xbe257332bf3266eaU, 0x3da082d03eff379eU,
  0x3ed0f8663eeec49aU, 0xbecd1b6dbdfc802dU, 0xbda1192cbe26a36cU, 0xbe0580b23b7b0ed0U,
  0xbd379884bce4a2a4U, 0x3e32d11bbe01ecc7U, 0xbd8fbbe7bf409a23U, 0xbdff69873f003156U,
  0x3d5594593e6bd6f1U, 0xbe9bfcf9bf2ed8d4U, 0xbe6fdddfbe1dd0f7U, 0xbe223682bcbcfc43U,
  0xbd922f7fbe51f7f5U, 0xbd04d777bdffeaaeU, 0x3d92a5e4bf27452aU, 0x3d194f193e4b74ebU,
  0x3e4cf63f3e9337caU, 0xbf071a85bf271ae5U, 0xbe463a1cbe0ffc27U, 0xbe57233f3d563f9bU,
  0x3c91e4053bd0c16eU, 0xbb791ec83d385bf1U, 0x3d8c6faabf92e81dU, 0x3e2c5f5b3e5e9658U,
  0x3deca36f3ece635fU, 0xbf0706913ee0b0eaU, 0xbe6b4b51be2e3fd0U, 0xbe8c2b77bdb7800bU,
  0xbe424c2abdac598bU, 0xbc80ccc73e071bc6U, 0xbe0956aabf8fdaf7U, 0xbd0fb7733f00aaa2U,
  0x3e689f243e8fa855U, 0xbea0b445bf758c12U, 0xbd1fb72dbe719041U, 0xbe66bb8fbde1b5baU,
  0x3d64c5fa3d9bd477U, 0x3d95e328bccbf4d3U, 0xbdc1146abf8fb1e2U, 0x3dc5482c3f00c0eaU,
  0x3d7fef5a3e9f1e2eU, 0xbe3dcc70c024991fU, 0xbe7445d3bd19b9b3U, 0xbcfba265be0b7e51U,
  0xbd534207be5e8886U, 0x3ca3f6353d954508U, 0x3d66f2d1bfb54ca3U, 0x3e193fba3f06b7d3U,
  0x3e5672b53eabe6b2U, 0xbeac25b2bf133cafU, 0xbdf04e8fbd2fb84fU, 0x3d2baf24bd3691f9U,
  0x3cf4deb03dc9c40bU, 0x3d74ecbdbe36927cU, 0xbd89ca273dded430U, 0x3c5105a8bd23ab58U,
  0x3cde63973d577e2bU, 0x3d584c963ba4c88cU, 0x3ef8f185bdd3ab86U, 0xbc5959f93ea05625U,
  0x3e7106163e5f1929U, 0x3d07642fbe4cdbf6U, 0xbd1be3d4bd590fedU, 0xbdbdb908be1a5e25U,
  0x3dac3479be3dfe3fU, 0xbdd5f2893e4cbd55U, 0x3f20bdf63d3974ddU, 0xbdd58ce0beb3b2f4U,
  0x3bc1139c3e52ee74U, 0x3d52ed0b3d5a6bb1U, 0xbc7673acbe64fde5U, 0xbdf3d2e7bd911873U,
  0x3e32b9aa3c988d59U, 0x3e4da34e3c226be6U, 0x3f8ecaedbdecd7c2U, 0xbf0b32a13eb19c63U,
  0x3da06145beb0a3a2U, 0xbe2401b4bdbc1d02U, 0x3c9ddd54bd990659U, 0x3e1806413dac3cc8U,
  0xbd4cbf043e2ae6c6U, 0xbceffd683deafef8U, 0xbef774983c814fd4U, 0x3e2e15993f01f807U,
  0xbe61dbcbbf030568U, 0x3c574d0fbda7424bU, 0x3ef55e85be42a202U, 0x3f3bd9ce3d8ce11cU,
  0xbe8c277abe7544c7U, 0xbe8feef1befe731fU, 0x3f0e0a053cedec0cU, 0xbdc86b743dd4e1f3U,
  0xbd7cd48bbe0466c0U, 0xbd9d39393d21cd48U, 0xbe6697debd3e23d2U, 0xbd38a5023de0df2cU,
  0xbe1f6f8b3e079ffaU, 0xbe5d0b57bcfe1cdeU, 0xbe5100a9bd1cedabU, 0x3d2ccd46bdbfdd16U,
  0x3ec6f6813e246f7cU, 0x3e23250abd9fe7baU, 0x3cd2468a3ce26badU, 0xbd3d9bfdbce6425cU,
  0xbb6159003e054ecbU, 0xbe3f6e503d930452U, 0xbe6d2006bd5543aeU, 0x3e371fc6be93b0efU,
  0xbdc407da3d12cdfaU, 0xbbb3a7ff3ca60fb8U, 0xbe0b5892be163b8eU, 0xbd9390883cd415cdU,
  0x3c9534db3d850226U, 0xbe3337c2be498b00U, 0xbe2deee3bd399004U, 0xbd90c3df3d95616eU,
  0x3e8b5e033e9c7597U, 0xbd6c4cacbddd53afU, 0x3d2bd6a7bdf15965U, 0x3e6ac355bd346b4fU,
  0x3de1c52fbd5f28f3U, 0x3e26b7d23ea5ece1U, 0x3f44c7d6bdbe4ee5U, 0x3ddfdbb8bf02bcabU,
  0xbe30ce24be371d19U, 0x3e2368e7be05489fU, 0xbde6f300be6e4a12U, 0xbdb74f8bbe3933baU,
  0xbd94d9c93e991ed2U, 0x3d7c268a3c8db600U, 0xbe57429abdf3c856U, 0xbe04bcebbe410bffU,
  0x3c5f3504bd47efe3U, 0xbe080c163d30be34U, 0x3dd17c063de06d5aU, 0xbe48ffd13d674880U,
  0x3e357cf6be1241e1U, 0x3daced21be38a0c9U, 0xbdaa6250be2220fcU, 0xbd436b50be3e0fc5U,
  0x3e527ed53e23ac8dU, 0xbe011766bdf5805cU, 0xbd792da73e26236fU, 0x3dda2dd3bba6febbU,
  0x3da0cf5d3d1be297U, 0xbe43e121bd5b67b2U, 0x3f75ee253dae252dU, 0x3d8ab4a7bd99102eU,
  0xbf2ac0a5be85cd02U, 0x3e4d29aebe73ef9aU, 0x3ea19232bddd1309U, 0x3f065d6ebd880794U,
  0xbf0c6278bee35198U, 0xbf315b6dbe02535cU, 0x3ec3dafebe065a04U, 0x3dc5dfaa3e5bc51eU,
  0xbc049cf43d555607U, 0x3dc861093e3d67a3U, 0x3ea201083df33e36U, 0x3e542bd2bcda9b58U,
  0xbe27640f3e22d7a9U, 0x3e88968b3d483e4eU, 0xbf030ca83e8633c2U, 0xbe390426befd0afbU,
  0xbf0a96953cd2a5d3U, 0x3e091492bd8c544fU, 0xbdc7f8d73e779ad6U, 0xbdc9b7833e417659U,
  0x3caf0bbdbe033ca8U, 0xbdcf269a3e0f5349U, 0x3f5cf6873caa020aU, 0x3c8597c2be2d4083U,
  0x3e3a3dfabe8ecaabU, 0xbd3fb499be59dd40U, 0x3e054f21bdd08e3cU, 0xbe627ec83e4f0475U,
  0xbdf07f623e82e66fU, 0x3d86f82cbd6b85d7U, 0xbf5ea248be9f5de0U, 0xbe106e643ef81ac8U,
  0x3dffc3393e3e4d46U, 0x3e191709bee6aa21U, 0x3d8d5f4c3cd2b046U, 0x3e8edecdbd9840dcU,
  0xbe7289433e2678d3U, 0x3d64cf21be02394fU, 0x3f45525dbe70d4c3U, 0xbe8961d4be89a775U,
  0x3e9ff819be48f3bcU, 0xbc805cd43ce09a18U, 0xbc239fcf3bd775c2U, 0x3e00af3b3d89f36bU,
  0x3e51111dbe431ff7U, 0x3e6ef3a73e0eab90U, 0xbf8ff9aa3d3d7cc4U, 0x3e79e9dbbd86ffb0U,
  0x3d5469b3be291700U, 0xbc7579883c57ea18U, 0xbda70f0fbd8e9551U, 0xbd424dc2bda2cae8U,
  0xbd16f7acbe3b7c63U, 0xbdc37e6dbdd96c6aU, 0xbe3867153dccdbb1U, 0x3d8ec980be51c729U,
  0xbcfffb56bc441041U, 0xbe6da6e2bdd48500U, 0xbe330cd2bd1881c8U, 0x3df89e833d921c58U,
  0x3c03d15bbdd6b4c5U, 0xbe6b7f9c3d906866U, 0xbe54352abd8738d9U, 0x3d2fc39bbe115d3eU,
  0x3e7e55c6bf144459U, 0x3e90a4ea3e4d61b6U, 0xbf0fbee5bd2cfcceU, 0xbf3eca5c3e12bfaaU,
  0x3ce701b33eed9d16U, 0xbcf088633ddf6e56U, 0x3e55f237bd831b20U, 0xbe00c6f6be4208e5U,
  0x3e08a8343cffc123U, 0xbde476c9be1bf420U, 0xbdb6c9e13e378004U, 0x3d5b87893d6679faU,
  0x3dbaac383d784cb0U, 0x3c7ba0c23de6b5e9U, 0xbf4f89d7bc3dfd1cU, 0xbe3f602d3e04d148U,
  0xbf450bd43ef888e9U, 0xbc0f4ffebdb3e196U, 0xbe5859713e063a65U, 0xbdb9bc2b3cd7b9a5U,
  0x3eb6257ebd8211c1U, 0x3e8f7f973e8a0f3aU, 0x3f1e89c23d9f954eU, 0xbd6bdd67beecdfcdU,
  0x3ea72e693ea7c6cdU, 0x3e30031bbca2221fU, 0xbe17e6e13d64cb95U, 0xbf07398fb8a7e142U,
  0x3e8026ae3ea5cd3eU, 0x3e9a7befbc7cb463U, 0x3e57348bbd1b7221U, 0xbe6e066cbe883504U,
  0xbdaf4155be5f8a37U, 0xbe791c6d3e0d4d2cU, 0x3e08ea933d9c9a30U, 0xbd56d2423d70aa20U,
  0xb9d342c6bdb7cde5U, 0xbe5420d1be5bb1a4U, 0x3d00e92fbe3421c6U, 0x3e1e7130be78e85fU,
  0x3df0c1e3be43a9d0U, 0xbd4afb553e5ef850U, 0x3d106306be18774eU, 0x3d048c2bbe8112feU,
  0x3d95f640be263df1U, 0x3e042c1e3d4839c5U, 0x3f7ba8173d46872cU, 0x3d97e49f3ec76a9cU,
  0x3eadb1f13ddfcc4fU, 0x3e224fb8bdce86d0U, 0x3db3680bbe48ca69U, 0x3cb0af3d3df92ac4U,
  0xbc0ab50abd823969U, 0x3c587343bbb55781U, 0xbf3da7e4be135f7aU, 0x3dc2e7ddbbdf4112U,
  0xbe13f1703d3850d4U, 0xbd36bd6cbdc966e7U, 0xbd9990f0be43cee9U, 0x3dbd8f54be35c54aU,
  0xbe4a09b1bc541180U, 0xbbbc9d20be00fc18U, 0x3e2784cabde9255eU, 0xbe0604e2be13d4d9U,
  0x3d04d7ad3d0900f1U, 0x3dabb760befa7d28U, 0xbe0e5918bd3143f2U, 0x3d0321a8bc680d1fU,
  0x3ce57eebbdff94e7U, 0xbdbb57cf3e70a4e3U, 0x3f444968be1daac2U, 0xbd2a79c0be375a29U,
  0x3eab9b4d3e8bce01U, 0x3e7444223e68bad1U, 0x3d7b7ec1be53c9c1U, 0x3e17f190be4ee423U,
  0xbd99e7fc3e545996U, 0xbe4a0a9c3e317dd8U, 0x3d57682c3e352d86U, 0xbdd81b43bee94df8U,
  0x3de02b7abdf7d577U, 0xbdc53388be7aa609U, 0xbd33cd253e1fdf02U, 0x3e71bf6cbe07a7d8U,
  0x3d0c0dc9bdae1669U, 0x3d9679bb3e0766f7U, 0x3f4ac5bebe70aac4U, 0xbdc192f8be184dfaU,
  0xbe44d9eabe0981afU, 0xbe2c9505bde7e8afU, 0xbbc14b3e3ddbe23bU, 0x3c76704e3de1312eU,
  0x3d0797a6bc6fa28cU, 0x3dee6b31be604ff8U, 0x3cfa10ac3e106dd5U, 0xbe1b88e1be2c6e22U,
  0x3ee6bae63e05b8e4U, 0x3e834770be5c4f1dU, 0xbee3d5a23d8ff02aU, 0x3de36b0f3e1ee914U,
  0x3dd06ad93e25e5ffU, 0xbe1227473efd134dU, 0x3f23dbb3be386a41U, 0x3b180e52be1e11d1U,
  0x3eaee0e5bde8fcb6U, 0x3d271dd23dd8dfcdU, 0x3d8ef1f5bda1bc24U, 0x3dbc3999bcd9fd65U,
  0xbda297103e885484U, 0x3e5c6c123e22f9a3U, 0xbf1b21d8bcc07959U, 0xbe316638be8c7495U,
  0xbe93c0003e74bf78U, 0x3e88bf383e601391U, 0xbefad1b83da4e910U, 0xbf29cce9bd7d6558U,
  0x3e84e8033c34f106U, 0x3e8fdc74be3a7705U, 0xbcceeaea3ea3547eU, 0x3d106c95bf84773dU,
  0xbd828f1bbd08f884U, 0xbe14dde43d8cb42dU, 0xbce5ec02bd138f90U, 0xbe08d2bdbcc31563U,
  0x3dc4e6adbe96b729U, 0x3cd9c2b7be3770c9U, 0x3f4e36533e7fefdbU, 0x3dc9309a3eea641eU,
  0xbe57f9c0be05711bU, 0xbe4c90efbe89939dU, 0x3e94fcdbbd16ee38U, 0x3c0c0673bd22dfafU,
  0xbd268fa13b44e62aU, 0x3cb7291dbe2de5fbU, 0xbe6428e7bed2a4c0U, 0xbc3483b5be1bb52fU,
  0x3ddde75ebdcd5ff6U, 0x3e2890dd3c9e4b9dU, 0x3eaa7be53e8adb0bU, 0xbecd440c3e82be2eU,
  0xbe309e2b3e8ba3e3U, 0x3e98b0043d414bebU, 0xbe31bb68bdf1cd9fU, 0xbed3e3fdbe00a69eU,
  0x3e35a41bbd59bea6U, 0x3e6626abbf84f6a1U, 0x3f19f20cbd949a0aU, 0xbf1668263e70571eU,
  0x3e3606b6be04e7e2U, 0xbe85c9443e342b3bU, 0xbef6104abf660961U, 0xbf75fc723f3ba78dU,
  0x3d4825e43cbd6361U, 0x3e470a2e3dfcf039U, 0x3dd5ff393d0a0e54U, 0xbe8df8fdbddcdcdeU,
  0x3d4ac5033ea738deU, 0x3a5301fcbe4d35cfU, 0xbf5328aa3deec1c9U, 0x3dc71959be928f21U,
  0x3b1179d33c0b6bc6U, 0x3c97bea9be35e6dfU, 0xbe38b1533d9c685fU, 0x3e81d1283d98b4b5U,
  0x3cfad3913e11d965U, 0xbcc1fe443df6b5a6U, 0x3f2bdcc13da5469fU, 0xbd1078cebd93a75bU,
  0xbdc4acf9be110e43U, 0xbe9f2d0ebdf7ac38U, 0x3e0c877b3d9f82b4U, 0xbc8882fbbe1a9372U,
  0xbd065911bdf75cdcU, 0x3e14cdd73d6e3919U, 0xbddfede6be3ea5ccU, 0xbe0d887abdde16b1U,
  0xbe82fab53e26c44dU, 0xbb4b12123c74f27bU, 0x3e3916c63daeef35U, 0xbc46680abe1c4014U,
  0xbd76f4253d1adbaeU, 0xbdaac3de3d419764U, 0x3f896ddcbc3c3318U, 0x3ea56b0abdaf6c73U,
  0xbe5134b6be505a9fU, 0x3dbabb663e05b81dU, 0x3e9b1c633e54f6a0U, 0x3e2ab843bc9dece1U,
  0xbddc3d903dd92e37U, 0x3e81de72be5656a8U, 0xbfa6866fbdb43bfaU, 0xbe4b7041beec5fdcU,
  0x3ed9b280bf1752baU, 0xbd0af2a73e0269c6U, 0xbdeaa1c93e27910cU, 0x3dd1f245be6a1b87U,
  0xbf137467beb393b7U, 0xbf0d39993e4b8719U, 0x3e112cde3de15155U, 0x3ebac9773e90e489U,
  0x3d5e27d1be9ec4e2U, 0x3dfc33243db90e73U, 0x3e15773cbe5035abU, 0xbd952647bd8b1dc8U,
  0xbe39817d3ea4c9cfU, 0xbebcf545bdda11dfU, 0x3c6f2fca3d89982dU, 0xbb951d5f3ef5ddbaU,
  0xbd1f96ec3eb3300fU, 0x3bd80923bec4830eU, 0x3dec0c963cdc217cU, 0xbe52288e3e12d84bU,
  0x3d8a4c8b3d2cd66dU, 0x3ea340c63b6bf770U, 0xbe1774bebd6f2d85U, 0x3eea287abef74840U,
  0x3d5866ec3e1b720cU, 0xbe4c2de5be078281U, 0x3ccbb4873d9c117dU, 0xbc73ea74bdd4c474U,
  0x3e1ed7d73d5c5360U, 0x3ea2f3b1bd5e9499U, 0xbe76b4a73e16273eU, 0x3e120669bee77ac9U,
  0xbe7f2dbbbddb3e88U, 0xbdb1a4953d14edf4U, 0x3e09d3133de5c6c5U, 0xbdebc34b3d888792U,
  0x3dbff92fbe872591U, 0x3d9c308e3e45d3bbU, 0x3f6eacde3d4b161dU, 0x3e5ba66d3e9482a0U,
  0x3c80ce8bbde1346eU, 0xbd43cb47be2563c5U, 0x3d6e6f61bb84cf7fU, 0x3ab320d3be388330U,
  0x3da24b663d0a1abeU, 0xbd41ea95be762d9cU, 0xbe22fa863e44c053U, 0x3dab8f1fbe61a828U,
  0xbe7d33433ec21796U, 0x3dc9b7573e8e053fU, 0xbce8037abe4169dcU, 0x3f33c9e1bd0cedfbU,
  0xbd782d13be47edc9U, 0xbdf2bbb1bdcac080U, 0xbe4a05223e4e1c5aU, 0x3ddd4c3e3dd6804aU,
  0x3aacdc5d3cfd0febU, 0xbe47770fbea65ba7U, 0xbdc7917fbe37f3f4U, 0x3d1b71f9be01b8efU,
  0x3e62745abcb59c90U, 0x3d5467283e8a8435U, 0xbea4b531bea402edU, 0xbe251ac93de01e29U,
  0x3c8ee8b23cca3a66U, 0x3e1a12dd3d94a2f6U, 0xbe28da25bd6063a0U, 0x3e045541bda39d9bU,
  0x3c7814e03e421d4aU, 0xbe07fab33d323091U, 0x3f5168bbbb88341fU, 0xbd63dd21bd5a2f39U,
  0x3d64be5dbe8969adU, 0x3ddb588b3de53b4cU, 0x3d002ffbbdc166a5U, 0xbe1aba56be3e120cU,
  0xbe0e0e3fbe14552fU, 0xbe33ef26be32f109U, 0xbdb97563bd484d8aU, 0x3e103091bdb552e7U,
  0xbd8f50adbe02bb96U, 0xbe901ed93ceb00ccU, 0xbe269b4cbcc21ba5U, 0xbd20bf60bdd71479U,
  0x3cabba1d3bd2e971U, 0xbe307f9b3df61b52U, 0x3cbedac4be25385cU, 0xbe0c640dbe35414aU,
  0xbf378c8b3f2de68fU, 0xbe4aa4d4be63a354U, 0x3dba3d27bddc3888U, 0x3e009f50be1154b0U,
  0x3f09214e3d40e7b8U, 0x3f14143d3e17014eU, 0xbe408abb3cd8ead7U, 0xbdc57614beea1fe3U,
  0xbe400db9bdb72a7fU, 0xbc3119423d5497f9U, 0xbe81c3423d2c833bU, 0xbe9ba9563d37268eU,
  0xbac42fa13df30827U, 0x3e2e85363d9936aeU, 0xbe544aedbdb55987U, 0x3d1bc7133ceb63cdU,
  0xbcc41e37bd118f81U, 0xbdb23ba63ba9c2f8U, 0xbdaf6d513db367b5U, 0xbdecf712bdbbb9ffU,
  0xbe34c985bda9f712U, 0x3d7102a7be63622dU, 0xbd418dfcbe3a4ffbU, 0x3e1b3481bd3cfc0eU,
  0x3e80b9b03ed76aaaU, 0x3e6525b43e954d9dU, 0xbeb1ed553eb844f7U, 0xbf4128a2bd44be07U,
  0xbdd1d84d3c882f33U, 0x3e193d223d6656d8U, 0xbf819195bd89bd0eU, 0x3e05d731bef9d3bcU,
  0x3d2563223ea9d77fU, 0x3e5c5e7bbe32aee0U, 0xbe801ec5bdc3031fU, 0x3e44a06dbe4cec3bU,
  0x3e41d6d83cd018a1U, 0x3d7c52423cc2ad5aU, 0x3f625f673cf621a5U, 0xbde2b482bd549386U,
  0x3d9e36b83d928f48U, 0xbe3255e6bd0554e2U, 0xbe47c0afbd08045cU, 0x3ddc8716bc4026a0U,
  0xbddc7dfcbd4ddc85U, 0xbd270cb0be27400cU, 0xbdf56758bd779654U, 0xbdd4419bbe496a4aU,
  0x3ce177d5be0f1bb5U, 0x3e3db2623edac619U, 0xbca4611dbe45ec54U, 0xbf265956be283bb8U,
  0x3d34ca213d4ce874U, 0x3e4d83a9be88d14cU, 0x3f9094543e9b2251U, 0xbc8c884d3d8b7a9dU,
  0x3c473e0c3dfbd2faU, 0xbf0964cdbff0152fU, 0xbd3b1437be8b572dU, 0xbeecff00bde3cb92U,
  0x3e748bd8bf06c331U, 0xbf2467ca3d3f06ceU, 0x3f1945e2bfdd83acU, 0xbf3e713b3f74d86dU,
  0x3c8e75053c96587cU, 0x3e56ede1bc227445U, 0xbe6e0fa3bd1fb954U, 0x3e22e97bbc3cdf25U,
  0x3e4654d73e983440U, 0xbd6fcc763e3ed518U, 0x3e7d038dbe78af2aU, 0xbe6c5a8ebea679c9U,
  0x3e406831bd853ed9U, 0x3e1655acbe95782cU, 0xbe0fcba6bb2267d3U, 0xbea07e2c3e397ec2U,
  0xbbd552313e7fa892U, 0xbcbd1d083d99b634U, 0xbf5911a3be8a05b5U, 0x3d57d3373ecc373dU,
  0xbe0161963d0837b6U, 0x3d815e3ebe2ad41bU, 0xbe45d0c7bdf901abU, 0x3dd95d63be165155U,
  0xbdaafa09be203390U, 0x3d262e0cbe1aec7eU, 0x3de3a9943cfe66a8U, 0x3d629791be0a42ffU,
  0xbdfa736cbd962992U, 0x3d893f45bdeb1d4dU, 0x3d8f2db63cd49db2U, 0xbe710f1bbcb1e7c5U,
  0xbe29b34ab613cf6aU, 0xbe767051be3b1358U, 0x3dbc26c63d557deaU, 0xbd88bf4ebe2faac9U,
  0xbe4eb2fa3cfad548U, 0x3e8ae9873e28fabcU, 0xbd7166253c9443c8U, 0xbc0a7bcfbd9f9033U,
  0xbd18ecb73d3acd5dU, 0x3e0c5f7ebc9874beU, 0x3f7896293cd23e4aU, 0xbdb3f0883e06458dU,
  0xbd99861a3e066511U, 0xbb808f20bd6dad2bU, 0xbe139ea43e1e5406U, 0x3dd42e59be47ef3eU,
  0xbb4797e33dafdeddU, 0xbde1e7babce8cd7aU, 0x3f69b59e3c623368U, 0xbd0d6f1e3ea9dfe9U,
  0xbea09e97bdb355c5U, 0xbeb647e6bf16d33aU, 0x3e6c0cd5be9f44edU, 0x3f28f8a7be08735eU,
  0x3dd47a2dbead6f44U, 0xbdd745a2be25e66eU, 0x3f5a88f3bf12b2b4U, 0xbed654a33eb1e25cU,
  0x3d17c3d53e044053U, 0xbf0ddb52bf392744U, 0xbcd11613beabfb98U, 0x3e3c3cf0be3076a4U,
  0x3e99350cbe87a8caU, 0x3cc8eb933ca29c95U, 0x3f899895bf481049U, 0xbf56cc863f04d499U,
  0x3d619441be25135fU, 0xbc7d50523e9e6760U, 0xbe7110dfbe51a2c2U, 0x3e0051bdbdc956e2U,
  0xbd7679c83e05b0b9U, 0xbd9e42b53e10584aU, 0xbe0608ec3ea3704cU, 0x3e47b6f63f186a1dU,
  0x3d11b0dd3dfa7cbbU, 0x3e2397aabf15ed59U, 0x3ef4ea5e3e7e36edU, 0x3d5d87b0bd4ae4f6U,
  0xbd38ff3e3d54a80dU, 0x3e44e5b13d944013U, 0x3e947b9dbf02448aU, 0xbe630bdebf01a0d8U,
  0x3e5296f23e1e13d6U, 0xbe42f69f3e0c5167U, 0xbd3f3a96be2a22bdU, 0x3df308c0bdabf2e2U,
  0x3de49b0fbd452c6bU, 0x3d4c17f1be112b47U, 0x3f265ac73d403b2eU, 0x3dc06c283e816881U,
  0xbd9ff8ee3e680eb5U, 0x3dc36e9cbdd9440dU, 0x3daef5c63e586238U, 0x3ca39c9bbd403ed1U,
  0x3a00bee23c957a76U, 0x3e8c2d653e271cfdU, 0xbf394501bd961882U, 0x3e4e20ecbeb76259U,
  0xbe87bd7c3e554202U, 0x3e3414a4bec822b8U, 0xbd0f5664bbb09319U, 0xbf46c9473d0c5cdfU,
  0xbd6791493ea71a18U, 0x3e1b42fa3d2b1e8eU, 0xbf27caf5be1850b1U, 0xbd4cde563eb347a4U,
  0xbda925743c4f123aU, 0xbe80d6b4be359e86U, 0x3d85ae823d5bc807U, 0xbe7545543d9bf79cU,
  0xbd94912fbe3d53c2U, 0x3e1205f8be1a72a9U, 0x3d430e553dfcae0aU, 0x3e07c465be2bd6d1U,
  0xbce90e6abe7c3ecdU, 0xbdca78023e430aa8U, 0x3a09277cbc65c507U, 0x3e049a08be181c32U,
  0x3d987322be4d321eU, 0xbe5fb2c03e2d2dc2U, 0x3e2f2e173e200002U, 0xbd18d2a93f0aa52eU,
  0x3e6a17603ec04439U, 0x3cc0046dbb1ac96bU, 0xbd4da2eb3e00bc49U, 0x3e36af003d52425fU,
  0x3e2f9070be700fd8U, 0x3e6dfdca3ebbba83U, 0xbed7fad03daeb375U, 0xbd743cedbf0e41f5U,
  0xbd623215be79c1f9U, 0x3e4e5346bd8eb7e8U, 0x3c01668bbd8bbe3eU, 0x3e4d77073e07553fU,
  0xbdcffa7c3d85188eU, 0x3e360cf9be88b4adU, 0x3eb0c3a9b9dbdfdeU, 0xbde920113f05d085U,
  0xbe508b793c85373cU, 0xbe0d2f7abd3d687eU, 0x3e327d9ebe44b09fU, 0x3d37a966bd9b9291U,
  0x3ad9abbdbe53492fU, 0xbdc2b0fa3e472435U, 0xbe9059cabd9df917U, 0xbe3ff070be1666f2U,
  0xbe409122bdc633bbU, 0xbe796b82bf6b4d1aU, 0x3ed64b23bee46333U, 0x3df774c6bd7d04d3U,
  0xbf00bfe73e70b6c3U, 0xbeb2d76abebdb61fU, 0x3f52511bbf8778ccU, 0xbfde7c703f1ebe25U,
  0x3ee6cc043d9e527eU, 0x3e1063b5bddbdb07U, 0xbe2496623d939cb5U, 0x3db3b07cbe13f5a1U,
  0xbd8a872abc8a3e63U, 0x3d96bb5e3e87f7eeU, 0xbefd451a3dd4e513U, 0x3dffc50fbe94a210U,
  0x3dbbcada3ead7882U, 0xbe834eb0beb86da8U, 0xbe35b149be1610d6U, 0xbec2cfbf3da08600U,
  0x3ea28ba63eaa787fU, 0x3ef901723e5ed1a8U, 0x3f453312be86672aU, 0x3ebf176b3edab06cU,
  0xbeae0cefbeea4c9bU, 0xbd4e72443e3ef1f9U, 0x3e9027423e726930U, 0xbd0741b83c913db6U,
  0xbee29d5abe900c9cU, 0xbf2d603cbf154478U, 0x3f0c1f4c3e068b1fU, 0xbe1092073f14ac7eU,
  0xbeff0ca33e6d2a7cU, 0x3e0b8fd93d51e891U, 0xbe8a5b363de9d0b9U, 0xbea566773dbfd07cU,
  0x3dff24753eb49cccU, 0xbc8bb950bd3ff37fU, 0x3e8a087e3d94a589U, 0x3e8835f6bed92e25U,
  0x3e0ad0393ee23d29U, 0xbeac0feebc9741a5U, 0xbc3c495dbe6d4ce4U, 0xbd40d7b9be4b2972U,
  0x3f0af0c63e8ff2f6U, 0x3f3863f73cf2192aU, 0x3be4388dbed941b3U, 0xbf807c123e0972c7U,
  0x3b3f75edbd321693U, 0xbd9bdb843c6b6500U, 0x3d8894b03ce2998dU, 0x3dbf266d3da0c6a0U,
  0xbd7087493e6c2dd7U, 0xbde342bb3e1f3622U, 0x3f40b3143e2b2c11U, 0x3d8959f2bde84df4U,
  0x3d4d34b73e553452U, 0x3d22a5473d959cf2U, 0xbbd4bfa8bd6df9d1U, 0x3e3d7a203ccd4a03U,
  0x3da1d3be3dabd35bU, 0xbe8ba5ab3ceb04f2U, 0x3f7a1c2bbe7ce765U, 0x3d9051cfbda81711U,
  0xbd982406bd93c3a4U, 0x3df194d83d7dfec4U, 0x3d84aacdbe40acc7U, 0xbcd92ac13dfd9444U,
  0x3e259184be61d29aU, 0xbda7718bbd908471U, 0xbcc3e6593ca06038U, 0x3cbda8e8bdda3b2dU,
  0xbe39cf81beb0ca4cU, 0xbe1843fe3e4c5a27U, 0x3cd56b103db4b89bU, 0x3e88e8973d8eeaf0U,
  0x3e4ede603dcb12cbU, 0x3d2fba363e2ad082U, 0xbf700a373e098fe1U, 0x3ea2626fbf810ed7U,
  0x3e3abc0ebd1505e2U, 0x3db05beebe8235e2U, 0x3e707f803d9d8abdU, 0x3d5467c3bdea56faU,
  0x3d2e93e73df6bd22U, 0xbd0342bdbe184fc2U, 0xbfc445d33e0af6d1U, 0xbd8e8c18becdb38dU,
  0xbd98fc9ebec08e46U, 0x3e04698b3e8f9a74U, 0x3d291430bc9773d2U, 0x3af9e088bc66a4dbU,
  0xbdccd2b13dab96fbU, 0x3d08c841bc55c2b8U, 0xbf25be643e5e07b7U, 0x3e40f7b3bf7ef290U,
  0xbf1697ba3e1119b5U, 0x3dc6a05f3d4b1d1fU, 0xbe9472403dc1b646U, 0xbec30e7c3dbea2a7U,
  0x3e9613e93e66f535U, 0xbde5d167bdc76b61U, 0x3e85c0b13e6055d3U, 0x3ebd632dbed9d5b9U,
  0x3f3c64b6bf06dc79U, 0x3ebe114ebf073df2U, 0xbef231813e3f402eU, 0xbeb916c8be6c3cc2U,
  0xbeed6eb83e115e53U, 0xbf6dbdf83e79a32aU, 0xbec31b4abf1835b1U, 0xbee9b2333e447269U,
  0x3eb11d8cbf14de8dU, 0xbe84e286bfa01e7fU, 0x3eb2ded2be11b5b2U, 0x3f1261dc3bca354cU,
  0xbe2627bfbf3c89fcU, 0xbf0607c83ce64cdeU, 0xbf109c0bbfacac9bU, 0xbfb8f66c3e5d4108U,
  0xbf0638f73eb8b471U, 0xbd29c4f33cdb272aU, 0x3d39edb03e0ea4b1U, 0xbe39ae523dd8a091U,
  0x3d8fe2a03d7dc600U, 0x3e9aa0a5be595c92U, 0x3eff7245bd8b8ae4U, 0x3e221ff2bf2df3f1U,
  0xbdec19753df1c94cU, 0xbd2852bf3da364ddU, 0x3dcdf28abe8dad9fU, 0xbe9197c2bdecbef8U,
  0xbe3c45fb3d9a747bU, 0x3d949aa0bde1fb3aU, 0xbe14582bbe4dfe6cU, 0x3ddaf189bd7371a9U,
  0x3e797abc3b084cdaU, 0x3eb77237be550a16U, 0x3dcf17713ceecae5U, 0x3e99b98a3e3b5240U,
  0x3dba27773eafecb1U, 0x3ea86b7c3da85939U, 0xbdf16691bf158747U, 0xbfae1a37beaa149cU,
  0x3da07c9d3cbf37e5U, 0x3e24e0aebe51168dU, 0x3e5bfc4d3e2d611dU, 0xbe638425bcc634c2U,
  0xbdb28164bd11f2f9U, 0x3e27ebe6be671659U, 0xbf7f2be7be803275U, 0xbef11e743ee137aaU,
  0x3ea4beb33e382abdU, 0xbd846cd6be4531a0U, 0x3dc85da63e173575U, 0xbd995113bdfaf52fU,
  0x3dca251dbe63b203U, 0x3e98156e3d40e53dU, 0xbecb2307be3f1105U, 0x3cc3e4cebebcccf5U,
  0xbe8258083ef7fee6U, 0xbdb36dc3bdd25b12U, 0x3dc2ad6b3d97933cU, 0xbc0114e9be1c0980U,
  0x3ed63c51be055cf7U, 0x3e5d39513e5462c6U, 0x3f3f221cbd8b56b5U, 0xbdc3355dbe9758ecU,
  0xbe131f443d1f83c0U, 0xbd79e2c83da40720U, 0xbe21be2dbe466c28U, 0xbdaa9d6a3df1c7d4U,
  0xbe40fe12bd75dd7cU, 0x3e4b3430be3d438fU, 0x3d1024cc3df51344U, 0xbe43606abdebdf93U,
  0xbe6a389abd948a48U, 0xbdc923443d618dd2U, 0x3d490ec6be44310eU, 0xbe248eddbd3ae560U,
  0x3e23877dbe10e6a7U, 0x3df7c8d13db0dd9cU, 0xbe43f6163e2c2ce8U, 0xbe047c92be37ffcfU,
  0xbe802a6d3de8a9e2U, 0x3c74c0aabda137c8U, 0xbe10309f3de5ab05U, 0x3e054219bdb46bdeU,
  0xbe355e43be5df400U, 0xbd27351e3c18733eU, 0x3caaecbcbdb16f9eU, 0xbd307264be196a39U,
  0x3d5463043de983d2U, 0x3e614da83da87decU, 0xbe9836e13cf52f04U, 0x3e5bb8a13d80746aU,
  0xbc0978a93caf51e6U, 0xbe90a8bd3e0c54a4U, 0x3f6f3c2d3e23f655U, 0x3db0c241bd8f584bU,
  0xbe9d88dcbf2f1f88U, 0xbd67b63f3d07c2edU, 0x3f0453983e2c8979U, 0x3e6e35c63dcb5f6eU,
  0xbc28c6273d5d6b7dU, 0x3c657cf4be7715cdU, 0x3c6a93c8be10b36fU, 0xbe88d3233ec33c70U,
  0x3db8d6d53d6fda3cU, 0x3e0722c9be88189dU, 0x3d9668dbbac41213U, 0x3d70e1d9be0ab007U,
  0x3b83027ebdb35d82U, 0xbd82128a3e7a96b8U, 0x3f86a5803dc40efaU, 0xbda8bf2bbe3ee521U,
  0xbcd99aa43e1ecb20U, 0xbc266069bd9bb340U, 0x3d7296f23df7a110U, 0x3d7d0629bd83002aU,
  0x3dc02f953dc734a1U, 0xbd275c533d3c67e2U, 0xbf703a2fbe3d34e7U, 0x3e8417f0be426fe4U,
  0xbcdad6503e1ce22fU, 0x3abda858be77892fU, 0x3ce178c43a9735aaU, 0xbe43da623d9b5e9cU,
  0xbe20a8343deb9bd2U, 0x3d51bca0be7284d1U, 0xbd7f070dbde365ddU, 0x3bdb9f00be28684fU,
  0x3eaf5fe9beada048U, 0x3da19b2a3cbc31bcU, 0x3e67bc313e093998U, 0xbcf69ec63de53330U,
  0xbeb54bcbbe4302d0U, 0xbf172bd4bc8454f6U, 0x3f4d918a3e0a67fbU, 0xbb5007133ed2f7b2U,
  0x3e83d511bbdc7e20U, 0x3cae5b95be540828U, 0xbe7eabc6bc0563a0U, 0xbebc6a70bc3e3768U,
  0xbe15e59b3dfc9d8dU, 0x3e2728f8be8902e4U, 0xbe967d9fbdae0437U, 0xbd5081aa3f0a8461U,
  0x3e2b48733eafc98bU, 0xbd58ae833e9309cfU, 0x3db1d7743e12bf4eU, 0xbd2d4080be0e9040U,
  0x3c8c5c1a3ddeeebdU, 0x3dab90f1bd32fd0fU, 0xbec34a433cc54c6eU, 0xbe4c25c8bec06d0cU,
  0x3c2b77c6be9cc37cU, 0xbcc3ba44bdbf2744U, 0x3df03f7f3ca41cb9U, 0x3d02f506be2f1fe4U,
  0xbe8d812dbea52bc5U, 0x3d3ad312bea19a0bU, 0x3f8de7dabde6cf3aU, 0x3e3fc0023eb22538U,
  0x3d24122ebe8758e9U, 0xbdee1af8be424e38U, 0x3eadb4c1be83b462U, 0x3d97f798bd0d3cdbU,
  0xbdb0d02d3e06f690U, 0xbd3bebd0bdfbd62cU, 0x3d514935bc6ea34aU, 0x3e6896d83ef65924U,
  0x3e2d3cf53e129f51U, 0xbdca5aa9bc2207cfU, 0xbe0b35313e54dc31U, 0x3d9e8e103d506c25U,
  0x3dc02ce33e034cedU, 0xbe7bb5473ea17992U, 0x3f86dc73be12ae43U, 0x3c5ff438bcadda3fU,
  0x3e54e98abeba2b3aU, 0xbd66fb9f3f2108d7U, 0xbe9a1d20be074024U, 0xbd59b6b3be2ba80aU,
  0x3e9451083e9507dcU, 0x3e463567bde07fc2U, 0xbeee30e33dd39f5fU, 0xbe930aedbea86a27U,
  0x3e33d7fdbea1872eU, 0xbd328a483d2fa4ccU, 0x3e77000e3c9acc18U, 0x3e6a8b1dbd38e20cU,
  0xbdccf9d8be566389U, 0xbe08ebf2bde39be0U, 0xbe1950593e2a2e35U, 0x3e71ce763ee15088U,
  0xbdbab0183e8acf83U, 0xbe817cc83d2b3da8U, 0xbe6b6ca9bed8458dU, 0x3e1a81583e36bf98U,
  0x3d959a3b3e8c215bU, 0x3ea4eec33d26759fU, 0xbe57b1583dfca906U, 0xbf2154c83e0b6c9aU,
  0xbf21b2c4bd059b38U, 0x3e68cb0b3e9a7178U, 0x3e0555e53e2c1e6bU, 0xbddea953bd53e2b7U,
  0xbd1ad9123db2bec4U, 0xbe1398f1be09683aU, 0x3e844f6c3e767399U, 0x3e0f1141be9327d6U,
  0x3e991f90be8525a9U, 0xbd1ea2cf3eaf8f36U, 0x3d1fdb39be77a3efU, 0x3e8498af3e0de2c8U,
  0xbe601a073d9d38b5U, 0xbe543335bd81a292U, 0xbee993d73e7037adU, 0x3e97d51c3ecd9340U,
  0x3dd3bdba3d9af1f5U, 0x3b8590a93d92c861U, 0x3e02e1ac3e83733cU, 0xbeb25bbe3c191764U,
  0x3dcf1c0dbd047a91U, 0x3eda1c4f3e6d2a1cU, 0x3e6f75083b2265d8U, 0x3e59fe84be89a514U,
  0x3e70ce3f3df00bf8U, 0xbd8494bc3c8f7f02U, 0xbf04d97a3e1b8d2eU, 0xbe630ca93e511681U,
  0xbdb0b3d43e2d9917U, 0xbe8b703f3e0e9285U, 0xbfbdb2743e4e9b7eU, 0x3ea0b3c6be21bf86U,
  0xbe8b7b693e77ccb7U, 0x3d8b29773ddf25c1U, 0x3e641d663e2ef6f9U, 0xbe1d73743d0d8387U,
  0x3e430e83be00dd20U, 0x3dd692a2be103ab3U, 0x3f854e1d3d8252c7U, 0xbd98f2d8bf0d0afcU,
  0xbda01ed5bcaad788U, 0xbe2085ec3d9d8e3aU, 0x3df78120bdd0c4f8U, 0x3e2443af3e32ab4fU,
  0xbb3b31e8bd86dcf0U, 0xbddb13293df393e5U, 0xbebe31523d811e30U, 0xbed30e21be3aeaf0U,
  0xbdcf84f93da7885eU, 0x3e483c873d53e3acU, 0xbe14b6eb3e03415aU, 0x3e295fb2be18b743U,
  0xbe45a0d93e7cf645U, 0xbe532ce13e23487aU, 0x3f24294cbda3490dU, 0xbe13257bbc978958U,
  0x3c22bd043d02b137U, 0xbe65c6dfbe21e5c1U, 0x3d3d9756be00189eU, 0xbe23b640bd62adffU,
  0x3dd245643e052063U, 0x3cdbc24bbd9b1b19U, 0xbe2ccb38bd8ae2beU, 0x3d7ff60abd281cf2U,
  0xbdcf2747be03f6a8U, 0xbdac225e3dee05d0U, 0xbc064ef33dc743ddU, 0x3d9cd583be1a95f8U,
  0x3d259a0d3e3558bbU, 0x3d9d5e5d3e8d80b9U, 0x3f5be64ebd060187U, 0xbde82d1fbcab3bbeU,
  0xbd77a948be9b96feU, 0x3e4072743eadab20U, 0xbdfedb723e0f354cU, 0xbd150050bdf3cd39U,
  0xbd2da158be1ff1c4U, 0xbdc9ca663c92990cU, 0xbf8fc6bd3ec7791bU, 0x3d48a73ebf4a4cd4U,
  0xbdb78a56bd7cb9f2U, 0xbe0ad432be1bf0edU, 0x3e5e2c56bcde820dU, 0xbd8e2c66bd502881U,
  0xbadfdfb1bc320d43U, 0xbd5aaccbbd9c5c81U, 0x3e15483f3cb1f72eU, 0xbbea45953e8720d7U,
  0xbd0179f7bd56e3a4U, 0x3dbb8a5ebd5d5e45U, 0x3e5f18123e25d8f4U, 0xbd5c90a33e15b9d9U,
  0x3e468864be7e9fa0U, 0xbd519b3100000000U, 0xbc06904fbd86d997U, 0xbe0f206fbd28e6ffU,
  0x3e10af393e410e93U, 0xbd1457b8bd941f92U, 0x3e8a11633e52fed2U, 0xbde7b3603e039467U,
  0xbe1d6c83bcc95fc6U, 0xbdbcc6133e059081U, 0x3e4e2eb4bdfdd58eU, 0xbdfc24303e2552d5U,
  0xbe48adc5bdedab05U, 0xbd991db1bc70b998U, 0xbd96f164bd3b51c5U, 0xbc1dffa23cc57d5bU,
  0x3e3b6ae3bd18efe2U, 0xbd82d968bd843b70U, 0xbe2a1164bcb03da3U, 0x3e5b62fc3d6051d4U,
  0xbcfbc7ffbcc48457U, 0xbdf6f63bbd71ff38U, 0xbe8acc43be217a84U, 0x3ddbe0cebe4a4297U,
  0x3e5464cbbea061f4U, 0xbd6d74953eb262e9U, 0xbcd9f5bfbe7d0b3dU, 0x3c97224abe089ef1U,
  0x3e2abcc63d29e96fU, 0x3c0a55fbbe850439U, 0xbdbcc36c3e57d4fdU, 0xbc5d52aebdb856baU,
  0xbd8eff13bd57bd6dU, 0x3e20b6fc3e23760bU, 0x3e7390733e8df3d2U, 0x3e861537bd075b40U,
  0x3da50f0dbdb4bb38U, 0x3e5a45b13e5b577fU, 0xbb9e62ddU, 0xbca7b87dbac9e0a2U,
  0xbe02f609bdc75918U, 0x3d83f419bbc87b57U, 0xbd95dd1ebd462dd7U, 0x3e162b143e90cb55U,
  0xbdc24ad1bdb8b2d1U, 0xbc2930bfbcebe056U, 0xbdd9cb8ebe971cd0U, 0xbe746de13d9bbed2U,
  0x3d458448bcf9c681U, 0xbd155ace3de2f88aU, 0xbc92d83ebdf4ae83U, 0x3e1b8ecabdaf0835U,
  0xbe462bb9be067983U, 0xbd3d84ebbd18878eU, 0xbdea3e113c6f6b50U, 0xbd5f762cbd886c9fU,
  0x3c3cf5303d73f5e0U, 0x3d7687243e0538b3U, 0xbdfd853fbe137383U, 0xbd950cdabe05aa1aU,
  0x3da026debdc73ec5U, 0x3e33239f3d82b330U, 0xbd8cd2afbd76b77cU, 0xbdbeba0e3db3ec52U,
  0xbdd2ce6ebd87a66cU, 0xbde70f1e3bc508c0U, 0xbddd736fbdda37edU, 0xbd5f1fe83e07c643U,
  0xbdd377e5be1ae17fU, 0xbc3238d03db3f4edU, 0xbd80d825bc8120d0U, 0x3cec504dbd607a86U,
  0x3d7a4d64be202b1cU, 0xbd9608debe00155eU, 0x3db590823bf6ba01U, 0xbe4d7172be328227U,
  0xbde8898e3b5e3480U, 0x3dae0c45bd9e9cc4U, 0xbd7cd42ebe054abbU, 0xbdd48c713e2625c1U,
  0xbc0ed5603d340b9cU, 0x3e1125d5bcd3e946U, 0x3e2fae75bdb393eeU, 0x3d8624aabd830c9dU,
  0xbe2934423dc24bcaU, 0xbc3d22403ddba032U, 0xbe2850d5bc9f11c0U, 0xbdfd738bbd0759d1U,
  0x3e343f1b3d867882U, 0x3cb18b28bb7bed00U, 0xbc686b003d1bc508U, 0x3e2ecc993c449200U,
  0xbc84e327bd43d9ccU, 0xbdd4ddbb3e22d5c7U, 0xbe1c3bb4bcfcd09bU, 0x3ca8f6403c30659dU,
  0xbe241f3fbd62d7b8U, 0xbe1a76fbbd9afc78U, 0xbd216a64bdfb1c9aU, 0x3ca502783da83d6eU,
  0x3db289b23d4c2b84U, 0xbe2b9b1a3e216445U, 0xbb56f8c0be3c9212U, 0xbdb001c53d5f6578U,
  0xbe23ebad3de0f75fU, 0xbd90fbdcbd950fa7U, 0xbe0e7d473d71126cU, 0x3da101b63d03376cU,
  0xbe094df9bc457f76U, 0x3e2650c5be1466a2U, 0x3dd9c7323df7dff6U, 0x3cc8ab91be446629U,
  0xbe0cad5bbd2c5099U, 0xbdb6728cbd309611U, 0xbd72ba8ebe44e02aU, 0x3e02fa99be308d81U,
  0xbffdacdcbd453a98U, 0xbd957005befaab0bU, 0x3e8ed869be006609U, 0x3d959b3c3e16372fU,
  0x3deb1e9abdc01399U, 0xbdd2a35a3a76deb2U, 0x3f17cd68bc59c7b6U, 0x3e338040be56b7c1U,
  0xbd7bba70bcb30648U, 0xbe9f480fbe13e3d1U, 0x3fd66a753c1fa0b4U, 0xbdface3c3f1b6b53U,
  0x3c82785dbeaf9513U, 0x3d6e0b37bb6b87c0U, 0x3db85b6ebd59c1d7U, 0xbc74884fbc81309eU,
  0xbf1c776f3e772f84U, 0x3e372dc7be9b2992U, 0x3e42c518bd65de7bU, 0xbe0bd9993e3f49c5U,
  0xbdd490c4bdd3b438U, 0xbdff6614beab85beU, 0x3ea74073be880b2aU, 0xbedc91413e2ac100U,
  0x3d8fbe943e34c71fU, 0xbe5766c63e1440d6U, 0xbe339db83dd742c2U, 0xbdadf7463f634e98U,
  0xbf8b7b9abd8f7d0aU, 0xbe087776be04f741U, 0x3ec43a1d3e69e00fU, 0xbf02507f3daf428cU,
  0x3d9dca0ebe137be6U, 0xbdd6c918be181a79U, 0x3caffe123e76658aU, 0xbd76d31dbf3b4400U,
  0x3eda689ebf139603U, 0x3d26d9423b53479fU, 0x3e4f25a9bf1e8f6dU, 0x3e086e85bf4cca63U,
  0x3e800213bf1bd493U, 0x3eabc87cbf9011b9U, 0xbefae5f73f60b3e3U, 0x3ce31e433d5f1957U,
  0x3e4387943db9ee7bU, 0xbf41408ac0014642U, 0x3ddd1d663fa4d132U, 0x3fa2fe5c3fac469fU,
  0xbda054f33aee7eedU, 0x3f30d4a43ebbc97eU, 0xbda7d7093f4e6dcbU, 0xbdb90ad1be156dafU,
  0xbed4686dbe01e13fU, 0x3eb814943e11a85eU, 0xbda4e37f3dce5194U, 0x3e2856783d7b3198U,
  0xbeab32b9bf296022U, 0xbd9adcc33e0120f9U, 0xbf02b3ebbed4c4b8U, 0xbf307e0a3f43b7c6U,
  0xbfadb808bded12b4U, 0x3ca1b0443f872e1cU, 0xbd953eebbe1be9a0U, 0x3e57a5f83d1e3fbaU,
  0xbdbd3858beb1678cU, 0x3f98c0c43eb2ec6bU, 0x3d94d1e13df66fc0U, 0xbe902b7dbbb76849U,
  0xbe15f1fbbd1970c6U, 0xbf98d0d1bf0a7bd7U, 0xbe8c46003d10ad6aU, 0xbe6a707e3ed8be02U,
  0x3d0b89213d9f8d3cU, 0x3c1d863c3bbca44cU, 0xbee7babb3db1f727U, 0x3e0d99f1bce36b04U,
  0x3de1f72bbf013e96U, 0xbea3b907bc57c2c0U, 0xbeaf8602bea4cc13U, 0xbeca7096bda96089U,
  0x3fdd59c33e44d6e0U, 0x3d0aac12bf547826U, 0x3e96242a3e3ca0abU, 0xbe8787633e34490dU,
  0xbf06495f3d0f276fU, 0xbe8dcfad3f01ae4bU, 0x3d6e31773e576632U, 0xbf477c8f3a38be93U,
  0xbf5fb50ebd9a155dU, 0xbec445ac3da37484U, 0xbd7b08053e127e2fU, 0xbd7e6a51bf79d9f7U,
  0x3f94de0abe22fd0cU, 0x3bd50688bf0d0e5eU, 0x3f8bf784bf9fbf2dU, 0x3f12ab8cbdee25e9U,
  0x3d85954f3e3181f9U, 0xbe83c925beff9457U, 0x3f2491c6bf69c21aU, 0xbd2569e43eac74e2U,
  0x3ea36870bee5cd12U, 0xbe06405c3f0174ecU, 0xbda985093ec13cbaU, 0x3da4c51a3e414a7fU,
  0x3d897bcd3ead8555U, 0xbfa32254bece70eeU, 0x3ee9cd25bddba5a6U, 0xbedacea9be9defb8U,
  0x3f6da11cbc64bfefU, 0x3f65069a3ef1a4b6U, 0xbe8200f7bdde6a0aU, 0x3dc1a5bd3f4cd1b0U,
  0xbea0108cbe096e9cU, 0x3e2cc9783ef7eeb3U, 0xbdb98627bedb5c7aU, 0x3df9a35cbda0e7f1U,
  0x3f79da6dbe9179c2U, 0x3dc735d3beb4b8ceU, 0xbe3108ff3df16560U, 0x3d8a9f6e3e96bb8cU,
  0x3f0bb302bec50d4bU, 0x3ed42071be93d78fU, 0x3d596ab03ef40832U, 0x3f037d92be9f9717U,
  0x3faeaebc3d991ab2U, 0x3dc8b412be99b186U, 0x3dc76d62be9821f8U, 0x3f8a66a8bdff8039U,
  0xbf836e1f3eb3fd24U, 0xbf36d3713e31d776U, 0x3e9c77893e136089U, 0x3e67fb773e077ff3U,
  0xbd9eb639bd801696U, 0xbf593f6e3e81ae5fU, 0x3fa21c66bca8dbfdU, 0x3e86f04cbcafd587U,
  0x3d9a70e63ef429b8U, 0x3e271fdd3e65a8cfU, 0x3f5cab343c26b032U, 0x3e3297b7bd9ea53fU,
  0x3e5e6244be96b1b9U, 0x3eaf80d9bde42502U, 0x3ec6f0ac3d274f71U, 0xbee43ef3be2ae7aaU,
  0xbe2331233eb783edU, 0x3df939cdbf0344f3U, 0xbe738caabe394a04U, 0x3ea40ecabf179e67U,
  0xbe3b25c2bc93da8cU, 0x3e46a89c3effceceU, 0x3e6d1a953cc58999U, 0xbea89adb3d9d5d14U,
  0x3c518ac13dcbd371U, 0x3dbc0b543ea2e219U, 0x3c202f403c9d57acU, 0x3dd01cf53f215febU,
  0xbf666c36bc53ac71U, 0xbd922d03bd8f5a97U, 0xbf76d7643e3ecaa5U, 0xbe89391f3e035977U,
  0xbe2be3c6bc89623aU, 0x3d58cd40be45b608U, 0xbfbf21acbf2af2a5U, 0x3d3741e2bddee265U,
  0x3e773ababe432687U, 0xbd8a1987bf0ad7a2U, 0x3ed3cb70be1af7d1U, 0x3d33df26be6c0cc4U,
  0x3e9a7207bd96a2e3U, 0xbf8b3727bf36fb29U, 0x3ec79eaa3fa3fb02U, 0x3e64766d3e4ff028U,
  0xbfd2456a3dc530f5U, 0xbffbfdbbbfbb6e7eU, 0x3c0c51483f98a69aU, 0xbd52bcf13f5d98a3U,
  0x3ec3a57dbe0b9794U, 0x3c52ca923e6117d0U, 0x3d537ff4be2f5b0cU, 0x3d880ce5be117c5aU,
  0xbe0295ee3d8c98daU, 0x3f5c6b39bd94e86bU, 0x3e5613d83d2e0b71U, 0x3e504606bcfcb45eU,
  0xbd1bd6a43d892196U, 0xbf4d5fdd3df07e5bU, 0xbdb7aa703edfda6dU, 0x3ec837eb3ebd1e3bU,
  0xbf8d4512bcf4afadU, 0x3e19ca003e8baf43U, 0xbdc4ed743c1ab19dU, 0xbfc63cce3ca233faU,
  0xbe53f4dfbdf67849U, 0x3f9311a33efe2b07U, 0xbbf256863b583013U, 0xbe7ab14abe18189cU,
  0xbe21968a3d46a4caU, 0xbfd53970be7cd08dU, 0xbe9b1b51be10cb41U, 0xbe2ab2723eceb5fcU,
  0xbdd3c8f73e29e8c9U, 0xbc660091be08edf2U, 0xbeb309cf3e58c573U, 0x3d3fb4133d09eec6U,
  0x3dfe8b6dbebf3be0U, 0xbda17d39be19900bU, 0xbdf6e7cbbe41c9a4U, 0xbecccade3dcecfeaU,
  0x40022f383d7baf09U, 0x3d579ed4bf583eeaU, 0x3efc68633d99a30bU, 0xbdd4b07a3e86398aU,
  0xbeab4c46bcd34dbbU, 0xbe08f1fd3f2adf32U, 0x3daba3d43e3f7995U, 0xbf0e83593d37548aU,
  0xbf57909b3d8f09acU, 0xbd95ca7d3eaeeec4U, 0xbdbdc60d3dfe49a6U, 0x3d6b81cbbf731b11U,
  0x3f844bf53dd38888U, 0x3e13e36abeed558cU, 0x3f65dceabf820772U, 0x3eafcd05bdc5b029U,
  0x3de3429fbc86e3c0U, 0xbea5d928bf03ef81U, 0x3f3356dabf9d788eU, 0x3e51a4fb3ea9023cU,
  0x3dcfd3d7bf1c158dU, 0xbe1841a03f26acdcU, 0x3beab1883eb8553fU, 0x3dc1ab133ea8398bU,
  0xbab5c83f3ed1eabdU, 0xbfbfb924bf260442U, 0xbdc603683d6bdafcU, 0xbedbb0edbde86c16U,
  0x3f53a43e3cdf0b2cU, 0x3f414dd83f1c6545U, 0xbeb5d5b0bdd2cb7eU, 0xbe3200f13f7886a9U,
  0xbe71a6f7bddeb6eeU, 0x3de7d3203edfcea8U, 0x3a8aa180be84d3ceU, 0x3e1a849e3e3413a1U,
  0x3f550f04bebd519eU, 0xbdf103b5bea4ccbdU, 0xbe30f621be3c4810U, 0x3d9d0a283eb31a30U,
  0x3f038e40bf0ae1c7U, 0x3ead68febeb89c01U, 0x3ee38a653ee722b0U, 0x3f08324cbe03e3c4U,
  0x3fa1d463bdc1b439U, 0xbb6f8701be88cee1U, 0xbd541684be7929e9U, 0x3f63f784be1d4e20U,
  0x3b001e3cbd371a4dU, 0x3eb630e33c15d12aU, 0xbe1c621e3dd8be96U, 0x3dbc90533d93a0ceU,
  0x3c04bce1be2e9ef9U, 0x3f8f08f63ea9efe6U, 0xbea7f52cbe06bfa0U, 0x3e28c470bdd26be2U,
  0xbdacd916bed179ecU, 0x3e915e31bd5de01eU, 0x3fc377cabf1ab3e0U, 0xbdc0159b3dd88a47U,
  0xbed95c1b3e165986U, 0x3dc0051f3ddf060eU, 0x3d2e2d80bd730a20U, 0x3ee0ef0bbe111dd3U,
  0xbf0fd476bf4f30d4U, 0xbcef48583e069b58U, 0x3e6151aa3f11e6dbU, 0x3d7ab428bf6c50f1U,
  0x3e8fa2fe3d28371dU, 0x3e145bc2c005805cU, 0xbf2d43103e5a4f72U, 0x3e237b89be124a8fU,
  0xbd2e19bfbdbf633bU, 0x3d1109f9bc90726dU, 0xbe25e49a3dc083ccU, 0x3d865494bf14ddc0U,
  0x3f52b0533d97357eU, 0xbcb8a9d03da6563eU, 0x3f8f573d3e20b45eU, 0xbd29a68a3da86652U,
  0x3dd182c53dc269e2U, 0xbd61d90e3d9028adU, 0x3fd320233ef45b1fU, 0xbf1ad589bbe3e105U,
  0xbefb6554bcac028eU, 0x3da16362be5e7911U, 0xbef050423e4df1b8U, 0xbdea60be3e425fedU,
  0xbe9998573e65bc3dU, 0x3f2aff5c3f8ba6f0U, 0x3d3ac259bfa4ff33U, 0x3d12fdc83c0162f3U,
  0x3f8c8c82bdce3734U, 0x3e2522fdbe8c6c59U, 0xbe502921bf7aebf1U, 0xbe7644ca3f0457e7U,
  0xbf365d63bd088f24U, 0xbe6f9fc9be6a7e49U, 0x3d9d77be3fa493d1U, 0xbd2337383d138814U,
  0x3eff574dbcb0d563U, 0xbf06e8253d9c7fdbU, 0x3ecaf7993e225b49U, 0xbea10494bf071108U,
  0x3e787dd73daf9ee5U, 0xbe7cd0893e186a87U, 0x3e5409093e2fecb7U, 0xbc8a4a593dce5c56U,
  0x3eb907183e888228U, 0x3e37bb8b3fc5f8eaU, 0x3cbc4b7b3e2e985aU, 0xbd458fd73daf65b5U,
  0x3f628ad3be04b482U, 0x3e81335ebe0a2d3eU, 0xbf064daebd21b1d0U, 0xbdaf69a63e387948U,
  0xbb8929803e180d05U, 0x3f27720d3e34bcd1U, 0x3ecb56e2bed6939cU, 0xbe056dd9bebb1cf8U,
  0xbdf514ecbf150499U, 0x3ef118ef3e09d8f7U, 0x3faad15abf0276feU, 0xbd14ce17bedfded1U,
  0xbf1419c5bd7c5ea0U, 0x3e28a8b5bbf4ad40U, 0x3e7b73b7beb6c122U, 0x3eacd8dc3dd473d9U,
  0x3e9ade29bed98a51U, 0x3db605983e9017d2U, 0x3e53cb263f483041U, 0x3dc4461fbf43a85aU,
  0x3ea698bbbd0ce346U, 0x3eaa1e08bf5a2e3aU, 0xbea5f38bbd859b94U, 0x3ed753c1be568177U,
  0x3e0066eabd3a1d44U, 0x3dcbf4133eacc24bU, 0x3da40686bddea04fU, 0x3dc7adc1bedf3929U,
  0xbf6f551a3db512d6U, 0xbde0b53c3e928c99U, 0xbf78b8b6bf88180bU, 0xbf0b9f993d207cf9U,
  0xbdfdaf76bd610f5dU, 0x3e8346b13ef8aea5U, 0xbe9f96023ee30136U, 0xbe46ffbdbdd299bdU,
  0xbf075d48bd1ee200U, 0xbc751a30bef24cf4U, 0xbe6b23dc3e29ed5aU, 0x3ce920833e493abdU,
  0xbea65176becf3884U, 0x3f29a7293e7a168fU, 0x3e838190bf4e324eU, 0x3e2e0d9a3e1f17e9U,
  0x3fce7262bbc7e9f4U, 0x3e7933343f7e2fcdU, 0xbf607783bf011063U, 0x3f39f1e7bf5405d2U,
  0x3e27f5593d29c3e4U, 0xbf0560103e46df87U, 0x3e1dd9ef3f924f19U, 0x3d7a76f53d9481faU,
  0x3e9064bb3e6ace8fU, 0xbd8a51a33eb798e1U, 0x3e9f80a8bc87b8f0U, 0xbe5d0063bf1ab44fU,
  0xbdf100f33f1d17b9U, 0x3e1d606a3e8c3341U, 0xbe0cf955be96105bU, 0xbed1985cbd656e7aU,
  0x3cf0a0473e187232U, 0x3e0d03f73f6f9fceU, 0x3d44ac203e01466eU, 0x3d7b1ae03eabec2cU,
  0xbf86eeb03e8db8fdU, 0x3e40ea55bf55440fU, 0x3e2cf2843dd016b3U, 0x3eba99013d9a3736U,
  0x3dd2600abdef9f19U, 0xbef8c97c3e6ca99cU, 0x3ee692273c99aee9U, 0x3e6ab2a0beb74cb0U,
  0xbdf4965fbe8241a4U, 0xbedfcdeebe015547U, 0x3fb3b35dbe352aa6U, 0x3c9af7823ed0fbc9U,
  0xbd2116dfbee381a6U, 0x3e7fe05a3d26aaf4U, 0x3e6fc2103dafbac8U, 0x3ee50391bdea8a81U,
  0xbfa53c3dbd299134U, 0x3e253e0bbecf5058U, 0x3ee129f7bd041ea3U, 0x3d49ede6bd18f2a8U,
  0x3e035313bd6733f7U, 0x3dc5825ebd70bfe4U, 0x3e76345abf0fa421U, 0xbeb967f63eb142c7U,
  0xbe9fccdc3d1fb4e1U, 0x3dfd57713c932bf5U, 0xbdb9fb3b3d96d965U, 0xbd4f761b3ef4f609U,
  0xbf755932bd0ca2d4U, 0x3d2a6bb03e9071dfU, 0x3e1a776b3f07ce7eU, 0xbf1425be3e6d11daU,
  0xbe2126793dbde3c2U, 0xbd386cbc3d361137U, 0x3ed9509a3e798ecdU, 0x3e4279bcbf46e125U,
  0x3dd3e838bf52328eU, 0x3dd015d6bf0daf3dU, 0x3eb91a92bf4e4427U, 0xbe2eeefebf449bd1U,
  0xbd533cc9be099d22U, 0x3ebf6256be88a906U, 0xbec329583f4995b9U, 0x3eae282f3c06830dU,
  0x3f0a7004bdfc291eU, 0x3cc094a9bf70655eU, 0x3e93db353f897a3fU, 0x3f91f1813f45e658U,
  0xbe18a613be0d93f7U, 0x3ee4af63bd5e24bbU, 0x3e205a8d3f11d0e6U, 0x3e1739e13e1a8032U,
  0xbf07bdeaba8baf6bU, 0xbd0b05823e9262bfU, 0xbdcaa6e93e09fc71U, 0x3e46b69dbde1a7d3U,
  0xbf5a5766bf437442U, 0xbd0c94363e19bdb9U, 0xbe94098fbf21f827U, 0xbf59b4993f1e593cU,
  0xbf7a31293e68e311U, 0xbd7a51cc3f2de325U, 0xbd92f643be01ba73U, 0x3dde98613df25fd4U,
  0xbf09936f3e893a96U, 0xbeb3def7bd1588f4U, 0x3e8e04aabe0dea35U, 0x3e1f20293dc54ffaU,
  0x3e0650503e05332dU, 0xbed4095e3daf8666U, 0x3f8ea540bd2bb7d3U, 0xbe5a8aed3e9db405U,
  0xbe2e65e73f710a9aU, 0x3e359a303e2ed1c6U, 0x3fa2a2c63e9f609eU, 0xbe03e4133e8f2b12U,
  0x3e7b86823d1a08abU, 0xbd2691e03d04e5d4U, 0x3e79635bbdff7510U, 0xbf39aa1ebe26afe7U,
  0xbed31cec3e8890c9U, 0x3dcb6bc7beba6b8dU, 0xbeec68043f05e298U, 0xbd90823cbe5fdb48U,
  0xbe46f4ee3dc18902U, 0x3ea7dfc03f205f2cU, 0x3f105691be8312b3U, 0xbd1df11e3e5c732aU,
  0x3d0341a2bd132bb6U, 0x3bc1f4723e3c103dU, 0x3db567ea3d4b91b1U, 0x3db8a71e3ea12bbdU,
  0xbfa32b2ebe1a3bb0U, 0xbd320f50bd2e998aU, 0xbf4dc157bc6b5ee6U, 0xbe7e8a46bcca45b0U,
  0x3e304744bde6912fU, 0x3e07e606beaa2e17U, 0xbfa8fd95be58a4b2U, 0x3e0dee273e2914eaU,
  0x3e89c95abdae2ea4U, 0x3b56fac0bf50fc93U, 0x3cb4973d3ccba234U, 0x3d47bd02bea07401U,
  0x3e38c847bf651895U, 0xbf663a26bf8d6492U, 0x3e575b343f0c044bU, 0x3ddcb8c93e2f8237U,
  0xbf8e3c82bdde71a2U, 0xbdc222c4bfff3cfcU, 0xbf02a5943f178808U, 0x3f90c6b83f903bf6U,
  0x3eeb88efbded2973U, 0x3ec4c3ef3ed6f5d9U, 0x3d01227cbf07c563U, 0x3cff4e673df8abdeU,
  0xbe618714be0465a5U, 0x3eac0268bcd60070U, 0x3dbd1025be22576bU, 0x3e76bf4d3ebdd5f9U,
  0x3c8b6bc9bb330a80U, 0xbf0a50563e76a13dU, 0xbe273ce73c84d49eU, 0x3e148776bea65234U,
  0xbf917b773e9426f7U, 0x3e76966b3edc1f38U, 0xbd980f86bd817ee8U, 0xbe8b05b6bc43bf73U,
  0xbdcc4da8bc807e0fU, 0xbd10e74b3cfce225U, 0x3d149225bd82dcd7U, 0xbd80e9533e2d182bU,
  0x3d5f68ecbda9673cU, 0x3c83bcdcbe417536U, 0x3d945c30bcb98ac1U, 0x3d25927b3c1a7175U,
  0x3dc801fabd979c07U, 0xbd275c043e1414ffU, 0xbdccd9eabe351b4cU, 0xbde452653d1a784bU,
  0x3d91fec5be112967U, 0xbdca84113d14f2d4U, 0xbdf35f8cbe5382d6U, 0xbc7c1bc43cbc3f1fU,
  0xbda768c03da817a3U, 0xbe3862973cc5eb12U, 0xbe1cddda3dbe4693U, 0xbc680479bd8798b3U,
  0x3d98e3d93da9b915U, 0x3ca9d54bbc7d0b83U, 0x3dc2d68abe41e6ebU, 0x3d5a26aabe06f1d6U,
  0x3de452d23dcba8fbU, 0xbd87b417bb9ce080U, 0x3dbf60a63e0a6c09U, 0xbe13d409be1570fbU,
  0x3dbc3ace3e2a24d7U, 0xbde143243db9ff4cU, 0xbc6459cb3c2b6444U, 0xbd1e3a9e3b2976d3U,
  0xbe0adc33bd6b55daU, 0x3c932b0c3d392a68U, 0xbdd146a33e04d982U, 0x3df6ea70bc09cb81U,
  0x3cd71d82bc0e70a0U, 0x3c9586b03d6a43b0U, 0xbe053bd43df662bcU, 0xbe1e1fe63d08c2cdU,
  0xbe1c2989bd47efb8U, 0xbdea29db3c0e04a8U, 0xbe2d3a12be4d21d5U, 0xbdb16e40be4230ddU,
  0x3dae2fc13d73f78fU, 0xbde80458bda2befeU, 0x3dc01c2d3dd6767dU, 0x3d44f93ebdc64bcfU,
  0xbe11ba06bb915bcdU, 0xbac04edbbe325f9fU, 0xbe2896fbbdac6ff4U, 0x3d8a9d0d3d820d86U,
  0x3dba9b61bdf568acU, 0x3c4e7748bb436720U, 0xbe443b0bbdb8032aU, 0x3c12d2d9bd6dbc3eU,
  0xbe3accc23c822783U, 0x3d29d538b904d43aU, 0x3c9fe4e83d465928U, 0xbc95606b3c4276dcU,
  0x3c1176b63c833182U, 0xbdbf5100bd90350fU, 0x3de631f2be53b126U, 0xbe2d03af3cd6ef0bU,
  0x3f27dbb43eb8b89fU, 0xbe8fc325bebdcf75U, 0x3e319f87bba61eb4U, 0x3e391218be1e7627U,
  0x3cebc2e83dcad171U, 0x3f42ff403e4688deU, 0x3eeaabf6be9abb30U, 0x3f0a099cbeebb757U,
  0x3df96786bee11ff3U, 0x3f3744623c9dd2bcU, 0x3e6af7c3be836cfaU, 0x3db81c59bed82147U,
  0xbdfe4d543f3e9c44U, 0x3ea4d6d0bd6f480aU, 0x3d1a2ba63e604f98U, 0x3ec7365ebe259b7dU,
  0xbfc06ee53cc0bc30U, 0xbcb854153f03e617U, 0xbf77968a3da2518aU, 0xbddb0a42be357b86U,
  0x3da76b2c3ddb94b4U, 0x3eda2ed0beab8e6bU, 0xbd9ba010bc22ba58U, 0x3e861dd7be1ff216U,
  0x3e23a3f0be1df71aU, 0xbc4c7fa9bd633d15U, 0xbdc1fff93c8855a2U, 0x3e2ca2c73f1bbe97U,
  0xbf5b06bd3e262f62U, 0x3cc154cf3d35ad42U, 0xbfd46ec43e058e34U, 0xbf0f1671bbe20d44U,
  0xbe0ffbedbdf2b190U, 0x3dd2a293bc0d6559U, 0xbf1f7b613fc204f6U, 0x3f109e9dbef79416U,
  0xbe4ec69a3f4892d2U, 0x3dc05e6abf3c03daU, 0xbdec3f243d00ac6cU, 0x3e459511bee720c5U,
  0x3d587d45bee4c8a2U, 0x3f81479dbd296609U, 0x3f8042033ea662c2U, 0x3e8855053e59b344U,
  0xbe54c9eebbdf083dU, 0x3d2c2294bed7555bU, 0x3ee301a03ea12217U, 0xbe03b926bf97b26aU,
  0x3f02ddb73cf2c07eU, 0xbcaefff4bed26273U, 0xbe0d340a3ec7c615U, 0xbdf646e73d87c7f7U,
  0xbe0b691a3e14c171U, 0x3e2fb4433edabddaU, 0x3eaf57843c1b48c0U, 0xbe183b0dbf349cd3U,
  0xbcbcd3403fa37a53U, 0x3ec2217a3eb4f91cU, 0xbe3bc285bd583720U, 0xbeb3b5903e740948U,
  0xbf6151c83e3318acU, 0x3e009ffebdbfdf9aU, 0x3d8524d83d5f2987U, 0xbeb493af3e0fe97eU,
  0xbd45f43fbcba8384U, 0xbdfbd9cebe39166cU, 0x3ddd55413d8d9f82U, 0x3d389421bbfd5180U,
  0xbd2cc6c4bda1c59cU, 0x3c641f63bdbc1a50U, 0x3d560eb53e0cc1c4U, 0xbdef9c8bbe01f767U,
  0xbcb6a3683d87f654U, 0x3d2fd6bdbd7cefd8U, 0xbdfa62e8be2fe266U, 0xbe2f5236bd2519d6U,
  0xbe06b03e3dad12b5U, 0x3dd02ecc3e0ef381U, 0xbde2414dbb210a51U, 0x3cff77a4bd41b9a4U,
  0x3d85f4bcbe1e8619U, 0xbcb425a3be49e875U, 0x3e28c3d2bdb5459fU, 0xbdfae53cbd22ab48U,
  0x3d98813ebdd56cf0U, 0xbe1e8ad6be1f8a26U, 0x3e06e887bc3ac4a5U, 0xbe096d983c85b96fU,
  0xbd24fb16bdd7900dU, 0xbdd015b33db2c282U, 0x3dfd589a3d35f473U, 0x3d9675a73dcc6461U,
  0x3d0806aabdcf7de8U, 0xbdcbfd73be0d6a19U, 0xbddd88623de09e38U, 0xbe45140abe252029U,
  0x3db8bd4fbe106a32U, 0xbd87d25abdcf7d1aU, 0xbe34869e3dcd2485U, 0x3d2ddafc3d034930U,
  0xbe3b7d723c70fd8cU, 0xbe1d12c13dafe3e1U, 0xbcfdd7d8be59ea1fU, 0xbdad41c1bc6293daU,
  0x3c0e2994bdc599d2U, 0x3d19275c3e00100dU, 0xbd8f58cf3da8d143U, 0xbc68d7af3de4bcf5U,
  0xbdc0bd97bd6d72eaU, 0xbe46e9243e0888d0U, 0xba3c59623de28170U, 0xbe0d4e583aa11838U,
  0x3d28c99a3dc7d666U, 0xbe28a7ee3e139156U, 0xbdf7d8a03da08901U, 0xbd5979193d1050ecU,
  0xbb01edb43ce08ff3U, 0x3ddcc1acbcc9e6e8U, 0xbe0a13c53e0b735bU, 0xbcbea9253ccd5588U,
  0x3e02a65c3d719907U, 0x3e227a13be389443U, 0x3daa38c6bda5d4f9U, 0xbcbe3f26bd956d1aU,
  0xbe23ec983dc42007U, 0xbe1f9037be2632a0U, 0x3ced10b13dc0d306U, 0xbd55b6593d5d18b5U,
  0x3c8885cc3d301000U, 0xbdc18f423d176bb8U, 0xbdaa2095bd926169U, 0xbd7e3c9a3d6d377cU,
  0xbe2001ab3e315423U, 0xbd65d5343c35686cU, 0xbcda72f9bdd026c5U, 0xbbebd285bad1bb43U,
  0xbdea86c8be1fcfe4U, 0xbd97fa0ebe2375edU, 0xbdfb4dff3e0ed384U, 0x3e079d193d1f2428U,
  0xbd2cf0c5be029c73U, 0xbe13ff5ebdf99c17U, 0xbd241e2b3d815bafU, 0x3e0217e53e062639U,
  0x3da163debe26dc90U, 0x3aa31d80bda5f8edU, 0x3da68679be1e1135U, 0xbddf8d893db7a43bU,
  0x3de71ea7be29f11aU, 0xbd9cc54f3ddea9b2U, 0xbddddfa7bce540cbU, 0x3dda3c8b3decdf80U,
  0x3db3b4e4be31e09aU, 0xbba4347dbd024dc4U, 0xbca5edd8be12e292U, 0x3d2e62d43d920b3fU,
  0xbc8dedb53e18e2f7U, 0x3d3444c0be324f08U, 0xbe39eb34be2b95b7U, 0xbddbb8c6bde1a225U,
  0xbbb27520bd80d7caU, 0xbdd561d2bd600caaU, 0xbd3911273e2104e7U, 0xbe00599c3df7a5c9U,
  0xbd401a233e020f99U, 0xbd440f18be1e18a4U, 0xbdf5dc263e0f7d4eU, 0x3d6c9cccbdb7a59eU,
  0xbe38b436bd98507fU, 0x3da9dc29bdc0141bU, 0x3c19eb603da08105U, 0xbe4c8a5a3d0a30ffU,
  0xbe28238fbd8c2851U, 0xbd2f51ff3d068fdcU, 0x3d3e661cbb54d17cU, 0xbe1b70cdbd6e110cU,
  0x3d130bd03cc8d3b0U, 0x3dd10647be22c633U, 0x3d7ae1a03ddd128cU, 0x3dcc895e3de7fc86U,
  0x3daee9283dfb60deU, 0xbd8f8351bd70471fU, 0x3d83761d3b2c2440U, 0x3d3d40093d8bf964U,
  0x3d80f6eb3d9e91c6U, 0x3e04aa97bdde1391U, 0xbdaa3544be27710cU, 0xbe219c113cb5f556U,
  0x3d406d0dbd96f1b3U, 0xbe26174bbd6c87e9U, 0xbd815723be1013bcU, 0x3d9bb0f5bd3523c2U,
  0xbe902d0fbeb73ea1U, 0x3f81aa693ed28097U, 0x3d806f903ce2d013U, 0xbeb9adcd3d727366U,
  0x3d69e9483d8694d0U, 0xbfd8f8eebeabc776U, 0xbeff50c4be4f6d8bU, 0xbe294f7a3ec34739U,
  0x3dbc5ee03ad522c2U, 0xbddad4eb3dab4303U, 0xbecfeb943e94ddc8U, 0xba419762bd1e7374U,
  0x3e85547dbed30a28U, 0xbda8592b3e318c8dU, 0xbe837c5fbe4d733cU, 0xbe9ead66bddd3cf6U,
  0x3fedeee43dc12866U, 0x3e018b7fbf045d9fU, 0x3ef045853e2fad1fU, 0xbe59d93f3ea698b0U,
  0xbe86d6be3e06a50aU, 0xbe78ef073f45a191U, 0x3e1b14833e63dc6bU, 0xbf3e14fbbd02be11U,
  0xbf73da023dfc6bddU, 0xbe3378f7bd762f7eU, 0x3e4852f7bd4a071eU, 0xbd7d6989bf84f1a9U,
  0x3fa19e5c3c7eaba0U, 0x3dad65c2bf08f070U, 0x3f495010bfa15261U, 0x3f1577dbbcaf1ee0U,
  0xbe0855773e05f5c9U, 0xbd040ba9beb087dbU, 0x3efc4c5cbf9267f2U, 0xbd7581533eedd961U,
  0x3e1217e9be8e3d56U, 0xbc6ffca03f2421e1U, 0xbb321de73eff75d8U, 0x3e861d023ed0cb41U,
  0xbe019f613e63f24dU, 0xbfc0d17dbed09131U, 0x3cbb1488bdca9fa7U, 0xbf092c12be3707f9U,
  0x3f68a916be266b3dU, 0x3f4c72d53f4e2d49U, 0xbe5aa31bbe0cf48cU, 0x3d876a6f3f5cad1aU,
  0xbe10f6fc3d357a07U, 0x3d78d1bc3efab54fU, 0xbe31a195bf00164dU, 0xbd80fa72be160446U,
  0x3f67ef39bea8307cU, 0x3df65719be94b542U, 0xbebae0823dd4aa95U, 0x3e19a6003cde9aabU,
  0x3f0e6963bf0217dcU, 0x3f0ba04dbed93acbU, 0xbd96320b3f438a8dU, 0x3efc521fbe8fb968U,
  0x3fe63d233bb39c4bU, 0x3e13b896be4d6a2eU, 0x3dd9e641be9c43b6U, 0x3f4f7374be0c9960U,
  0xbdfd1058bc858964U, 0xbd6154003d93bda8U, 0x3c09ae213e291fa3U, 0x3e0243cdbdecc9f2U,
  0xbe15757ebce273e0U, 0xbd3bd8643d72e1ecU, 0xbd18dfaabdd73c48U, 0x3d7bb72dbd37c95bU,
  0xbe01eaf7bd310e8fU, 0xbcbb9c303ddd1c52U, 0x3e07bd87bd9e76adU, 0x3dd72e8ebe294ddcU,
  0xbdef94f5be1dbb41U, 0x3da03ceebe052954U, 0xbd372376be47b5b5U, 0x3dfd4434bda969ddU,
  0xbdd20051bdf64ae1U, 0xbdc6c3cdbd643c25U, 0xbc8d3e5b3d581abcU, 0xbe56678d3dbb3631U,
  0xbd887fe43d002460U, 0xbc2cd8c9bb1604a6U, 0xbe3d22283d4e695cU, 0xbdb85a173bf78aafU,
  0xbdcb9d2abe3bf388U, 0xbd8e3a66bcd70188U, 0xbd58012abd820620U, 0xbe0180073d832f3cU,
  0xbe5339193c548880U, 0x3da6b7323cc26417U, 0xbcccfecebe6d6a0dU, 0xbe50d0ae3d8c49c0U,
  0x3d0eca803bd63920U, 0xbe094c343dc4f7e6U, 0xbde036303c47cdd0U, 0xbc1dce0ebe213656U,
  0xbe04de63be4aedbcU, 0xbd15fe6c3e254778U, 0xbe28e46b3c845738U, 0xbbf774a03d227047U,
  0x3daf8d593aaf22d8U, 0xbd4f2224bc84e0f9U, 0xbda63a92be31ded1U, 0x3d7885113ca0df37U,
  0xbe010ea4bdf3f4a0U, 0x3e27dea1bd72a056U, 0x3d9bd12a3c1b2452U, 0xbe00a2363e224713U,
  0xbdbf234f3ddbe7d2U, 0x3df363273de90013U, 0xbc2d67203e281354U, 0xbdb0e000bc98c080U,
  0x3cfacf9bbdfd8e3bU, 0xbdec5d5b3d868d5fU, 0xbd4088ad3c8beb78U, 0x3db0edc6bda72f0aU,
  0xbbbfa9a93d0c6c9dU, 0x3d89522a3d581ae1U, 0x3dea3c763e00f795U, 0x3c4ba3f33d7352dfU,
  0x3ab4c5493d905165U, 0x3de393debdf728f2U, 0x3de225363d4c61daU, 0xbd0c48b13df5655aU,
  0xbe7ac47abd0100eaU, 0xbe3ad5463da19587U, 0x3e9f6af9bdbea0d8U, 0xbdb349623da9719fU,
  0x3e283eb13dc98030U, 0xbe5261e23d2d09d0U, 0x3f55023dba610a76U, 0xbe37c24a3f29b58aU,
  0xbd3204473f458274U, 0xbefc698c3d6e1ecbU, 0x3f25863c3ec8edf4U, 0x3d685b313f6d1d9fU,
  0x3f01eddabacd56a0U, 0x3d82ef013d0d22dcU, 0x3e02472d3ce5c989U, 0xbf660c2cbd0dc452U,
  0x3fcd88453e6464e3U, 0x3e5cb681bdfb3ef5U, 0x3fc4d15540065d7cU, 0x3bc00806beb8abd8U,
  0xbe4357303e3c8a27U, 0x3f2473413e1cb5e3U, 0x3f33635bbd2e74fdU, 0xbe18757cbd4d6bf4U,
  0x3e11a453bdd4bcbcU, 0x3bd93fe23e1202d4U, 0x3d94dac23e1606b7U, 0xbcb37dca3e883782U,
  0x3fa847503dfd226eU, 0x3e2435febe3e9dbeU, 0x3eb93eb03e37cbdfU, 0x3ecb84d0be22ecb0U,
  0xbbcb4cdb3d2385bcU, 0xbe00a1ddbebe7ef9U, 0xbf1c61aebde88881U, 0xbdae3d9f3dbfc613U,
  0x3e74ebb03dbc0f60U, 0xbd65b4323f4adfe8U, 0x3d36d9a3bcdf8e24U, 0x3e0b33e3be2c2cb0U,
  0x3e2c5076bfa24604U, 0xbeef569bbf0f7894U, 0x3edee439bed23ba9U, 0xbe3c1d69be337152U,
  0xbf2611773da97facU, 0x40075568c017f6aeU, 0x3fe2d0fe3d66e038U, 0x400afbb93f1f6b61U,
  0x3e22298abd530e84U, 0x3e99222b3f8be1b0U, 0xbd854882be01bd35U, 0x3e0095d53d887f21U,
  0xbe29f895be53d3f3U, 0x3e3222babe936f73U, 0xbd536de73e10689dU, 0xbde91fd63ed3bbe8U,
  0xbc89aaab3dcaeaddU, 0xbeae8af1bcd9476eU, 0xbe8bb4793d8376c8U, 0x3e04a7d7be3c0a17U,
  0x3ff49b9c3f289208U, 0x3e8db4053f556adfU, 0xbd22ef473ca5c10cU, 0x40132ec5bdd81e2eU,
  0x3e47dcefbe66553fU, 0x3e7eff1c3db88e2fU, 0xbf2e037f3e193895U, 0x3dbf65c5be1374ddU,
  0x3e10033bbd1ed358U, 0x3f4f6c683d8a5dbcU, 0x3f34c7a43f1e7c14U, 0xbccf2631bf07cab5U,
  0xbe132183befe699dU, 0x3df2c895bd208f98U, 0xbfa12ca1bf3266b9U, 0x3e23d3c03ec83140U,
  0xbef436c2bcfbd491U, 0xbe483bcc3be49940U, 0x3cf933fdbd9c197fU, 0x3f1cbdbb3e111cc1U,
  0x3a37a245bf35591dU, 0xbd06bad53e7f272fU, 0x3f0468e03ea32979U, 0xbe37caa53ec25befU,
  0x3e8ca9053d10bc76U, 0xbe375c78bfb9a470U, 0xbf09062dbd273ba7U, 0x3e5bba56be9b4419U,
  0x3e0383e8bdfae066U, 0xbe182fd3be273e2aU, 0xbe27332a3dcdadcbU, 0x3e1441c1bd979161U,
  0x3ec9c8b5be22fe4bU, 0x3d31f4483d0be66aU, 0x3f3ecc253d6c606dU, 0x3f37a5d0bece1ef9U,
  0x3c0b7a90be2ccb2fU, 0x3dbf8a5f3e0708e7U, 0x3f975c773ea0b8f9U, 0xbe6af7a8be3f7926U,
  0xbf4c5d8c3e2410e8U, 0xbc8978583f357d2dU, 0xbe9982e93dfd03eaU, 0x3e1c1f7a3e0cfb50U,
  0xbf25a5c63f471012U, 0x3f76d2db3fb2f01fU, 0x3e83e1a3bf48853bU, 0x3de62972bd74c21cU,
  0xbe6b2f93be311273U, 0x3e85ece2bffff72eU, 0x3efbba63bf2085c0U, 0xbeac9e21bedd1205U,
  0xbe9ff752bdeed086U, 0xbf150075bf42ace2U, 0x3d90d5683f64109bU, 0x3e08ad16be1dff21U,
  0x3d89e01bbe123871U, 0xbf4b4d0dbc71d0ddU, 0x3e04df433b1ef780U, 0xbe688bc1bf49bc43U,
  0x3e0f26463e664ccaU, 0x3f57c913be472330U, 0x3e86e5283e50159dU, 0xbd16bdc83f5a22b5U,
  0x3f597e3d3f406e46U, 0x3ac42c0b3ea72104U, 0x3d88f600be29d2fcU, 0x3e0fec15be22bc09U,
  0xbf0c779bbd698b13U, 0xbd72c7f1be081024U, 0x3d42fb083d69bea6U, 0xbdf90de83ce3b292U,
  0x3d09edad3a4bfd62U, 0xbde4f1dbbe6125e6U, 0x3ee37f643e736ab9U, 0x3cdcc5393d5a8763U,
  0xbda9448bbbc800b4U, 0xbf13c6793dd7400dU, 0x3ff303353d83579aU, 0x3dc903733f91ec90U,
  0x3c1c59adbec314caU, 0xbd74bbdc3df4eab6U, 0x39a913f5bf18e5c5U, 0x3e2abc1abdee8a43U,
  0x3fea18ba3caea21fU, 0xbe0247073d1d4b2cU, 0x3febba4abe97c982U, 0xbe936522bdf8a5bdU,
  0xbdb81827bd728e98U, 0xbec687103da7cc26U, 0x3e79ad47bd63ad60U, 0xbe36f01e3e5c74a1U,
  0xbe852eae3c08ef47U, 0xbe4d5b5a3c8b8c9cU, 0x3c0a75cdbdfd0764U, 0x3c24219d3ef3b1e1U,
  0x400181ee3c014c16U, 0x3ced1e08bebbfff2U, 0x3fbaf2103f818405U, 0xbe8eea3dbd982968U,
  0xbdde256a3d4f8794U, 0xbe85027fbe8480f0U, 0x3f179d97be2d10d0U, 0x3e5f409dbeec8377U,
  0x3e8d860cbead83bfU, 0x3dc1dd8b3f2abf34U, 0x3ead822cbcb95c96U, 0xbd942283be86db85U,
  0x3c210c3d3f31b0cdU, 0x3eb09fe2bf368e10U, 0xbeaff7a23f1d0a19U, 0xbdf4f5ae3ca894b4U,
  0x3ec8affbbe1ae1a3U, 0x3fb5349cbf0122f0U, 0x403ed4293f8b96b5U, 0x3fda47043f24e654U,
