/**
  ******************************************************************************
  * @file    network_data_params.c
  * @author  AST Embedded Analytics Research Platform
  * @date    Mon Dec 18 22:33:03 2023
  * @brief   AI Tool Automatic Code Generator for Embedded NN computing
  ******************************************************************************
  * Copyright (c) 2023 STMicroelectronics.
  * All rights reserved.
  *
  * This software is licensed under terms that can be found in the LICENSE file
  * in the root directory of this software component.
  * If no LICENSE file comes with this software, it is provided AS-IS.
  ******************************************************************************
  */

#include "network_data_params.h"


/**  Activations Section  ****************************************************/
ai_handle g_network_activations_table[1 + 2] = {
  AI_HANDLE_PTR(AI_MAGIC_MARKER),
  AI_HANDLE_PTR(NULL),
  AI_HANDLE_PTR(AI_MAGIC_MARKER),
};




/**  Weights Section  ********************************************************/
AI_ALIGNED(32)
const ai_u64 s_network_weights_array_u64[19707] = {
  0x3b4f5000bf54ffb7U, 0xbd526f7f3f01971cU, 0xbc8459003d4da388U, 0xbd7625003c1a8d00U,
  0x3cb54e003b299300U, 0x3ea8af40bdd3bf00U, 0xbd3c76c0beccd674U, 0x3c37fe003f6d75e8U,
  0xbb444559bcf506abU, 0x3b74690c3dd2376bU, 0xbb6551053d13404dU, 0xb8c4bf543b9a6ed7U,
  0xb9f548fa3ca968cdU, 0xbe36fe763e06ce0bU, 0xbd2b4fc23ae025c4U, 0x3b6c70453d770b2aU,
  0xbb770b213d62b6e7U, 0x3b945afebccc755fU, 0xbb7e7ff9bbc2e20eU, 0x3998bd0e3b894006U,
  0xba321973bd10ce88U, 0xbca434ef3dd1bed0U, 0x3d079fc63e84b920U, 0x3b71f9023c1d15d0U,
  0xbb711da83c64db40U, 0x3b8fd3b93db201ddU, 0xbb54359abb1e8085U, 0x3a3799933ba0e3ceU,
  0xba5e21693cc862a7U, 0x3dc75ef63cd7ac2cU, 0xbe4ff9653d2507eaU, 0x3b43f1193e5df388U,
  0xbb63a9c33d9dfdb4U, 0x3b83ee183bf8065eU, 0xbb09ee0d3ba62d27U, 0x3a3d13f13b9f03c0U,
  0xba63795cbb131d6bU, 0x3dab92743c51f1e4U, 0x3d4a249cbdec787dU, 0x3ae1314a3d7a4decU,
  0x3abce763bd1fea24U, 0xba1c7f6c3d8decd7U, 0xba8474f73c81b835U, 0xbad19ab13c0581e2U,
  0x372431903c72d1f5U, 0xbe62a8013e0e075dU, 0x3ce5c3e7be24239fU, 0x3b1cd872bdb2fe2eU,
  0x3a083c063db2f72aU, 0x393a6438bcd000d4U, 0xba8a07723c1c425dU, 0xba7b5dbd3bfda7d8U,
  0xb9271c8fbc508753U, 0xbd0ed2a73d3e2d02U, 0x3e602c493df95c58U, 0x3b14b2b0bc89a6e5U,
  0x3a12a1ce3d611404U, 0x385596e8bd06fc58U, 0xb9e3c46e3d5da15dU, 0xba6578a83c0584d7U,
  0xb9a7fccabae00e02U, 0xbda429df3bac48eeU, 0x3d1f2aae3d9cfae3U, 0x3ad027943d0e16d9U,
  0x3a8192b33d4c1905U, 0xba07169bbcc1b571U, 0x3a555dd73d4888feU, 0xba8f67f93c034c85U,
  0xb9adc4523d364d6fU, 0xbd45d0ffbbba9639U, 0x3e0263333e04f9d8U, 0x396f3698bd8f4116U,
  0x3b1913a4bcd4319fU, 0xbae44d163d802ab3U, 0x3a5822e5bd750aabU, 0xbaea19b13bcbbf0dU,
  0x39859173bb9dcdceU, 0xbda0463f3db78fdcU, 0xbcadedf5be427c81U, 0x38afd0643ca7a637U,
  0x3ab86f653e3cb6a9U, 0xba657024bdfbc645U, 0x39fe7bafbd89f8a7U, 0xbaa0a2103bcd68d9U,
  0x38ab46323ccfdaeaU, 0xbd72f92dbc919735U, 0x3e13c3e43ccf3dc4U, 0x39e30c6e3d750b4eU,
  0x3ad1a8763e16f24bU, 0xba9b9c2bbdd1a1b9U, 0x3aa621e6bb620df1U, 0xbaa643bc3bd775e6U,
  0xb853423abbdd4f00U, 0xbd5ad1103b835b94U, 0x3d3544ed3d3abb7cU, 0xb9b86f043d797a2dU,
  0x3b02c1ff3e2fa199U, 0xbae00135bd38d86aU, 0x3b175fd53d0bd175U, 0xbac0ddf63bcef75dU,
  0xb813b9d63d48db56U, 0xbc3f27283d8ad491U, 0x3e07bf063e245001U, 0xbac3412c3cb1c750U,
  0x3b89e658bdefb50eU, 0xbb95f68b3e4c8141U, 0x3bc8f47e3d016952U, 0xbb0e730d3b012cc8U,
  0x39a37f9cbbf07b87U, 0x3cf649513dcc7424U, 0xbde19a9fbdf92ca2U, 0xbbcd5acc3ca278b7U,
  0x3b5b70613dbfc2feU, 0xbb6f46803b26526bU, 0x3bb5349f3d1c79d7U, 0xbb03a26e3b2ed08bU,
  0x3954b7713c38ecf3U, 0xbd009489bd6c5374U, 0xbe16d01abd2752f2U, 0xbba2ed4d3d599ad4U,
  0x3b87dc4d3c71fd28U, 0xbb90e5183cd5bc01U, 0x3bd07dd53c08ec53U, 0xbb20447c3b527325U,
  0x391984ebbc58ba0fU, 0xbdde43d6bd199ab9U, 0xbe3528e4bd877de5U, 0xbbbbe5ba3db54ae2U,
  0x3b940df83d43edeaU, 0xbb9d20ef3d8d81a7U, 0x3be18e28bcd285e4U, 0xbb32e63b3b6d7aa3U,
  0x393590a33aeb27d9U, 0xbdb093f43c38b91dU, 0xbd99c7c83cd55b84U, 0xbbc83e243d00d6cdU,
  0xba83ce523d46f274U, 0x3a8296a53ca05cdeU, 0xba924f81bca12bf7U, 0x3a358ba2ba7f1d98U,
  0xb806059bb9545d5bU, 0xbe4b33ea3d317c48U, 0x3a86bbfc3d0fa6fcU, 0x3a7bd84abd4e2583U,
  0xbad757ecbbf6a261U, 0x3ae72afd3c2989ecU, 0xbb0284703c9d5082U, 0x3a823203bb3f1ec8U,
  0xb8a771fdba9baad2U, 0x3dad8a733d03c906U, 0x3ca539133d770e66U, 0x3ac246b83d43bb92U,
  0xba8c07463d4343f4U, 0x3a9e40e23cc2a503U, 0xbac5832abbbea7a8U, 0x3a37821dbaf1097aU,
  0xb859f212bc168aebU, 0x3d50d3e83cf81b4eU, 0x3a721292bd9c58dfU, 0x3aa85eaebdf92342U,
  0xb9bf101f3d88e1ffU, 0x39fdb8ce3d838991U, 0xbaa04d49bcabaa50U, 0x39fc71ebba61d707U,
  0x378abe90baf33f49U, 0xbe3a5874bcd1a94aU, 0xbb7aafe33ca49183U, 0x3ab140543db254c2U,
  0xba7d28aa3d302c6bU, 0x3a744e5cbd148d93U, 0xba4c8addbc83337dU, 0x3a2361ccbabc13ccU,
  0xb88381bb3a796473U, 0xbe2c6ef53d63a017U, 0xbc913398bb6e94c9U, 0x39f36e18bdaddbe8U,
  0xbadc27af3c73ea71U, 0x3ae60dc8bcd29d63U, 0xbad3abb93cbcf4aaU, 0x3a7e7264bb8265cdU,
  0xb8f269d23a037e8eU, 0xbb0236773db1a799U, 0x3bd59f113da250a5U, 0x3a553bbc3d0ef8beU,
  0xba9592b13d2f002eU, 0x3aa2ba35bcf2ceafU, 0xba9c07d4bbf8550dU, 0x3a3c3993bb3e86acU,
  0xb8b6733fbbe63000U, 0x3dd2a2bd3d026e08U, 0xbd084e9abd861b2aU, 0x3a32fdaebdae30aaU,
  0xb9a1292c3d3ff272U, 0x39d5b8cabd2f119fU, 0xba5fd3bcbc9bf7adU, 0x39eefe71bacd36d7U,
  0x34251ac03c6661e5U, 0xbe641ea5bc53699dU, 0x3b0ebe523be290f9U, 0x3a5435543d8e8f96U,
  0xb94233663d3c1a28U, 0x38f574c43ce87f14U, 0xb91eafaabd124536U, 0x3982cf9eba4494a8U,
  0x37e28ba83a2e2c66U, 0xbde6bd993d8dbeb0U, 0xbca4add53ca34b7cU, 0x3858ff0ebd7e3879U,
  0xba96446d3d115105U, 0x3a9b446ebd3a58b6U, 0xbaa8b9983c5091c9U, 0x3a41c110bb70322aU,
  0xb816175838eee46aU, 0x3be27c903d3f6ab5U, 0xbaf4d9af3d93cf77U, 0x3a237d45bc1cc586U,
  0xba2252cf3d101724U, 0x3a316f39bc993466U, 0xba645c693ade3090U, 0x3a02e6e5bb32aae8U,
  0xb713f0ce3b7a09faU, 0x3d8255e13d3d4ee7U, 0xbd2d9a59bcecd62bU, 0x39fc4918bd9cf926U,
  0xb88840803c2b426bU, 0x3908b57c3d0eaa97U, 0xba568b45bd17b57dU, 0x39b0aa18babfbe83U,
  0x38919fab3ba71076U, 0xbe190c7f3c96e4abU, 0xbd048cf83a9a6b54U, 0x3a60e8573d2ca49cU,
  0x398edab33d266e46U, 0xb9a710c33d15734bU, 0xb8c459d23b9c9b7cU, 0x38450c3838e91a46U,
  0x38a406533a6f09e3U, 0xbd1486c03d52f5baU, 0x3a0601893d69844dU, 0x39923fd6bdb4f6feU,
  0xba6335253cf788d4U, 0x3a7224fd3cffa1b4U, 0xbab8e5aa3c3fc132U, 0x3a378e1bbb44addcU,
  0x3664dbd43bd62e73U, 0xbca55fe53d89ac4dU, 0xbd957d273d3e7717U, 0x3a7bacf63c68c9c9U,
  0xb9b0434c3ca5b2a0U, 0x39d6ebeb3d515846U, 0xba8530463c51202bU, 0x39ef3d2abb1144a2U,
  0x380a7d783c7861cfU, 0x3d64e0253d3e7cddU, 0xbd963b0fbbb97a2fU, 0x3a584380bb8d01adU,
  0x361e3170bcebd323U, 0x388864c53d80a9b1U, 0xba881772bd926f87U, 0x39b1e0e0ba94f9d2U,
  0x38aa5a22bb93dfadU, 0xbe082b233a975c32U, 0x3cfc1a793a6ddb3bU, 0x3a9c90a03cb24b40U,
  0xbbbe6869bca3b882U, 0x3bb463b13ddbaa63U, 0xbb35d5ddbc9e7c93U, 0x3b63a729bc2da7a5U,
  0xba5dbaf93ab865b8U, 0xbcd280fb3e116b18U, 0xbe59af803d2662e2U, 0xb9d3ed82bd48730fU,
  0xbbceceb2bd441ba9U, 0x3bc82f0d3dfe7666U, 0xbb898e4bbc26eeafU, 0x3b5cbddabc217207U,
  0xba4143c53b91f85eU, 0x3c37ba6a3d062a3cU, 0xbd1041d6bdaa4190U, 0x3aab4d813ca1ec43U,
  0xbb960525bd3e46ebU, 0x3b95524d3dc39898U, 0xbb7734eb3c31d3d9U, 0x3b0ccaa1bbb199e8U,
  0xb9fde75abb46b31fU, 0xbdb3ca093d3666acU, 0x3d5ad850be040a5dU, 0x3b0353433d400d3aU,
  0xbb9aa8a3b9203b63U, 0x3ba171643d8cc504U, 0xbb970a4b3d01301cU, 0x3b0ea650bb1c843dU,
  0xba12a5aabc3bd8efU, 0xbda240e63d337401U, 0x3e12f27d3cfc0463U, 0x3b56aba3be129801U,
  0xbbb7fd4abe10053fU, 0x3b9e16bb3dce1becU, 0xb932cfe4bc4b5d44U, 0x3b6bc0bcbc8a5033U,
  0xba7fd4b43a8d5f7bU, 0x3c664da93bdeb0f2U, 0xbe26759cbd0c94e0U, 0xbb9703a1bdf2306dU,
  0xbbcb22fdbd6883eaU, 0x3bb41b143de77c23U, 0xbace7aa23cf71aabU, 0x3b79e91ebc862f49U,
  0xba675fcb3b9f8a5cU, 0xbd198953bcaf3eedU, 0xbce8e848bd37b4f4U, 0xbb419d8bb9fa239aU,
  0xbb9918f2bce783b1U, 0x3b8af13e3c42d0feU, 0xbacb645ebbab8cc9U, 0x3b3befb9bc42aeeeU,
  0xba3058e8b9613657U, 0x3d029bf0bd0c5e71U, 0x3da3cbacbd84c044U, 0xbaefcb453dd3ae26U,
  0xbb99716c3ce873d6U, 0x3b92f324bddf3665U, 0xbb1a746ebc024445U, 0x3b37e6debc0a9d8eU,
  0xba4070a73b491602U, 0xbde662883c247da0U, 0x3e078ae83d373bd7U, 0xb9ecf0fdbde453d9U,
  0xbb9655b8bda449f0U, 0x3b63050b3d67e837U, 0x3b4bf871bc54f823U, 0x3b321bdcbc8ba00bU,
  0xba80fdb4badaafd1U, 0xbd855af43c618989U, 0xbd719bdabd00fe4bU, 0xbc061526bdc56342U,
  0xbba36a20bcc06f07U, 0x3b7ff944bd17ac3bU, 0x3b121f193c1c997eU, 0x3b47a7dcbc891d2dU,
  0xba68e630bbbe41a9U, 0xba86e502bda6634eU, 0xbd3151d73d825821U, 0xbbec15243b9b0ff5U,
  0xbb533dd13ac79970U, 0x3b2111783be52caaU, 0x3af6466c3bb7783aU, 0x3b00cc96bc437e12U,
  0xba366f02b6d9862cU, 0x3da1517ebc86be49U, 0xbda7aebd3d39000bU, 0xbbb1d7f73dd07d39U,
  0xbb4abbb13cd61ec1U, 0x3b27b7b3bb8a3cf3U, 0x3a8fb8fdbb02d378U, 0x3aeb12eebc0ba7eaU,
  0xba4569eb3c24021bU, 0xbbb4e5c1bd0a4b6eU, 0xbdbd54f33c6451c9U, 0xbb839075bd3ba44fU,
  0xbbda80cc3d90db01U, 0x3bc85cd7bd1882e1U, 0xbab91a9cbcf6e8f6U, 0x3b523044bbea489cU,
  0xba98c751ba6412d4U, 0xbb896c11bd978a40U, 0x3d452dfc3cf4db84U, 0xbb103fc13b22aac1U,
  0xbbe870ff3d652a42U, 0x3bda8b8c3cbf4f67U, 0xbb2d4165bda1d981U, 0x3b6dbfdbbbd6f30dU,
  0xba91296cbb44ca40U, 0xbdfa41bfbdabae64U, 0xbdbf755d3e21edfdU, 0xba44d3903d0dba98U,
  0xbbb2ba373c3e4e62U, 0x3bab9b443c71ed2bU, 0xbb2c2101bd65bd86U, 0x3b310674bb2317faU,
  0xba70c06cbae1c8e5U, 0x3e52e460be0d631bU, 0xbe6245b43e11704aU, 0x39fb148a3ddd2c90U,
  0xbbb1ae25bc95dcfbU, 0x3baea3443d293f93U, 0xbb4303eabbc6a3bfU, 0x3b2ab860b9ce0b9bU,
  0xba7d5f543b1708d4U, 0x3d45ddfbbde7961eU, 0xbe909fddbcfabb47U, 0x3a948dcbbcfe4468U,
  0x3bc9eddcbdaa6e7fU, 0xbbcff3debd081273U, 0x3b32c13dbc1aa14fU, 0xbb42cc243ba4b3b3U,
  0x3a2d6ffebb8ba917U, 0x3dab7e50bdd81a62U, 0xbd283165bd8f7f2aU, 0x39e0ccef3d80cc41U,
  0x3bae8368bda7d58aU, 0xbbb7e85bbd350b9fU, 0x3b3052013ca5a4b7U, 0xbb1b8c643b18897aU,
  0x39f88ee7bb3ff218U, 0x3baafc50bced5d65U, 0xbd9508d2be108583U, 0xb9b19abe3d7e2987U,
  0x3b91a6d6bd158ab0U, 0xbba54c4abd969636U, 0x3b3236913c7c022dU, 0xbaf03a54b83f5efaU,
  0x3a1dfc75bb593eecU, 0x3d86fc48bd9801a5U, 0xbcab52a5be053d5aU, 0xba5f351c3e24fcacU,
  0x3b599bfa3c73c2adU, 0xbb895aa7bca29fd0U, 0x3b34a874bb71ee81U, 0xba9ba95cbb65ad84U,
  0x3a2d084f3a5f870fU, 0x3d418225ba83f8d2U, 0x3d7fc5dabe15172bU, 0xbad8fcbb3de38075U,
  0x3bce2bb5bda7d0ddU, 0xbbd86cba3cc8d1d7U, 0x3b500259bcf50050U, 0xbb44833a3b6ddc40U,
  0x3a62e1a6bb57aff6U, 0xbc1e7912bd33b2f0U, 0xbd664ad5bd916c23U, 0xb9a1df473d464f4cU,
  0x3bb42307bd575b0dU, 0xbbc1e8dbbb389492U, 0x3b4dee2e3bd94954U, 0xbb1c5ae13a85a439U,
  0x3a34ce043ab5a3e1U, 0x3d765684bd3ad6b4U, 0xbdd18c19be0c3663U, 0xba88e94a3ca5a735U,
  0x3b96bb5cbb3ef4a8U, 0xbbaf78663c32a265U, 0x3b51d9f13cd338a5U, 0xbaeefda8bab69907U,
  0x3a50a126baea1dccU, 0x3b7e853f3d3593d5U, 0xbd4b6e22be2203a4U, 0xbacda3c63e11ab3aU,
  0x3b632b773db76430U, 0xbb93a8f1bccd9784U, 0x3b541c81bc361095U, 0xba97768bbb9c5beeU,
  0x3a6676c53aaf3335U, 0x3da95311bc28d398U, 0x3da0adc4be20d5f0U, 0xbb1d1c413e2d3e7aU,
  0x3b7f0c67bdf428d2U, 0xbb701e683d51a0deU, 0x3a406c84bcc46fa2U, 0xbb0f47c43bb78231U,
  0x39cfc88abb398837U, 0x3d40d3a2bd6a3848U, 0x3b8ce3bfbd87301cU, 0x3aca9c7d3a224eddU,
  0x3b538bdbbdb89bb2U, 0xbb4cb98e3d797c09U, 0x3a60c187bcb1b01dU, 0xbad710943b3f9ae8U,
  0x3968bf933ab0f21bU, 0xbc1afac23caa3aeaU, 0xbd48d5c5bdea315fU, 0x3a2cac763c4ba0beU,
  0x3b1b9970bd0abebdU, 0xbb2a3276bcf866f6U, 0x3a7f875dbc455c6eU, 0xba8c744c3902dd30U,
  0x39a907b7391d49caU, 0x3dc38e08bccb9e55U, 0xbd5ce905be174155U, 0x37e2db6d3ddf05c4U,
  0x3aae51c23d0a3c88U, 0xbaf45ce7bd25fa79U, 0x3a811c0dbca8280bU, 0xba044b0cbb2c30d7U,
  0x39df605ebb028e40U, 0x3c7d3c7d3ccb0ee0U, 0x3c9b00adbe42bec6U, 0xba12fd843de84442U,
  0x3a498bfcbd912ee7U, 0x3913fac7bd4b3193U, 0xbb32bc55bc7bd144U, 0xba8de8943c0eee98U,
  0xb96af2e6bb5c2060U, 0xbc77fa8dbd0e8c52U, 0x3d771b56bd3c7806U, 0x3b92b2d7bc1cab1dU,
  0x39826a6ebd4f0a93U, 0x3a048c17bd4881f2U, 0xbb1d8ad5bc953efcU, 0xba14fd5e3bc4c79cU,
  0xb9ceaaa7bbeeea40U, 0x3d64a324bd069fb4U, 0x3d6c45adbd78dd0fU, 0x3b5dd0c2bcf9ddfbU,
  0xba0fb424bd698271U, 0x3a71ab61bcfa9853U, 0xbb03b7adbbb8a881U, 0xb8674d373b2fab67U,
  0xb987140bbb182394U, 0x3ca138c63cab4993U, 0xbd8c82cabe076e27U, 0x3b1c82b63dbce548U,
  0xbabd434dbc09f86eU, 0x3abd579fbd1de9f8U, 0xbaf020d93be57429U, 0x3989a14d3a02b6bbU,
  0xb8d5a2c8bb99c765U, 0x3de3f7e0bcb915d6U, 0xbd685d76be3c2decU, 0x3af06c7a3db80faaU,
  0xb706d47a3d166d5aU, 0x392c88ccbda1aedcU, 0xba25fb843caba163U, 0x398688003bc4f0fbU,
  0xb83f8246baad6dc0U, 0x3d967c19bd476b42U, 0xbc95f1e53e23a36eU, 0x3ab493f33d478696U,
  0x3a3043d9bb3ec250U, 0xb9efdb98bd9b35d7U, 0xb9c647f13d02dee3U, 0x3907b1323b924f29U,
  0xb7eaabc63acb5ee2U, 0x3df4dd07bcb68546U, 0xbd689f213ba31714U, 0x3a8b8ac63c07b983U,
  0x39f011ebbca6a057U, 0xb949876cbdae508aU, 0xba81bfebbcb04800U, 0x39b76e923b44195cU,
  0xb78203fbba7ee5adU, 0xbb845d2cbccfad5cU, 0xbd8ad2aabd8b1169U, 0x3acc2ab03c2f702fU,
  0x3a8d4656bd65bea1U, 0xba4397eebdaf4e06U, 0xba69f604bccae947U, 0xb80014f63b9d3f68U,
  0x3710b7483aae7559U, 0xbd80344ebd0f845fU, 0xbd1546e3bc9f5640U, 0x3ae9ab29bce311e3U,
  0xba5c3cd33d131d2bU, 0x3a82b065bd2c5346U, 0xbabbb6913b02d6a9U, 0x3a3050023bb30646U,
  0xb881c656ba2d3f72U, 0xbc09c1173d05a759U, 0xbd88caba3e227be6U, 0x3b03f3c43d27dcdeU,
  0xb9505d4cbb55e63eU, 0x39da9bc2bc9c4129U, 0xba9cf1a23ce7a351U, 0x3a145f9c3b810b7eU,
  0xb83d3313ba726972U, 0x3dbf1a9b3d3e7a30U, 0xbda0557b3ba51b53U, 0x3ae31fcf3bcabfa9U,
  0xb9da1dd93c01ad9aU, 0x3a329f34bcbc3b6aU, 0xbaee90473c0f0999U, 0x3a51d40a3b1dcbb0U,
  0xb8099ac0b92d3e8aU, 0xbcc7b9403d2354c3U, 0xbdb217cbbd846aeeU, 0x3b1273c93c58ccc7U,
  0x3983ca673ccc665eU, 0x38b8207c3b2486f3U, 0xbae286973bd95122U, 0x39cc97143b8aadeeU,
  0xb61812513aea2207U, 0xbdbc3b7d3d0448abU, 0xbd79246bbcc3c379U, 0x3b233d993cb39344U,
  0xbb1bfd60bcf24011U, 0x3b295aa53d692ab3U, 0xbb57844fbc44f1bbU, 0x3ab79b1d3b5276baU,
  0xb8b16f93b9c0ab69U, 0x3c38b4a93d8e2a5fU, 0xbda612cf3de418f1U, 0x3b5bd6aa3d13e1d6U,
  0xbaf0acd0bd2815b3U, 0x3b09e82b3d459252U, 0xbb48788d3a4f36d6U, 0x3aa64baa3ae457ebU,
  0xb8885901b92769ecU, 0x3d4cb29f3d8ef984U, 0xbd8ea6dbbcaf298fU, 0x3b4a3e303b81f44fU,
  0xbb00a632bcd370e8U, 0x3b146d8d3d1dc10bU, 0xbb6a15a33c2ef7d3U, 0x3abc559639fd1f56U,
  0xb836f342b9e91e5fU, 0xbc75837a3d8f1180U, 0xbd980116bd86edbaU, 0x3b67e5e3bc78a1b4U,
  0xbad0808c3c2da41eU, 0x3b00ff3e3aec22d0U, 0xbb76cac23c3f94c8U, 0x3a9483013b125c9fU,
  0xb7bb51b3badbbbd6U, 0xbd99ad8d3c8e4b5fU, 0xbd58315fbc96efc1U, 0x3b84107d3bbdedc5U,
  0xbb16aa8abd38a878U, 0x3b23f5753cae82ccU, 0xbb61d6fa3ba03c80U, 0x3aa329363b5134c5U,
  0xb89b970ab92d989eU, 0x3ce029813d6fe681U, 0xbdab5d323dcf8ee4U, 0x3b6b93b3bcbf909eU,
  0xbaf250efbd535b15U, 0x3b0a3df43cd7e0feU, 0xbb5587bc3ca8d226U, 0x3a8f3a043ad77cdbU,
  0xb82553c7b91e7eccU, 0x3d4dea0d3d81f91aU, 0xbdb92841bbd459f2U, 0x3b5ad850bbbba19cU,
  0xbb05dc98bd32e760U, 0x3b18f6b5bbaf40b3U, 0xbb794f2b3b2a0426U, 0x3aa8919239d7b22aU,
  0xb7e63c96bb776f00U, 0x3c19841e3d5967b7U, 0xbdbbfa4ebd722d03U, 0x3b79aa8cbd255b3dU,
  0xbae44d91bcb5c438U, 0x3b0a4c613b894b31U, 0xbb83ff81badd19abU, 0x3a82460d3b0c3f11U,
  0xb6ff2ff4bba30978U, 0xbdc696443cd1c705U, 0xbd723b77bb8e84adU, 0x3b8cff99bd1f562eU,
  0x3ae852853cb8198dU, 0xba990207bcd0e625U, 0xba0e5b4bbc12576cU, 0xba9080cd3c5933f9U,
  0xb9836e3dbb1f00beU, 0x3d6d742cbd2125b0U, 0xbd8db7043de8fe3aU, 0x3b40be043df3f70fU,
  0x3a8576133c2f2cd3U, 0xb9cfd6d1bc83c971U, 0xba613cb83bfcec50U, 0xba4644993c1ee095U,
  0xb9787515bb427002U, 0x3e32764bbc889a8fU, 0xbd8ccd7ebd9f06d9U, 0x3b15bebc3dbededcU,
  0xb9f3b2853d8ead2aU, 0x3a929412bda7cae0U, 0xbb02ec1cbc92af0eU, 0xb713237c3bf7f03fU,
  0xb98a7168399e35dcU, 0xbd832183bcadf670U, 0xbace1ea8bddef446U, 0x3b3308623d377400U,
  0x3a67279e3d41372fU, 0xba004038bd53b795U, 0xb8869afebcaeecd2U, 0xba3ba7143bd2d466U,
  0xb92c9dc03a66d544U, 0xbdaaede1bb0e59ebU, 0x3da1b2c53dc133b5U, 0x3a5b24393dd9bddbU,
  0x3b2a62c8bd5cd994U, 0xbb0f63da3d82cb3eU, 0x3a13b6b9bd0b8ed5U, 0xbad084a63c689a1cU,
  0xb8ef9eacbb1ee8cdU, 0x3d9bd79abc45f50dU, 0xbd88f4833d977a03U, 0x3b0e1da53d84cc89U,
  0x3af1c495bcc29c3bU, 0xbab4e93c3af2c413U, 0x394c5b5cbb42e26dU, 0xbaa76d393c2d33d5U,
  0xb892625cbaf0b881U, 0x3dc28e053c80ed3cU, 0xbd2c0527bdc335c1U, 0x3ac4a52a3d4037bfU,
  0x39b698c03cac5105U, 0x3916bc2c3c9af80fU, 0xba80e051bd1c5de2U, 0xba03a0b93c0bb9efU,
  0xb8d38e78b85e5ba6U, 0xbdcde5ea3cd703d6U, 0xbc953762bdd1dbc8U, 0x3b023261bcb9be37U,
  0x3ae31110bc33a255U, 0xbac00ae73d08ad82U, 0x3a64c7d0bcf86586U, 0xba99984f3bf389faU,
  0xb71ea2113b031059U, 0xbd9a1fcbbb21e813U, 0x3cc856ce3dced510U, 0x3964be623d26849aU,
  0x3b1bd37cbde2178aU, 0xbafb67a63c65b426U, 0x3a1e1822bca57bd9U, 0xbae003493c8394efU,
  0xb94abfa0bb28d297U, 0x3cbfb2f0bcda02e1U, 0xbd639d143d7a1408U, 0x3b1b56a7bd48930fU,
  0x3aec4253bdb2c214U, 0xbaa3898a3d161ae2U, 0x395d9cc03d476ba2U, 0xbab2a2a93c4abc0aU,
  0xb91bcd8ebb195961U, 0x3daa89ae3d09cddaU, 0xbd181094bd749e2fU, 0x3adc08a1bc949605U,
  0x399d7ee2bd72bf49U, 0x398e1c903d790760U, 0xba79f0cfbc02b1a8U, 0xba1cbd173c291bbcU,
  0xb938877ebb77fc5bU, 0xbd575272ba934c7bU, 0xbd42e6d9bdbaa730U, 0x3b0c1507bd263e8dU,
  0x3ac19ed4bddf4f9aU, 0xba8d5b57bc9cd00eU, 0x3a2799ceb9bda47eU, 0xbaa60f443c13309eU,
  0xb88ccae639f49f0aU, 0xbdecd19abd223ee2U, 0xbd65c5153d843fabU, 0x3a149d8abd645613U,
  0x3a44452cbd309dd6U, 0xb884e1fe3b2b9ec5U, 0xba34e5753d11b13cU, 0xba9dc0023c8c815dU,
  0xba02bdb1bb67602aU, 0x3d0fcde6bb2b50aeU, 0xbd402a273dcaad29U, 0x3b5cac29bd4d3f5bU,
  0x397fe9b3bd0592c3U, 0x3a1bf0073bbee325U, 0xba906ab93d2ec7b1U, 0xba4bddfa3c587e79U,
  0xb9fb905dba3ca534U, 0x3dbfb7adbcf507b6U, 0xbd1031d1bc3141f0U, 0x3b2c9de2bc609354U,
  0xbaa30adbbcda1ae7U, 0x3b092e0a3c5d7f94U, 0xbb123c583d3ddf43U, 0xb697bb003c35e99eU,
  0xba01bf0bbc65f556U, 0xbc29122dbcea4e28U, 0xbd8f8065bd915cbeU, 0x3b4889a8bd054d75U,
  0xb8a96cfcbdaaf73bU, 0x3a3baa3f3b50a579U, 0xba4606233d5323c6U, 0xba3f85ed3c2808adU,
  0xb9b4a6d8bb402725U, 0xbdb7ddf1bbced9d3U, 0xbda2b0b03cd14de2U, 0x3ae54427bd8fa4dcU,
  0xbb5b915d3d33fb92U, 0x3b149c963d60a110U, 0x3a3bf28abd50417aU, 0x3b5e555abc2f7c4cU,
  0x3a27a2243c132312U, 0xbd9fbf943d8be474U, 0xbe3b206f3cac918cU, 0xbb5d6ee4bca3f828U,
  0xbb8973bdbd91241dU, 0x3b3a124e3e0f6c6bU, 0x3a768f60bcaa67ddU, 0x3b47aed6bc2c2da2U,
  0x39dff30f3c901d27U, 0xbbe5c4d13d7a94c5U, 0xbe7c09e4bd826052U, 0xbb80117e3dc2ff55U,
  0xbbac3275bbfdb3d2U, 0x3b7ee8233dcc996aU, 0x3a23ba1c3bad43a6U, 0x3b6c496cbc40c551U,
  0x3956c4323b1e6b0bU, 0x3d2a0ccf3d87738fU, 0xbe158a07bd96463cU, 0xbb8c90c63dd719aaU,
  0xbbbd593c3d969ef1U, 0x3b969036ba8c3f51U, 0xba11d6ebbd0fae0dU, 0x3b75085cbc22da38U,
  0xb7b9e5c13bc5c9c7U, 0x3c15be7d3d3258c3U, 0x3d147a6fbd4bcfa3U, 0xbb3dd6d73dd442bdU,
  0xbb3a45bebdfee0e8U, 0x3ac9fc363dfd214dU, 0x3ad93245bcdf62dcU, 0x3b513596bc2218b6U,
  0x3a2c36a83c0d2fafU, 0xbd33143cbc1a6e6eU, 0xbe19b5ccbda1fa95U, 0xbb854f44bc5fdaaaU,
  0xbb7a4d3fbe482d34U, 0x3b1176fa3e4ad2c1U, 0x3af60d7c3c1ae1faU, 0x3b3345e0bc20ccacU,
  0x39dd67e03ba0b6a4U, 0xbcb725a53b800f18U, 0xbdc9e90dbdd04954U, 0xbb9ad200bbf78efdU,
  0xbb977beabd9b052bU, 0x3b4cbc9a3dc69071U, 0x3ab241b93c930999U, 0x3b4a2036bc28f69aU,
  0x396cfe11bc6a8173U, 0x3cc23fc6bbe5e8d9U, 0xbcaf42fabd317171U, 0xbb996cc1bb59135dU,
  0xbbadc6553cc6a8dbU, 0x3b83188bbd1ac7d2U, 0xb7e5ec50bcbed6a5U, 0x3b523b2dbc0d3d7dU,
  0xb7224fd4badffef7U, 0xbc448afe3c27cb6fU, 0x3c953ef4bcc8b09eU, 0xbb4d667d3a358c67U,
  0xbb41d27dbe02b565U, 0x3ad7b5053e425160U, 0x3ad793c0bc02cdd9U, 0x3b4ff31abc225468U,
  0x3a297d853aff8d65U, 0xbd2544d5bcc4bd33U, 0xbd817740bc7d057dU, 0xbb856261bd20afa6U,
  0xbb80bba6be10814dU, 0x3b17fee03e360122U, 0x3af4e2aebcb6c1a0U, 0x3b33cbefbc211e77U,
  0x39d7be24bc92d01cU, 0x3ca1260d3be3eafeU, 0x3ded2be33b609ca3U, 0xbb9af74dbd8bf254U,
  0xbb9b2b67bd139afaU, 0x3b537ac23df881dfU, 0x3ab179b1bcaebf73U, 0x3b49c04fbc296e44U,
  0x395ecb69bc8fcecdU, 0x3d82c1dcbc6ee80eU, 0x3e0609ea3d6b01e2U, 0xbb99b0a63bfa45f9U,
  0xbbb105d33cc2dfc0U, 0x3b86145d3dc51d1dU, 0xb7ebc6f4bd5d6611U, 0x3b509d9ebc0e249eU,
  0xb7dd281e3c6467beU, 0x3da2331cbc20f8ecU, 0xbc1707673c1eafeeU, 0xbb4e5f1f3d63f70aU,
  0xbb3e47f7bda86918U, 0x3ad6a924bd3eee60U, 0x3ac3ad623d40da08U, 0x3b4a3d1cbc1ac0cfU,
  0x3a285f2c3929deceU, 0xbd8507e0bc563b3bU, 0x3d2e49093d2577ffU, 0xbb78daedbe5368deU,
  0xbb7dbda2bd37eab1U, 0x3b177a613d9d3a48U, 0x3ae17cf93c8f19e2U, 0x3b2db65bbc1960d0U,
  0x39d4fd28bcc3d33dU, 0xbda85afc3d2b426aU, 0x3e94dbaf3db8ac1aU, 0xbb91f06abe77c356U,
  0xbb993e2cbcaa9065U, 0x3b52da513c34343fU, 0x3a9f28bd3d06380cU, 0x3b41bafdbc21c8ccU,
  0x39586bc0baaedb3eU, 0xbd1020d4bc439741U, 0x3e683da73e4326d3U, 0xbb90dbf1be2dbe14U,
  0xbbaea207bac9a988U, 0x3b8563173ccb9324U, 0xb91eb1863d0f5a4bU, 0x3b4603a3bc0777a3U,
  0xb809e10e3c914e8dU, 0x3d3adca03c59abc6U, 0x3ca625b23de932c8U, 0xbb3e814dbde84e4cU,
  0x3b2dcaa03da4d0bcU, 0xb9a00fb83d839e35U, 0xbbef8aadbc55280dU, 0xbb7074153cf15378U,
  0xb9b2a4fcbc214755U, 0xbd93e63c3de64139U, 0xbc67ed893b2ba011U, 0x3c62ceaebdb381ceU,
  0x3b7f634c3d0177e2U, 0xba639ff53e3150a6U, 0xbc167f85bcede6f2U, 0xbb96da623d117d49U,
  0xb951b990bc63521cU, 0xbda906623e1981adU, 0xbd14e6953cdb59a3U, 0x3c8c8c5e3d6fb31cU,
  0x3b28197d3d268ec6U, 0x38f0117e3e802ebcU, 0xbc0fab55bc9995f4U, 0xbb78a92b3d025e2fU,
  0xb91b00ebbb25756fU, 0xbbe331e33e250a14U, 0xbe07dc933b79c23bU, 0x3c812b503c80d1abU,
  0x3b5cd337bb0f548cU, 0xb9e2cf183e6d46b0U, 0xbc131bbfbd181764U, 0xbb81bec73d0ed6c0U,
  0xb9a2f0623c0b32e3U, 0xbcac05483daa9570U, 0xbe6a46b9bd6c7b17U, 0x3c86cb7f3df59dfeU,
  0xbb5fd627be198c99U, 0x3b7f5f4cbd301e16U, 0xbb8537e63bd01c4eU, 0x3a6f0e1a3c338086U,
  0xba2f1817bb973b4aU, 0xbccafe503bf8b4f7U, 0xbdc84153be062ebcU, 0x3bb035d1be129a47U,
  0xbb01e40abe301080U, 0x3b4c4d63bd2342caU, 0xbbc39810bd26f8e4U, 0xb88a7d363c8b78caU,
  0xba183219bc09d59bU, 0xbcc9ad2abca1b854U, 0xbd96ffa3bd9f241eU, 0x3c1313c53c15cb48U,
  0xbb673843be342a8bU, 0x3b9011d83d043d87U, 0xbbc5e6a0bbd419d8U, 0x3a44fa913c6089efU,
  0xba148d6ebc90b388U, 0x3d01ff93bcfa6464U, 0xbd853034bd26b423U, 0x3c06657bbe0e6ad3U,
  0xbb3593dcbdfe8621U, 0x3b84d9353de52d87U, 0xbbe52f483d27fe7dU, 0x3a1a1c593c94e678U,
  0xba5bb62abb95f6beU, 0x3d2e6b603c26a911U, 0xbd8ddf623c89bec7U, 0x3c22f5fc3afa2044U,
  0xbaa493683d194876U, 0x3acf50123e0a82bbU, 0xbb4f4e263b2ebd40U, 0x38ce2ca53c2e23d1U,
  0xb9abb3f1bbc513a2U, 0xbbe7bde23c46c495U, 0xbe1d08e8be22d245U, 0x3baac8a43b79fd53U,
  0xb90e69f93b95fa16U, 0x3a99a1b13bc6aad7U, 0xbbb55e923c02669cU, 0xba401e103c8ca5aeU,
  0xb988443ebbca44e2U, 0xbdd508233aecb816U, 0xbdc804e6bd92d45cU, 0x3c1848283da5de24U,
  0xbb05b299bbf1d9d3U, 0x3b394263be37979fU, 0xbbc3eda5bb64b0f7U, 0x395e24ae3c69f0c2U,
  0xb99317893b3ddbf6U, 0xbd3146d8bc57f58fU, 0x3c17fefd3cd3af6cU, 0x3c11ccedbd8d32f7U,
  0xbae2baf2bd636a2aU, 0x3b40e2fdbe3787d8U, 0xbbef0d843c4656a7U, 0x395f74a63c999b12U,
  0xba1da7903b16f96aU, 0xbdba4c9ebc22001aU, 0x3d60c2ab3e173ba9U, 0x3c336bb3be0bc7f6U,
  0x3a5bab2c3e44e1b8U, 0xbaeb9cf6bd363e87U, 0x3b38ca813beb7a9aU, 0x39fc1613ba25417cU,
  0x38820a23bb73c574U, 0x3e19a479bd1ae235U, 0xbd009d77bbb7d511U, 0xbb32f7be3dea0832U,
  0x3b02372f3e756257U, 0xbb122acabd78a7f8U, 0x39e430b9bb069950U, 0xb8ed73de3bc06a68U,
  0x388ef0d9bb65867eU, 0x3befd5e6bd5e16bfU, 0xbe240a5e3d673ae8U, 0x3a9ac58b3e3eb216U,
  0xb81a51a23e6b42d7U, 0xba09feecbcf578b6U, 0x3828072abbcbd9e1U, 0x3a5a8a0f3b28788cU,
  0x388bbb363c3160e6U, 0x3cb2394fbe0806a9U, 0xbe3e15cd3e200a72U, 0x3a2c6cbf3e214b46U,
  0x38918c923d76e8c9U, 0xb98c32aabcd275bbU, 0xbaa73c9fbc165792U, 0x3a7aada03bde2da4U,
  0xb9881a76bb5834d3U, 0x3d4e1a7abdff2f6eU, 0xbdd372a43e133622U, 0x3b346861bc071e67U,
  0xbbac2a5e3dcc0e22U, 0x3bd281003cb7be46U, 0xbba495c03d095f0cU, 0x3b64e80939ba6665U,
  0xbacaec89bb83263eU, 0x3d11ab3f3d9ed18aU, 0xbd8b89ba3da231d8U, 0x3b9b64813e121482U,
  0xbba915213e6f1ae2U, 0x3bc3d6a0bc4313c2U, 0xbb8240b3bd7acb95U, 0x3b475bb03a89e23aU,
  0xbabe52083ca343d8U, 0x3ddb9f133b44064eU, 0x3dde397a3d5afd54U, 0x3b862624bd30a128U,
  0xbbcb1d843dad8746U, 0x3be46d043d9241a8U, 0xbbafb69fbd520a3dU, 0x3b442bf33b509d0aU,
  0xbac627383d3ef855U, 0xbd30c8733d312dbeU, 0xbbc73ab3bdc07540U, 0x3bb2ec10bd3f077bU,
  0xbc1cff0fbdbb0fe1U, 0x3c1744183d589eb0U, 0xbbb74fe6bbc1d93cU, 0x3b89ff2b3a01e28cU,
  0xbaa0ca5cbccfcacaU, 0xbb86247b3d91b1c0U, 0xbe41f8b4bc17a628U, 0x3b9b972c3bd84c51U,
  0xbaf88aa93dfa166fU, 0x3b104651be0275e4U, 0xbac1fc5e3d8763c9U, 0xba3cbf123bc73f56U,
  0xb9d61eafbcb03b25U, 0xbc62acf4bc75b4cbU, 0xbd4065c0bd6530f3U, 0x3b0dde7abc993a41U,
  0xbad9c4df3e553c90U, 0x3ad2142bbda57e9eU, 0xb9d16f54bd100a35U, 0xba8cc7aa3be0aa10U,
  0xb9a8af7d3cdc083fU, 0x3cfd6b21bd6b2edaU, 0x3d794cc43cc32a01U, 0x3ac537c43cee5237U,
  0x3a8e5e893def0390U, 0xba413fbbbc89c6d5U, 0x39ede12fbd58eba7U, 0xba9be1d93c08ccb6U,
  0xb9d055413d16d0f6U, 0xbcbddf5bbb996e4aU, 0xbc8c4bcf3d567105U, 0x3af70115bd44f85dU,
  0xbaa792cdbdac0775U, 0x3a78e47cbbd37ff4U, 0x39a84da83c595530U, 0x3a0667563b4fb2d7U,
  0xb9136db5bca551e7U, 0xbd22faab3d01c13eU, 0xbe039fff3e16bb76U, 0x3a55a62bbd911adfU,
  0x3a5cda7b3e08d7d3U, 0xba817e2cbdabc3adU, 0x3b25b748bd0f249eU, 0xbad4693c3bf6ef0cU,
  0x37eda40abca54fb6U, 0xbdd0e2693bba78a0U, 0xbe52cf04bdfb6575U, 0xbb0b620f3c2f7fdcU,
  0x3ab102a13e2a199eU, 0xbadc7a8ebd8c7d1bU, 0x3b566e1fbd427056U, 0xbb0bdada3c24c9efU,
  0x38adf6e63c3116deU, 0xbc75f927bc9af6adU, 0xbdf7b09b3cf8de5bU, 0xbb03b34e3d49de8eU,
  0x3b6d9a0d3dd8dab4U, 0xbb5ce8ac3cac8c95U, 0x3b6b2772bd6dab29U, 0xbb07bdc93c36e6c6U,
  0xb602e262bbed7698U, 0xba97364d3d843019U, 0xbe3d43e43db9a48fU, 0xba9264a9bc102711U,
  0xb99c67fabbd0d45cU, 0x3974e8bc3d386adeU, 0x3a9b0b46b8f27e0aU, 0x398d8cfc3b648533U,
  0x38e67992bc1bbc35U, 0xbc71c21d3d011e7fU, 0xbe1babbb3e37d61aU, 0xba1967193cfe83dbU,
  0x3a9f80763db99ca0U, 0xb9ea5e9bbc9f7e58U, 0x3a6b16fb3d626fa7U, 0xba83ffa73c4f05c6U,
  0xba1ee623bbcef2c6U, 0xbe3552123d8a87eeU, 0xbe5f58eabe285017U, 0x39f42ca8bad9bf4fU,
  0x3a84e9ca3e129199U, 0xb9a2089ebe72283eU, 0x3a0f40473d4eda3aU, 0xbab0519f3c841be9U,
  0xba1d76febc1afd7dU, 0xbe2477453d59ada0U, 0xbe944b093d057c78U, 0x3adf4b503cffaaa4U,
  0x3b0b7f763d8f6896U, 0xba7ac689be2c79e4U, 0xb805b3d1bceb4e22U, 0xbaad20e33c88bd16U,
  0xba0290dfbc9effd9U, 0xbcbd29b7bcfbfe9aU, 0xbe2503cb3de12fa3U, 0x3b4535dcbd2e8f73U,
  0xbb01254fbdbf2a37U, 0x3b38ab563e232dd9U, 0xbb1c270bbd31abc5U, 0x3a6560323bfe91aeU,
  0xb99a0b89bb857692U, 0xba9f02d33b1fda73U, 0xbe3220c73db06215U, 0x3b4a29e7bd8af57bU,
  0xbb97779cbda252b7U, 0x3b8a0c243e6476f4U, 0xbb3e72f03d66d503U, 0x3b18e31abc0fd05aU,
  0xb93d1dc4bc16d137U, 0x3d8cf6223d93c009U, 0xbb4614fa3d5cb2cdU, 0x3b3a4880bde37140U,
  0xbba621d5bd8a55e9U, 0x3b98987f3dcef4e7U, 0xbb518a583d9cf4a7U, 0x3b24ef1ebc1cfab4U,
  0xb97d2da8bd1d7fa0U, 0x3d02b0343d5d7360U, 0x3d41e7babdf0dba8U, 0x3b39d979bdd340e4U,
  0xbb8824363d832429U, 0x3b6bc6ea3d76af95U, 0xbae3c52f3bf3df58U, 0x3b243f2fbc052106U,
  0xb8ded2d63baf0ea2U, 0xbd600d8b3cfdbe85U, 0xbe34d546bde44f8dU, 0x3a936fe1bbd66fcbU,
  0xbb8f12e43e1b0b14U, 0x3b88a84fbccd69fdU, 0xbb3bad793d59737fU, 0x3b1444fabb7b5495U,
  0xb98cba4c3c3930caU, 0xbd8bab183d5b2ff9U, 0xbda410b93d4f655cU, 0x3b3d1796bd3fc8caU,
  0x3a7681e53e14a903U, 0xba99b325bdcf457fU, 0x39dbdb7fbd1ac115U, 0xb9947b923b7ff497U,
  0x39742490bb07de2fU, 0xbe099f5a3db00b4aU, 0x3e88d2393e38a81fU, 0x3ad1a062bd0818f5U,
  0x39c0a1d83daeea1bU, 0xba1f31a6bd0432afU, 0x394453a0bc07128fU, 0xb8a67ba93b38dc01U,
  0x38d702aebd456a8cU, 0x3c77584a3d9b269aU, 0x3e80017e3e168e7fU, 0x3ab481ddbdd1638bU,
  0x3b09fb06bc4fd2aeU, 0xbb13062abc7ebe29U, 0x3a6cbc97bc65861fU, 0x3854dba03b33b1e0U,
  0x398ee65d3c9cd47bU, 0x3c90d9ba3beebbdeU, 0xbdb31b983e637e1dU, 0x3a51211ebd73eafaU,
  0x3a58959abd712dc6U, 0xba2576203c27fcbbU, 0xba7c460b3d832e99U, 0x39b54a393bae6683U,
  0x386c6d343cce9380U, 0x3d421a08bd06cc0eU, 0xbdef67283e643586U, 0x3b3a7c59be2a71b6U,
  0x3b0f24113dc31d0cU, 0xbb42c36cbc9b783dU, 0x3b9754a4bda310d7U, 0xbab1a9e8ba15fed4U,
  0x39eaa343bb834db6U, 0x3caf14c03d38772aU, 0x3deac6c73d6405ebU, 0xbb7ae9453e2736b4U,
  0x3aed2e953dcb1454U, 0xbb2ddc89bcb442c1U, 0x3b9a1a7abd8daf97U, 0xbaa683f6bb03f8d4U,
  0x39ba6f553c40ce38U, 0xbc253d683d97e5b9U, 0x3de2b3703cf00673U, 0xbb8dbe5b3cdadad4U,
  0x3b8d0c98bcae104dU, 0xbb9f82993d970a63U, 0x3bc7b6d2bd15e7e2U, 0xba71f554bb9d72beU,
  0x3a0f11203c563871U, 0xbcc604863dc44f80U, 0xbe1ac3573cea8c2fU, 0xbbb351a23d708599U,
  0x3b3f7ab4bda67140U, 0xbb585e093e5dd39dU, 0x3b8f23babd64fb46U, 0xb9fb778cbb599315U,
  0x39d161a63c729d2bU, 0xbc38444c3e07ca4fU, 0xbdc9a15c3dcbe5feU, 0xbb76acc9bdade2f4U,
  0x3b21cd823db2765aU, 0xbb42b2b4bd2b4534U, 0x3b81a3763d261bb3U, 0xbac5ce723af86c3fU,
  0x397f0106bc460fd4U, 0x3c103663bd48ffedU, 0xbe1656833d0f0facU, 0xbb36036c3e2aede8U,
  0x3b07c6b53e108bbbU, 0xbb28b5e8bb9a8f1bU, 0x3b7d593b3c224b39U, 0xbaa5c85e3a5727d7U,
  0x391159263d575e2fU, 0xbca7c4733b3e97caU, 0xbd784326bc6163c5U, 0xbb4718103d88b165U,
  0x3b829119bd4f2b52U, 0xbb8b35793df5b9ffU, 0x3ba586c43c8ffa3aU, 0xba757edebb31aa82U,
  0x39a8b1973ba7f09bU, 0xbd53d5a83db0da7eU, 0xbddad165bdb05d24U, 0xbb8e63283cfb755cU,
  0x3b374ebdbd3b299eU, 0xbb3a04413d707361U, 0x3b5258c83d02cc2aU, 0xba075167ba90bcfaU,
  0x39616e46bc8baf40U, 0x3ca8e59f3c741c03U, 0x3c1e17ebbcb4e3bfU, 0xbb1e6089be0d2da6U,
  0xbb012453bdc3f6e5U, 0x3b0c16063b7a4021U, 0xb9d92fdd3dc21bd9U, 0xb956e76ebb7515a5U,
  0xb95008513ab47565U, 0xbe37d742bddae3c6U, 0xbd1205debe7e89adU, 0xba9197fabe49de15U,
  0xba2199a9bd96fed4U, 0x3a50cc74bd104982U, 0x3950cfbd3e20e024U, 0xba5deb1cbae9a6b1U,
  0xb832f4233cee727fU, 0xbd2bc8a63d5662e5U, 0xbda9c38cbe17dbc6U, 0xba5dd12ebe437b0bU,
  0xbb1adc02bd897dc9U, 0x3b30ec45bc3beca4U, 0xbb0b0c433dfe6080U, 0xb8ee3d383ac6b40aU,
  0xb9a650cc3c2e7d06U, 0xbdc396993e1a6fb4U, 0xbcc6a344bc80d6a7U, 0x3aea9eeabe14db1aU,
  0x3a75ee97bdb2ba81U, 0xba816a463cc6ebc2U, 0x393eaab03d72af0cU, 0xba0e1efe3945c52cU,
  0x399a24043c55fcd9U, 0x3d2422583d0dbfb2U, 0xbdb13d2d3d719e7aU, 0x3954fd3abbb00673U,
  0xbaed6bd73e5309d5U, 0x3ad496e23dd304daU, 0xbaf86f943da998cdU, 0xb9c135583b933c93U,
  0xb8b96e72b9d53783U, 0xbe83893cbd1f45a5U, 0x3d8d6891be40b119U, 0x3b21f8563dbd6ef6U,
  0xb9d82a303e22bfa6U, 0x3992e3f63db9881fU, 0xbab5fc38bc63563eU, 0xba14f9553bd9edfbU,
  0x382929873ce5fdf1U, 0xbe29da363d759ce0U, 0xbcb2ae363de5b0bcU, 0x3b3449823d420dd7U,
  0xbae3ee663da7a542U, 0x3ae816823dd8faf5U, 0xbb571380bd8dba12U, 0x39e027bb3c1b8135U,
  0xb948aadfbb9b3220U, 0xbdddd4ac3d1fa02fU, 0xbd3a242a3e94d15eU, 0x3ba2e5b2bc2470c0U,
  0x3b232e70bd9b7881U, 0xbb2dbd333dcc0e94U, 0xb9bb6f5bbc84af93U, 0xba9313c13c117a5cU,
  0x39ec00d03c172731U, 0x3d8eb29abd59dabbU, 0xbd2fa77e3e83ecceU, 0x3b4303963cd703c5U,
  0xbaccd0563dbd6cccU, 0x3ac180703cb3f57aU, 0xbaeb0b603d25d5e4U, 0xba6a105c3ba4323cU,
  0xb8d76b8dbb1ec355U, 0xbe1c4da4bc2385ffU, 0x3d76717cbe0a3d3eU, 0x3b2840b73da86009U,
  0xb9263c8a3d51f782U, 0x390e54023d9624bfU, 0xbaaa984abd40514bU, 0xba8448ff3bea3e65U,
  0x37d905a43ccd75c4U, 0xbd64fc313dddac1dU, 0xbd1594053c73ab6aU, 0x3b3c0ec83ca7cc08U,
  0xbacada333c59a95eU, 0x3adda6f43b8c94c4U, 0xbb566d52bde77a2dU, 0x3970b7023c24f37eU,
  0xb960a7fdbca247d1U, 0xbd4f6eda3d36ed70U, 0xbd0461153e0fc871U, 0x3ba9cfefbd502f16U,
  0x3b21410cbdb7d286U, 0xbb25ad38ba47bbc8U, 0xb9cd8c0cbdcd2a5eU, 0xbaa3274f3c164512U,
  0x39d6d706bc17c0b7U, 0x3d220bbf3caf11eaU, 0x3d5010c43e0b73e3U, 0x3b4c7dbe3c2ed459U,
  0xba5685c6bd094f06U, 0x3a7c7afc3dce100bU, 0xbafa2a363d2ff7e0U, 0xba73bcef3be44232U,
  0xb934baf0bc484a82U, 0xbc1367433d4b8daaU, 0x3d5e1fdbbafc7b45U, 0x3b52d23f3c72c75aU,
  0x3a5a0d4abbf37694U, 0xba0c1bf63de3c1c6U, 0xbaaa5a33bd6e8965U, 0xbab3ae153c165f0bU,
  0xb83fbd48bcb52d63U, 0x3d7951cb3d26bf1fU, 0x3ac0fab5ba34d475U, 0x3b5d3edebc8a5a6cU,
  0xba136abcbbfdc0f8U, 0x3a64d5d63e169e8bU, 0xbb2b6960bdd810cfU, 0xb9c08c0e3c1db5b0U,
  0xb955c02abc263db0U, 0xbd93ae8b3cdf9c2bU, 0xbc3c0a29bc8c18dfU, 0x3b93844abd0512dcU,
  0x3af980c9bc86883aU, 0xbaf138443d85ba17U, 0xba46e5d1bd92275dU, 0xba9442273c076c43U,
  0x39583d6d3bafad7fU, 0x3d756b84bd118b9bU, 0x3d9c75a83d008d18U, 0x3b4e0b403d12251aU,
  0xbc0fec1abd7b602cU, 0x3c1c94cc3ccd944dU, 0xbc1c1a653d214037U, 0x3b367cd73c5030deU,
  0xba69c7a139a035d9U, 0x3d73048e3c5e1b9aU, 0xbcc9cca73c0940adU, 0x3c208c99bd85c6e5U,
  0xbc131565bc1cab05U, 0x3c25924bbd045aecU, 0xbc3591ce3d3b1ed3U, 0x3b21693c3c87e4c6U,
  0xba74a46dbb866892U, 0x3d56d8933ca2be19U, 0x3e120ac5bd08b6e9U, 0x3c4ae99dbe18d049U,
  0xbc0b2de83bb1580dU, 0x3c2067d7bd4fc3a9U, 0xbc2ea29d3d1fd1aaU, 0x3b2b16c33c637907U,
  0xba853e63bb393014U, 0xbabb809c3d537101U, 0x3d8c8ce1bd223ec7U, 0x3c39f6c1be22ff98U,
  0xbbd1ad0abc791fa8U, 0x3bfdd750bbe8358fU, 0xbc0fd6033d5f69faU, 0x3afdf0353c2f9241U,
  0xba6c94663b04531fU, 0x3d590b643d14fce5U, 0xbdc7828b3c335d5aU, 0x3c17a6b1bd344800U,
  0xbc1060ed3cf76c13U, 0x3c19558abd8e72a2U, 0xbc0d27b23d535122U, 0x3b6aa8d23c115e53U,
  0xba986d51b8816290U, 0x3c8f27403d5c818bU, 0xbc59e659b9e8bd82U, 0x3c016bd5bcd0ecdbU,
  0xbc11d8543e009f2bU, 0x3c20c7f7be1954d1U, 0xbc26e0593d528fd4U, 0x3b511c973c5e9ba0U,
  0xba9e331a3c0f5f58U, 0x3cb9eb543d8ff556U, 0x3debd3113d3ce83bU, 0x3c2e65f3bc3e78afU,
  0xbc095de53da3ea32U, 0x3c1b0ff2bdc3a81fU, 0xbc1df7e43d6ce821U, 0x3b4f60483c290db0U,
  0xbaa35e983c9aed61U, 0xbc25f2a43d8b6864U, 0x3da6a2ce3d9f82b0U, 0x3c1b08e6bcec55c3U,
  0xbbcec304bd293323U, 0x3bf330cabc869a56U, 0xbbfa1d7b3d7dea0dU, 0x3b2069393bd5c7a6U,
  0xba8f490fba29d24fU, 0x3ca3ab833cc63467U, 0xbd04c4623dabbd56U, 0x3bea603f3cfe8b98U,
  0xbc2085053e17a236U, 0x3c28287cbe5248d7U, 0xbc19e3733cec78bcU, 0x3b80d6e03bacd8f9U,
  0xba950161bb825a0eU, 0xbcc995413db48f2dU, 0xbdc09f113c8de809U, 0x3c0a0ab23d0094feU,
  0xbc279c0f3e67937aU, 0x3c34da7fbe89709eU, 0xbc373719bc361d4cU, 0x3b73f6413c268f44U,
  0xba9c66c23ad1403aU, 0x3c50c2523da550b4U, 0xbd8660753d81581eU, 0x3c38d88c3d912d54U,
  0xbc18c38c3dfa2657U, 0x3c28f3d6be6a16d0U, 0xbc2d48e1bbedb905U, 0x3b58fb763bfb3fefU,
  0xba9dcb743c886d4cU, 0x3bdb0e213d7f3b49U, 0xbcfcd76b3d91484fU, 0x3c2a63363cce8a91U,
  0xbbddeeb6bd56faedU, 0x3c007d16be391187U, 0xbc0b97c93b8b6a19U, 0x3b1aa7763ba4612bU,
  0xba85da0a3a8d1694U, 0xbcda0d9f3d306c1bU, 0xbc916f913d0d01cfU, 0x3c09e51b3c4aa33eU,
  0xbbdd4a433d2ede75U, 0x3bdea80dbc4eef14U, 0xbbbb34413d663eb4U, 0x3b3c71b1bb24c853U,
  0xba892105bbdbf9c1U, 0xbc26329c3ddca41cU, 0xbe3c20433c59eb33U, 0x3b98408e3d7b3dc0U,
  0xbbee019f3da60a6aU, 0x3bfd4ab6be0fb57eU, 0xbbfc41153d2fe9bfU, 0x3b278d653ae8bffcU,
  0xba956950bb724472U, 0x3cef62303dcad49eU, 0xbe72e03bbb879251U, 0x3bf425083dcb3364U,
  0xbbd2f0113bd43c47U, 0x3be3d811bdb57a44U, 0xbbe55ecebbbbea0aU, 0x3b1c2d4437cadf1cU,
  0xba8d578f3a80d311U, 0x3d43070e3da7a57cU, 0xbe63e653bd1dd2d7U, 0x3bd8d8b23d939d04U,
  0xbb917a01bdf3fdc9U, 0x3ba1ab193bad099dU, 0xbba85dffbc9e8092U, 0x3af482fabaf3be61U,
  0xba559412bb909c4dU, 0x3cad70243db200f9U, 0xbe033cf3bdd63898U, 0x3b9bf5ac3d3debeaU,
  0x3bae459a3c1148fdU, 0xbbc1a187bda99ac7U, 0x3b81de093c3a6da7U, 0xbb7a65203b0f0812U,
  0x3a13c16ebbbdfd00U, 0x3e142fbdbcd27698U, 0x3b27c2843e79ea72U, 0xbacc413d3e167bd2U,
  0x3b4e1b07bce1cc21U, 0xbb9dcf05bdb60d62U, 0x3bd03e2f3baa9856U, 0xbb0966fdbc3026d4U,
  0x3a1c48cfbbc33fdfU, 0x3d961436bbd4f46dU, 0xbcd5ab833d816a19U, 0xbbe556523cb72a5cU,
  0x3b1cc65fbdadcdbdU, 0xbb866554bd7019e6U, 0x3bbaccf6ba8174e3U, 0xbaf70d42bc3a56a3U,
  0x3a3833323a653751U, 0x3d368daf3c565c59U, 0xbd8e5b5b3b776454U, 0xbbd02b7f3d426ae9U,
  0x3a89cb1fbdb7563dU, 0xbb5ead44bcf00f31U, 0x3bc6b0bbba817bb7U, 0xba3efc16bc8f513fU,
  0x3a751ea03ab09599U, 0x3d33654cbc023c7cU, 0xbd8ff049bd0c776fU, 0xbbf7842c3d8d72a0U,
  0x3bcd70fcbd4fcdd9U, 0xbbe39f7b3c5a151cU, 0x3b9c004dbbe36716U, 0xbb82e0063b03eb76U,
  0x3a686cd8bb93e04bU, 0x3e2277acbbb1d9b1U, 0xbd6680263e50983aU, 0xbb188bdb3d70ebc8U,
  0x3b825512bd68f897U, 0xbbbb31e23d36943bU, 0x3be55e67bc4abe8fU, 0xbb0d43e5bc324f62U,
  0x3a6b334bbab28a27U, 0x3d2d6b043d76aa10U, 0xbd8e10b13cc3dc2eU, 0xbbf9972c3bb2e16aU,
  0x3b4b1451bdb40e88U, 0xbba09b973c788cebU, 0x3bce74a539087b10U, 0xbb000040bc3ed109U,
  0x3a85b9bb38fb8f52U, 0x3cf424dc3d513d87U, 0xbdbabfe4bc4fe737U, 0xbbe457d03a23878fU,
  0x3ae4d7dabd933adaU, 0xbb888fa43d62b77bU, 0x3bd752eb3c3e0f98U, 0xba535675bc91c68fU,
  0x3aa11ba13b5dcab7U, 0x3c3447b53d4bb52dU, 0xbdddc912bd391599U, 0xbc0503c83d55186dU,
  0x3b98ad5dbdd83a14U, 0xbb90ca6c3cbee288U, 0x3ac669c9bcc00cecU, 0xbb561d753bdf67a5U,
  0x39ce04a0bbb26b7bU, 0x3e0dbf973c1b1f36U, 0xbd9e89b33e15ea61U, 0x3a92a2193cc69999U,
  0x3b17fbcdbdcfc26dU, 0xbb4afe733d7f173bU, 0x3b742915bc7e34fdU, 0xbaba8075bbd1edb2U,
  0x39c70157ba9c93aaU, 0x3d856c233ce2d678U, 0xbd8eaff5bc146751U, 0xbb8c7d1d3b2ee3bbU,
  0x3ac87bf4bde8d06fU, 0xbb1bd0493d1fe15fU, 0x3b4afe91bbdac2afU, 0xbaa07e11bbffd44bU,
  0x3a01cc28ba726468U, 0x3d931a1a3d5cf409U, 0xbdc6c546bd3a1993U, 0xbb7a3cf9bc0abbe0U,
  0x3909e9a2bdaffdb6U, 0xbac6661a3d24100aU, 0x3b444c83bc1fe13bU, 0xb892c850bc5d835fU,
  0x3a3715583b70ca5eU, 0x3c801540bb22c190U, 0xbdf14f7ebd8e5e93U, 0xbb94110a3d88a73aU,
  0x3ae0404dbdd1861fU, 0xb9b55ed23cab2c57U, 0xbb59ab783ba3abedU, 0xbb0661463c78a648U,
  0xb9d47eeabbdd7c8cU, 0x3e0d26bbbd66fbccU, 0xbdd8f9eb3dcb7265U, 0x3bcf8cda3d1d5c2eU,
  0xba133bc2bda37403U, 0x3a74afe63ce48d20U, 0xba5ebfb73caf1dcaU, 0xb94763583aca4d5aU,
  0xb9dedf5c3999a10dU, 0x3d2c3d853b840038U, 0xbda9d004bc87ec32U, 0x39f4d11fbc8f480dU,
  0xba89ca40bda9b10dU, 0x3ab12d2d3d13f07cU, 0xba96a8d0bb3f37cfU, 0xb81193a8ba6e2984U,
  0xb99fcc13bb920533U, 0x3dd363f4ba9fd9e2U, 0xbdb19523bd36b873U, 0x39dcaa82bc176ae1U,
  0xbb1abf8dbd466712U, 0x3b0d22323d6f8addU, 0xba9ea590bb17c9eaU, 0x3a7f5482bbd1f5e2U,
  0xb85d792a395b23fcU, 0xbcb237e43b802f5cU, 0xbdc5b16fbd8e5108U, 0xb9a2064a3dafdfd5U,
  0x3a900d17bd43a994U, 0xba61c3253c970eb8U, 0xbab06d883df2662fU, 0xbaaaf7823bfb85c4U,
  0x390dc0a63aed1501U, 0x3d44b660bd183f72U, 0x3d95e53c3dc24cd6U, 0x3b3f0729bdd3002cU,
  0x3a917e983d8518a7U, 0xba6cebb23cad0978U, 0xba94c2193d7cb801U, 0xba7a8c6e3bda8a5dU,
  0x38f3298a3ca2ab58U, 0xbae7c05b3c9096f3U, 0xbcd9c7843cb5c212U, 0x3b2354973b023f77U,
  0x3acd776a3e072d52U, 0xbaa1892d3d00ff1cU, 0xba82eb0cbcd2e6f3U, 0xba7f9d803be79f9dU,
  0x39058ef33b2561e0U, 0x3bee6f83bca4980cU, 0xbd35639cbd23d327U, 0x3b28d9713e2791ebU,
  0x3abb27fa3e2d929bU, 0xba9222a43cb4cce6U, 0xb9b44f0fbc1ebe98U, 0xba8150c83bf589baU,
  0x380e0aa93c58f930U, 0x3d3359473bafd11dU, 0xbd079f0fbd2e2040U, 0x3af3784c3e4b1ff8U,
  0x3b0e5bb43ccd4b7dU, 0xbb026cd4be1485b7U, 0xba29625bbb7e8603U, 0xbac8a3ff3be93b17U,
  0x396d428a3c852694U, 0xbe21c1253d1bc987U, 0x3e56bfbb3dbdb0eeU, 0x3b1f05dfbde34c11U,
  0x3b1187c53bbd47e5U, 0xbb078d82bb4d4d55U, 0xb9dfd017bb558f77U, 0xbaadd63b3bd51b85U,
  0x394eb381bb204387U, 0x3bed9a7cbcad5651U, 0x3cac630f3dfc5973U, 0x3b069aa8bd92bc79U,
  0x3b29b8dabd55a3ebU, 0xbb1751203dcd67c3U, 0xb9c0e9f5bd397a74U, 0xbab154593be1188fU,
  0x395a2fa33c8b4e49U, 0xbd59ea91bc3bd299U, 0xbd1816d73d157136U, 0x3b10094f3b0f2eaaU,
  0x3b1c0d19bc52f5acU, 0xbb0b53ca3df52ebcU, 0x39251a0b3c39ca65U, 0xbabca6ba3bec5d56U,
  0x3903bdde3bff2a9dU, 0x3de50f23bd1f9089U, 0xbcd01f88bb490f6eU, 0x3ad02c623d0a7506U,
  0x3b5cb9023d2a4441U, 0xbb51ac83be316927U, 0x39a94d8bbcf83b95U, 0xbafabfe13bea9995U,
  0x39b063543b9875f1U, 0x3b339572bd927cf8U, 0x3c0a7f213c98b244U, 0x3afc6410bc9eb10eU,
  0x3b624ff1bd061c4bU, 0xbb578f06bd7d471cU, 0x3a0dc0dcbd311e7cU, 0xbb0cfc1d3bd7d3f4U,
  0x399f7ebe3c077422U, 0xbd53ed6dbd0e6d17U, 0xbd7287fdbd73731fU, 0x3acb519cbd8101a0U,
  0x3b7b1421bdd2bbcbU, 0xbb6944303d98c2b3U, 0x3a1251ddbb619b6cU, 0xbb1927653be9ff92U,
  0x39acaa623c987e18U, 0xbba58a22bcaec24eU, 0x3c918287bdc77213U, 0x3aeab782bd999746U,
  0x3b6a69ccbd0e8b35U, 0xbb5a907d3dc360a7U, 0x3a7febe83d669c90U, 0xbb12a8df3bf3b806U,
  0x39893474bbc9baa9U, 0x3d1d0cd537c0483cU, 0x3dafa229bd097108U, 0x3aab9405bd723fc1U,
  0x3b4222d03d9a3fb6U, 0xbb3408833d30dd9bU, 0xb79d1a203ccc8837U, 0xbad020fa3bd9d149U,
  0x39b6967c3aafee9fU, 0xbd5c08fdbd5b7ef4U, 0xbe3c15fdbde93a52U, 0x3b0d9c0a3d27f4deU,
  0x3b46b3f7bbdf0197U, 0xbb39176d3d050a1dU, 0x394f5d843d5f7ab2U, 0xbafa9b543bc88a9eU,
  0x39a436703c2e6f60U, 0x3d06efbebd8ca5b6U, 0xbe229fa0be0819c9U, 0x3aea9831bb562fe0U,
  0x3b7ae0723b549777U, 0xbb69c9873dbf5220U, 0x3a07c5a63c902d5aU, 0xbb1a3d743be37487U,
  0x39c9abac3c12b040U, 0xbdc8417b39f69a9eU, 0x3d95f55ebddee1cbU, 0x3af6f6babd26809aU,
  0x3b70fe703d9665b6U, 0xbb6027843d30003dU, 0x3a74da903d22b67eU, 0xbb17c2963bf5a752U,
  0x39ada21ebd245512U, 0xbb3f05f83c9ad4f0U, 0x3e15deb63c7bbf44U, 0x3ac002e6bc95cbe4U,
  0xbc2096e5bd7f2c6aU, 0x3c2599f03ce89493U, 0xbc00ba853df13aebU, 0x3b840aa7bb96a5dcU,
  0x383c4e3a3c8591b9U, 0xbcdaa1313db44914U, 0xbe844d66bdaf93c8U, 0x3bb41f4e3c8be778U,
  0xbc4a38c3be2990faU, 0x3c55ffd73e05c4beU, 0xbc3b56d73db89677U, 0x3bb16d6bb9ac58ebU,
  0xb9ed5ee1bd12b6edU, 0x3c5d53783de4011bU, 0xbcc23dabbe02334bU, 0x3c217401be2a3c91U,
  0xbc74170ebdc18d08U, 0x3c6d1dfb3e468eb5U, 0xbc277f5b3c2c9412U, 0x3c08d8a2bbb6e158U,
  0xb9b56b08bd2c0609U, 0xbc88999a3da16f20U, 0xbe53e842bdc3a7c7U, 0x3be44366be42faeeU,
  0xbc72ce89bda1a044U, 0x3c53320d3e3994b2U, 0xbba7690d3c2a58adU, 0x3c08eee3bc64aebbU,
  0xb998b90dbcd8ff3dU, 0xbd69902a3d5f497bU, 0xbe80dbbbbd66f194U, 0x38f2b5cdbe95a071U,
  0xbc2f33a43d943a84U, 0x3c4c497a3dcd67e2U, 0xbc6a7cf83e02a596U, 0x3ac7b5bd3c4147efU,
  0xba5096cd3c0fe51fU, 0xbe0aa1c83e1704f8U, 0x3d40598cbe14746fU, 0x3c6d8ec83dd09ac3U,
  0xbc4de86c3e2b4e39U, 0x3c7349ac3cec5200U, 0xbc8f80c13c913117U, 0x3b5d7f7c3c811429U,
  0xbaa75dffbd295827U, 0xbd5754d13df7794fU, 0x3eac58ae3da5cf48U, 0x3c951a1abce8b913U,
  0xbc761fd83e1b052fU, 0x3c8542f1bcf66135U, 0xbc86823bbd70eeb2U, 0x3bdf99403c327dadU,
  0xba91ea1ebd53b785U, 0xbdc2fc723deb6940U, 0x3e3059ed3e5cdde1U, 0x3c7f98d4bd6e20daU,
  0xbc6a545b3daa229bU, 0x3c645606bbec92aaU, 0xbc30203cbd9500d8U, 0x3beb81ae3b08432aU,
  0xba782e5dbcd6270dU, 0xbdbe93e53e0dd618U, 0x3d4394e23e651c8fU, 0x3c0afcb4bdfcbf4eU,
  0xbc30aba7bde1c241U, 0x3c42b92bbd77f76aU, 0xbc3a7173bc11a3a3U, 0x3b7713db3b76fa7cU,
  0xba098c40bc90b5a0U, 0xbe0f739d3e14cef4U, 0xbe2180f5bcc26410U, 0x3c27c528bcad5746U,
  0xbc4cd9c53db0a6b9U, 0x3c6918edbd511cbfU, 0xbc7567aabdae88f7U, 0x3b97c9573c1fb3baU,
  0xba818ea2bcc24e4aU, 0xbcd1c5b33dc51bc6U, 0x3e3a902f3e204331U, 0x3c70554ebce6ecc3U,
  0xbc75ae2abc3854fcU, 0x3c7b81253d2c353bU, 0xbc5dd867bd201997U, 0x3bf3f7263b5e1904U,
  0xba4980b63b48d4ccU, 0x3c9bb3123dca95e9U, 0x3de04900bcf8871bU, 0x3c3fd6463cd26b7dU,
  0xbc5106f6bc9a7599U, 0x3c41e2c9bcd0c995U, 0xbbed0f1abc532b70U, 0x3bef8bacbbb21efeU,
  0xba2879df3d0548bbU, 0x3d9475b33dafc7c3U, 0xbcc50efabd26e2c2U, 0x3b88692e3d2f57aaU,
  0xbc3ab2e1bdece16cU, 0x3c4a1c313d4b6c60U, 0xbc3aac51bc51ecedU, 0x3b95c8563b55de09U,
  0xba4ebb5bbd05eed0U, 0xbd1716f83e3b8dd8U, 0xbea42405bda2c50aU, 0x3c20adfcbc73752bU,
  0xbc4ff8c63e307206U, 0x3c6bb152be02c201U, 0xbc7807cc3c054ecaU, 0x3bb24aed3c340434U,
  0xbaa4d4cd3ca27aa2U, 0x3d70d842bb8aeac5U, 0x3d24a12c3da84084U, 0x3c71a4de3c819631U,
  0xbc6788513d7cd4b8U, 0x3c70e85bbd6126eeU, 0xbc5b7fcf3d1e92c1U, 0x3bfdf6003b856d83U,
  0xba8035e23dcfbcd9U, 0x3d6e2e52bc844086U, 0x3dc3fe84bd66cf74U, 0x3c3dedbbbb8194ebU,
  0xbc32b36b3cc084b0U, 0x3c2f5f57bd8de8cbU, 0xbbef2d7c3d678f5fU, 0x3bd2d9b1bb61c69aU,
  0xba69676e3db64e1cU, 0x3d385d983e61bc99U, 0xbcb66808bd8ef95dU, 0x3b95c59abd4399afU,
  0xba5d726a3ea83b19U, 0x3a2eb425be293990U, 0xba0b3e113b678dd5U, 0xba06c7b03b2c5209U,
  0xb8b0ebe6ba32cfc7U, 0xbd938c103d30da66U, 0x3d930ac53dce9b1eU, 0x3ab309fe3e26fa82U,
  0x3a7cacd93e9ce753U, 0xba2b2681be18d960U, 0xba469bd1bd7f9e30U, 0xbaf30c003bf71660U,
  0xb8be18c43b0e5e9fU, 0xbdaaeb103d141f7aU, 0x3e005ba93e4157d8U, 0x3b231e313dfe262fU,
  0x3b0bc3883ddffa48U, 0xbabf92c5be2671feU, 0xba8a2fb2bd88748dU, 0xbb0e22ce3c276384U,
  0xb8eac9533cce7921U, 0xbd21b6a33bd37fdfU, 0x3da9bfdf3e29194bU, 0x3b5d570f3d089240U,
  0x3afbe172bdd4e50dU, 0xba3bc9babe0802bdU, 0xbb18d249bcf36e65U, 0xbaf1255f3c39c34fU,
  0xb9a802573c8ec3c4U, 0x3bc86913bce914bdU, 0x3cb78cf23e0cc9e9U, 0x3b96a8ff3c3cf832U,
  0x3999b86d3d94e8acU, 0xb9923b553ddd3391U, 0xba54e5d43ba87c46U, 0xba7e73853b8ce5d1U,
  0xb84c628bbb482b42U, 0xbc5649c43ce9419bU, 0xbd6f478bbdc624adU, 0x3b0b15d53e00a303U,
  0x3b0541463e249df2U, 0xbac7d9b2bbfb8ed8U, 0xba8c81afbc194615U, 0xbb15d5273c1615bfU,
  0xb8959cff3b246e66U, 0xbc088d2f3d012176U, 0xbcb992bfbd0cdfa2U, 0x3b53c1cc3df7421fU,
  0x3b51e58d3dd78c46U, 0xbb1d63983d04c29fU, 0xba95f8f3bd15cf06U, 0xbb26dea73c399935U,
  0xb88f58443c5469f5U, 0xbda6296d3d7e38e1U, 0xbc83282bbc47520dU, 0x3b7ad23f3d5e5dbeU,
  0x3b457205bc910467U, 0xbae2210e3de0c941U, 0xbb148a98bd2e46b8U, 0xbb0c374e3c457841U,
  0xb98e72c83cacee99U, 0xbd381d2c3ccde6bcU, 0x3d3e4e1b3da65332U, 0x3b9e40cc3c0bab77U,
  0x398d83e6bd2102faU, 0xb9f0d75c3cd3a111U, 0xb83db5f93cf76172U, 0xba8271743b4892e6U,
  0x385a8498bb46002cU, 0xbc9255943d813dd1U, 0xbdade2a6bde3ddf0U, 0x3a8612c63c803998U,
  0x3b03b43d3d3b779aU, 0xbade1185bd7a02faU, 0xb9a7a4383d393b7dU, 0xbb1937263c037f45U,
  0x37e888683b8ad195U, 0xbd44d6d93d9fffb5U, 0xbdde4cf5bdae53e6U, 0x3b0b31ae3d509703U,
  0x3b59fd483cf3415eU, 0xbb3413f5bc04e5c2U, 0xb9454a213c8f9bf6U, 0xbb2944073c26f081U,
  0x3809784e3b52f691U, 0xbc270b0d3d215d32U, 0xbda204cbbcdf177cU, 0x3b2483c33d6ecae4U,
  0x3b5c57aebd2db0f7U, 0xbb175aef3c97197cU, 0xba972867bd05e5a4U, 0xbb11d67f3c3533f8U,
  0xb92542aa3a317f9eU, 0xbcecea6d3c6da9a5U, 0x3d0231793cb7e556U, 0x3b5f525d3c817d5cU,
  0x3ad3feb9bd2e94e8U, 0xbaf66abb3e07c3c9U, 0x3aaed8323d8475b0U, 0xbabc5cae3b3b4abbU,
  0xb900758abb44d987U, 0x3d4e39153de16048U, 0x3d07ece6bd4c071fU, 0xb9833f4d3d99ac1cU,
  0x3b525edabc955e64U, 0xbb40c7df3d89e2afU, 0x3a67ee0c3c5494e9U, 0xbb315e5b3bfc441cU,
  0xb915794cba6f3487U, 0x3cbbf6c03dbe7715U, 0xbdc35b10bd6d9ac5U, 0x3a70c6813ddb1d0fU,
  0x3b950ea4bdbf828fU, 0xbb82ad9f3e0bd115U, 0x3a65324cbd18e48dU, 0xbb3fe4a93c278ec9U,
  0xb901c491bc337b7aU, 0x3b8072e13d4e168aU, 0xbde77620bdbc4fa5U, 0x3ac80e903dce0b6fU,
  0x3b989d06be1e1033U, 0xbb7020023e137aa1U, 0x38466eeebd84f51bU, 0xbb2864023c3760cbU,
  0xb98e86e3bc983043U, 0x3d48bcaa3ca1a834U, 0x3ca70d15bdaeebfcU, 0x3b19e0713d1b6b3aU,
  0xbebceff0bf0812e0U, 0xbd572455bcbf4fb8U, 0xbd180bc2bdc026aaU, 0x3d6d6038be88f679U,
  0xbf144193bf0ccad9U, 0xbd0b7f7ebedfbab8U, 0xbf71e54d3dc8fd4eU, 0xbea14898bf001efdU,
  0x4000b6ec40236a3fU, 0x3f3e2e0940193a7dU, 0x3f9637b23fb679fcU, 0x40511c803fa451e2U,
  0x40266e10408fe1c5U, 0x3f8ad9734090746bU, 0x406779d03f86d79eU, 0x3fe1555f40629d11U,
  0xbc611e80bd976bc8U, 0xbf0868acbeaf3a48U, 0xbe64d843bd260b24U, 0xbf1de030bf263d48U,
  0xbe422a40bc1bb9f0U, 0xbe96d8733d21d338U, 0x3c2aaf10bee2c500U, 0xbe620139bdb0978cU,
  0xbca662d43d4bdab8U, 0x3c8691e6bb37cdf2U, 0x3d03453d3c212192U, 0xbce8ae28bd19197bU,
  0x3da76b36bd23d43eU, 0x3df8a10d3dc92179U, 0xbd2aa886bba50d2fU, 0x3d1e6c1fbdb22ed5U,
  0xbd7aa37a3cd2db5fU, 0x3cd38d70bc8d9e79U, 0x3cb1d3fd3c3a5313U, 0x3a4dd1c7bc938b97U,
  0x3dc711143daf96c6U, 0x3e0701023d20323cU, 0x3ba104ab3c03e4eeU, 0x3dc0a015be215f0eU,
  0xbd720d383d4c42efU, 0x3c6c23433b3df4bcU, 0xbcfbd7fe3c124a06U, 0x3d04103fbc86d85cU,
  0x3d1ead5e3dc09af0U, 0x3da653c3bb31876bU, 0x3d868cb43c0e63dcU, 0x3e16dc15be38a189U,
  0xbce6ff833dcdcaa3U, 0xbb8a7e303bb2ca74U, 0xbd5384343c771ad2U, 0x3cdf68abbccc1542U,
  0xbd934d633df52a99U, 0x3dc0846cbcfaeb51U, 0x3d9dec053cfeb45cU, 0x3e106cd4be1ae9bbU,
  0xbc6cdcb13d94aff9U, 0xba86444fbcdb00f3U, 0xbcb569023d1b2965U, 0xbd0e1910bd324d3cU,
  0xbcf326bc3da44071U, 0x3dda7f28bcbcf3abU, 0x3daf10613d1a81f3U, 0x3dadd7a2bd9206a2U,
  0x3c96077abcac1aeaU, 0x3bdbc328bcddcc2cU, 0x3bcc073e3d6014b3U, 0xbd61ed82bd62122fU,
  0xbc1704c23c4765a4U, 0x3d8c3187bc59dae5U, 0x3d79e4ab3d20733fU, 0x3cd7db31bccc4305U,
  0xbbf6d0a03cbf4e85U, 0x3c39a0e7bc7d22f9U, 0x3d0bcd3f3c4d9d38U, 0xbd921e9f3cc8f7d8U,
  0x3db97cfb3bec5b43U, 0x3dad4cec3d06ff92U, 0xbc8003133d42b552U, 0x3dbdc1a7bde51a8eU,
  0xbd3e202d3bee3002U, 0x3d2e2cffbd13db8fU, 0x3d1fa7a33c8cc68eU, 0xbd10ea623d4818e9U,
  0x3d3f4a3a3d92d81fU, 0x3d91f526bca7a78cU, 0x3d0d1adb3d92f836U, 0x3da5dbc2bde0f1c6U,
  0xbc8953983c384e5dU, 0x3d8179b1bd1eb01bU, 0x3cafeb8f3c6b4c70U, 0xbc6607103d5b3b90U,
  0xbc2829bd3d2a5d9dU, 0x3c5dd9573b996062U, 0x3d51ebd33d8e7259U, 0x3da7d42dbde07d96U,
  0xbc4cb81a3d7e08b3U, 0x3d6f6458bd35cfa2U, 0x3c4f1c7c3c15eb7bU, 0xbb9b49d13d6830e7U,
  0xbda8b0163d7582a6U, 0x3c9eb6dc3b884617U, 0x3d5da4d33d5cdda2U, 0x3dc2ff48be0f234aU,
  0x3c17049d3ce933ceU, 0x3d605c96bd5fd542U, 0x3cee5e413c9a675fU, 0xbcc416ba3d1c32abU,
  0xbd2a86e03d00f527U, 0x3d2b4e64bd122174U, 0x3d9573983d660626U, 0x3dbc57bebdcf444bU,
  0x3ceb8927bbe4bda3U, 0x3d56995dbce69dc5U, 0x3d3273a13cfede8fU, 0xbcd4595cb9d213a5U,
  0xbd84a05ebbd71121U, 0x3c6b2414bd654649U, 0x3d1fcb573d66a448U, 0x3d998a46bda601caU,
  0xbcbc9e33bdb39c8dU, 0x3af41774bce37f1cU, 0x3d0185953c0a0b12U, 0xbd3c88df3d981973U,
  0x3d50fa823d153035U, 0x3bb3031b3cc5bf3bU, 0xbcbb57013db02879U, 0x3de2996cbd5e6bfdU,
  0xbd04566ebdcb04d9U, 0x3d406b71bd7943fcU, 0x3cd126903c5063adU, 0x3ba4bf103daf1fb5U,
  0x3bc98aff3db0cb1dU, 0x3cbb3e383d39a92eU, 0xbd1eef033dedcac3U, 0x3d96ec71bda0d993U,
  0xbb210ddfbd804b1fU, 0x3da21122bd433126U, 0x3c91b40cbc1cfe8dU, 0x3d0fc48d3db0c57aU,
  0xbd0056203cab1bedU, 0x390380853d3894fcU, 0xbd12f6b63dcaa81eU, 0x3ce56bcebd8fb045U,
  0xbc218766bb93b9a0U, 0x3da66c06bc764939U, 0x3d149a2ebc8e048cU, 0x3d050bc93dc874f1U,
  0xbd97dd273c955d07U, 0xbb91546d3c02926dU, 0xbd12fb103d76cfbeU, 0x3cf8e72abdd8fb78U,
  0x3c83291f3babdc7bU, 0x3d93720abc4d8f0fU, 0x3cd87abdbc24474aU, 0xbc883d5f3d9ad594U,
  0xbd3450d23d0d9876U, 0x3cb223bdbd585b49U, 0x3c9cd3ef3d5ffa63U, 0x3d7c50d7bdbf8e44U,
  0x3cb153a93ba6373eU, 0x3d686d033d2c1ab0U, 0x3ccb7ceb3b8c0136U, 0xbcbbb82f3d0ea0d3U,
  0xbd4a1a0c3b51e7aeU, 0x3cc78b58bdabb763U, 0x3cc6fa303d653f0dU, 0x3d4c17b4bd6f20f8U,
  0xbd13392bbdc95153U, 0x3c67abc0bd0b5b24U, 0x3cff2ece3c049c8aU, 0xbd086b683dcbafa0U,
  0xbcb9c7183ac35c37U, 0xbd84ede13d4beebeU, 0xbd2b7cd63d90bdf8U, 0x3dbed0e93bdf2ef0U,
  0xbcdd3ddbbdacf7b8U, 0x3d579bfcbd2a78acU, 0x3c113ecb3b64e920U, 0x3a9e8fae3de15b88U,
  0xbc8f01833d66ce0eU, 0xbd2d38be3da0fab4U, 0xbd84ae693dc46243U, 0x3db3ca27bd2821e7U,
  0xb993bda8bd3d2329U, 0x3da406703c47aff1U, 0x3b293fddbc830fadU, 0x3c3935f33e01180dU,
  0xbcc8f9a93d436d35U, 0xbd125a883d8e9dbfU, 0xbce041233da4d483U, 0x3d79ab8fbd9e1d2aU,
  0xbc3ab92f3c52728fU, 0x3db264b33d2083aeU, 0x3d156a63bc9c3c6cU, 0xbbfa22bf3e0c0bcfU,
  0xbd5094e23d244159U, 0xbcc8d22a3cc359ebU, 0xbd0262eb3d135936U, 0x3d7a4428bd9712f8U,
  0x3b3526e03cea2719U, 0x3d8df3683d504d23U, 0x3c5c74c03b8e95c0U, 0xbd096baf3e0146f1U,
  0xbd8821103d4f1cb2U, 0x3bc1d8a9bd3f68d5U, 0xbcef14dc3d29c220U, 0x3da221a8bd868852U,
  0x3c283a643c4295e1U, 0x3d693a0a3db5c4c9U, 0x3c6479b13c916c13U, 0xbd2e60fb3dc73d25U,
  0xbd273a7f3c9d41f7U, 0x3cb1686cbd91cd66U, 0x3bc65d0d3d14f05fU, 0x3d893fe3bd791ed6U,
  0xbd2b248ebdd80792U, 0x3c5636f6bcd4e953U, 0x3ce1f7a7bc36f308U, 0x3d31c7793cdaab47U,
  0x3bca3463bb5f36f5U, 0xbce9ddc43d4c3c44U, 0xbd4960443d12a450U, 0x3cff0ebcbd206504U,
  0xbd02a65bbdcd7f15U, 0x3d3becc1bbc12817U, 0xb7d6d1e8bc706d00U, 0x3d1a3c363d2b47c8U,
  0xbc2a31ce3d0368b8U, 0xbd0606303da8013dU, 0xbd6c63e63d62a8f8U, 0x3d5acd4ebd56ea93U,
  0x3b8c657bbd9424d6U, 0x3d996f8d3c32259cU, 0xbc69266fbc996ec1U, 0x3cb38ef93d9119d0U,
  0xbd3548753d65fbc7U, 0xbd1faf083dba6591U, 0xbcf8c7e63d1d0343U, 0x3d578407bd796f3dU,
  0xbc82526bbca2bf30U, 0x3d8c8ef53c9f1e6fU, 0x3b27e4d8bce2391bU, 0x3d33a2593d901291U,
  0xbd709f133ce0d788U, 0xbceec8433d625121U, 0xbd3f87643c898229U, 0x3d66f338bd86bef4U,
  0x3bdf5b053ce600fdU, 0x3d708951bbcb6ef1U, 0x3c22ce68bb9763f0U, 0x3d4537b83d709be6U,
  0xbd6bbb4f3c9c4d41U, 0xbb92593c3c4e8254U, 0xbd2fd98a3c9731cbU, 0x3daf3f4abd82bd09U,
  0x3c83e7f23d1444c5U, 0x3d3d9af33d83b1c6U, 0x3cb46d4f3c289c6bU, 0x3d659d443d686579U,
  0xbd411ed03c01fa5cU, 0x3c774340bc9652dfU, 0xbcb3e5a23c6ebc69U, 0x3db8e5f3bd659188U,
  0xbd12574dbde44522U, 0xbcd7b5ea3b497a18U, 0x397aacccbcf0dcf1U, 0x3d504b45bce72beaU,
  0x3d6c615e3b8977b4U, 0x3d5c61673c8bf2a8U, 0xbd431726ba8a22adU, 0xbd2cd202bd8cf87eU,
  0xbce3d771be148e4bU, 0x3d098a8cbd0ed1caU, 0xbca92637bd0a6409U, 0x3c743abf3cfbcc6eU,
  0x3a77cc503a78098eU, 0x3ca6d4263d09aac1U, 0xbd252ffd3be10716U, 0xbca1f5cfbd18ffdfU,
  0x3af08e6abdcc0eabU, 0x3d610f1dbd3508b7U, 0xbcdf1fe4bcdcf1b5U, 0x3c6631783da97cd7U,
  0xbd98464e3d2783beU, 0x3b33edc33d0171ebU, 0xbd0efd463a7e4fc0U, 0x3bf355163ae23458U,
  0xbcdde4c3bd6938f0U, 0x3d3a920cbd4b99f2U, 0xbc0c6faabd118ebeU, 0x3ce9ce953d67e13fU,
  0xbd8f9594bc35748bU, 0xbbc48ae43cf56c85U, 0xbc9f6230bbe88e8cU, 0x3d019356bd257260U,
  0x3b8538d3bd3f5cadU, 0x3cc498c8bd442f09U, 0xbadede56bca0d07fU, 0x3d0483ee3c90ef13U,
  0xbd0a4144bd1ea9b3U, 0x3b8928403c7147eeU, 0x3a3b30523b42a48dU, 0x3d5b818cbcd98fa4U,
  0x3c4c7f66bd0963efU, 0x3cb82ea73c06e041U, 0x3bd307debc69ac61U, 0xb9285b8e3bb3f2fbU,
  0xbc3299b2bd41cf87U, 0x391363863c0bda07U, 0x3d0c0485bc2ea952U, 0x3d6a8eb3bd13b526U,
  0xbcc56ceabd0b4efdU, 0xbd14ae52bd78c958U, 0xbbc26876bb475e31U, 0x3b7f031c3cfdc1e8U,
  0xbd0e2aff3d1e49fbU, 0x3cb713e5bca19c29U, 0xbd7eb7b9bd2c57aaU, 0xbc9bd0a2bc01e1baU,
  0x3c6e0f7c3b3df45cU, 0xbd19379d3be06bffU, 0xbd758571bd085369U, 0xbcc4c56dbc625f0cU,
  0xbc7caa26bd1afa91U, 0xbd402820bd2ed1bbU, 0xbe19b7cabd222d34U, 0xbd9fd60f3c2bd09cU,
  0x3c5263563ba6a75eU, 0xbd45c2aebcb899cfU, 0xbc1695963c5acefbU, 0x3d09127dbdb7f4f0U,
  0xbd0edc32bd9bf2e6U, 0xbc8db24b3d46aff0U, 0xbdf3d2a3bbe329bcU, 0xbddf0fce3e7e4a3aU,
  0xbbbaa071bbc60cd5U, 0xbdaaebb1bdefaa4cU, 0x3d1687933bb3f99cU, 0x3da8c922bd8cb510U,
  0x3dee9344bdc271e3U, 0xbca404aa3e18c45aU, 0xbd9703afbd015fccU, 0xbd9cba8d3dc9f1faU,
  0xbb35efb6bcfb8178U, 0xbdc655a6bdbb3a91U, 0x3b956e5c3a854fe2U, 0xbc8f97063d664fcbU,
  0x3cb04524bd443951U, 0xbcf922a83d40b26aU, 0xbd9a747cbd7dab22U, 0xbd86ec1cbd98e276U,
  0x3d035cb3bc9a0f11U, 0xbddbe7063c498262U, 0xbc176f54b9d6909aU, 0xbc3a45a93e148cf0U,
  0xbc8c3f48bc643d66U, 0xbc155ecabd926108U, 0xbdb057b2bd8516f4U, 0xbd8d801fbdd21705U,
  0xbcba0cb3bbaca94fU, 0xbcc7955fbd4d4edfU, 0x3c0cf07dbbbcbcf1U, 0x3ca70a4a3d3d6bd3U,
  0xbd8b1dd83cf64a40U, 0xbd0ba767bc3c31dbU, 0xbd301464bcb915deU, 0xbc277064bce3aaf6U,
  0xbbf3c0293c966da6U, 0xbcb047453c1a6b9cU, 0xbd600bd1bcbd3b30U, 0x3bc8c095ba8c79a0U,
  0xbbdce5ecbcb524e3U, 0xbdc2e7fdbce2e396U, 0xbdc95242bc8adf6aU, 0xbd8e807dbd9d1ec4U,
  0xbc7b4b44bcfe1888U, 0xbcbd3e1dbc497054U, 0xbb159dde3bf756c2U, 0xbc97e9c9bda3252cU,
  0xbcb5c2e7bcd9ab90U, 0xbd870cc83d1e3fb5U, 0xbdd2092d3bc1b648U, 0xbda3c1703dbbb3b3U,
  0xbcd6cbd2bd8ba5c1U, 0xbd3373ccbdb3a683U, 0x3cfc9d3f3c0b2aa7U, 0x3da155cbbd8ad590U,
  0x3d963a7bbd8346bdU, 0xbdc0e9063d9f2b4cU, 0xbd1b9e49bc42a825U, 0xbd4b45a2bc6a38b3U,
  0xbd2651e2be06a778U, 0xbd95b3203c51c0beU, 0x3ac9ea01baf0c356U, 0x3da4e3043c3fbc64U,
  0x3c9b0303bd2d5c23U, 0xbde7df223ce3b024U, 0xbcc64e9dbd300456U, 0xbd2eed60bde87f4fU,
  0xbb9b80acbdcb9927U, 0xbdbdd02c3d6359a2U, 0xbc470b31bc599ac6U, 0x3dadfd183ddfa816U,
  0x3ca3df1f3bd4b226U, 0xbd38dbc9bd921bbdU, 0xbd9aae10bd475585U, 0xbc26d482bd7ca9e0U,
  0x3b11ce923d5bfe4aU, 0xbc84e7a73cb2c40eU, 0x3c819e6dbbe1d0e0U, 0x3d7f1bbebd45504cU,
  0xbd35c7b23b68b0d3U, 0xbc0eb3e4bc3cbf6eU, 0xbdc2dc28bd15b580U, 0x3c79690a3d3caa84U,
  0x378c58fe3da3ddb8U, 0xbc89bd1f3a8ee4e8U, 0xbcdb7df4bc58983dU, 0x3c926bfebdb15dd2U,
  0xbd593aebbc478917U, 0xbd366c5f3c43708eU, 0xbd66756cbc322d82U, 0xbcee7720bcb389ebU,
  0x3c068a583d7d9ad9U, 0x3c04dd43bced290bU, 0xbb7c38d13c8f5e18U, 0xbd08ffadbd9ea642U,
  0xbd5340d6bcd8799aU, 0xbcaca7c6bc442f53U, 0xbd7475cabba40de1U, 0xbcfa98093dbb9d23U,
  0xbca055683dd6b2bdU, 0xbcf15d503bf45735U, 0x3cace9553c465338U, 0x3d38fbd0bd8ecda3U,
  0xbd835c0cbd50bba6U, 0xbcf46246bd26a525U, 0xbd8f62883bad06b1U, 0xbd0eaa163d45bc55U,
  0xbd3f547a3d8e45c4U, 0xbd22f4273d3fa088U, 0xbc2443aebb2e5478U, 0x3dbf00a9bd404862U,
  0xbd40e2cb3baf1f63U, 0x3b73f24d3c2cbf2eU, 0xbc45706cbcad29e1U, 0xbd2787083db65005U,
  0xbc81ca543dadc01aU, 0xbd9724413d9b9ccaU, 0x3c2bfdffbc972364U, 0x3e01f5f23c3758fdU,
  0x3dcbd9b63d489affU, 0x3de67cfbba47e7abU, 0xbd113c4dbd0bc4d7U, 0xbc36a91f3e2a006aU,
  0x3cc9ba45bca76291U, 0xbba258093cc6a1c0U, 0x3cd110fbbc243ecfU, 0x3d551c3bbd427a31U,
  0xbd5d44b5bd6c5c33U, 0xbcc35e3c3b46b19fU, 0xbd8dbda5bcf580f7U, 0x3a5f66713cc38be6U,
  0x3d10bfd53ca6ba74U, 0x3a6d617cbce76cedU, 0x3c2c2ac73b3e5239U, 0x3c5d80fcbd8d4844U,
  0xbcb632c4bd754bb5U, 0xbda48e49bae15ebaU, 0xbd790dadbc39423eU, 0xbc4462d03bfc80afU,
  0x3c79246a3c880833U, 0x3c8a91d1ba87a572U, 0x3c31c7553d0fb599U, 0xbd0f8ea5bd310923U,
  0xbd619988bd8ae3cfU, 0xbdc2f6a0bdae944bU, 0xbd988d64bc69fea3U, 0x3c7d5a823d01c75aU,
  0xbd06d2b9bbaf3379U, 0xbd1f43f13d8dd686U, 0x3cdfd83d3ca87a17U, 0xbd02dfbebd30872aU,
  0xbe24233ebc37411bU, 0xbd68c3a5bdf07d9dU, 0xbdbc645bbc538f17U, 0x3d2073e9bc8bc7fcU,
  0xbd44ba463c1cd45dU, 0xbd8861413d9ce07bU, 0xbc6077cebc20a0b7U, 0xbdb3769dbd5e23fbU,
  0xbdb292af3dab53c5U, 0x3c9c3d723dbbbdf5U, 0xbd74db14bd023fa8U, 0x3c1b95d63cbdd1ccU,
  0x3a155ff83c848bc6U, 0xbd92fc093d212827U, 0xbc2da19cbca89f24U, 0xbc1d30bebbb0cb62U,
  0x3e16a4a83d8dad1eU, 0x3dc778733e1eac85U, 0xbd2d74f6bd695feeU, 0x3d4c30713d612f8eU,
  0x3c5810c8bda037cfU, 0x3c0f278f3d29f8f1U, 0x3c539c22bca93216U, 0xbd2853bdbc954852U,
  0xbd4ea91cbdfefb18U, 0xbd8f4c10bc48e4c0U, 0xbd5b770bbc2657ceU, 0xbd9216eb3c80fd90U,
  0x3c3be2503b7d8452U, 0x3beb0235bc4c8e9dU, 0xbb38c4cebb3b7c41U, 0xbd8ac17bbab0eaddU,
  0xbd2ba438be3450acU, 0xbdaf2d30bd2599dbU, 0xbd96209e3c14578dU, 0xbd012de13b56f32cU,
  0x3c208eee3d89a2d4U, 0x3c979655ba54b15cU, 0x3d0f8e6e3ca811eeU, 0xbdbdfcbc3c0d3593U,
  0xbccddebcbe01734fU, 0xbd648326bdc0bb59U, 0xbda93945bb578f70U, 0x3b7091923d39d786U,
  0xbc2799763c2b9619U, 0xbd470f793d0367f5U, 0x3d90a48a3bc9ebe5U, 0xbdba6fc5bcd2bd74U,
  0xbccc66fb3c1375a7U, 0xbb144f8fbde28a7cU, 0xbd60d06dbcb37c05U, 0x3d4ca83bbd72ef4cU,
  0xbbf0ae66bd353eaaU, 0xbd90f0983cda4f12U, 0x3cdab28ebceef4beU, 0xbe0a86f7bd62125cU,
  0x3af994d43deec0bdU, 0x3d1c492e3d239c96U, 0x3d001dd6bcfaf5a9U, 0x3d821ca8bdfaa7efU,
  0x3c4c71acbd89cd19U, 0xbd98cb2cbd1e4c65U, 0x3c03cc7abc7c2c87U, 0xbc3e7a1ebb6678b5U,
  0x3df63a933ccee33eU, 0x3d29493e3dd5c8f2U, 0x3c271388bd5d23b0U, 0x3d6c5066bd74a51aU,
  0xb9e450bb3d1bb588U, 0xbb82b8a53d7738cdU, 0x3c802618bc978108U, 0xbb96feccbd2cde63U,
  0x3b0ad093bd9d45c3U, 0xbd303e63bd2943f2U, 0xbd763d46bbe7314bU, 0xbda25923bcc7070cU,
  0xbb3cfc2a3da0a8b7U, 0xbc9fec9c3c6c09e5U, 0xb92a8f39bb6ecf14U, 0xbc7d62aabbedcff6U,
  0xbc41c3dbbddaf1e1U, 0xbd1cf68fbd8c00b1U, 0xbd25ff043c26feefU, 0xbd1adcae3d0b2489U,
  0x3d356b633e29efc1U, 0xbca7bf0a3cafd1d0U, 0x3d2d702d3ba324fcU, 0xbcbdb206bc49904eU,
  0xbb9b5cd4bd6e41d4U, 0x3c88f3f1bd03906bU, 0xbd876c00bca78869U, 0xbc1aa48f3da44afbU,
  0xbc26e3af3e2386b5U, 0xbd77e7d23ba9e982U, 0x3da7d66dbc82afc5U, 0xbd9d88edbcc9ea73U,
  0x3d27f19a3d5217e4U, 0x3d3177753c8add27U, 0xbd2daa7bbd569525U, 0x3d2b4ba5bbcc7465U,
  0x3c8d39f43d121045U, 0xbda732df3bacd910U, 0x3c156957bd2a123aU, 0xbd9c9835bd238c85U,
  0x3d8f926a3db93058U, 0x3d06e83f3b2824afU, 0x3bfc81dabd38e87aU, 0x3d8a9064be19bcacU,
  0x3d42f72bbd9af329U, 0xbdab271f386d6de7U, 0xbcec36e03b42775dU, 0x3c9685ebbcb6b57aU,
  0x3dc6bbe03c45fa05U, 0x3c0646383bf49132U, 0x3c63e087bcf77f06U, 0x3cc767b7bdb1cbc7U,
  0xbcb0b7debcbc38ebU, 0xbc7a2af63d185697U, 0xbcfcac64bbe30c13U, 0x3db348453e208a12U,
  0xbd40e50dbd66f872U, 0xbc4cc0c83cbea671U, 0xbcc8d692ba3cd256U, 0xbdae524e3e591df3U,
  0x393f5ac4bd38c1e0U, 0xbcd14edebc325a52U, 0xbcb1b96abc30c7b4U, 0x3de0de9e3e07a062U,
  0xbcd959b5bb040589U, 0x3c840786bc8d7f85U, 0xbcf5ac423c5ccf88U, 0xbd8543073e370b26U,
  0xbc9c0d3b3cfec01aU, 0x3b9262b1bd03845cU, 0xbcacc7ddbc31a2e1U, 0x3ddf5bfc3dcb9d22U,
  0x3da19eee3d21ffe9U, 0x3cb2aebe3c344889U, 0xbd560a5d3d056af9U, 0xbcea2b0b3df26640U,
  0xbbb865e73b655a19U, 0xbc94aa353d651a80U, 0xbccaf209bc99f198U, 0x3e470a1f3a892657U,
  0x3ddb15933c4d64ccU, 0xbaf099803d3a5202U, 0xbd2b9867bad0de68U, 0xbd0b40bd3b9f98fcU,
  0x3c61a955bc67ff14U, 0xbd23440b3cfddb16U, 0xbb20c4ccbcdf6dd9U, 0x3dbe6063bcb8818cU,
  0x3c884820bc0fdcceU, 0x3cccd0353d81a8e7U, 0xbcc640dfbccdee70U, 0xbd3f51873da3cbbbU,
  0x3c77978cbb835711U, 0xbd8c06933d456a6dU, 0xbd10780cbc211156U, 0x3d6a45e4bc764675U,
  0x3dc8bfb9bd3aa1d7U, 0x3c30dcda3dcd8317U, 0x3c87cd1fbcbf5487U, 0xbda8a1ed3e12e226U,
  0xbc8db4233de8f5c9U, 0xbcc293d5bc627f22U, 0xbd32432dbcb3fd98U, 0x3d87b2a73d9a84a4U,
  0x3d28a3b4bc0585d2U, 0x3dc4aaaa3d5cd84aU, 0x3d716dd4bd151f45U, 0xbc91acb13e6103e3U,
  0xbcd20d953bea02eeU, 0xbcd970cebd03642bU, 0xbd2b534bbc7c0ca5U, 0x3d2d3a3f3d6e99f6U,
  0x3d93a48f3d2d885eU, 0x3da36f72bc284d22U, 0x3d3ba90bbc616eb0U, 0x3a4a413a3d7a7eadU,
  0xbd2019ab3c751f6aU, 0x3c0feb8bbd52145bU, 0xbd67e90fbc0084e0U, 0x3d4af49a3d8c8941U,
  0x3dbffccf3d81108bU, 0x3d525f2bbd2918f5U, 0xbcaca6dd3b4aac50U, 0x3cba340abbda0589U,
  0xbc7fd6ed3bf536a8U, 0xbc05a0bf3d3348bfU, 0xbd600c7fbc5e139dU, 0x3d30a7053cbd6bf6U,
  0x3cfd126e3c03b526U, 0x3cf1acfebd350e97U, 0xbd2a78b1bc22fc14U, 0x3b98fc99bdd5e951U,
  0x3ccabb303b8f88caU, 0xbcb5e234bc1d417cU, 0xbcaa5292bcb87d74U, 0xbd72286fbc285ab3U,
  0xbd38ee06bd74ad0dU, 0x3d5c8d6abc92d8c8U, 0xbcc8ea73bcb5f793U, 0xbc3d1e53bd140828U,
  0xbc11087a3d901bb2U, 0xbd5cd5b4bc68e0b0U, 0xbc8462fb3c4fc58cU, 0xbd33795bbd7bd870U,
  0x3d76e228bdb4463dU, 0x3cf6279dbca2cc81U, 0x3d9291afbbfb96c0U, 0xbd083a783dee70b5U,
  0xbd0825eb3e0e6677U, 0xbd43f308bd6f1f71U, 0xbd7209dbbc4d5a96U, 0xbc46f6353cfca25bU,
  0x3e2932083c95b1dfU, 0x3e348caf3d86616cU, 0x3cf69748bd41696eU, 0x3d6ddb313e385384U,
  0xbd3618dabb4727baU, 0xbcc17704bd604e30U, 0xbd90870bbb67ba66U, 0xbcb1e4a43c6ab3f7U,
  0x3e22817b3d343879U, 0x3e0dc244bd6e926eU, 0x3d129a65bcfb20fbU, 0x3d72bc1fbbf65232U,
  0xbd472f73bcd9209cU, 0x3b739927bd9637a5U, 0xbd980dfb3c32eebdU, 0xbbc9b338bbcb112cU,
  0x3de3d6de3d4b1f6fU, 0x3db48f28bda476faU, 0xbb99f163bbd09fb7U, 0x3d59016fbcad80d3U,
  0xbc133c22bd149e44U, 0xbb57d7c33cb32356U, 0xbd8478e3bb3aeb31U, 0x3cb215d0bd215b5fU,
  0x3c8a9003bbab7e55U, 0x3d74021cbd68a082U, 0xbd7fff4ebbcd2d06U, 0x3d217029be1624caU,
  0x3c1eab84bcd19da4U, 0xbc186985bbf805c6U, 0xbcb7d098bca37126U, 0xbdbcdb71bd26a1e0U,
  0xbcfe3052bd8f3b2eU, 0x3dbf31b2bd596851U, 0xbd793ac4bc73f8fdU, 0x3cb73815bd834617U,
  0xbcd134b93da5c949U, 0xbd13c575bca57246U, 0x3b960b083c9269e5U, 0xbda5da39bd8e2d2aU,
  0x3cd276fdbd15f4f5U, 0x3dad2cc1bda46698U, 0x3d5742103b646ac2U, 0xbbed7f4b3da87b87U,
  0xbd5565e43dba97b6U, 0xbd3c6731bd3f6f6cU, 0xbd36f4e7bc2ec3bdU, 0xbdae22c93d1594f7U,
  0x3dbee180bc8ba92eU, 0x3d3361e13cf37c9dU, 0x3bce1447bd1075d1U, 0x3dd55da83d7dc212U,
  0xbcfe64bf3b227116U, 0xbcbd8c8cbd884fe7U, 0xbd42522d3b753b7eU, 0xbd5ab57bbbaa7025U,
  0x3d98690e3d23e5b6U, 0x3d4fe061bcc255b2U, 0xbc3d94a1bd0670a6U, 0x3d79235cbcca927dU,
  0xbd7d5618bd66e790U, 0x3b22cd1fbd949af0U, 0xbd0028903d049b43U, 0xbd858a25bc9f86d0U,
  0x3d9e64023c8acf06U, 0x3c68ba8fbc25eb93U, 0xbcbdc80abc1761e3U, 0x3cfab5a5bc48cbdeU,
  0x3cc28adcbd4df87bU, 0xbb6c94543cb6c987U, 0xbcfae55f3c12f749U, 0xbb7710eabcd74294U,
  0x3d121b47bdb8d343U, 0xbc3f64b6bd06c938U, 0xbd589f6ebc7097eaU, 0x3d11341bbded9b43U,
  0x3c59b5fd3ca12a74U, 0xbbd55fe3bd1d5b61U, 0xbce00dffbcb53fa5U, 0xbd8a8448bc61906eU,
  0x3c0f5ad7bdb85a01U, 0x3d139054be04ee8fU, 0xbd297282bce218cdU, 0x3d6b72edbd51432aU,
  0xbc9e8fe33e0fa19aU, 0xbce085fcbc9e2f5dU, 0xbbdd88e33c349101U, 0xbd6035d9bd0c8e81U,
  0xbb1946b03cc9cfb3U, 0x3d291e2cbe189b6fU, 0x3d162da8b9ea240cU, 0x3d1d0cc53cfdfecaU,
  0xbd5ae5e83da7b49eU, 0xbc9a0fb7bc92a96aU, 0xbbd9af9cbcd05f08U, 0xbb0cbef43d77a46eU,
  0x3c9c03043c9a3573U, 0x3c6b06003dbe8a59U, 0xbd2600fcbb09dda1U, 0x3e045e67bc1cd10cU,
  0xbd04cf473d63d326U, 0xbba43243bd6a8629U, 0xbcda023f3aa7d4f3U, 0xbd1106b93c93b259U,
  0xb9f549533d7c7094U, 0x3d1baace3d91411bU, 0xbd8a925bbb1d7c9fU, 0x3d8bd4e13c7e2597U,
  0xbd97dd17bb276f5fU, 0x3cd5fa89bd66fe0bU, 0xbbf1f3b53d0f8451U, 0xbd8096f33c6b8b81U,
  0x3d010ad4bc7b6d94U, 0x3c856ee43d19e413U, 0xbd748f573cd6cc7aU, 0x3ca114283d0b48f5U,
  0x3c290909bd1bcdffU, 0x3ccaf8e43b1c101cU, 0xbc2c532e3c07653fU, 0xbcc0169f3bdcf7fbU,
  0x3d949276bdea8525U, 0xbb69e3bbbd149e2aU, 0xbd247ae53c90b38cU, 0x3bcdb130bca9cf1aU,
  0xbc822ec53d0a55c1U, 0x3c6a0e88bd0720f8U, 0xbbf07963bbb5c73dU, 0xbd64374c3ba39a99U,
  0x3d2175c7bdaf5f22U, 0x3cb5220abdce542fU, 0xbc8e813c3c06a3c0U, 0x3d7748343c59e383U,
  0xbce0aff33e18e2f3U, 0x3c46cb71bc97d0fcU, 0x3bd8145f3c838ad9U, 0xbd327a46bd0f44f8U,
  0x3d2906523d529d11U, 0x3cd9c122bdcd8845U, 0xbbf78e243cd6a39eU, 0x3d972e473ceb6fd5U,
  0xbcd4fdb73daff018U, 0xbc909a7b3bb0bdf8U, 0xbcc1c1d9bd037761U, 0xbc108b253d55d5bcU,
  0x3d2b20be3d6d336eU, 0x3c097bfc3d5f1e88U, 0xbd8830bb3beb36cbU, 0x3dbdd1c53d6a211dU,
  0xbc9d694a3d51f6adU, 0xbba101a7bce2a670U, 0xbd4c3b303ac067c0U, 0xbd5e12993ce099feU,
  0x3ce9fb9f3d5e92bbU, 0x3d0d57a63cea4c39U, 0xbdad21743cc0df7bU, 0x3da45d523d87f299U,
  0xbd9eb1963d0d7919U, 0x3cea7faebc1330edU, 0xbca1b05f3d4c1683U, 0xbd1f63df3c7746efU,
  0x3d8b4b85bcffc8d8U, 0x3d295ab43cc85f9aU, 0xbcd78dc93d8089e9U, 0x3d28b8e23dafb030U,
  0xbb53079d3c94291bU, 0x3cb62b3c3c9a32d6U, 0xbc8b19483ca296c3U, 0xbd4f43643c2decc8U,
  0x3e029164bdbdaab7U, 0x3c7df00ebc9a6cc5U, 0xbcabca073d3eb657U, 0xba1f31633d9cbccbU,
  0xbd0982da3d1c6794U, 0x3cba135dbcec4419U, 0x3caf7f713c388d63U, 0xbd6e7e06bbb3280fU,
  0x3dadd30cbd20166bU, 0x3c6fa8f0bce39c7fU, 0xbd3b68863d131a14U, 0x3cb205d23d5e48a3U,
  0xbd1445b13dc9bebdU, 0x3ce0bb2fbc1ebf6eU, 0x3ca5b4c93bea6212U, 0xbd822708bd3d7558U,
  0x3e088cf13da771b9U, 0x3ca878fbbcf7757cU, 0x3b75e77a3d321998U, 0x3d1831893cc47cd7U,
  0x3d5678b23dbac4a8U, 0x3d0587883d556ec5U, 0x3e14505f3db77390U, 0xbce8c37bbd15fb1cU,
  0x3e26f07f3e31dfb1U, 0x3d10f82c3d158fecU, 0x3d8b4f533e3f33e4U, 0x3ddd7499be42f2b7U,
  0x3c6beae43d79f8e8U, 0x3dff431b3cc01823U, 0x3d12ce943cb0ff09U, 0x3caf881ebdc5cf97U,
  0x3cc2dd5e3df15a59U, 0x3adda50f3b24d04dU, 0x3cd5e6f23e0484d7U, 0x3dc13873be0327d3U,
  0x3cdaa6243d1da284U, 0x3ddc0bfa3e2bb02fU, 0x3cd0fc6f3cab924eU, 0x3d66144bbd9f8d70U,
  0xbc1b504e3d805a6aU, 0xbdbb1f3abddfb183U, 0x3d8818e43df316a6U, 0x3cf89974bdc9eb7cU,
  0xbc6c34f33dd5f9ffU, 0x3d5b006e3d85ad29U, 0x3d3f416cbb95c310U, 0x3d3a4b97bd4dabdeU,
  0xbd9f666f3e11b54dU, 0xbcd4eb71bc7602b6U, 0x3d27c2863dc1b03fU, 0x3d22b2dfbc0fd06dU,
  0x3d405c6d3e0bb3cfU, 0x3d81dd1dbd994138U, 0x3cdaa993bcfae926U, 0xbd924cccbd79364dU,
  0x3d7a59d33e10b235U, 0x3cc315ed3cd217ddU, 0x3d47f4543da4d396U, 0x3d2f7ae03daa7a87U,
  0x3da206b13d2368feU, 0x3e176245bca659b5U, 0x3d0bed923ca7226cU, 0xbcbe77623d3737efU,
  0x3c94de78bc382effU, 0x3abb315b3cc09578U, 0x3a0f01693db742c6U, 0x3c5a11db3d815184U,
  0xbca001fcbc823af4U, 0xbc50ec143cf35b4eU, 0x3db91dc13d8590fcU, 0xbde4ec23bde8d3dbU,
  0x3e5d8cab3de71b04U, 0x3d8c455a3d26c33bU, 0x3dacfda53e12281aU, 0x3d30ba1cbe0c36faU,
  0xbc931895bd2eaf8bU, 0x3da7271bbd367c9eU, 0x3c726f803bd29facU, 0xbd98ea07be02a3d0U,
  0xbc71bb6e3d9beb26U, 0x3b46873f3d024f35U, 0x3d7538793dc91db1U, 0x3ca13a37bde8b3d8U,
  0xbd05d754bd636678U, 0x3dcede6a3d75199cU, 0xbc232845bc4a9fc6U, 0xbd2daeb1bd9e8653U,
  0xbdf0b7153c534987U, 0xbdbc02ccbc3cc636U, 0x3cac0c453d7fc2e7U, 0xbd21d611be045fa5U,
  0xbd29a52e3cc544f6U, 0x3d8881e0bc927574U, 0x3ac63ef2bd5c3de3U, 0x3be5df073b902068U,
  0xbd9b1b493df98b20U, 0xbd7cf935bd9ccf7fU, 0x3ca609163b7a1f19U, 0xbc8ba633bdc049bbU,
  0x3cc8e009baf3482fU, 0x3da8df3ebd197dbaU, 0xbc058dabbd6ee04dU, 0xbca2d867bcba0d3eU,
  0xbd5087363e14c7e1U, 0xbc24d0b8bd6dbf09U, 0x3cc20ed93c19b1f7U, 0x3b788b54bc33356eU,
  0x3cddedb63caeaf63U, 0x3df538063cd8d996U, 0x3b3c0c703bfd046cU, 0x3da4960dbbad68eeU,
  0xbd9c55fa3d9ceb2dU, 0x3b6dfbb3bd959923U, 0xbdc594653d304d00U, 0x3cce078f3d31acbfU,
  0xbaea7dcbbe3a7cadU, 0xbd8edd07bd06b562U, 0x3a0853443d9e2adaU, 0xbdabe501be215a83U,
  0x3cf79b69bda51a0bU, 0x3d2361a6bde5a25aU, 0x3d2348d53d715403U, 0xbc776b33be052786U,
  0xbd494f23be2b71d8U, 0x3c375c94bd776154U, 0xbd4144173aa292b2U, 0xbcd631e2be318c1aU,
  0xbdd49ccabd9abd34U, 0xbcf1bfc6bd1a2eaaU, 0xbd04188f3bb93624U, 0xbd3790dfbd105cc0U,
  0xbd0c2d28be056eb1U, 0x3bf2925dbbebe171U, 0xbdb0889dbca0f660U, 0x3c544c2fbe1279e5U,
  0xbe15eaf7bd942026U, 0xbdd093f8bc943a54U, 0xbd3ab950bd29c00bU, 0xbdd6dcb9bd70421dU,
  0xbd0c1ff1bd3bf41cU, 0x3aa807a5bc968237U, 0xbd5ae79cbcf13a92U, 0xbbcbb703bd9817d7U,
  0xbe10d867bca5efb6U, 0xbdabcb1bbd2b7ab9U, 0xbd45724fbd8baed6U, 0xbdc6f8fabc661e26U,
  0x3d4fe5cebddb87d1U, 0x3d0725713d0d47cdU, 0xbd191615bc97cf1fU, 0xbda48d52bd909de2U,
  0xbe072c633c7b7fadU, 0xbd692c5abe0701eaU, 0x3cc99f5fbd044e12U, 0xbd843e9fbcb17b59U,
  0x3ccd4c4fbdef953dU, 0x3dda1d1a3d4ce3a1U, 0xbc9dd796bb97fc67U, 0xbd52176ebd3fb0f0U,
  0xbe246425bda1be5fU, 0xbc7a0ca5be0645ebU, 0xbdc2b5803aa51721U, 0xbce016823cac6d21U,
  0x3cacd4cfbd9cc46cU, 0xbd9ebe46bd6618eeU, 0x3d3ce62f3dded5dcU, 0x3c8be0cebe237ba0U,
  0x3da35b27bd460323U, 0x3dc1cdc33d64c36aU, 0xbd3a85113d8ba264U, 0xbc800f79bde61113U,
  0xbd103ed0bd1d8d26U, 0x3ab207cbbde708d1U, 0xbccea02f3ce460d6U, 0x3d60027fbe3f4e86U,
  0x3d00426bbd90326cU, 0x3aa94f783d74f78eU, 0xbd9f3214bb86023aU, 0xbc0f91c2bd901e15U,
  0xbd424beabcc0fa7bU, 0x3ca39990bd830f4dU, 0xbda7b80c3bbe95a4U, 0x3e003fcfbe42df0dU,
  0xbd6b205dbd8d48efU, 0xbd9240d53cda4758U, 0xbccf726ebd33c5c8U, 0xbcd8c994bde79639U,
  0xbcac43b93e0f13a0U, 0xba92c9fcbde025bdU, 0xbd707dae3c64535dU, 0x3de42b3abe29877dU,
  0xbde14eac3cb76bd6U, 0xbd01bbf93d88aed2U, 0x3cbe9a12bd636bbbU, 0xbc04f1a6bd4e7fedU,
  0x3cb89f713daccb2bU, 0x3af69d19bcc96c0fU, 0xbb83331f3d2c92e1U, 0xbc1e1d60be3a2e0eU,
  0xbca237323d2de642U, 0xbac9568d3c299533U, 0x3dbf5e7f3b27021bU, 0xbb3a35d23c39bc92U,
  0x3d088de1bc6f96b7U, 0x3d7bc8f0bbda4e0aU, 0x3cae75813d14d7b4U, 0x3c813afebded6da3U,
  0xbd9b77cdbd85e455U, 0x3cf70f66bcba8d5fU, 0x3d1ae5523d2d982cU, 0x3c9453cc3d87b197U,
  0x3c161edebd8520f4U, 0xbd5996f83d2e2a78U, 0x3c8c92313d964a80U, 0xbd4e5e15be1c81c5U,
  0x3db4b68d3d726f19U, 0x3dc621653d49a8cdU, 0x3cf8c20e3da41215U, 0xbd880fabbbcc3121U,
  0xbcf9b74cbd95c8d0U, 0x3d4776983c340710U, 0xbca0660e3c601e1dU, 0xbd300a8cbe1a8c8aU,
  0x3dc15de8bd8695cbU, 0xbd1acb1ebb02f8ecU, 0x3d58aeec3b2683d2U, 0xbdf854c23cbf77e8U,
  0xbd48d0debd54640fU, 0x3d5b643e3d6d7fffU, 0xbd493cec3c78fe72U, 0x3c6fec27be141bbcU,
  0x3c587398bd5301fcU, 0xbdc01599bd22cb60U, 0x3d16341fbd035272U, 0xbe047be8baa34339U,
  0xbcc30ac63d92e36aU, 0x3d5e3628bcc3bcbcU, 0xbd10b9793c077643U, 0xbd3c4297bdf3db31U,
  0x3b9ad23abd40453aU, 0xbc4c59f03d33ffaaU, 0x3c340430bd4a6ccaU, 0xbd801d8f3ca52a83U,
  0x3d6d7e323db01897U, 0x3bf411e33cc92d47U, 0x3cf9b54d3cd317faU, 0xbe1f1fe9be04969cU,
  0x3e000385bdb32674U, 0x3d3230c1bd0dffb5U, 0x3d87bbe93b60781dU, 0xbc8ff87b3d2aff21U,
  0x3d26b6653d198841U, 0x3d5d7b953d20af8dU, 0x3d1442933d3d5844U, 0xbe00b409bddbee65U,
  0x3d923f38bdbb4bcbU, 0x3d7ccb84bdb15c7cU, 0x3d4113d63d4922f6U, 0x3d1a863a3d902915U,
  0xbbb1a271bdb692edU, 0xbd33d231bc810ea7U, 0x3c66c50e3da3bec6U, 0xbccc7d50be21eabaU,
  0xbc90164a3dc9967cU, 0x3dd1c75e3c58838bU, 0xbd4a5dbd3e0b2db8U, 0x3cb21443bda669dfU,
  0xbd5dcfedbd87f294U, 0x3d690fe3bdad3f35U, 0xbb0a68123c36c3f0U, 0xbd404790be2b1cf4U,
  0xbd68de8ebc33c875U, 0xbd35ebd8bda3f583U, 0xbb6202f53d8ca202U, 0xbd7ed194bd994a6fU,
  0xbd8941c1bd796a27U, 0x3db3d90ebd037702U, 0xbcea8329bceb8005U, 0x3c942101be29cf38U,
  0xbdd0ea7bbd98c62aU, 0xbdda5ea0bd8de122U, 0x3c899efc3c38da6aU, 0xbe0d879cbe1f85aaU,
  0xbd1d5807bbf9d406U, 0x3d95d3c23c20c9b1U, 0xbcbd2e46bd0ca912U, 0x3c0444c5be0d6bd6U,
  0xbdc61937bd45f35bU, 0xbd5dd50c3d3e9f73U, 0xba930a1abcfd237eU, 0xbde4810bbdf0d4a4U,
  0x3d3dd792bc8e6797U, 0x3d20caa93c98894bU, 0x3d3f35d0bc242362U, 0xbda5adf6be1ea516U,
  0xbd2063aebdd87e23U, 0x3bd8a7f8bd6d6a19U, 0xbabc6e033c407329U, 0xbc709d70bd874b8fU,
  0x3d2d2864bbb4bcfcU, 0x3d6eefce3c7c1990U, 0x3d8393a63d21a0a1U, 0xbca25c9fbddeead9U,
  0xbd4c0bfbbd7d923eU, 0x3d639cb1bdc824d4U, 0xbcd55c073d977009U, 0x3d902afebd31e193U,
  0x3cba4884bc50b262U, 0xbcea5f3b3d2f121dU, 0xbd6d10d2bd065e79U, 0x3da8265a3d61ccb5U,
  0x3cae012abb8b2052U, 0x3d18831bbc3f013bU, 0x3ccc4b1abd46fddaU, 0xbdba1fedbd123771U,
  0xbc4adbe5bc95e16eU, 0x3bdf10963d3af155U, 0xbd056b92bc3703b5U, 0x3e02ed493d08d390U,
  0xbb5bc059bd03dfaaU, 0x3c8000e0bc6e26c4U, 0xbcad865fbcf1c3c0U, 0xbda3bf51bcbc2116U,
  0xbc5a1e42bc133728U, 0x3cc2f0f63d4efbbeU, 0xbd0fa53f3ad4b145U, 0x3d9b69693c29faa8U,
  0x3c81ba65bccdb4c5U, 0x3c43171fbd25038cU, 0xbce9737abc99efb9U, 0xbd55d435bcbd961cU,
  0xbbc095a1bc1e16b4U, 0x3d20474e3d4a25cbU, 0xbd240542ba240c53U, 0x3cd4dbfa3abee4ceU,
  0xbcbb283ebc4c4902U, 0x3bf71004bd2e2987U, 0xbc4994abbceedfe0U, 0xbc580f923b6d89b8U,
  0x3c508ff23cbd0521U, 0x3c22284f3d55f8a9U, 0xbd1fd1f1bccfbed8U, 0x3d890713ba72ac05U,
  0xbcbdb48dbd219d45U, 0x3cd759a2bd0a2d19U, 0xbcce5edabd41e7c3U, 0xbbfd729e3cb9c68fU,
  0x3d0ea9af3d85e2f9U, 0xbc02730f3d48026eU, 0xbd697ba8bd16b9bbU, 0x3d9d0f21bbe0d660U,
  0xbcee7c0fbc82f88bU, 0x3d39558a3c314bfaU, 0xbcd5bc34bdb7c8d8U, 0xbd175d2d3c2da6baU,
  0x3cb196dcbcba4c2fU, 0xbcf96a933ccf83ccU, 0xbd43d25ebbe9f3c6U, 0x3b123c963db18236U,
  0xbd389412bb504589U, 0x3c7293fcbd3140f4U, 0x3c7b21f9bce87678U, 0x3c695977bdc17d4bU,
  0x3c62ea25bd56af94U, 0xbb5cecb43cac3c31U, 0xbd0c692c3ac323bbU, 0xbc045a4f3d34e22cU,
  0xbd622499bc9fc6eaU, 0xbba16206bbb94c5eU, 0x3b8bd5dbbb277755U, 0xbc17c56abd877769U,
  0x3be4c36cbc973d8fU, 0x3d3e07fa3d19985cU, 0xbcd8e9023c5bcd11U, 0x3cc30a9d3c6193dbU,
  0xbd161adbbcc4ef71U, 0xbcabdfbbbd2a4ed0U, 0x3ca008c0bbd859faU, 0xbca43012bc824af8U,
  0x3bc23254bc623721U, 0x3d6b68e23d400049U, 0xbc3609473d042592U, 0x3c3f4e2bbb17db41U,
  0xbd0e1429bcdee009U, 0xbcaf1002bddf9a18U, 0x3d10d909bcbb96feU, 0xbae8061cbcd77029U,
  0xbb6ced1c3b74f676U, 0x3d1a79c93ccf18d1U, 0x3c1fee6a3c3c773bU, 0xbb9d598d3a989898U,
  0xbd43e151bd02dc9aU, 0xba7126dbbdada5e3U, 0x3d65f6fabd221dcfU, 0x3ce85645bcf40c33U,
  0x3bfee9333d44f8cbU, 0x3aec5104bc74e1bcU, 0xbbc7d2a8bc191510U, 0xbccd7abc3cda3497U,
  0xbd9456b4bd0408ebU, 0x3c9a201fbd159ec5U, 0x3cba43d8bd91b856U, 0x3d3c5ff3bd1c5dc7U,
  0x3c4832c33c958f39U, 0xbcc34d773bd74b20U, 0xbbae49c73bbeb931U, 0xbd3add673d982656U,
  0xbc88f57139ade1b4U, 0x3d43bed3bd404367U, 0xbbc284d53c54d72fU, 0x3d304c62bd2c1f95U,
  0x3bdbbb51bcd8986cU, 0x3b933e74bc29ef5fU, 0x3b8d87b43c25beadU, 0xbd83b2503c23badbU,
  0xbc7beea2bc6f3471U, 0x3cd1d2843c8f3ec2U, 0xbc2d9e853d08c1beU, 0x3ca99a2dbced7638U,
  0x3b98ae75bc3efeecU, 0x3d6b039fbbafbc6dU, 0x3c8703423c618708U, 0xbd6fd2f0bc9cf3d4U,
  0xbca32985bbbe74afU, 0x3c2ad9a1bcd64ee1U, 0xbbff72773d18360cU, 0xba62ccd2bd236c64U,
  0x3c5206e6bd116ef7U, 0x3d8ed066baaf86bcU, 0x3d1a751b3cb25cafU, 0xbd238963bcb8045fU,
  0xbc642a65ba906c9fU, 0x3b9ca444bdae029bU, 0xbd477a2e3c5c0850U, 0xbb381050bd8495a3U,
  0x3c76b7aebd4cb2feU, 0x3d1d237bbcc96f32U, 0x3d45eb733ca14da5U, 0x3bb45b4ebc9c136eU,
  0xbcdac62cbd085d36U, 0x3bce7ae3bd87e666U, 0xbd20ef83bba2c540U, 0x3cc244cebba458c8U,
  0x3b8d7eb0bcfa8b13U, 0x3bc4e553bcf6b9ecU, 0x3cc3f9bcbb11668aU, 0x3abc5d4abc7e6a8eU,
  0xbd636e29bcbde28cU, 0xbc720d75bbe7c2e1U, 0xbd0ebab6bd1624baU, 0x3d6524f43d0d294eU,
  0x3c7c9b89bc96dbafU, 0xbb9aa026bcb3a20cU, 0x3c4530183ba27336U, 0xbd6e59ba3d95595eU,
  0x3d42986abc48e764U, 0xbc2b8df13d4ffa53U, 0xbcbaae533c8a6dc7U, 0x3cac26c63c7b1b0aU,
  0x3cc05322bd3d2469U, 0x3c498babbd3c7401U, 0x3ccf17eb3c2d770fU, 0xbd9c69003cb3aa69U,
  0x3d558855bc82de28U, 0xbc9f4cf83d384042U, 0x3d0aae563cc0784cU, 0xbc883e41bcc22a13U,
  0x3c16d2ddbc617921U, 0x3d882dd5bd861e05U, 0x3ce4fc303c6c04f1U, 0xbdb2c7c93c4c3d42U,
  0x3c50dbbabb1eda2eU, 0xbcc50cf23ccd9d37U, 0xbc1d6d513ccdf817U, 0xbd11dc87bc77e3ceU,
  0xbafef1eabc7df7fcU, 0x3d8e6ea1bd079d4dU, 0x3cf58d903cd4c776U, 0xbd88cf533c5328fbU,
  0xbc8df93f3c5d002eU, 0xbcdbfeccbcc2ce79U, 0xbc4f90783c96434dU, 0xbd570814bcc11bceU,
  0x3b8996c1bd1d4853U, 0x3d2cb310bb53dc3eU, 0x3d62b9713cee97d4U, 0x391753da3c923d89U,
  0xbd1f6539bcd6913bU, 0xbd4c3e5dbd0ed5eeU, 0xbd03ab453b3e6419U, 0xbd4afd153cfe5e0eU,
  0xbb9e891abd5c2a23U, 0x3c8a7f24bc2e396aU, 0x3c5f70e03c43b931U, 0x3c782a163c99ac18U,
  0xbd981a4dbd7ea0a9U, 0xbd7533753c680548U, 0xbd265161bcb55637U, 0xbce0ff613da6adf2U,
  0x3bcaee4bbd3f110dU, 0xbbfb11febca1cafcU, 0x3caa2549bcecd5a2U, 0x3ca06b2a3d468fb9U,
  0x3d51434fbcd1b628U, 0xbcb511dd3d33ed4fU, 0xbd89305d3c3e76c7U, 0xbcf727133d236fa8U,
  0xbb135e69bd7289e4U, 0x3cae676bbbec7ca9U, 0x3d129779bcc9ee80U, 0x3d33b9563c7cf6b0U,
  0x3d206d2bbce8597dU, 0xbd0883983ccfc052U, 0xbd814314bbe33769U, 0xbd35d5aebd6000d1U,
  0x3a0c49bdbbe01e1aU, 0x3d4a7cdcbc2e3395U, 0x3d149867bc799869U, 0x3c648a353d091371U,
  0xbb82b5c1bc11e526U, 0xbc7dc539bc48aa66U, 0xba8fa510bbb8795bU, 0xbd5e9ddbbcfc0581U,
  0xbca37c6cbcdb198eU, 0x3d898161bc0e78ceU, 0x3c43f0c33b7f8316U, 0xbb98e6e03d555f17U,
  0xbc97ee213b29b7c7U, 0x3a5f0f8cbd5810f6U, 0x3d47186cbc96d3f4U, 0xbd7e2ef8bbd3b60fU,
  0xbc267d7a3d0fb2b1U, 0x3d47cc123bd9f30fU, 0x3d17fc543ba9320eU, 0xbb8284e43d7ebd9fU,
  0xbd317c3bbc64acf5U, 0xbc8f469dbdb99dbeU, 0x3c4749cbbc0ea28aU, 0xbd89fce3bbe401a0U,
  0xbcbad3da3d1687d3U, 0x3d1034de3d03088bU, 0x3ca1a087bb8abee9U, 0xbc41d2f73d5c8828U,
  0xbd9f5ad0bc1fc344U, 0x39dd213dbce7e5f2U, 0xbd18bda7bc478104U, 0xbd414fe93ce3c6deU,
  0x3c83ef873ca482fdU, 0xbcb4e95d3d6e39abU, 0xbd001c5fbd2e8ed5U, 0x3da74dd5bd648f57U,
  0x3dc2bbfe3d0165f0U, 0x3d63ad713b9ad640U, 0xbd1affafbcebc348U, 0xbd36d7153dc52126U,
  0xbc82cf4cbd48073fU, 0xbc179c213d90f5f6U, 0xbcadc4f7bd4ab0d2U, 0x3de14ba5bd9e1049U,
  0x3dc040d43a330e0bU, 0x3cce8182bcc875d7U, 0xbce90015bd4fa5b2U, 0xbd5571843c13fb8cU,
  0xbc1c22fa3c1784d0U, 0x3cde3f793d97218cU, 0xbc7dd891bcf8e7f0U, 0x3deca900bdbbc3edU,
  0x3ccf8672bd3eda19U, 0x3c8c2cc1bc5b6dbaU, 0x3b2c32c3bd5cfe20U, 0xbcf7c598bd22b767U,
  0xbc47450c3d436cacU, 0x3cb7ae373d973022U, 0xbcad1ce6bc56227dU, 0x3df6613dbda6821cU,
  0xbd013216bc7a57f7U, 0x3cda7db13c4d2e3fU, 0x3bc66d16bd4a49b2U, 0xbcbbc1d9bc9dac24U,
  0xbc13ed003d9e21b3U, 0x3c6126ff3d8d8b64U, 0x3b5a881dbc697198U, 0x3db9b7a0bd8143ebU,
  0xbd208ff8bd3704fcU, 0x3d1b1224bd398c7dU, 0x3a4a43c5bd28d5a6U, 0xbc5debad3c951e75U,
  0xbc8b3c8e3d931c3aU, 0xbc4413ac3db2de3cU, 0xbc688246bc61b078U, 0x3c9338d3bd3306dcU,
  0xbd5d7bf43cd549fdU, 0x3d5eb85dbd5e4cb6U, 0xbd028636bcd66638U, 0xbbd05bfa3d495a61U,
  0x3d25000dbc15b63dU, 0xbdb6c41f3d951173U, 0xbca233a3bc360de0U, 0x3bd68eca3dc10e56U,
  0xbe01b5f5bcbf54a5U, 0xbc921cd03c6bd170U, 0xbd664aa0bd918883U, 0xbe1c47c73e0c4ab4U,
  0xbd7b69debdb8f7c4U, 0xbd57b9b4bccdf84fU, 0xbd21db39bca193e5U, 0xbb6092fc3c5a7de8U,
  0xbdc1887bbd86fbbaU, 0xbd00374b3e2d781cU, 0xbdf50c55bd519d6dU, 0xbe0437923e3c7e7cU,
  0xbd3217dfbd5c1ecbU, 0xbcd0fb7abccade49U, 0xbd989123bd0615e2U, 0x3cad8a6bbd414debU,
  0x3d9adfadbdb832a7U, 0xbd9c12383e75762bU, 0xbcfa507ebcf6d817U, 0xbe1c49703d0775a1U,
  0xbc19fc213d647982U, 0x3cf4ba743ce77f4cU, 0xbd27f831bcd7b3bfU, 0xbc573e18bcc47899U,
  0x3e222757bd96b673U, 0xbdc952293da247c1U, 0x3d05d1acbd5f4ea7U, 0xbe0e1ca8bdd0885cU,
  0xb8ab78983d3c500eU, 0x3d2fb1d63df21e1cU, 0x3bcf52b9bbb069dcU, 0xbd29c5e7bd0b457bU,
  0x3de041f2bd641b38U, 0xbd860793bd66ac93U, 0x3c09e42abcb42c31U, 0xbdbef61ebdb2c6faU,
  0xbc0e59883d5e95f7U, 0xbcb04e693d4fbb5cU, 0x3d2540073c290691U, 0x3c88f707bd39eec2U,
  0xbc37825abce94735U, 0xbcce2f50bdd2d9feU, 0x3cd5000fbd192d44U, 0xbc63a282bd28f9afU,
  0x3c977fc23d639608U, 0xbdb71be9bba3ac71U, 0xbb3dd0763ce21106U, 0xbd0fbc1bbca9ab9fU,
  0xbd838cbabd072933U, 0xbd6dd3e73d35f1e1U, 0xbd3b064dbc889d04U, 0xbdaa99d43cf3155eU,
  0xbd5e379dba23fdafU, 0xbd01f0e0bd14f47fU, 0xbccc650c3c87eb7cU, 0xbd86f9d4bd8dff12U,
  0xbd607256bd2096e1U, 0xbd216d503d92a6b4U, 0xbd2ff9abbca93569U, 0xbd7f45773caa3f20U,
  0xbda5a0f4bd547b10U, 0x3b74d9a93c371da4U, 0xbd45fd89bc76cbd7U, 0xbb3ac36fbd8504ccU,
  0x3d4038a7bcd0750dU, 0xbd81a6483d8deafbU, 0xbafc6602bc10af79U, 0xbdd26924bd9ca5b0U,
  0xbcfd20873996cc52U, 0x3d38709f3d6f8090U, 0xbd38c745bcf9a120U, 0xbd775ff2bd397fc3U,
  0x3dd01756bd9cde8bU, 0xbd173474bc932c87U, 0x3cbcb742bd939f5cU, 0xbe067f51be04655dU,
  0x3b6127873c8decb4U, 0x3d6a4b5a3ddc6446U, 0xbcacde16bcbf7fbeU, 0xbdc690e2bcd36d18U,
  0x3d51de88bd8234d9U, 0xbbf2360bbd8fd745U, 0x3ce64a1dbd3aecceU, 0xbdaaf273bd9ab55bU,
  0xbb90642e3d988c24U, 0xbc362daa3d992f10U, 0x3c56a815bbbab73dU, 0xbd1993ddbd0bedb5U,
  0xbc11a63bbd91e9ebU, 0x3c94151abddec4fcU, 0x3d433769bd54520eU, 0xbc8cebfabd126cadU,
  0xbbcf062c3d524f1bU, 0xbdcd63e9bdae019fU, 0x3d36f7ea3d5ed170U, 0x3bf4fb0cbe1a50cbU,
  0x3bc95d5bbc96b81eU, 0xbdaf04f13dd9e212U, 0xbc49fbb63cdf4d35U, 0xbd21f71a3cd1507bU,
  0xbd758c12bb49d4aaU, 0xbc7c0c14bcb3f5bdU, 0xbc7fd1c03ce4cdc9U, 0xbd4767ccbe14f077U,
  0xbba5b99bbd016716U, 0xbdca40d33d721fd4U, 0x3c045bd8babf4b26U, 0xbcb53fdebc8cb516U,
  0xbdb2368cbd276fdaU, 0x3c975e6a3d690d26U, 0xbd488aa9bc2c3c71U, 0x3d86025cbe0295f0U,
  0x3d09c7ccbc19ad54U, 0xbdcdbd473d4d9dfbU, 0x3bc1542ebc9545bfU, 0xbd6af73bbd8ac59bU,
  0xbc3980f4bd1ab7fcU, 0x3d278fb23d36d87cU, 0xbd0e9b24bca7d52bU, 0xbd1f2586bdc343ebU,
  0x3dbdbf9bbd043d4dU, 0xbd61ac36bb2874cdU, 0xbb38bcb3bdb11935U, 0xbdac1323bdf720deU,
  0x3bd7218ebd7735adU, 0x3d3d78173d6cf005U, 0xbc90a059bc899e76U, 0xbdb72559bd49a3a4U,
  0x3b5082fcbdf335adU, 0xbd5b7a7dbd99e756U, 0xbd30e621bd3f3d34U, 0xbd352bdebdab4beeU,
  0xbae5a6ca3bd01079U, 0x3c348b2d3d691fc5U, 0xbb04b537bb9159afU, 0xbd986dadbd026c3fU,
  0xbc3ff86fbd9ed898U, 0xbd076de4bdbc4726U, 0x3bfd87febd13b6ccU, 0x3cab804cbdc05d7eU,
  0xbc7a805a3d924866U, 0xbdef70d2bd25d20aU, 0x3d8b26b23d719a63U, 0x3ccf925ebe0cc0c0U,
  0xba72b8ad3d7d2cb4U, 0xbc6273443e1080ffU, 0x3ccde46c3d00db09U, 0xbd96938cbc04daaaU,
  0xbd9aabe3bd68fd51U, 0xbcc658febcd629c5U, 0x3a4ed7053d2a4465U, 0x3c562141bd936d6bU,
  0x3adbb142bce135f1U, 0xbdaab667bc687457U, 0x3ce3d1fd3bd71715U, 0xbd903578bd460ec3U,
  0xbd8141b8bd35d319U, 0x3c954f213db82893U, 0xbcaed368bc8919acU, 0x3d231dc9bd446146U,
  0x3cc19847bbe39fddU, 0xbdeac9d2bcbf0965U, 0x3d160864bd10dc28U, 0xbd705e11bdc0f3efU,
  0x3c27e394bd40a7ddU, 0x3ca5009b3d077ad0U, 0x3b241b7cbc73ee14U, 0xbca13fb5bd215ae5U,
  0x3da563a1bd46d893U, 0xbd9920bebc89a8e9U, 0x3cea20b6bd7444c8U, 0xbd27d67cbdbe35ffU,
  0x3b8a34ebbd311afaU, 0x3d0e7b89bccfb640U, 0x3c51fa10bbcb5363U, 0xbc95a03dbcb716f3U,
  0x3cdde1b9be1aca58U, 0xbd88cdf7bcb89d50U, 0xbcbe46bdbc6a7a92U, 0x3b585e94bd45f1deU,
  0x39f964c9bcdeec56U, 0x3c04f65bbaac829dU, 0x3cfb82a0bb5573c3U, 0x3c97a61a3cb5158fU,
  0x3d4ab7b4bda7deceU, 0xbd192c27bd08ef66U, 0x3d0d852bbc2c4ec5U, 0x3d21c73ebdb9fd8dU,
  0xbcfd73e33debd95eU, 0xbdfeac39bccb4913U, 0x3d8bacb63d75104eU, 0x3b3d0c54bd460912U,
  0xbdbba89f3e03af95U, 0x3d769a583d9a3628U, 0x3958fbc93ccdc173U, 0x3d4b95d1bd40957fU,
  0xbd9e209b3cfde26cU, 0xbd256652bcb90eb1U, 0x3ca8812a3d35557eU, 0xbc1c05c5bd0b1dbbU,
  0xbd98fa32bd0a6184U, 0x3cdb55a83c45ae0fU, 0xbca479783c17dc26U, 0xbd2492da3c6f28ddU,
  0xbd21c23d3d06bcaeU, 0xbb9466d13c881c5fU, 0xb97f0bc0bd22a607U, 0xbd8665cabd2374bcU,
  0x3d9e5d9dbce9e285U, 0xbd024a84bca805e0U, 0x3bc4b75dbd01ee04U, 0xbd3f9319bc99c486U,
  0x3d42381ebcb9d82aU, 0x3c844197baa2e1d2U, 0x3c96142dbd0041d1U, 0xbd88e28bbd106536U,
  0x3daad661bd8187cbU, 0xbd1973133bb75b85U, 0x3c300b4abd4d4594U, 0xbc9ac7d7bd876750U,
  0x3c90a210bd31aac4U, 0x3c918d14bce8e725U, 0x3d2abb05bc22649dU, 0xbd45a1e6bd1900c7U,
  0x3d56f937bdf9fd4dU, 0xbd21d3d73b549e73U, 0xbc6f14f53c8402acU, 0xbab69afcbd1155bcU,
  0x3b391226bd09a2b3U, 0xbbb58553bad600bfU, 0x3d623c90bc04ea8aU, 0x3c3b38dd3be09dddU,
  0x3d82cf28bdd64b01U, 0xbcad5695bd5f73d5U, 0x3df599663b80bebbU, 0x3d0956e2bd9c8031U,
  0xbcc5a1133e4b45dcU, 0xbde0e88a3d85c57dU, 0x3d7e25713d5e8373U, 0x3d93eef3bcf3263cU,
  0xbe2dc4bc3e1cdbf6U, 0x3d50246f3a906429U, 0xbc6acc343c75c4d8U, 0x3e4237cabdb69143U,
  0xbd8ee2173df91f7cU, 0xbd5c966a3d081fe0U, 0x3d1ab2973d01f582U, 0x3d87a425bd8eb720U,
  0xbe0aaad53d8fcabeU, 0x3dcb2d033da408e1U, 0xbd7598343c828669U, 0x3daa3fd0bcfbc719U,
  0xbb66a3e43e0b257cU, 0xbc84a0363cfa7261U, 0xbb9ae1c9bd54c365U, 0x3d18f926bd908995U,
  0x3e28df713cd2f8e7U, 0x3d5f58c23d336cd7U, 0x3cea9f71bd3d130cU, 0x3bfe59b6bd0c3557U,
  0x3d59983e3d9801f0U, 0xb9a514b43d2f7a29U, 0x3b65ec12bc8b7870U, 0xbaeacdc8bceea1e8U,
  0x3e2e0fb2bd291ce7U, 0x3c80799d3c4a0150U, 0x3d99a937bd5a7d3dU, 0xbbef0011bd8cf105U,
  0x3c5e86023ccd37bbU, 0x3ca829993ceaf7fbU, 0x3c97e6c13c0434dbU, 0x3a0abf83bd1ac3aaU,
  0x3dd45135bd5b4a77U, 0x3b78d3e63cdcc134U, 0x3d30df973cf7a962U, 0xbbef8729bb866431U,
  0xbc185026bb67632fU, 0xbcddf96c3d5bb3c9U, 0x3d6376403be0b428U, 0x3d21b6a3bd101005U,
  0x3d69c6b6bdcde40bU, 0xbc4077bbbce701cbU, 0x3e18caa83d076473U, 0x3c1ff10bbd24be3fU,
  0x3d1cbc3cbd1f061cU, 0xba216108bd3a2ff2U, 0xbc8dd9c93c91d9c0U, 0xbdfce0df3b9fccf4U,
  0xbc3ad326bd0a351eU, 0x3cae14a4bc9267fdU, 0xbce5432dbce72bdbU, 0x3cfa00b1bddc6b72U,
  0x3d00c93abd230e98U, 0xbaaa4a40bd6da8ffU, 0x3b5206853cd2ae8eU, 0xbde2e3cbbcb27177U,
  0xbd582324bd809294U, 0x3ba8f45cbd104b68U, 0xbd5dfd4bbc251256U, 0x3c1c08e4bda3d593U,
  0x3cf8dd53bc5ee5ebU, 0xbc162901bd52681cU, 0x3cbf85493d80139aU, 0xbde848ddbd3de5edU,
  0xbdb5c676bd837bf3U, 0xbd16cfd3bcf6210bU, 0x3c02516d3c5023dcU, 0xbcaa2725bd5ca9edU,
  0xbcaec8bd3b82fccbU, 0xbc761dcfbd5837faU, 0x3d137de43d3d2419U, 0xbdabf3b5bbf25ecaU,
  0xbe30aa6cbd8a7511U, 0xbd01d3f5bc39e016U, 0x3be769c4bbb07911U, 0xbcfe637bbd757d24U,
  0xbd05e911bc427e7bU, 0xbc8ec04ebd4f4c37U, 0xbcfa0ac1bca87d6aU, 0xbd5b93523a5a4ceeU,
  0xbdf48789bd44b9ecU, 0x3bf07c33bbf5956fU, 0xbc716024bd53b1adU, 0xbcbc1f76bdd22905U,
  0x3a51990ebbaca8deU, 0xbce028e4bd02bef2U, 0xbd50a16dbd1762ebU, 0xbd34b037bc0f7564U,
  0xbd66e0f5bd739265U, 0x3cdccb3cbc130f8bU, 0xbbc5a91ebda15901U, 0x39ba30eabdc5000aU,
  0x3d38bd1bbd108877U, 0x3d224c35bd2a63eeU, 0x3d329aa33d326e52U, 0xbd9a2d413d8deb50U,
  0xbd39f358bcc5c7ffU, 0xbd351db6bda8c2fbU, 0xbd063e973c9ca6f8U, 0x3d35f5c8bdd83bb8U,
  0x3d188d1ebd25a86cU, 0x3d185b67bd6a77e7U, 0x3d85388a3d4d87ccU, 0xbddafda13d0f9c82U,
  0xbda1254dbbbbbe9cU, 0xbd163040bd888672U, 0xbdb5d4cb3d44a4c1U, 0x3d066f81bd930caeU,
  0x3d242a02bc5fd328U, 0x3cd6a586bd66810cU, 0x3d93c93a3d7999b3U, 0xbdf887163c5e6685U,
  0xbd805d30bc02caecU, 0xbd637a47bcb4266cU, 0x3c2c12763d401e45U, 0xb9f157b2bd7a0b49U,
  0xbce5d074bb66b718U, 0x3cde6149bd6cf1e9U, 0x3d9e0c443d111e7dU, 0xbdc101293d90e03eU,
  0xbdcb1e72bc710b6cU, 0xbd403d44bb4336e9U, 0x3d1044a8bc0af330U, 0x3be9d81ebdeaeddaU,
  0xbce906debbda34c9U, 0x3c3da5b6bd3da255U, 0x3a38e1f3bc8f37edU, 0xbce7b4bd3da3bdcdU,
  0xbd9ee94dbbff5bf9U, 0xbcba9dc33c14fb4cU, 0xbd1260cdbd580c2bU, 0x3d2a6bdfbdd257a1U,
  0x3c24475c3d1bc12bU, 0xb9370794bcfa5be2U, 0xbd13b76abcde52ecU, 0xbc9b45ba3d71ebf0U,
  0xbd95a3fc3bde7a57U, 0xbc68d5693c75bad3U, 0xbdcc8cb1bd83a824U, 0x3d885babbccaec41U,
  0x3cb9c397bd2f41c5U, 0x3d28a5ea3cd77712U, 0x3d92372e3d1781c5U, 0xbd1b30e83dfe1909U,
  0x3c479204bc5b0a32U, 0xbcbec604bdd621e3U, 0x3c7345833d743d00U, 0xbab3b6e6bd88336aU,
  0x3d163ca9bd48e29dU, 0x3d680284ba989cf9U, 0x3da25fe63d1f6459U, 0xbdb0ba993d83577eU,
  0xbd6f46fd3d081216U, 0xbcf8591abdd48c5dU, 0x3d316e213d7d78a0U, 0x39e3fa9cbd1979cbU,
  0x3ce55337bcd8d6baU, 0x3d327787bd08a010U, 0x3da066ac3ce7ffc4U, 0xbd930ecc3d9916ebU,
  0xbd1c2e223d5a6c55U, 0xbd07ce4fbd87a75eU, 0x3d9b37b43d56ec4aU, 0xbbe4c70ebcead22aU,
  0xbcfaf3563b935305U, 0x3d74dde3bcb381d4U, 0x3db0dbdb3c660364U, 0xbb849bdf3e055a0fU,
  0xbdd313f53d4a418fU, 0xbce3024abd7b7aa1U, 0x3d1b0fc3baf4bda4U, 0xbba43de9bdb4c461U,
  0xbc8c4794bcac8960U, 0x3d3edba33ce066f7U, 0x3d0f8ccabc73bbb7U, 0x3d04c4673e03c8a3U,
  0xbd2944d23c9e4590U, 0xbd012772bde946e0U, 0xbbc52c27bd11f0dcU, 0x3c80ffe2be02469bU,
  0x3baf9fefbd01a8c8U, 0x3cda2a9b3d1e676aU, 0xbbfbab80bd0c57e4U, 0x3ca5e64e3dfe65eeU,
  0xbda7e8d0bb8a6c95U, 0xbcf3546dbde88648U, 0xbd3240b9bd2d83e9U, 0x3d2126dabdbd5156U,
  0x3c267769bd2ccc84U, 0x3c0cd1d33ca477ddU, 0x3d02fbf93caf3d48U, 0x3c832cdf3d73de0fU,
  0x3d9c31743a2a8e94U, 0xbac6774339003e74U, 0xbdc0f0cf3d46015fU, 0xbdce782d3b1341b3U,
  0x3d0ba49bbcee7e68U, 0x3d0a27d23cb06019U, 0x3d202f023d0ec089U, 0xbd0f81483cb049e0U,
  0x3b86711d3d6c24e1U, 0xbce6a0163d199f09U, 0xbda2eb1e3d0e23f0U, 0xbda86713bd86f068U,
  0x3c71abb5bc1288e6U, 0x3d1e98c1bd2891d4U, 0x3d63b3f23ca57335U, 0xbd53e0393ccaf013U,
  0xbdc594cb3d99b172U, 0xbd07220abaf9c167U, 0xbd78a3893d06b365U, 0xbd872683bd85505fU,
  0xbc8d45c43c2e67d7U, 0x3d335f76bd857442U, 0x3d3553a6bae26fbcU, 0xbccbdc2b3d5809acU,
  0xbddfe6633d2c644aU, 0xbcb71c603c933dccU, 0xbd8045dfbc0908c0U, 0xbd4d03d93b0c3c89U,
  0xbc2e74803cd6a846U, 0x3cf5eeb3bc885bb3U, 0x3cd86bf5bcca4ab3U, 0x3d20b4623d436feaU,
  0xbc7d39913c9f2cb2U, 0xbd19bb3b3cb0212aU, 0xbc388f2fbd17cf51U, 0xbd373c73bbe247d6U,
  0xbcabdd2f3cbce600U, 0x3c5f849f3cd45172U, 0xbc5f9e9abd3bc31cU, 0x3d4ff5093d80442fU,
  0x3bb2b318bd23c16dU, 0xbd1be0f7bce5d29bU, 0xbc1ca9f8bd6d79e0U, 0xbd8334bfbca60fd6U,
  0x3add9974bdc72feeU, 0xbc90a623bbf050acU, 0x3cf710113d1054a4U, 0xbd902bb6bd42e7d1U,
  0x3dac3d9c3baac2a6U, 0xbbdce7e33c9ef069U, 0xbc84de533d8256c6U, 0xbd858a193e0bb3eeU,
  0x3d0428ecbdb71495U, 0x3cdf82d8bcd429c6U, 0x3d1af6673d056f09U, 0xbdc9ef42bd78fe70U,
  0x3d3121683d22c33dU, 0xbd894424bcea8424U, 0xbd84816b3d324fccU, 0xbdb36d443df0924dU,
  0x3c13a300bd6c30f9U, 0x3cf875bbbcda3e79U, 0x3d4dada53ccab8b2U, 0xbdb8dae9bd695554U,
  0xbd72e7fe3da769f6U, 0xbd9a9ecfbd25c283U, 0xbdc372943d678fbaU, 0xbd6aa0de3dd76454U,
  0xbcca4c3fbd64403fU, 0x3cc4a387bd1cf1fdU, 0x3d34a26b390f5a50U, 0xbd896219bd3fde25U,
  0x3c6fc57b3d794c02U, 0xbd632cf5bca9c85fU, 0xbd1099203cd2cf1dU, 0xbc8f26fc3e0eae7dU,
  0xbd1235d73c008404U, 0x3b812c853b81bf92U, 0x3cedf7f3bd1ca669U, 0xbc92857dbd026c90U,
  0x3dbda1113cc4058bU, 0xbd5e6da83bca1b30U, 0x3c1af7fcbcc2482cU, 0xbcad489c3dfc8992U,
  0xbd2c4e9a3d12ac93U, 0xbc7515613d1b0be4U, 0xbcef0e42bd277090U, 0x3bb3bb89ba7751bcU,
  0x3dcaf78fbc86ca5dU, 0xbd02be73bcf4657dU, 0x3cbb7b9cbd615c29U, 0xbd5c483d3d6f69d4U,
  0x3c9012bfbd4ce198U, 0xbd3b23d2bc4c6868U, 0x3cc985983ce3d738U, 0xbe087f3abe2b177aU,
  0x3c79a10b3c60c8aeU, 0xbc7600fabd00be30U, 0xbd8a32253da40990U, 0xbd5730843a27b45aU,
  0x3cb084a8bbfc44b5U, 0x3bafe81e3d0ede05U, 0x3cec11d63d099310U, 0xbe1ece43be03dde8U,
  0x3ccb1f16bd1154aeU, 0xbcc572a9bdef6654U, 0xbd4509613da06192U, 0xbdc9b1b53da1b36cU,
  0xbbddfd6f3d78297eU, 0x3d14bdda3d151cc8U, 0x3d423d753c90b2a3U, 0xbe50e778bdb2410eU,
  0xbc4b01debd9b3d58U, 0xbc8d0fdebe353222U, 0xbdc4c4763db64127U, 0xbdd8b7063d40c98aU,
  0xbd206c4d3c8f8b17U, 0x3d0cea28bc4f7443U, 0x3d1955a7b8e31669U, 0xbe0c4886bd7a0bd0U,
  0x3d597031bd493cbeU, 0x3c1f298ebe13e849U, 0xbd7c4c443d5f47fbU, 0xbd90f31abc2435afU,
  0xbd44d5b63d1eb8acU, 0x3b4ec0663d42ef68U, 0x3c637c7fbd398fbdU, 0xbd4dafccbda17ca0U,
  0x3da35b01bd2e27b8U, 0xb99b67fabdbe681dU, 0x3d1827193b8cb9fbU, 0xbd7048013c227591U,
  0xbd6d5f843c58dca6U, 0xbc6f65543d57e96aU, 0xbd062419bd279808U, 0xbb290e7bbd97691eU,
  0x3da088adbd3bc525U, 0xbc33ac81bcdb8e96U, 0x3c5eb3eabd0239d5U, 0xbd1eddea3ca2a086U,
  0xbd42cbccbdcd890bU, 0xbda37d4bbcfb165bU, 0xbddac15fbd0ff289U, 0x3e4dfdad3d547b2fU,
  0xbd63a0e43c7c36c7U, 0x3c98fb14be85b464U, 0x3cfea2073ca9c0b5U, 0x3d1d6b97bd884176U,
  0xbd6e4eb9bddc888eU, 0xb88b72dc3cb12b51U, 0xbcc2c3aabcdfdd74U, 0x3d97a2333e0d6f74U,
  0xbd64745cbc35fa5bU, 0x3bbc3cc9be865ebfU, 0x3c3a29c2ba91a456U, 0x3ccdc265bd1e180cU,
  0xbd6bc077bd4a5a74U, 0x3d5c7bd03d4aa0ccU, 0xbcb1d6f3bd3df7b8U, 0x3e1c79793e561a63U,
  0xbe4e314fbd0f83c7U, 0x3c886300be4d860aU, 0xbd94507abd75396eU, 0x3ccd5ad4bd54e6c2U,
  0xbdf534d1bcf80cf7U, 0x3d2ea9213dd6dabeU, 0xbd583609bd7a9ed0U, 0x3e6a5ae93e14a215U,
  0xbdc733873c384489U, 0x3d2c2ba5be1f510bU, 0x3969e7afbdc4cd55U, 0x3ce41a21bd8aef64U,
  0xbd9ca25d3ce1d1e3U, 0x3cf8e9ae3da63d76U, 0xbd52312ebd9ae561U, 0x3e648cc83d81f72eU,
  0xbd8b5f353d37b2dcU, 0x3da511ddbe321848U, 0xbc937001bd71daa7U, 0x3d34b33bbddddec5U,
  0xbd343eb33da834a5U, 0x3d938fca3d12332fU, 0xbd4aed64bd4df25fU, 0x3def44ff3db940f4U,
  0xbda0d8383ca33a14U, 0x3d9ea205be249ca9U, 0xbd04ba4bbd5cb643U, 0x3d1c24dd3c454bc1U,
  0x3bc673623c576b03U, 0xbd82b709bd0c179bU, 0xbdfc9cb1bcf0c20bU, 0x3e491eba3d23a2f4U,
  0x3d2341e23d99264dU, 0x3d92f9fdbddc1e70U, 0xbd56b225bcc96977U, 0xbdbcb20c3df2f5ecU,
  0xbd6490b9bc523dbeU, 0xbc8acd613d7f2e99U, 0xbd355ce7bc452dcfU, 0x3bfb36143e0c5fbbU,
  0x3d74f149bd022841U, 0x3cdc9315bd6fd1b7U, 0xbc446b06bb8e4527U, 0xbdd94e463de5f89eU,
  0xbd882094bb9df3f1U, 0x3c5be4bc3cfebf9eU, 0xbd173a69bd142a0dU, 0xbb317cb83e505a93U,
  0xbd417d82be39e788U, 0x3ce0fad5bd75aa42U, 0xbcd67bc2bd2f9f77U, 0xbd82953d3cd99d85U,
  0xbd9db3453c9612ccU, 0x3c89cc843bb8df19U, 0xbd385100bd056d20U, 0xbbd974613dbf2e35U,
  0x3cf2d3ffbdd6dc1aU, 0x3d3f3bb3bc7d06faU, 0x3d22f8a4bda4b9a5U, 0xbd4a4cb2bc147abbU,
  0xbd87a1933d13df3cU, 0x3c9f4f9dbc42059dU, 0xbd4f2632bd2cc102U, 0x3d3fda4e3c13cca1U,
  0xbd869b80bb402425U, 0x3d7bacaebd99d8ebU, 0xbd176247bcfc7da5U, 0xbcc2fe0ebdcb413bU,
  0xbcf2e4543cf9a339U, 0x3dad4d54bd4342f0U, 0xbd44fb18bd07e611U, 0x3d0bd7c73b6d95cbU,
  0xbdab95363bb73573U, 0x3d37146bbd39fb7fU, 0xbdad30f2bd300387U, 0x3bce349dbb4de959U,
  0x3d1ec1fb3ce48565U, 0xbc1644633d94a258U, 0xbdad9ffabc3e89daU, 0x3e123a3b3c17e858U,
  0x38e4d6c23dcee8c2U, 0x3db04b133ddbd6b1U, 0xbc964834bce3e46aU, 0x3ca0993e3d06188eU,
  0xbca938553d3cb8dbU, 0xbc86d1a33dddc268U, 0xbcedc7c0bc471361U, 0xbd8838263dbba25cU,
  0x3d8df3e23dd99ef4U, 0x3d54fe6b3e4a6160U, 0x3d3b0ade3c04748dU, 0xbcac18e53dfe5143U,
  0xbcb9edf73d836a48U, 0x3bfe7807bd2ed983U, 0xbc7ddbc7bc19cc22U, 0xbd899f943e24e300U,
  0x3df0f0d33d870efdU, 0x3cfa239d3e165385U, 0x3cdc0ad3bcc59021U, 0xbcf15b203d7f3788U,
  0xbcd043643dab439fU, 0xbb723babbc42cc11U, 0xbd1107343c1e9773U, 0x3b80ad873d0f4ffaU,
  0x3e2e099c3d331205U, 0x3c04a7823d99934bU, 0x3dbefd06bd4262dfU, 0xbcc5a10cbd26a98aU,
  0xbd189bc3bc538a83U, 0x3ccad3773c4336d8U, 0xbd3a65533cb852c6U, 0x3d98e921bd09e4acU,
  0x3d2dc16f3cd3f8e9U, 0xbd0d3f6abd0c530aU, 0x3e03d9653cc8bf81U, 0xbc18e82abe33cedeU,
  0xb9fa98f0bc92dc05U, 0x3dae3ebbbce029aaU, 0xbd4f5ff23c1b28b6U, 0x3d84a9eebc9edca5U,
  0xbdb323093c585841U, 0xbd339731bcb0c83bU, 0x3aaf3c043c591265U, 0x3bfe9fe9bc9ec198U,
  0x3d35dbefbd2bb871U, 0xbb6615db3d84a6c0U, 0x3b86a2d5bcd86593U, 0xbd9bd8903dce3fe7U,
  0xbd852a2fbd813a2aU, 0x3a8c8f33bd813f03U, 0xbd0adaccbd2955e1U, 0x3d6daefd3d9e5fafU,
  0x3c23b3f3bc5be2ebU, 0x3cb474f83da3bb2fU, 0xbc54105fbc9a6535U, 0xbe12a2643d9c1e82U,
  0xbd67904cbcf5b483U, 0xbcbdb885bd20d2dbU, 0xbc52df83bc252d8dU, 0x3dc81bb63ded52d0U,
  0xbbfbf4bc3ae76805U, 0x3cb1f67cbd366df0U, 0xbc819619bc339c56U, 0xbdc2cf9e3db45bfeU,
  0x3d1106753cae200dU, 0xbcd97425bd8f330dU, 0xbcb21ec7bd525f8bU, 0x3dbe5a9a3d079e66U,
  0xbd36444f3c554af8U, 0x3ca7a87a3d12e66aU, 0xbccd86093c1ae134U, 0x3cd41ac03cf81405U,
  0x3d805a21bc888073U, 0xbd9a9c07bd98092cU, 0x3d95804fbd66c9f7U, 0x3d8d350bbcb9f786U,
  0xbd054b4fbcd9b373U, 0x3da5d3893d97f42fU, 0xbcf59d963c26500aU, 0x3dcfabbf3cfb0f2fU,
  0xbcecbd2bbd236d4bU, 0xbd9cbcdebdcc7572U, 0x3d83b99639fc76c1U, 0xbbefee40bd62d82bU,
  0x3d0fe927bbc629beU, 0x3df5e2ae3c8b3a53U, 0xbce005473a3c8649U, 0x3c8f4a4c3ce4c304U,
  0xbde2c3d7bd61345dU, 0xbd391afebdac965dU, 0xbcea2b0dbcc7ffaaU, 0xbd0f6aeb3c47a65aU,
  0x3b9987d6bcdf3656U, 0xbd2bb6ae3d09f6adU, 0xbc8808d6bd4f9abfU, 0x3e44d7c83dbcc25aU,
  0x3b5cbec2be2026eaU, 0x3d286e1abce5d334U, 0x3d91cbdd3ba77d20U, 0xbccae32ebd5e4df3U,
  0xbc24fd693d3866adU, 0x3c44d9fa3ddc359aU, 0xbc82e7c4bcd81ee3U, 0x3e05126a3c31f720U,
  0xbda7af35bd6cdb10U, 0x3e05457cbc621784U, 0x3ce761f83c087ce6U, 0x3ca6fdcfbd55b4afU,
  0xbb836021ba80a341U, 0x3cbcfa623d021e10U, 0x3c33601dbc8b0dcdU, 0x3d17ae373a99fad8U,
  0xbda216ab3c74b4daU, 0x3e34d3bdbd2481e5U, 0x3d06495abd5506f9U, 0x3cdc6d41bb118fe8U,
  0xbccaddf0bda2ca5fU, 0x3d0ded8c3d996a85U, 0x3a59f11b3c3014b8U, 0x3d83f2f5bcb092e0U,
  0xbc29f267bd36e526U, 0x3de63ec9bbe7403aU, 0x3d2e7136bd187420U, 0xbd009ac4bca140beU,
  0xbcebbf9abd80867bU, 0x3dc457aa3d9e93a8U, 0xbc7b541a3ad7302cU, 0x3d5e5f543bb3860bU,
  0xbd7a5fb3bdc28b9aU, 0x3dd41c17bdc89ba8U, 0xbd0142df3bc837eeU, 0xbdd856a0bd69c350U,
  0x3c27bae33d62b703U, 0x3e1c0a033c9c40fdU, 0xbd0b5e9cbc58dba2U, 0xbc8b53643bb6a22aU,
  0xbde09ffabd76fff2U, 0x3e0d3d5ebd921cbeU, 0xbdc0c8c6bd072945U, 0xbd9c6002bcf975ccU,
  0xbc9f44563d106468U, 0xbd475dd3bbb0d833U, 0xbd47de38bd2732bdU, 0xbcb8d6df3de4b9b4U,
  0x3d88a7c6be2f8b37U, 0x3d45ac693d4c4ec9U, 0x3d6cae913d02d052U, 0xbc32aaa63d5bbd36U,
  0x3b8e9dc33dd89f64U, 0x3d3d1ae53daa58aaU, 0xbca4eca4bcc8120fU, 0xbd1dc46c3d141ee9U,
  0x3d4ed7103d54d76dU, 0x3e18729cbdceb3daU, 0x3c4ea1d43a8d6a97U, 0x3d415e6abda140f4U,
  0x3cd191263d0a8fc9U, 0x3d483ebc3d1110a9U, 0x3cb9a8613cc9c752U, 0xbd726d833cf5eeaaU,
  0xbd67da9a3e5d7d53U, 0x3e4ed380bdd20a3cU, 0xbd4f374abd26f284U, 0x3d16c861bcd5576cU,
  0xbc3fda89bd882fb2U, 0x3d41ebca3d8b2211U, 0xbbfd65a53d0fca38U, 0xbd0f4a2b3c00c2ceU,
  0x3c905e383e10005aU, 0x3e1d939ebb6117b9U, 0x3c84e420bcb8f983U, 0xbc525036bcbc3421U,
  0xbc8602d3bd6597c2U, 0x3df274b23cad3dd0U, 0xbcd53d3f3a8d8131U, 0x3c7ef6f23d1753d5U,
  0xbc8eb1483c69db27U, 0x3df35f80bd586c52U, 0x3c2cb716bbe11466U, 0xbd214e64bcff999eU,
  0x3c1d1d953d99ba82U, 0x3e37e4ffbd0656c3U, 0xbd42d0a0bb3baa83U, 0xbd2db2f33d433b79U,
  0xbd536fb93cb56199U, 0x3dbeebef3bb5b34aU, 0xbce24fcbbd63162aU, 0x3c4c7f37bd001ff1U,
  0xbc8de205bc1f2d2aU, 0x3b62df72bcb16d50U, 0xbd0aa8acbb7f8070U, 0x3d4beaf03d35f937U,
  0x3abb1763bd19ecb5U, 0x3c6afeb0bd81b1cdU, 0x3b4ce9cf3bce8aafU, 0xbd8e6b8a3d9f5e00U,
  0xbc5e2891bc63a56fU, 0xbb9000333cde0e84U, 0xbc5358ecba2a77b3U, 0x3b905cac3d49f382U,
  0x3b6a2aacbd3fc4bfU, 0x3a09a599bdb4482cU, 0x3bf30e7fb967d83bU, 0xbd2369ee3df23ae6U,
  0xbc22a9db3c9939edU, 0xbbddb64fbd642a14U, 0x3acd6487bc1d191bU, 0xbbe8828c3df7cfcdU,
  0x3b9712b63d20d6a0U, 0x3d3a88f6bd132205U, 0xbc12f180bc0a7e81U, 0xbcc0ed503d8e9384U,
  0xbca1ab253d14a7fcU, 0xbcc10c64bd05c89cU, 0xbbb039b3bcb3d21aU, 0xbcb6018b3deff0cfU,
  0x3e0987a73d1a35dfU, 0x3d3363e0bd062c00U, 0x3cd24fcbbd27da97U, 0xbd10a53e3d98dce7U,
  0xbc652ee3bb8c90e6U, 0xbcc0a6943c11e77eU, 0xbcf07201bc9358eeU, 0x38baf3073d995c4aU,
  0x3da349703be01c28U, 0x3ce72b003c6f1049U, 0x3d10b02bbce60e9dU, 0xbd8e8bcb3cdd70d1U,
  0xbc5a8335bd03e942U, 0xbcacf845bcba10f5U, 0xbcdf99e83b60f085U, 0xbc0233fd3d8ac6b0U,
  0x3db673cd395e8203U, 0x3cb1a06fbb8ed966U, 0x3b947cbdbc633870U, 0xbd8194edbc7d5ec9U,
  0x3c9118f13db29e8eU, 0x3c823522bce7e7b3U, 0xbc3247713a97e6a0U, 0x3d58286c3c39a3daU,
  0x3d6269d1ba1f998eU, 0x3d363ba3bd4835b3U, 0xbcfe4ed23c7f2906U, 0xbcd1e45c3dc032ceU,
  0x3b55524c3d829881U, 0x3cd1bd783d5173b3U, 0xbb9119f1bb90e29aU, 0x3d4878ac3c1e0ae2U,
  0x3daef8953bdf67bbU, 0x3cc580cdbd5b5f43U, 0x3bb0f8a13b4d5594U, 0x3c65a1ba3d024481U,
  0xbc47aa633d8c589eU, 0x3c81c7bc3b65e308U, 0x3c6f76cbbbf21616U, 0x3d1b2a1f3da044bcU,
  0x3d51151a3da01b64U, 0x3d8ce109bccbc365U, 0xbd2a8f52bc3665c7U, 0x3d656d9c3c860bc7U,
  0xbce267743d80ac68U, 0xbc1c1be8bc1ba606U, 0xbc15f6d5bc99049dU, 0xbb95a0193d56a3e2U,
  0x3e435d2f3d65e123U, 0x3dae6589bc5d9520U, 0x3cf7e7adbd2cbb84U, 0x3d623caf3d7d4b5fU,
  0xbc9c45a83d974118U, 0xbc2ed697bcfd35efU, 0xbcb8b232bbdb25d2U, 0x3c91ab853d2e24faU,
  0x3dcbc84c3d63b4a7U, 0x3d8450ae3c9d1d54U, 0x3d176d9dbc6a3e13U, 0xba966e7a3d0fc17aU,
  0xbca888a53d30d327U, 0xbc45c6aabd6a0d75U, 0xbcdf00d73c8fcdbbU, 0x3a97d8043d37a5d4U,
  0x3df221073d5363d9U, 0x3d2593e8bc32caecU, 0xbab9f4fa3b921ca8U, 0xbd208970bc2131c8U,
  0x3c28fb893d9911f8U, 0x3cf031debc673973U, 0x3c654f1dbad29190U, 0x3d1c307d3c1c6d3dU,
  0x3d79544a3bc34db4U, 0x3cd7c72cbc8f9866U, 0xbd4e33443c61fe5bU, 0x3d8ec38cba0f9dd5U,
  0xbcaed1063d0088e8U, 0x3d377c713dac660cU, 0x3c7e82f83b07da91U, 0x3c8458aebb0a706eU,
  0x3d8aafe2bcd1e685U, 0xbb0e6f48bcc960b0U, 0xbcd1838e3ca6297eU, 0x3dc548afbd383280U,
  0xbd00a7e33ce1c85dU, 0x3d1a269a3d4300c6U, 0x3d13cb74b9c75ab2U, 0xbca4f3c73cf87bc4U,
  0x3c8c85703d1ed7e9U, 0x3d46016cbc81390cU, 0xbd6f888a39974d76U, 0x3e076ff13b6ef3e2U,
  0xbcfda26d3b729908U, 0x3a8fac7a3c3f9844U, 0xb9efa7efbc8303e5U, 0xbd89cc85bc8b1f40U,
  0x3e3f3cdc3d170ad6U, 0x3d91aea13c0559b2U, 0x3c8cbe34bcf152dcU, 0x3df8df103c6edf34U,
  0xbc6fed8d3d590603U, 0x3b39ba0dbcf688d8U, 0xbc219075badb04dbU, 0xbc8a5ccbbb16e15eU,
  0x3dda49b03d68faa4U, 0x3cfbf07f3cbfc283U, 0x3d6253c3baf9d0e7U, 0x3d717ebbbcb8b55fU,
  0xbcac96373c58a207U, 0x3ac12755bd67328cU, 0xbc8f88313c930bbcU, 0x39e1b23c3cd8827aU,
  0x3e04baac3d83911cU, 0x3c5d6946bc5c7969U, 0x3cb5ec1a3c13548fU, 0xbac732babd71b235U,
  0xbb8c068c3d6e7c53U, 0x3c7083e93c942f1dU, 0x3ca00749bc257cf5U, 0xbc14e1153d318640U,
  0xbc87140dbd3094a4U, 0x3c1a56dabd8a1eb3U, 0xbd897bc13c72cd28U, 0x3db645f3bcc613e3U,
  0xbd1eaab33d029422U, 0x3d1f43993dc1dde2U, 0x3c8821f9b922441bU, 0xbce225313cb18bddU,
