/**
  ******************************************************************************
  * @file    model_data_params.c
  * @author  AST Embedded Analytics Research Platform
  * @date    Tue Mar 26 00:07:46 2024
  * @brief   AI Tool Automatic Code Generator for Embedded NN computing
  ******************************************************************************
  * Copyright (c) 2024 STMicroelectronics.
  * All rights reserved.
  *
  * This software is licensed under terms that can be found in the LICENSE file
  * in the root directory of this software component.
  * If no LICENSE file comes with this software, it is provided AS-IS.
  ******************************************************************************
  */

#include "model_data_params.h"


/**  Activations Section  ****************************************************/
ai_handle g_model_activations_table[1 + 2] = {
  AI_HANDLE_PTR(AI_MAGIC_MARKER),
  AI_HANDLE_PTR(NULL),
  AI_HANDLE_PTR(AI_MAGIC_MARKER),
};




/**  Weights Section  ********************************************************/
AI_ALIGNED(32)
const ai_u64 s_model_weights_array_u64[37784] = {
  0x3cf9af03bb8eab80U, 0xbd823f023d9515adU, 0xbe6d17efbf03345dU, 0xbd8089033e1309f4U,
  0x3e5192d03d01bd8cU, 0xbe99a5033e49efd4U, 0xbe32268b3ce81076U, 0xbe9dd047bee50a7cU,
  0xbe0a09863e2d9f57U, 0x3d3b6401bd57cc32U, 0xbf0ebbc6be8dd76eU, 0xbe7863cabf38d356U,
  0xbf3e0d7abe798661U, 0xbe86fac7be866afeU, 0xbe966da6be97144eU, 0xbed30fa6bf6d3564U,
  0xbf2daf27be317953U, 0xbdec8e8fbdc14a19U, 0xbdbfff2abf6d2efeU, 0x3f25ce7b3eec62d9U,
  0x3f88d81a3eeb3649U, 0x3e3bd680bdddcd17U, 0x3f60c50ebde9146eU, 0x3ede47973f75ad85U,
  0x3d88801cbf695ef2U, 0x3f4c6e533f2dfcb3U, 0x3f6aa8fb3f31e7e1U, 0xbe444edbbf356281U,
  0x3f6a4e033dd2c3cdU, 0x3ed291823f2277d8U, 0xbe8f8b44bebec9c4U, 0xbf0871743e10de8cU,
  0xbdbb6b453eda4b17U, 0xbf0a2e90bf014963U, 0xbf091761bdee720fU, 0xbd9db3f8be80d95fU,
  0xbefca1b4beca508dU, 0xbee56dfabc93d1dfU, 0x3e95e61d3e53e6c0U, 0xbece9d36bdba99d0U,
  0xbf21d5c1be1115a5U, 0x3d9d4557bee9ce3dU, 0xbf625b68bf61b551U, 0xbe20d6ffbe859331U,
  0xbcb4e238be5f4a3aU, 0xbf64dbecbeecbb37U, 0xbe9c92b4bf14a6d8U, 0xbdb6b6d43e5327c1U,
  0xbe5003e7bf338728U, 0xbe06b97e3e1d5f3aU, 0xbf2c7c033baa13f0U, 0xbed7cfecbeb12323U,
  0x3e3f3f053f1e6e21U, 0x3db2ebdabe3c170eU, 0x3f1657873f00d918U, 0x3f8527873f934faaU,
  0xbea563123edd4b46U, 0x3ef34e343f1baed9U, 0x3f6530643f30bcc8U, 0x3eb777893ef1b2b2U,
  0x3e1d9c7dbedc493dU, 0x3ee1c11c3e07bab5U, 0xbe1520753e2e9b12U, 0x3e87d48abdbd6808U,
  0xbe0e1f03be05ae37U, 0xbecf82dfbcfbcdc4U, 0x3ed12fe4bc82d333U, 0x3a90395abd8e7559U,
  0xbf0c035cbca37bedU, 0x3cb647ac3ea92abbU, 0x3dd790ff3cda75d4U, 0x3dde9075bed3dce4U,
  0x3e7989cebd87e8daU, 0x3e9bb732bf4b0567U, 0xbce9c64ebe9bba29U, 0xbf9701ce3eda4532U,
  0xbc7f19163ecb2ddaU, 0xbfbc9740beba2d13U, 0x3ed5e1513f2dba97U, 0xbe5f2a74bedcca99U,
  0x3e254cecbef4719fU, 0x3eb026933e900704U, 0xbeb27fe53cbe76efU, 0xbf8897bcbf94af8aU,
  0x3f5cb73e3fa5e739U, 0x3f6e0aa43e7d9938U, 0xbf84fa88bea3583bU, 0x3fe22f063f3347c3U,
  0xbf0a62c63f1a9b54U, 0xbf2017adbfa55109U, 0xbf88b388be5568a4U, 0x3dac2c7abf0768b0U,
  0xbefa3b23bf14a7c6U, 0x3e293da3be928379U, 0xbe9248ee3da19c44U, 0xbe03e9bebea19559U,
  0xbe16da643e6a6903U, 0xbb141904be6168a5U, 0xbe8d78d8bf0187b2U, 0x3ebfc9f03e98ae4aU,
  0x3ecbab6b3f807b2eU, 0xbe7c692c3e87504bU, 0x3f0aed173f1243faU, 0x3f2f10b83f218995U,
  0xbc8b18523e601203U, 0x3fa709b83ebe58f7U, 0x3f762d873f7c8957U, 0x3d8e1a6f3e8b6935U,
  0x3faefd613eb928cbU, 0xbe58cbdb3f2f9975U, 0xbe7cf8873dca5efeU, 0xbea43de6bf3336bcU,
  0xbe0d2965bedf39bbU, 0xbf02bc093f503cf1U, 0xbd8d8904bf5c33d3U, 0xbf87c76f3eec2a0fU,
  0xbec9e7acbf8983f3U, 0xbe8f0eb63d4eb229U, 0xbf84b62bc000a601U, 0xbf213797bc84380bU,
  0x3f6096da3d5cfb9eU, 0xbecf583f3f20f03eU, 0xbf62cc7fbf396fcaU, 0x3f3b484a3f160a38U,
  0x3ef6b53b3f4cc9d6U, 0xbf5429383e4fc0abU, 0x3e3ce116bf4457d3U, 0x3f3627ca4014306dU,
  0x3e3b51853ef27443U, 0xbeb8c89abdeffa61U, 0x3f62bb503fab70c0U, 0xbf5157aa3e6e2858U,
  0xbe04b617bf338f87U, 0xbf1e781a3f3c7705U, 0x3eb53bc93b99a555U, 0x3ecf3a813e31f717U,
  0xbf8a610bbf1c6867U, 0xbeb82f5ebfa7a0a2U, 0x3f80a0c8bf15bf88U, 0xbf7290dbbee4b776U,
  0xbf7b9357bddf7312U, 0x3f0887fdbf7a29faU, 0xbf21ae193f025e97U, 0xbfbdcea73def8a1bU,
  0xbf853ff43fad1680U, 0xbfbd7d493fe0c99cU, 0xbf64396c3f12eb0cU, 0x3f2ffa523f9df95cU,
  0x3d7ce5adbdf6b905U, 0xbd6d0e7d3def4f20U, 0xbdb64b3fbd8a297eU, 0xbd54734ebdb820bbU,
  0x3e47abc3bdfebfc3U, 0x3e5709eabdf3c8b9U, 0xbe35458bbc5b73cbU, 0x3eb2158d3e6c0274U,
  0xbdbc53e93e2ef349U, 0x3e1802aabdf34e3bU, 0xbe598ca5bd9c1061U, 0x3e46b2edbd43da18U,
  0x3db349283cb22848U, 0xbcc2038c3d643b9cU, 0xbca3bb603dda7403U, 0xbd9b1cd5bdf35644U,
  0xbd5369dabe246ef2U, 0xbc73dcd4bdaa4844U, 0xbe1d73e13d34b3d4U, 0x3e2360d4bc5f20e4U,
  0xbe8db0153d96f976U, 0xbcce3a98bdd1919bU, 0xbe0ced8fbe419d86U, 0x3de8c4133bfcf5f5U,
  0xbcaa37d03db20cdfU, 0xbe144b313d5ea3f8U, 0x3e5c87243dcc63b9U, 0x3e05dbaebe184193U,
  0xbe3645123c39ba55U, 0xbb78ad12bd5da0d0U, 0x3dc848a23e54cab3U, 0x3d0beedd3e05abe9U,
  0xbeacb2703e0b365dU, 0xbd9b21923c0e5be3U, 0xbdf3c0febd8c7e9fU, 0xbd1e6c353da71110U,
  0xbd383c6e3e116f12U, 0xbd80def53e572ebbU, 0xbcca53d0bd88199eU, 0xbe2e46a53cdc0673U,
  0xbc1147fc3e3458bcU, 0xbd9de5fa3e80850cU, 0xbca5e6c43e581d26U, 0x3d5bef373e820f33U,
  0xbe38fcb0ba345b8cU, 0xbd47c22d3d89d67fU, 0xbe3d930ebe974239U, 0xbe566c9ebd7d767aU,
  0xbda1a47b3d718f07U, 0x3d8d94e63df3637fU, 0x3e05e3793dc1544eU, 0x3d165e633e1c2253U,
  0x3e159cefbd51d3b7U, 0xbc6613753e25adc6U, 0x3e6457a13e6cc56aU, 0xbd5e4f9f3d3ff6b0U,
  0x3e35a6683d89aac6U, 0xbdbd6abdbd976e37U, 0xbd142868bc28718bU, 0xbe70bf1abdc646c3U,
  0xbe36aa703db9180aU, 0xbe049906bd81516aU, 0x3e02b9c5be9f318cU, 0x3e1db87fbe21d807U,
  0xbcf222133d8303fcU, 0xbdc0f3403de10295U, 0x3eb58c773d423785U, 0x3daab7cc3d998bb3U,
  0xbd623167bdd9f932U, 0x3d66a17bbdf49f2dU, 0x3eaf5aba3d9ca5cbU, 0xbd52c1ee3dcdd8beU,
  0xbde1e3c1bd334704U, 0xbd89e728bd11bbd2U, 0xbd6457c03d871ee5U, 0xbe4cea51bd8c3e69U,
  0xbe6ab76abd99d5c7U, 0xbdb90c013df6ba94U, 0xbd2a58eabcb0e09eU, 0x3d1a3c5b3e00fe28U,
  0xbc71db483d63f6b8U, 0xbe233ccf3e2638efU, 0x3c151445bbb0310dU, 0x3d33bbd23da548eaU,
  0xbdf8e8cbbd22dd13U, 0xbe25cedcbdeb35f9U, 0x3e99ae213e4c8725U, 0xbe83d463be169926U,
  0xbde32b0d3c6e4155U, 0xbd9604ecba8b2f1cU, 0x3dca06ba3dd89592U, 0xbcde11a3bde10d43U,
  0x3cc8cf9f3dc54445U, 0xbe0a4c343d53f077U, 0x3dc9d423bd317f38U, 0xbd5342973be21afcU,
  0xbd3fd164be0d9882U, 0xbd66d238bd9f7440U, 0x3e6d52183dd9e4ccU, 0xbe8790b53dadbc5aU,
  0xbd2ad4f33da978faU, 0xbb9bc4c2bdc791ceU, 0x3d7312373df3b3c9U, 0xbdac2391be1d6a20U,
  0xbd0a8787bbe0760fU, 0x3d7feabb3d5e00afU, 0xbd9bb624be59cc1aU, 0xbd32ab57bd6b0088U,
  0x3dbc26e8be067d0eU, 0xbdbe53e13e1d408dU, 0x3bfeb086bdae5c99U, 0x3e6352983d97b9a1U,
  0x3dc7b2373c2f3a46U, 0x3c54801abe156ebfU, 0xbd6ea9503bd0e074U, 0xbd2e32fcbd9acc83U,
  0xbdc19c1fbd400e3cU, 0x3d15dd3bbdd4e185U, 0x3d44cdbf3d725d13U, 0xbc7b7e2fbe631940U,
  0x3e2e4be63c9454dcU, 0x3d1943b9bc41a483U, 0xbe0f6777beae39dcU, 0x3e2b136abe6fa439U,
  0x3e885d0cbaf50377U, 0x3e84a099bd6c9887U, 0xbe1af07bbd28731aU, 0x3debfd71bb763f2bU,
  0x3d437cd0bd9489d9U, 0x3e638656bd9ee9fbU, 0xbdf9d50abcc714d4U, 0x3d46b502bc75b91fU,
  0xbe1a520f3dd282d4U, 0x3e0f347f3e1db0a4U, 0xbde5492abd9f56b7U, 0x3e05102d3dd0129dU,
  0xbd5a24883cf7fce5U, 0x3d83b7d13daafb1fU, 0xbdc727703e1a37a9U, 0x3d612c743e5dc21fU,
  0x3d76f59a3d4cf84cU, 0x3c98b6783dbe2602U, 0xbd7378a63ce175b1U, 0x3e06ac093d6a228eU,
  0xbda3b8e939b3d83dU, 0x3e07451dbccfb58fU, 0xbc0fad82bc27961aU, 0xbd26da913c058191U,
  0xbe1e324b3c8da1b6U, 0xbceddc6e3d4c9dc1U, 0x3cda3d263d90668bU, 0xbc1b8d9b3e286b74U,
  0xbde796e83dd6c8f8U, 0xbd92f5be3d89c7beU, 0xbe36b6d3bdaee089U, 0x3d9b898f3e150997U,
  0xbdc1ed1fbe45fdedU, 0x3cd3f579bdabbb4dU, 0x3e7a23b63e52a143U, 0xbd1d6a6e3d6bb8f2U,
  0xbde7f332bdafe926U, 0x3db2bdacbda09f28U, 0x3d4223463dfaa359U, 0xbd0a1f4e3cbd89f0U,
  0x3d0ca49e3d931fecU, 0xbd8b1dbf3da6a2e8U, 0xbde5ccbf3cc2594aU, 0xbdcce2abbcae733fU,
  0x3d17cba2be52e61bU, 0x3e20c0a3be79ccbfU, 0x3d5768ac3c89a49aU, 0x3d1b2ea5bce75099U,
  0xbea5949bbd2e1ea9U, 0x3c533b22bdb1b6b7U, 0x3e0ce1503d1bcd58U, 0xbc86ae18bdc7a1f7U,
  0xbe4d65c73e1d4fd2U, 0xbda1f0ee3c49742cU, 0x3e1a89f83dae2bceU, 0x3b02e80f3d9bcb21U,
  0xbd71b5643d8a716fU, 0xbea203ff3e816144U, 0x3d0399cb3e25d53dU, 0xbcaf3a83be6a30baU,
  0x3df23f12bd9c9c30U, 0xbd9018eb3e4fae09U, 0xbe49d800be140b97U, 0xbbe3de50bb69718cU,
  0x3d9c64aa3d375380U, 0x3d9d583b3dabd51cU, 0xbd9fe681be9afadcU, 0xbcc68c35be1de2edU,
  0xbd0bcf843e043649U, 0xbe3db9683e38304bU, 0xbe86285bbee0a7f3U, 0xbd93c3e8be74c7bfU,
  0x3de7c72bbe0ceda8U, 0xbe589897bc9af81bU, 0x3cc5d2eabe7e35a0U, 0x3c84851dbe3eadb8U,
  0x3dfb8607bdb7b252U, 0xbd8430c1bda2eeceU, 0x3e1412083db55c9fU, 0xbdbb7d193d8a762fU,
  0xbc55de333e1a9134U, 0xbd06c35b3e85ad1eU, 0xbd403386be626a0fU, 0xbc9ad650bd1c6fb8U,
  0x3e80b67abe2fc489U, 0xbd86cb593c49c209U, 0x3d4036edbdf3dacdU, 0xbd5b2399be1fd2caU,
  0x3e9f25c2be6d64e4U, 0x3dd70b3dbdd0921bU, 0xbdfe2ee0bd4e0694U, 0xbe49a07b3ca6d1f8U,
  0x3d18ed813e4dacacU, 0x3e8fcd71be60f250U, 0xbd972e6fbe71b972U, 0x3f4c01b53e48be4eU,
  0x3db986563e9d2792U, 0x3e475d253c659aa3U, 0xbe5ecf17be5fa1daU, 0x3eb7e3c4bd68dcc7U,
  0xbd64e056bdc3f347U, 0x3e470c2cbd83a25bU, 0xbc526c24bde514fcU, 0xbde864e0be9107a5U,
  0xbee7dfcb3da94840U, 0xbd90f0783e42be66U, 0xbdd4baf03e1e46afU, 0x385019393db66a91U,
  0x3cf2b4a8bd56941bU, 0xbe7624c53e39a747U, 0xbdb4c200bd4eeaf2U, 0xbe9050cabe28077fU,
  0xbda8dac2bdaa2f47U, 0x3dc44447be0c8112U, 0xbcea477ebe07c467U, 0x3e74cb103bb71855U,
  0x3d27944e3d384cadU, 0xbe3aaaf7bd1c9dbcU, 0xbdb596113d86b154U, 0xbe909f3b3d1da7d0U,
  0x3dcacc4ebda8c5fbU, 0xbcf15e603dd5eed4U, 0x3d96ebb03c4b3488U, 0xbefc78b1bd11289eU,
  0xbe088466bd11f309U, 0x3e090ae23e44dbf4U, 0x3e9dada2bd56e7d6U, 0xbc815bf7be388080U,
  0xbe01f86cbbba7e0aU, 0xbb8b7178be74432aU, 0xbc5903073d4fb806U, 0xbcde5fa8bdcc7f97U,
  0xbcee6e073deb5123U, 0x3e5cf9b4bcc0b94fU, 0x3ce53331be245284U, 0x3ec40696bb5c6430U,
  0x3e55309d3d2e8bf2U, 0x3e040cb2bcb35325U, 0xbd9d97adbe46a193U, 0xbd45d306be5ed271U,
  0xbe5cc6013da1c4b5U, 0xbd7a97fdbd1b7b8cU, 0x3b2683a13da54471U, 0xbe42527abda377bfU,
  0xbe55b5743e826fa1U, 0xbcef26bb3e4f57f7U, 0x39692296bdb36676U, 0x3c1bc1923d22d324U,
  0xbca3464e3d58135cU, 0xbd63d1333dc3d1e7U, 0x3df550e8bd5181aaU, 0xbd4f699bbd80cea6U,
  0xbe3752e73e5d9501U, 0xbd32bce4bdeb4b72U, 0xbd1066b63e1159f7U, 0xbd5e48023e5f7716U,
  0xbd7dd8c03e7fbd82U, 0x3d3c32e93e4473edU, 0xbddce952bc19ad7cU, 0x3d1f3c8f3e3928b6U,
  0xbdc48ba13cd431afU, 0xbdc2ee273e506042U, 0xbddaf0b2be04d723U, 0x3ca5caf3bcd2eecfU,
  0xba26b2b7bbadfb47U, 0xbd9ad132bd0bdd54U, 0xbd9d83223da17465U, 0xbc83319fbd97efe8U,
  0x3d79f6613d03b625U, 0x3cc76222bd3c78f9U, 0xbe1746a4be07b668U, 0x3e8a72c3bd8324f8U,
  0x3e4c56b9bde9000cU, 0x3e02a7f8bd9f15cfU, 0xbe8265a1be651f4eU, 0x3d1da8c7be67f5cfU,
  0xbdd2222e3db6f45eU, 0xbcb6b9d6bcee40faU, 0xbd086cd23d148fa7U, 0x3d06516c3cdd82b5U,
  0x3d2bf70b3d1c21e2U, 0x3d1113153dafbe9aU, 0xbe09a955bd85162aU, 0x3e4bc5503d89b9b3U,
  0x3e44f2fbbd6c184eU, 0x3d687de73c2912e2U, 0xbe331b46be16639fU, 0x3d50d9133d99b638U,
  0xbe1fb0993dbe91a0U, 0xbd8d23ce3c9161dcU, 0x3dd3ffef3d12749fU, 0x3bc0c2eabd408f21U,
  0xbd3d6d8f3d992051U, 0xbde4a1bf3e28eb0fU, 0xbb5e45f03cf58ecdU, 0xbdcd1eae3ddb2885U,
  0x3d9c97bfbd929e03U, 0xbd9772783d2412d9U, 0xbccf3d5abd5ec504U, 0xbb98197e3ccca2ceU,
  0x3ceae2e3bdf2877fU, 0x3c9502cdbdb8ce9fU, 0x3d2c694fbdc6494bU, 0xbb79c7abbce30b94U,
  0x3df8f940bb10b85bU, 0x3e3c63ccbe5e04dbU, 0x3df76b773dc30ef3U, 0x3cf124a9bdb8a261U,
  0xbe2682b93d96b091U, 0x3e6fdd38bc99c6a1U, 0xbb8038b13bc8dde4U, 0x3d9f12e6be3e6443U,
  0x3dee0036bd5016dcU, 0x3e00208e3c9a10d7U, 0x3dae8a803ddf2822U, 0x3dfccc93bd807aadU,
  0xbba7933abccbc3baU, 0x3e5fa87cbe0bb737U, 0x3d6a0a5c3d7ea142U, 0xbd343a75bdbd9256U,
  0xbe2d7e5a3d85e23cU, 0x3de2c7dd3d5fee9eU, 0xbdca464cbcaa677eU, 0x3e3c7a4ebcc1ecdeU,
  0x3d1fac9b3e355673U, 0x3e3db66d3e082fb5U, 0xbe5f9f1fbd0af051U, 0x3e09b911be015a16U,
  0xbe223c273db5a89bU, 0x3cc15bb83e1d2915U, 0xbe1b2057bcf0e20dU, 0xbd2df3453d77308bU,
  0xbe295e0a3e3cce9bU, 0xbc3802743e225728U, 0xbdf648bd3da83204U, 0x3e363dd23e2b1b8fU,
  0x3e9db52f3e3ddeacU, 0x3e3823933ec96b13U, 0xbd5c51a63e38846dU, 0x3e0fa9203ee2a36aU,
  0xbe8f279cbdd3c3d1U, 0x3ead4d253d6eb45bU, 0x3cd1e79bbe311bc3U, 0xbddfe315bdfaac7aU,
  0xbed89abfbe915decU, 0xbcc4979b3e503f4eU, 0x3d94f665be1eeee7U, 0xbe3e86173e71030eU,
  0xbc9fd07c3e1c32c7U, 0xbeafbb833e897033U, 0xbe99a194be597f81U, 0x3e070da1bdf2ea67U,
  0xbd55513f3db594f1U, 0xbe48bd37bd63fbd3U, 0x3c2c8937be78745eU, 0x3d84c3d6beb559c4U,
  0x3e740bbbbc0e873aU, 0xbea42a253d0fdd0aU, 0x3e10efb5bc7acf51U, 0xbee09192be046beaU,
  0xbe34dfd5bd9e45cdU, 0xbe5f9e953d55462dU, 0xbde818713db2dc91U, 0xbe53a83b3e1cf09bU,
  0x3e671dc8be669aeaU, 0x3e279260be8731a1U, 0x3e0ba5f03e9653c1U, 0xbca400553d170247U,
  0x3e394fcebd9de958U, 0x3eb267833da9ee00U, 0xbec7f7ebbc8c2e8bU, 0x3d2908523e821ba1U,
  0xbe12fc413d6b159bU, 0xbd9271a03be4f91aU, 0x3d8a66913c8da67aU, 0x3e2b068c3dc34445U,
  0xbc876f13be71bf0bU, 0xbe2635b33db1137eU, 0x3dcd27343d07b416U, 0xbdc73bbf3e0844baU,
  0x3e3cbef4be2085a1U, 0x3be6d5ae3cbc9f69U, 0xbe32982ebd77aa64U, 0x3d1a4f8e3e13b079U,
  0xbe1636653d892771U, 0xbdded4fabe67756eU, 0x3e101c7b3e9e568eU, 0xbe0d2fb1bd3de9ebU,
  0xbe352a8c3d893d41U, 0xbe8142cb3d9d1ea1U, 0xbce0fea4bdf154f0U, 0xbe317b69bdd640b0U,
  0x3e14b9ff3da8e04aU, 0xbe0fe8be3cbf3e8cU, 0xbd9d37c83db743deU, 0xbdc005f5beaaa0d0U,
  0xbbc5bd34bdac9e81U, 0x3d61eb71bdb19996U, 0xbaf85817bd680707U, 0x3d5a36ecbd14fb5fU,
  0xbe81f98b3dbc88adU, 0x3e2fafbabd5e42ffU, 0xbd8efa9f3e3d2425U, 0x3e68749b3e46e3aeU,
  0xbce1370e3d92a408U, 0xbe1d8617bd195f2aU, 0xbe90f82fbe034c42U, 0x3ca39ae6beb2ccadU,
  0xbe84137e3cf02fd5U, 0x3e741fedbe33eb64U, 0x3e2e4fdd3e1a2d33U, 0x3e35d7d13e966ca2U,
  0xbeb021ef3dac5098U, 0x3d7e8454bdd0d6baU, 0x3e470d7f3e906f3dU, 0xbd50728c3d95a9abU,
  0xbeb4fa203dfe35c2U, 0xbe13fd013e1a42f2U, 0x3da067b83d5df7a9U, 0xbd1c4b083deca18cU,
  0x3dfa00fd3d77a9fbU, 0xbd3e72c73ce3d716U, 0xbe8af834bea5a398U, 0xbd9adc86be41f16dU,
  0xbd498d493d99209aU, 0xbdb750aebbea90aeU, 0xbde609ffbd4caee2U, 0xbc9898f73d4121bcU,
  0xbe074de43db7ad4eU, 0xbd8d178f3d499bcaU, 0x3e61d5453e02f799U, 0x3e0bc7c8be8796f2U,
  0xbdd1cd013c2a5f1bU, 0x3e0f0268bdc7bbf6U, 0xbe2343973d8ae789U, 0x3d5742f23d8eeb70U,
  0x3df3b44ebdf1ea3dU, 0x3e322cd5bd73d7f5U, 0xbe3ea325bd583093U, 0x3dfb6fe83ea91fadU,
  0xbe3dc069bda598beU, 0x3d2096c53cd07ae4U, 0x3d8cfa293dc3377aU, 0x3d010ef53cdc4f82U,
  0xbd6eaae83d80cf96U, 0xbbe826f6bca9d278U, 0xbe2e1e37bd553332U, 0x3c83bbd33deb6082U,
  0xbe1a9fbc3e7ce859U, 0xbc0421be3e1d8a47U, 0x3bb544a63e063005U, 0x3e8b54e63eb65a83U,
  0xbc7bf6053e1c34b9U, 0xbdb9d74f3e2fab66U, 0xbe14822abe7cfa2dU, 0xbc69963e3d6eaae4U,
  0x3deb480c3dd6ed29U, 0x3ce863543df6a77cU, 0xbdc36b71bddc97d1U, 0xbe18fec8bdddf61eU,
  0xbdeb1b8f3e030a39U, 0xbda814353e80132cU, 0xbc77053c3b8e787bU, 0x3d00729d3ce84f69U,
  0x3c62cbb3bd4b9f04U, 0xbe1123a13e2af64bU, 0xbd0088b0be965fdaU, 0x3bc514283d337092U,
  0x3d68451c3d94225aU, 0xbdb969553db2a303U, 0x3d9bf825bd5309e9U, 0xbd9dc525bd43f0b4U,
  0xbdaeea4c3c2753a7U, 0xbdc767dd3d762b49U, 0x3d94bba9bca1da34U, 0xbe0f3998bd13d90eU,
  0x3d9ba9a5bd4dc268U, 0xbe0710733c5fd361U, 0x3c9ad003bda77504U, 0xbe673bccbe39e639U,
  0xbe047be0be2bf1b7U, 0x3dc392bfbe760ad3U, 0xbe8c95bcbe295e65U, 0xbe1084a1be8da12eU,
  0xbd4be6c2bd0ad61aU, 0x3e1fa37abe83c7edU, 0xbe268ab2bdc501cfU, 0xbe01d29abe90c650U,
  0xbe4325283d6179f1U, 0xbd0ba0d3be1ab9ceU, 0xbe3dc2e2bd82e97eU, 0xbdc17c3ebd63f56eU,
  0xbe57ae153c67fd14U, 0x3dae12983bfd5cf4U, 0x3e2f101b3e7214a2U, 0xbec23f48be00657fU,
  0xbe87c1883d452de5U, 0x3e903e39bcc92c3fU, 0x3dbb138b3dd71876U, 0x3d9eecb93d80247cU,
  0xbe1b1e913e094dc7U, 0xbcc299233e2ccd4cU, 0x3d06aa943e69aed2U, 0xbda302ed3d99e3f7U,
  0xbc3931a43d921257U, 0x3ebe7f083d98bfe7U, 0x3de09ee13eac99d6U, 0xbe2fed433e8d2132U,
  0xbd7546433e580c3cU, 0x3dacd664bdc20296U, 0xbe4f065e3e0eeb8fU, 0xbe0ad2f03e94e5e8U,
  0xbce151443ec37f6aU, 0xbeaee6353e49d401U, 0xbeaf18f9be811ee5U, 0x3e0f49a6bd906d5eU,
  0xbd911484bdc495a3U, 0xbc901d173dd6ced7U, 0xbc1f81d5beb9f6b5U, 0xbe27c090bdd6b888U,
  0xba51e90dbd8bff47U, 0xbd8d953dbd042050U, 0x3e4d5824bda75416U, 0xbe2a85b33d566961U,
  0xbdc2ec373d9d42caU, 0x3dd423573d766ce6U, 0x3e8f99223d1236f6U, 0xbdf6e941bb399019U,
  0x3c585be23c69b03cU, 0xbd96aa58bcf3085fU, 0x3cb83b7fbe6ef4acU, 0x3d4bf601be7b9d4aU,
  0x3e6ff531be1044f2U, 0x3e1048e0bd5ba53cU, 0x3dbf80e13dfd465aU, 0x3d8ee9f53cd8f213U,
  0xbb512d5ebe54d1d4U, 0x3dde4f663dcda5cdU, 0x3da2f71dbd945654U, 0xbc3876e53d7b84a6U,
  0x3d2c3abfbd6fe07cU, 0x3e1ca4d8bd041cdeU, 0xbb61f79f3dacc5f6U, 0x3d1aa306be01cdceU,
  0xbd89ab59bdbc86afU, 0x3e7b1c84bc15d2e7U, 0xbdc61977bd8df922U, 0xbd50e26e3cf114d6U,
  0xbdb9b31bbda77b40U, 0x3df915653b95eca6U, 0x3bee1ac93cc64461U, 0xbd602b843de3dcabU,
  0xbefd18c4be509145U, 0xbeee9417bd339e15U, 0x3ebee0e93e5f5efbU, 0x3eb1333f3ed58ab6U,
  0xbeaa21923ef83305U, 0x3e056dbb3e704605U, 0x3f373350bed91f5cU, 0x3d0abbe23e5bd367U,
  0xbbe38ba5bed7d5fbU, 0xbf06be823ef3fdd1U, 0xbe69e0bf3c6dd6adU, 0xbd4a8521bee5b837U,
  0xbe16fbe7bdeb27f2U, 0x3d881fdbbf0c24e8U, 0xbeb7e60dbefdc361U, 0xbc1829383e87691cU,
  0x3e942c3a3d9b1387U, 0x3ed3edbb3ede9f0bU, 0xbf2ad787be3428f5U, 0x3dd720b5becfeefbU,
  0x3e903f80be1e2e79U, 0x3dcba6163dcac818U, 0x3eecb80fbe2d83deU, 0xbec492093e2203e3U,
  0xbe919a8fbeeb2c60U, 0x3eb8c8c93d95a7faU, 0x3e30ea273e336a00U, 0x3db7fb32be23677fU,
  0xbf0728b03bbca89dU, 0x3ecd64d8bde1728fU, 0x3d28361e3ee91f5eU, 0x3dfd435a3f22332fU,
  0x3ea7abb33d8a5a35U, 0xbd5058a93d010117U, 0xbf2a4208becf6741U, 0x3f121dd83f229ff6U,
  0x3ddc31cabc971e88U, 0xbe608e103d9eb6cdU, 0xbe9e6e9fbe48bb3aU, 0x3e9c7bb0bec3f8ffU,
  0x3e8ee6f73ee778baU, 0xbe2dda613e2821b5U, 0xbed54f11beb30aacU, 0xbddf034abefe8abbU,
  0xbec9e7f43dfdf848U, 0xbddd2c1a3c2562e2U, 0xbf6b8c773e1ff7edU, 0x3c564774be14a4a0U,
  0xbed6b2f43f3d1eccU, 0x3f4d78bc3dce7cf7U, 0x3f16b61b3eea5eb0U, 0xbe776f9cbdf84627U,
  0x3fa426483e3e48d4U, 0xbf1454163e9f8236U, 0x3e167f8d3e5e557bU, 0xbe3cf77d3eaf47e0U,
  0x3f013ed0bde05c1fU, 0xbf53e04dbf43bf2dU, 0x3f436d883eceba38U, 0xbf063b8d3e82e48dU,
  0x3efa7dfcbf1d8ca6U, 0x3f2d4bb9bf6a0c1dU, 0xbd27eae13f34e7c5U, 0xbf674d64bf13d3d9U,
  0x3d1804f23cf4a661U, 0x3cefa0dfbfa5849dU, 0xbe63fac0bfd829eeU, 0x3f3987d33f178f6bU,
  0xbef2ee553ef61ae7U, 0x3d9125d7be37763dU, 0x3f47bc3dbe8a7e74U, 0xbf7a5a32bdf573d8U,
  0xbee1374d3f38d7b4U, 0xbed51d04bf2fb6c1U, 0x3f3a9d55bda3ccd5U, 0xbe9bd1a63ead7572U,
  0x3f2c227abdf6af83U, 0x3e09baa3bf4a0e6cU, 0x3df1ca28be7f6617U, 0xbf2970dbbf9a5a78U,
  0x3f0da103beabd607U, 0xbecd910cbf342edeU, 0x3fae3739bf3d4188U, 0x3e17a881bf252bf8U,
  0xbdb5d69b3f7fc38bU, 0xbf01565b3eed86b1U, 0xbf03628abea22cd9U, 0x3f1f700c3f823c66U,
  0x3e0a26e5bf6d8f66U, 0x3eb5e17f3f4f9326U, 0xbf1e07fd3eb33ac1U, 0x3e907ee63e9241d2U,
  0xbec2e64fbea7a26aU, 0x3d9ef3553ea40b44U, 0xbf52cd3fbeeff7d2U, 0x3ee51d35bf1259deU,
  0xbbc025a63f0d43d2U, 0xbef93166bea3666dU, 0xbf09de2b3f0ef907U, 0xbf269097bf4ef198U,
  0xbf62bca33e2a383cU, 0xbe4bd7963f14d211U, 0xbf6bd5a43ed895ddU, 0x3eb4c1d6beb0a85dU,
  0xbf76edfa3e91c735U, 0x3f03e419bea780e0U, 0xbdedd9223e475ef0U, 0x3e8b86623ee445cdU,
  0xbf15b0d5bf01a656U, 0x3e8dc0953f2a34acU, 0xbe1d621f3d40dd79U, 0x3f0c5ea63d29128eU,
  0x3f330b0c3eab3488U, 0xbe8dd9423f173c1eU, 0x3f34f4b53eccc8ccU, 0x3ea4a6983f4acf19U,
  0xbec308003fda3d1cU, 0xbf561906bf1ab615U, 0xbf9195d2bf4383edU, 0xbecdc231bf3c8622U,
  0xbe8b38323eb606f1U, 0x3ec291c4be9cf73dU, 0xbe93f7613ec82261U, 0xbe55ce7e3e1eb48eU,
  0x3f1a5b5e3dab4724U, 0xbd91aebfbe7727abU, 0xbe00d2b13e354ce7U, 0x3b5738e43e3d3a9bU,
  0xbf05accabe488ffcU, 0xbccd22a43ea2fc72U, 0x3e9abf043eb19878U, 0xbe82493ebe8d447aU,
  0xbe8d2cec3e414a0cU, 0xbea07b53bebe1d91U, 0x3f0772f53deb4539U, 0xbeb737fdbea481e9U,
  0x3e1d49e5be558cdcU, 0x3cfc07d2bdca21c2U, 0x3f1541de3a914e72U, 0xbe8186c63f3d99abU,
  0x3e3d4537be0a281cU, 0x3e816d2dbc554c0fU, 0x3eb8f976beab644fU, 0xbef7fed1be724b9eU,
  0x3eb2ac423eecbf6aU, 0x3d45bb043d396992U, 0xbf1f09d9beaa3425U, 0x3e4af546bd09ef84U,
  0x3f07e0fc3d325180U, 0xbe5c8f563e0cf6daU, 0xbef540c2beea7596U, 0xbf064d183f01708bU,
  0x3e3ba9a6bef75f03U, 0xbe1b679cbde4a634U, 0x3ea818ae3e7d7006U, 0x3d90f84c3e31b6ccU,
  0xbddd0b6c3da6509fU, 0x3d1d4ef73d08d293U, 0xbc71e586bd8555e7U, 0xbe4e4d49bc6c3ac8U,
  0xbf90c13f3f012720U, 0x3f965abc3e7047beU, 0x3f67a995bf14225eU, 0xbf21f3893e505138U,
  0x3ea4f20c3dc5012fU, 0xbeba4f40bf27ba90U, 0x3f25d2a63f535f02U, 0x3f89956abf35f22fU,
  0x3fccdf33bf8f2045U, 0xbf4e062cbe9ab961U, 0xbee1fe13bf2a5f09U, 0x3e42ffc7bf83c214U,
  0x3e0685eb3f408cc1U, 0x3fbdba4c3ecc5eb8U, 0x3f068b45bf4d30f3U, 0x3d4425c8bec2fe43U,
  0xbe5a63a53e092060U, 0xbea1c3d0bf657968U, 0x3e8c7d41bf892c0fU, 0xbf1b37a73ecc7bd0U,
  0x3f2798cb3eb24bdfU, 0xbeac9670bdc2f979U, 0x3fc402ba3e75c189U, 0x3f7658de3ed9302aU,
  0xbe78aeb2bf5bdc6bU, 0x3f859f9d3ec54fe5U, 0xbde27b743f822eadU, 0xbeb1dab13f1e32b3U,
  0x3f84fc873f66573dU, 0xbf9c1e33be695f8dU, 0x3e617a97bee30227U, 0x3f3b0eadbf5722e1U,
  0xbe39f316bf157fdaU, 0x3de4b1a9bfabb439U, 0xbea701e33ec5c5a1U, 0xbf20d36c3f54b03bU,
  0xbf5eca66bd76b07cU, 0xbd831707beef2295U, 0x3f13fa2c3f003996U, 0x3f258199becdb7a2U,
  0x3f87a4a93eca3661U, 0x3ecb7f3fbf84e447U, 0xbf923064b960c3aeU, 0xbd80806bbc6b34edU,
  0x3f3ab33fbe87aeeeU, 0xbf09573abe35d147U, 0x3f2d4f383f8e2663U, 0x3ebe1c323f15f3caU,
  0x3e64e62b3eb7f232U, 0x3f7aedbf3f4b895cU, 0xbf62b384bebdc08eU, 0xbfba971ebf8b1226U,
  0xbc67c2fd3f648874U, 0xbe831de13e729d4bU, 0xbf9ddb90bf456997U, 0x3db8d9483e9c7917U,
  0x3ed6e2bb3de154caU, 0xbf3a66c83f046166U, 0xbe1dc6e0bf318e75U, 0xbf2cca6040152c22U,
  0xbee9f550bf4b8f8bU, 0x3f0975373e68f4ceU, 0xbe2d45adbf62056fU, 0xbee4fe863f3955f6U,
  0x3ea16bc0be8fe3ecU, 0x3ea248223f33e527U, 0x3ef040ad3e67bf6dU, 0x3eff0575be3eefd8U,
  0xbe0ee080be640827U, 0xbdf8aa383dfd35e2U, 0x3e298f2fbea6e167U, 0x3c061286bd67819cU,
  0xbf01a00d3f26171eU, 0x3de342a7bf2aa661U, 0xbe34523b3de73fa5U, 0x3edbc2233dda7a4dU,
  0x3e6011adbeaba8c7U, 0xbdb8dceb3d0680f2U, 0xbf0ec8d0bee0020bU, 0x3f07a837be8ddb18U,
  0xbed727eabe1b99c0U, 0xbe8a63cc3f0022beU, 0x3f1f83f7bec3da43U, 0xbe101c56bf02ba14U,
  0xbedea33abead6e28U, 0x3dd98cbe3e80d884U, 0x3e21e2f739831a3dU, 0xbc9635b6be7871b3U,
  0xbca5e4f7bdd40d70U, 0xbf01843cbe8168c1U, 0xbf1464503f07a8a7U, 0xbb91db6dbe897c56U,
  0x3eef377d3ef887bcU, 0xbed58e493e1c71d6U, 0xbf0cce41beb57adfU, 0xbeb85ef13e027d87U,
  0x3edb54963c80b0f9U, 0xbdaaf269be9e7369U, 0x3ec533b13d2ac8f2U, 0x3f3a091ebf114adcU,
  0xbe35da11be7fce7dU, 0xbe6558793e7c293fU, 0x3e26995cbecbb496U, 0x3e971d62bec15fddU,
  0x3ec4f4283e97c908U, 0xbcc745fb3edd3607U, 0xbeeffe3c3e8227feU, 0xbee9a6823d96f6c3U,
  0x3e342a4e3e8f4358U, 0xbd899bb93d124de8U, 0x3de0a110bdfbbb55U, 0x3eba62a3bdc6c38bU,
  0x3d67fa8ebe01169aU, 0xbe551129bda2720cU, 0xbd0dbe6f3e4f2ae3U, 0xbde213e4bd83df65U,
  0xbc82fcc8bdf2738fU, 0xbe03b402bc7cbfb6U, 0x3e14a67cbca8ea5bU, 0x3e99133b3e891c6fU,
  0xbd436448bdbb6653U, 0x3e89f09a3e39e6f1U, 0xbe1e680ebda70e70U, 0xbe25e8c0be1a4b7eU,
  0x3e9da3d4bebf68ecU, 0xbd6da958be88907dU, 0x3e53f963bc19a09eU, 0x3c594191bd7eb2e5U,
  0x3ccfe2a6bd73caa0U, 0xbc7f62bcbd5faf1eU, 0xbe580c1a3d83e982U, 0xbdbce03b3cc792f7U,
  0xbe1f2c5c3bd740ebU, 0x3e9a0ad0be20ad78U, 0xbdf5d1d73ee2c6c6U, 0x3ef679e6bdfbadc9U,
  0x3dd104193df7fa2fU, 0xbd02762bbe9b8e51U, 0x3ec3c9fa3d88ac9fU, 0xbd4e4257be87999bU,
  0x3e5b76babe22fa46U, 0x3e9ecb66bea1d714U, 0xbd2df017bee513eaU, 0xbe128b013ed96294U,
  0x3c624280bef88e3cU, 0xbd14ca36bee6af42U, 0xbe9f4cb3be8bae08U, 0xbefd3cd0be248d5eU,
  0x3e1e4cca3e1c5d6aU, 0x3e185e823e806c2eU, 0x3eac84a93e409eb7U, 0x3e28b57cbd41f1cfU,
  0xbe2880a3be2de8b5U, 0xbece1d1ebebac34fU, 0xbe39132ebed44a14U, 0x3e00ec553e779992U,
  0x3ec5d527bc5cc0a2U, 0x3e86eaae3d880057U, 0xbe93e8093d06d00cU, 0x3eb7c6df3d90526bU,
  0x3d65ff833e5582b0U, 0xbe756d67be8a68a2U, 0xbeb2becc3d755348U, 0xbd8de5193e3d3b62U,
  0xbe2e4db9be106a9dU, 0xbeb0755abea1d899U, 0xbcceec463dcba197U, 0xbe88b7f8bd6b6492U,
  0xbe95e2e43ed2ce96U, 0xbdb1cf4abc8a53f9U, 0xbecc5e023d532995U, 0xbdce12423e34c674U,
  0x3dfd4c5abdff7b17U, 0xbd1b7331be2a4ffaU, 0xbeca61723e9f08b6U, 0x3c797b22bc0c8a83U,
  0x3e375a70bdfb2a85U, 0xbe234d4c3f24d194U, 0xbdf1b507becf90f7U, 0x3dd4ee203e161ee9U,
  0xbf53662d3baf85d4U, 0xbe825fc7be7bb5afU, 0x3e1a295fbe86cbc3U, 0xbdb6303abf8dd4a0U,
  0xbea1d05e3f8500d3U, 0x3f702d6dbdca712bU, 0xbf62ffc43ed9ed62U, 0x3f3e7ff63ea668efU,
  0xbf312f6cbec1a4e7U, 0x3edabe5e3d0fc6daU, 0xbf3af2ca3d27d1ebU, 0x3d6ff5e6bca08aa7U,
  0x3f4d34dd3f9326e3U, 0xbf4da05cbe30f3edU, 0xbebb51d53fcd2479U, 0xbf1a92e73f54b841U,
  0x3e7717263d9a5bf1U, 0x3e41689fbf28433dU, 0xbf46fa29be9f437cU, 0xbf93bc9c3ed34bfeU,
  0xbbbfa7813f0fcabdU, 0xbf17b99c3f8ba2f7U, 0x3f484d4dbee262c7U, 0xbea40b29bf3a69bcU,
  0xbdd5514fc013e8d9U, 0x3f8cee863f9f0f9eU, 0xbf80c8fc3e11d2d7U, 0xbd7cfc1ebf5a3943U,
  0x3ec0677f3ddf9ddeU, 0xbe9628bb3f079ba7U, 0xbe2b3b04be8c3707U, 0x3e1d9356bf0d293eU,
  0x3d9efcccbd4e4df8U, 0xbdd9344fbd84acccU, 0x3da2a90b3d322717U, 0xbe9a5823beb47d26U,
  0x3c93dca13d8fb471U, 0xbe758facbe6dec4aU, 0x3f40068fbeab8423U, 0xbd7f31afbeef9d48U,
  0x3befeb41bc7afbb8U, 0xbc653f223d310006U, 0xbc61db353b90928dU, 0xbbf0c89938e621a7U,
  0xbd16ff5a3c3b3e57U, 0x3cc043f13d017ca2U, 0x3d42e04fbadb3af2U, 0x3bb324b33c450000U,
  0x3c2268d03b5b6299U, 0xbcbfc389bc868833U, 0xbc9aa963bc469b9cU, 0xbd1ceef0bc075d08U,
  0x3c298ec7bac58894U, 0xbc8c6bc6bc974a48U, 0xbb96e8d0bbf66ed2U, 0xbca50649bc6ee228U,
  0xbc85d1093cc44adaU, 0x3badac363c0f7c5bU, 0x3c8d46ef3d3e6a18U, 0x3b8e890cbd7cd0acU,
  0xbc7480063cac83a1U, 0xbc9bf2883c84d5d0U, 0x3b0688f4bc4f4430U, 0x3c44c45bbbfd8987U,
  0xbbacbb0b3ced2340U, 0x3b86668a3c28d499U, 0x3cb43f8eb9a2e0fbU, 0x3a76b8533caa8072U,
  0x3c94c0f53d18407eU, 0xbc98623cbc891db2U, 0xbcd2e995bc724a5aU, 0xbc1d67a7bb4d1da6U,
  0xbd2e3f7a3cacfbbeU, 0xbb68dbe03bd8ef10U, 0xbd3792313cae91ddU, 0xbd17453fbd2fab29U,
  0xbcc52a27bc36ecb9U, 0xbcc02ea5bd0a03c0U, 0xbc5d2f1dbd5acd37U, 0x3c6e3b5ebc0b3828U,
  0x3c95ee363ba8703fU, 0x3c132181bc8105c6U, 0xbba1cfb03bfba5f8U, 0x3c910715bac147f4U,
  0xbd0962683cce969fU, 0xbcd97ca1bc85f953U, 0xbd55c08dbb3f2514U, 0xbd60aaf1bd7b08d3U,
  0x3cd263b2bc17a20dU, 0xbd1ed260bd5a22e4U, 0x3c8b4da7bd7f4df4U, 0xbd9ffda93ce4d76cU,
  0x3bcb35213c0b120cU, 0x3d33eb41bcfbb146U, 0x3be5c7f83c845a21U, 0xbaf66f30bc80eb41U,
  0x3bae29213c89b7dbU, 0x3cc0b6c93ca69093U, 0x3d1ec689b9d9ba43U, 0x3d0f81e93d07de7dU,
  0x3a8c50543d0f3439U, 0xbc9c9c0ebce816d1U, 0xb9a0a9bb3c14b9eeU, 0xbac41be83c9c8fffU,
  0x3d0d100e3ccfbf2cU, 0x3cef6fcf3bbbde22U, 0x3d82c9fa3c250f25U, 0xbcbe3a9bba6b014bU,
  0x3c019be53cedcc3cU, 0x3cbd0663bcaba3fdU, 0xbd197d56bc5e4d3dU, 0xbafe893fbd771972U,
  0xbb8e7daf3d286a70U, 0x3c350bb13d01b2b5U, 0x3d78df273bdba8f6U, 0x3d0979bc3d2ade61U,
  0xbbdc35cd3cb63e42U, 0xbd1185e1bc9244a6U, 0xbcf6f8d43c0a82e8U, 0xbbfb59d83c0f03e4U,
  0xbc9379653d4c6ca7U, 0x3d36d9e7bcca64e8U, 0x3c70100a3c8620b0U, 0xbc9349163ca607f3U,
  0xbb3f4e02bb37e84dU, 0x3baff35dbcc64a64U, 0xbce26044bc6406beU, 0xbb4dd84ebc891880U,
  0x3ce898073cb0a70cU, 0x3c88feef3bfb17a6U, 0x3c657576bcc2c477U, 0x3bfb632b3c1af920U,
  0xbb0b9fcbba425aa5U, 0xbcaed0363cab454eU, 0xbc996d213c506c69U, 0xbcedd50fbcd908eaU,
  0xbc987ebfb96fde3fU, 0xbcb9ee65bbc537daU, 0xbc7857313c9de9efU, 0xbd1a6b59bcc344e4U,
  0xbc9a202fbc911a26U, 0xbc7f1559bc451bb8U, 0x3cfafa183c01c4a9U, 0x3c386325b89ada76U,
  0xbc04a7ebbc760264U, 0xbb8116a5bb910f33U, 0x3c09cab7bb9ad6f2U, 0x3c43b9edbc060506U,
  0xbd5100643c8f74f5U, 0xbbabb289bc3b8e13U, 0xbbcf0f543b257a8dU, 0xbcb2095dbcbd2e40U,
  0x3cb52099bcc022eaU, 0xbd35c0c0bcefdb46U, 0x3cbd086cbba4bcd5U, 0xbc94830e3b2b8653U,
  0x3cee8ce6bbd5210eU, 0x3c0a26dfbc21e6eeU, 0xbcb35b1cbd2ff107U, 0xbcc73287bca80bc7U,
  0x38982e8b3afadfcdU, 0xbc0ed1a13c2192fdU, 0x3b75861abceda4d1U, 0xbac461ea3c93a5c9U,
  0x3b9070fe3c3f1f37U, 0x3c5e042d3c33d25eU, 0x3ce2b7d53bf97ff4U, 0x3bbd505dbc07dafeU,
  0x3c7326a5bd705729U, 0xbcb28471bc71e2c0U, 0xbc45ba04bd4e25a9U, 0xbc5ed54c3c2a69cfU,
  0x3ba736f0bc29882aU, 0x3bcab819bcde4b37U, 0xbbee2f81bd04944dU, 0xbb439b70bd02388fU,
  0x3c2c82b1bbf0fab3U, 0x3c634d29b9efdfd7U, 0xbb3d3be23c8048c2U, 0x3cc38aa93ba27298U,
  0x3c43908b3b44642dU, 0xbc05bb8e3c37c454U, 0xbbb9fb283c9b006cU, 0xbcd19580bb97679cU,
  0xbba2a749bc2ae93bU, 0x3b1f63f4bc798b05U, 0xbc1c7030bd807a95U, 0x3d5450fc3d008460U,
  0xbd008595bcec7e14U, 0xba5a8132bd41116fU, 0x3b5765d2bd244965U, 0xbd19d08abd0acee9U,
  0xbc2ab6f33cbb5b5cU, 0xbc540f7bbc87ae3cU, 0x3c073931bcab5e04U, 0xbd59e7703c17ca2eU,
  0xbccc8a71bd5d66ccU, 0x3ba66e39bc93639cU, 0x3ba9de65bc2ea0a7U, 0x3cd4db7f3d08f06eU,
  0xbd10135dbccc9452U, 0xbce7f170bd29c172U, 0xbd125b78bc8e741aU, 0xbb7d33e9bcfd658dU,
  0xbcb81821bd30b8b1U, 0xbcafcf9d3a23775bU, 0x3cf7da3dbd049007U, 0x3a300293b985bff8U,
  0x3b75ad793d466501U, 0xbd2aa48f3b4baeebU, 0x3d50b23dbc44f442U, 0xbcfe93153cf97488U,
  0xbc7a957ebbcb9a9aU, 0xbcfceff7bd6d1b5eU, 0xbc612efcbcab77e3U, 0xbb0e32f83d165c24U,
  0xbcc72b38bc4e57afU, 0x3c147d78bd34f1e6U, 0xbd0a74febc7c64fdU, 0xbd5342013c5a75f0U,
  0xbd1f06f6bb9aaaadU, 0x3b9de12cba85180dU, 0xbcc233af3cdb097cU, 0x3d219b9a3c067547U,
  0x3cf9ec3dbc2fa894U, 0x3b62c3bbbba11fb5U, 0x3c22bd70bc6061e0U, 0x3c0d338a3c95488aU,
  0x3bd4c2c73c67be23U, 0xbc429302bd0ce335U, 0xbcbe43803c9eb6fcU, 0xbd02482d3c082aa3U,
  0xbd17d0673d1ae8dcU, 0x3c712efcbc9e3c3cU, 0x3c0624933c8aafc7U, 0xbcbdaa78bd0b2017U,
  0xbd22e49bbcc47996U, 0xbcdd28a4bd904e0fU, 0x3c84e8b8bd2381e8U, 0x3c8b19b43d0ecc07U,
  0xbcfbf6943c611b7bU, 0xbc927ca9bcc2ef1bU, 0xbc93bee4bcac1ba3U, 0xbd04ced0bbbf7f0dU,
  0xbb479030bd73363aU, 0xbcf4027ebc09c3a5U, 0xbcb39b5cbc91dec6U, 0xbccfee593b69e55cU,
  0xbd460047bc7712caU, 0xbc757fdcbcf2b420U, 0xbc806a9a3b6859cdU, 0xbd677d97bbe0fe5dU,
  0xbd1345713cd3ccc8U, 0xbb75fdf4bd01518aU, 0xbbcb6125bd01f50dU, 0xbb6922b83c6ec11cU,
  0xbbbe9ff73cb0cc92U, 0xbc987e863c323b4fU, 0x3c0485fcbc4d5049U, 0xbd176f473bc24286U,
  0x3a5ae27ebc828da6U, 0xbc614e85bc914f38U, 0xbc8d18dd3c9c905fU, 0xbcf1305c3c108c13U,
  0xbcb12702baf72382U, 0xbb599fd33c93a361U, 0xbc5f40ed3cf0072bU, 0xbc300acd3a5856c7U,
  0xbcdd4d0dbc8ac9c3U, 0xbca8f619bd3bb292U, 0xbd387109bb11765dU, 0x3ce43cb03b951b81U,
  0xbc3ce01bbc3d20e9U, 0x3c3ef560bbd13d3bU, 0xbc8829653c0f40ebU, 0x3c67c8bfbb1cff00U,
  0x3abb325f3b2e25a2U, 0x384ada10bccb2731U, 0x3bdca4b33d1242daU, 0xbcb782563c621ddbU,
  0xbcc2d9a73c83ad88U, 0xbc49c3ad3cec2d1fU, 0xbc2c23703b81d9adU, 0xbc8faac7bd49a600U,
  0xbce9f848bd19c516U, 0xbd2c01b8bd992c95U, 0xbbe03b543b8d12fbU, 0xbc103926bd7d68bcU,
  0xbd8704a0bc403e8cU, 0xbb1fcd5abd815e7eU, 0xbcf9e93bbcb62df8U, 0xbd028e8abd87df67U,
  0xbc8f17febd853e76U, 0xbc14854ebc866d70U, 0xbc3f1812bd0a8aefU, 0xbc987c6cbc191dc1U,
  0xbba30badbcfeeeb9U, 0xbd02adc03c984978U, 0xbcb2935c3ba54b78U, 0xbca2544bbd09d16cU,
  0xbc755f203c1600e3U, 0xbbd4e97ebb3ecc94U, 0x3b84cc3bbc3838f1U, 0xbc49dcddbd5c3907U,
  0xbd2ea583bc462438U, 0xbcc5817dbd5a64f7U, 0xbccaaf6fbbfd8462U, 0xbd7681f6bd02d447U,
  0x3bcc0fccbda26e01U, 0x3c10a9733c254377U, 0x3c2ff1303adc417dU, 0x3d008955bc7d9fb9U,
  0xbb4f03103cc3874aU, 0xbbd7e4e73c17c94bU, 0xbc9666413d2ba05cU, 0x3bfae29dbd8674e5U,
  0x3c39183ebc93c022U, 0xbd1856c9bcee6591U, 0xbc06daf7bd4593baU, 0x3c0646debc897b97U,
  0xbc9fe46cbd569aeaU, 0xbc620ec0bd015495U, 0xbd80fdbbbc726822U, 0xbc9f8998bd7d7a6eU,
  0xbc2d1f5dbc10d8beU, 0xbb67aba43c56ad03U, 0xbc9df666bd143d82U, 0x3bb8555639828014U,
  0xbb459590bade1dc3U, 0xbbc9890d3b80f8b6U, 0xbc0358e6bb0f6a74U, 0xbc41eedebbcdd035U,
  0xbccfbf5dbc476f20U, 0x3be92132bd0c7db8U, 0x3af62f97bd37e27fU, 0xbb39dd2c3c78619cU,
  0xbca21f8abcec05dcU, 0x3cf8b26abbd6fa93U, 0xbc8fa25fbc7d132bU, 0x3c879e93bcd6095cU,
  0xbb7e59aebcf4d3f8U, 0x3c4a97843c5cce8dU, 0xbb4a994dbb88cb41U, 0xbb81e5a9bc8d46d8U,
  0x3c197d1ebc9d3bdaU, 0xbc32233d3c227c67U, 0xbca41ccfbbfd0a31U, 0x3bd7efeabd1aa5aaU,
  0x3b238001bc9e6676U, 0xbc6eaff2bcab73f6U, 0xbb3a786abd2d7153U, 0xbd070b99bc8eadfdU,
  0xbd00150abcba996fU, 0xbb1c19efbc75295bU, 0xbcff00eabc66d560U, 0xbc847f98bcdf37a6U,
  0x3b68b4e8bd090fbcU, 0xba81744c3c54ff8aU, 0xb8edd5143bf7545bU, 0x3c024073bca3c201U,
  0x3b65706cbc735566U, 0xbc995b843ca0833fU, 0xbd2a5a3bbd02097dU, 0xb8b0313dbc92fefaU,
  0x3b0a9035bd0672eeU, 0xbc6061a5bc94db5dU, 0xbcc17016bccd5f39U, 0xbcb4477ebcc97797U,
  0xbce31865bd2cdaa2U, 0x3c6db14fbc71f18aU, 0xbd0bbdf23c92bc0aU, 0xbc7b514ebcad4680U,
  0x3ba5b1fdbcf7b82bU, 0xbc07ff403bbba131U, 0xbc8fc4ce3c99e66fU, 0xbc5aa7c7bc6455dfU,
  0xbcb8c3333d0cc260U, 0x3d0543043bc891bbU, 0xbc765b753ba9110cU, 0xbba71a6bbcae8407U,
  0xbc9f71aabc90b63fU, 0xbc3d4f9fbaaef660U, 0x3c9852403c7063d2U, 0x3c063891bcbe8046U,
  0xbd081d38bc6fe5deU, 0xbc98d0acbc8ffd4cU, 0xbc315a423c6e0c2dU, 0xbcac55a6bc535124U,
  0x3cbe307dbc9d3462U, 0xbc287cd43bf30d65U, 0xbc3ffee9bce36fd6U, 0xb9a4933dbc72829fU,
  0x3b1a98c83b20d51bU, 0x3bad09adba160ea1U, 0xbb93c4233bd23b57U, 0xb94e79c3bd44e423U,
  0xbc4b7230bc53b811U, 0xbc415988bb9e675dU, 0x3d088e8cbc8d1f8aU, 0xbc389b8a3c905896U,
  0xbd0c8507bccbfe02U, 0xbc2829ebbd040428U, 0xbcec1bfb3ceba757U, 0xbd003337bd00b285U,
  0x3c302fc8bd2a7868U, 0x3c406ef93c0fc6acU, 0x3b5d6d7fbcae5af7U, 0x3af56b43bc60dbffU,
  0xbbf0352dbc5da0fdU, 0xbb610212bb8295d3U, 0xba5c20a5bcc73421U, 0xbc4ae65bbce9ee66U,
  0xba87defabc559fd9U, 0x3c23e1f4bb3a06f8U, 0x3c365f4abcc5a3d6U, 0xbbddb9163b92fe4eU,
  0xbca4a7dfbd1bbb2eU, 0x3bd13c3bbbb1bbffU, 0xbd089a2e3d09007aU, 0x3b18144dbc89c58fU,
  0xbc34f01ebc870ef1U, 0x3c9847533c936431U, 0x3b6050fbbc3bbaaeU, 0xba3cc2dfbc184b71U,
  0xba854d7d3cad7e46U, 0x3c27a05ebc604c8bU, 0xbbcb2aa73c5418bdU, 0xbc7249143c95140eU,
  0xbba868113c365f39U, 0x3abe070dbc1950b9U, 0xbd19a0533b40b3f8U, 0x3ce1b13bba4cc801U,
  0x3bd86f95baa5de3dU, 0xbc4fe2a33c7974e3U, 0x3c294f7d3c53ec79U, 0xbca9f3813d22a3acU,
  0x3c8debe3bbfe40a9U, 0xbcc59fdebca9f95aU, 0x3b49f2d13bc6dc1bU, 0xbc25e7ce3cd6d4a7U,
  0xbbf0477a3d07d781U, 0x3ce68914bc7ae063U, 0xbc01e5153ca886bfU, 0xbd322693badb8e59U,
  0xbb69c0753c784bcdU, 0xbbc7b86dbcef2d13U, 0xbcd14e623b27ddb2U, 0x3cb4d22e3c99d34cU,
  0x3af604e2bbdfa950U, 0xbcc217953c1564feU, 0x3c190caa3c343095U, 0xbce5d4893cd3322eU,
  0x3c964f49bc3199b5U, 0x3b8715833c2962e9U, 0x3c8121b9bc9fe948U, 0x3b7cad0d3c4c2815U,
  0xbc3a300f3cb9d745U, 0x3cb8452bbccccd7dU, 0xbc6d3b4b3ca7f4a4U, 0xbcbdda13bb17e237U,
  0x3aa7d89dbb5946f1U, 0xbc898520bc9e25c0U, 0xbc6204453c10157aU, 0x3c89a98e3bc6f1e9U,
  0xbc14c1a8bcb5b5a5U, 0xbc219040bc3595faU, 0xbc4c5e413c1155afU, 0xbc53e1c93ba2d7b8U,
  0x3bebea15bcad587aU, 0xbca09198bb97382cU, 0xb9d34c73bcb08932U, 0xbafa82f43c6f5915U,
  0xbc302f17bba26460U, 0xbabe75ba3beac151U, 0xbbe99c4f3c018933U, 0xbb7e7c21bc56fdeaU,
  0x39f0fe20ba8e545fU, 0x3affb37f3ca00293U, 0x3ce42dfb3b9b66baU, 0x3c5fc4b5bb825a82U,
  0xbb4ef10d3b1b09a7U, 0xbd03be22bb35d50aU, 0x3c5f04f7bc9fbcc4U, 0xbca8522b3c9919c3U,
  0xbc20db233bbd9991U, 0xbbb0158ebd11f56bU, 0xbd02902bbc0ce95dU, 0xbd074f87bcc690faU,
  0xbd0a1fb2ba8ca8a1U, 0xbbf482dcbbe12306U, 0xbd69b2f43abf53b9U, 0xbd0e66f7bc0d54ecU,
  0xbca306c8bb94187cU, 0xbcec5471bc4e54b5U, 0x39df9187bc5b5946U, 0x3d1f40913ab48718U,
  0x39d48c1cbc3b538eU, 0xbb8602953c4a5debU, 0x3bb028c73c91c89aU, 0xbb2dbc5c3c6dc200U,
  0xbca00fbf3c801004U, 0xbcd2d841bd7384c2U, 0xbd3863173c290d3cU, 0xbd52e59fbcf4c6c6U,
  0xbd2797263d116964U, 0x3ceee77c3bf80979U, 0xbcedd9e43b9766c8U, 0xbd1e8fd8ba6c50eaU,
  0xbd1dec40bc200e75U, 0xbd1a4d55bc995b2bU, 0xbb2b6b59baf256e5U, 0x3cfb66e4bc4ec8edU,
  0xbc034058bd0da8c3U, 0x3b48121b3c0691c5U, 0xbc662f9c3d0b14c4U, 0x3c0c74ec3c9d6d16U,
  0xbcb7b29d3c4a0d44U, 0xbcd01267bcfd0efdU, 0xbd756afb3bbbbf1bU, 0xbd1e0cf7bc99dfbbU,
  0xbc8b110f3be63537U, 0x3bf238cabb50f934U, 0x3c185b84bb6bb330U, 0xbb72a63a3cd0f236U,
  0xbcb04e1ebaebca3dU, 0x3b8f4e72b8cf06feU, 0x3ba7580a3c285c81U, 0x3b3ba8733ca9db17U,
  0x3c9f90343c5748c1U, 0x3bd830053ba9eb80U, 0x3c3e53573c2634efU, 0x3bf25222ba8dec70U,
  0xbc3b2ab93b66e704U, 0xbd45fd0cbd0363acU, 0xbd05a8e2bb255921U, 0xbcf1ca1fbc56e8d9U,
  0xbcc53745bc1608eeU, 0x3c182a983bc63c3fU, 0xbb3a313fbb02b0daU, 0xbbc416d43c282daaU,
  0xbccdf181bc03121cU, 0x3a17426abb4ddfe4U, 0xbc8c38c03a7fdcf2U, 0x3c0099f33d0205f0U,
  0x3c27449b3c12c32bU, 0x3ca46654bb1523f5U, 0x3cd3a23b3c22b1aeU, 0x3cca5980bc01fb32U,
  0xbc2c7e003ce7d6f1U, 0xbd3b74ecbd0919a7U, 0xbd3ca3563c5a418cU, 0xbd0374d7bcaa67c8U,
  0xbc94d9b73ba3830dU, 0x3d0126603b0a42a9U, 0x3c8f9be4bb923701U, 0x3b4c16b23c87fd23U,
  0xbc39419bbcbfbba7U, 0x3b55267ebca6567eU, 0xbc8ba1afbbd94c2cU, 0x3b42aed83bb5d2d5U,
  0x3c98e2263b873b53U, 0xbbcdd4ebbc15c50eU, 0x3beaa1b2bd5c5456U, 0x3c549f9abbf18393U,
  0x3b513c44b957268fU, 0xbc44f17fbc201eefU, 0xbc9ebbd23c8e1fadU, 0xbb62d6aebd01450aU,
  0xbb97087ebc68f880U, 0xb93e23f13cbd121bU, 0xbc325db93caecbf9U, 0xbb03c0f239e9ecd5U,
  0x3c8f6cb63c609216U, 0x3b36fcdfbbb5e2ccU, 0x3ac356723b41ec3fU, 0x3bb7bf193c84dbb9U,
  0xbc4601d7bba69f87U, 0x3c363a87bb3c8a1bU, 0x3b088d0bbbdd0190U, 0x3ca4155abb8be89bU,
  0x3c51210e3aa9e901U, 0xbc88bcc5bbc71d12U, 0xbd1ed6bbbb042ecfU, 0xbc9a2a03ba558bc0U,
  0xbc11a050bca766eeU, 0x3c489f563c8bdeb0U, 0x3be404353c828de4U, 0x3d33a848ba66376dU,
  0x3bfe60843b8e0a49U, 0xb997a2be3d1c6442U, 0x3cd092ea3ca41ea4U, 0xbc0ef5ec3cd5461dU,
  0x3b68383dbb23e2b5U, 0xbcc1eebabb8695edU, 0xbb21d51ebd16a515U, 0x39f66b31bb2e0582U,
  0xbc3c86803cb8ef81U, 0x3c354d683c9fe23aU, 0xbc4a271cbc2727eeU, 0x3b4642a7bcc1e3e3U,
  0x3ca3aa4fbd297630U, 0xbcd476c4bc86787fU, 0x3bb8c494bd2f75d9U, 0x3b2afd7cbc91bbf7U,
  0x3c484f0cbc888e07U, 0x3bd1f6a9bc47aebaU, 0x3b456dc93bc31a7cU, 0xbd186662bcdc8f2dU,
  0xbc6867d23cd36578U, 0xbc0d6b98bc08c967U, 0xbc89ee13bd83ad0fU, 0xbca0214bbbd149b4U,
  0xbc73db653c97b1e2U, 0xbaa169343c92bb4fU, 0x3c2e2410bcac36a1U, 0x3c8492463cd1352aU,
  0xbc7fc1d33ba3c883U, 0x3c33674cbd89a218U, 0x3b55b532bbbf28f7U, 0xbc4387d5baa5d220U,
  0x3cd2e3d5bcb45508U, 0xbc09fb35bb1a223fU, 0xbd60b12a3c15d4a8U, 0xbc85a50a3b8c449bU,
  0xbc3f29403c4934b4U, 0x3b53475fbc682012U, 0x3ba4c91d3d14b418U, 0x3d1bb9843c3a6cf2U,
  0x3ceb15b33d2bed9cU, 0xbbe57fe1bd213325U, 0x3be75da5bc2a39e0U, 0x3ad0eba23ce9df21U,
  0x3c9c8b343c3a42deU, 0xbd1bbbe8bd0eacddU, 0x3c6170bbbc875ffdU, 0xbc95258c3baf186aU,
  0x3bc962853c348e28U, 0xbbcb611abd1c138bU, 0xbc601847bd2f36d5U, 0xbcd82dbabcf8151dU,
  0xba1fb0533b882f39U, 0x3d31cb7b3cdd42eeU, 0x3c921a6f3cd3a3d7U, 0x3d6887fa3c54423bU,
  0x3b3d050c3cbf6041U, 0x3c56b64e3c10c381U, 0x3b9da88f3ca3ddd0U, 0x3c2d03593cc81c30U,
  0x3bb31ababc9700a5U, 0xbcf3b080bd038826U, 0xbd09e3b9bbe253ebU, 0xbcdfadc8bb121a62U,
  0x3bc3b32d3c7b968fU, 0xbc912f11bc8e71abU, 0x3ac12758bc61d560U, 0xbc3894c2bd46046dU,
  0x3ca4da76bbf9dcacU, 0x3a41b29fbb086174U, 0xbc3741f63c2eb3d4U, 0xbc0ec94938e29e11U,
  0x3c878c0dbb0d0029U, 0xbcf92b18bccf02c9U, 0xbcb24cb5bcaef0c9U, 0xbd0c4a5c3bd01e38U,
  0x3b21f069bc87895bU, 0x3cb3e8623c8d6c02U, 0x3caf1544bb2b60fdU, 0x3d2253bfbc2dcfc9U,
  0x3b50c269bc9f6567U, 0x3c4834b93c18da4bU, 0xbd051068baf4c194U, 0xbcbf7ca03b9fe263U,
  0x3c9347b43cdbe22fU, 0x3c812ea33cc25f9bU, 0x3d1014d0bd2b7711U, 0x3caaa1303cef2ae1U,
  0xbb7ba5673b0cb023U, 0xb9f427e0bb0d4346U, 0x3c634cbb3cd4dab3U, 0x3c81fe483cf2a1c8U,
  0xbca88d473d4f3211U, 0x39f2466abbfb90f4U, 0xba1646653bacfb3eU, 0xbbffebe43c297e63U,
  0xbce1675ebcc437ddU, 0xbca33431bd03c4a1U, 0x3ca38ac1bcb9f5d9U, 0x3c740299bb37ed95U,
  0x3d1235d3bc26ec44U, 0xbc0ab377bbcf57d4U, 0xbbed35bdbce204f2U, 0xbb101d8dbcf8700aU,
  0x3bd4bb48bd103d01U, 0x3c5e27be3c7a5857U, 0x3c71c3e13b10dde4U, 0x3c81c56abc1c4e01U,
  0xbd83379f3c858299U, 0xbc2d01dbbc10a4b1U, 0xbd69d0f83d0b83b0U, 0xbcdbe2f7bcb55e55U,
  0xbc966761bb4beb3aU, 0xbd9a667dbc2c1a21U, 0x3d0be33f3cb80c52U, 0x3d1cf20e3d0f80d9U,
  0x3bbe0b3dbd20a5a7U, 0xbd2ea8a7bca0d2a7U, 0xbd09a1d0bd08a1a1U, 0xbd698b49bc99b6e8U,
  0x3c8cd55abcef4840U, 0xbc51a6093be87e3aU, 0x3be68c58bd29b8d7U, 0x3bd8259dbbc7f7e2U,
  0x3bb02df0bd00332dU, 0xbb8a8b57bca86ec7U, 0x3cc4a487bd0fb0aaU, 0x3cb7bb42bc4b13e4U,
  0x3cc031bfbd4c7192U, 0x3cc9085f3c5d998cU, 0xbd8890143bca3e77U, 0xbd5731ed3c8935b7U,
  0xbb69e2e8bd2ceffaU, 0xbd883f1bbc952981U, 0xbc6a90cebc43d640U, 0xbccb9ea03be0fe54U,
  0x3d09b4dabb4aeb3eU, 0xbace26f33c7a2200U, 0xbc37e6b8bd2811e0U, 0xbb6983653b02562bU,
  0xbb78d0f13c286674U, 0xbbc99dc6bd8dd5c2U, 0xbaa98aa3bcb96f61U, 0xbce35ac63cb418bdU,
  0xbc8ee82fbcaf6d80U, 0xbc2ddb3ebc915bb8U, 0xbc433a833bba1063U, 0xbbcb32e8bc80a642U,
  0x3c945bc2bd0b5487U, 0xbd113eb1bbc0f7d2U, 0xbd7da9883caeb9bfU, 0xbc9d35fdbc72f9d2U,
  0x3bfcf9a5bc97fc5eU, 0xb7aeb2d03afff4e0U, 0xb8e77b99bcfed846U, 0xbc1aae35babcae5dU,
  0xbd21f6133ac1a86aU, 0x3c767afe3d3079c6U, 0xbd56c1153c85c514U, 0xbbdef602bb8ef77fU,
  0xbceea78cbc392125U, 0xbd387253bb445ab6U, 0x3ca66aec3c8f24deU, 0x3ceb9e81bd032d91U,
  0xbd1b49cabc772f48U, 0xbc9ef8cc3c0a03e3U, 0xbcef0d1bbc41d5fdU, 0xbd3326613c18b8e5U,
  0xbaf24d1e3b7fd1f8U, 0xb96fa7cfbca64305U, 0x3c1d1c90bd8d1bd5U, 0xbbd299963b6f16b7U,
  0x3b588f7f3d093029U, 0x3c42041b3b3b6018U, 0x3c7721583cc932deU, 0xbd20e517bca61904U,
  0xbca1c4ab3c051089U, 0xbc485e8fbcb0a25aU, 0xbcc7eca7bcd0f8e2U, 0x3cc1dda8bb9c99b3U,
  0xbd9c67c53bd6dfa9U, 0xbd48e549bdb6d830U, 0xbcbc4358bd03127aU, 0xbd27b129bd651fd8U,
  0xbc4f68d8bc966150U, 0xbcce0306bcd18c5cU, 0xbb47bd49bd3861d4U, 0xbbbab531bc60285aU,
  0xbb835a013bae0bb1U, 0xba15327ebc8eecb6U, 0x3c0a3dda3a267ba5U, 0xbc9e1171bc34f800U,
  0x3b3b7ded3cbb81a9U, 0x3b05d8e63ca849d1U, 0xbb7f850f3ba4d747U, 0x3b05c5a03c8b2fa1U,
  0x3b07fcb9bb55b6a7U, 0xbce5e05fbd27f98bU, 0xbc3849b3bc6d0e48U, 0xbbba89b4ba3e56f5U,
  0x3d322804bcffb8efU, 0xbcb425d9bcda0ec6U, 0xbcb963d1bc8af46dU, 0xbd0f00d5bb45c5b3U,
  0xbc9432bd3c392265U, 0x3c5efdaf3a6e2d0fU, 0xbbb50b67bc27a353U, 0xbb93e7573b93b47cU,
  0xbaad8d4c3c8e8481U, 0xbbb69f2fb9a6dcdfU, 0x3c20de0f3bad04f2U, 0xbb455c783cc00333U,
  0x3c55aeeabc8baeedU, 0xbcf0a848bce3a21aU, 0xbd1de8a3bd15364bU, 0xbcf39439bd2a0faaU,
  0x3ca4839bbcb99ec3U, 0xbc64c6f63bd3af20U, 0xbc9ca513bcb4f66eU, 0xbcaf0548bc7e3857U,
  0x3bee2d7a3b3382dfU, 0xbd224d35bc39ceafU, 0x39636c79bb4f753eU, 0xbd0b999cb945e8b7U,
  0xbcb231f33c3eb517U, 0xbb91ea32bc98b133U, 0xbbf46503bd93d4e4U, 0x3b275ac539c4b4b3U,
  0xbc7426a73c29ca4aU, 0x3c94912dbb03ded4U, 0x3caa47ba3acb4730U, 0x3c23efaf3b53586dU,
  0x3a8db3b53b8bb95bU, 0xbcfef1ffbd00ddf4U, 0xbb5bfddc3c93f641U, 0xbd1da9313b4f6647U,
  0xbbb85256bc75238dU, 0xba8dcb43bbb74683U, 0xbc9e5bbb3c266675U, 0xbcdd4298bc48dd18U,
  0xbb2cf3533ca187a4U, 0x3aa8418d3c979a59U, 0x3b6ef990bcc22007U, 0xbba4ee4ebcc54703U,
  0x3a1f59c1bb8a3e18U, 0xbc5e1e6abc60b166U, 0x3cc136663b609c0eU, 0x3c1a3cc83c1ded75U,
  0x3c7d8711bc48cc2eU, 0xbd29febebc8ed159U, 0xbd0a1ff5bc573803U, 0xbd4ef892bc5d01c8U,
  0xbcbf653b3bbb2bc6U, 0x3c5cc638bbec3435U, 0x3c218aa53adcba24U, 0xbc4611d0bb87f704U,
  0x3c10557fbbbb8881U, 0x3b7e79adbbd0b3c2U, 0xbc0d494f3c8ff793U, 0x3c0346443c6ade87U,
  0x3c05288639eb41e2U, 0xbc8bf70dbc965d41U, 0xb8fd85863bdcd11fU, 0xbc41c888bbee833aU,
  0x3c0383a6bbc0f2c8U, 0xbcd0f95bba06d81dU, 0xbd074192bc25f7caU, 0xbcd774b8bc7839b4U,
  0x3c56acc2bc9d1feeU, 0xbd3fd151bd4d52eeU, 0x3c9646ddbd0b2f7aU, 0xbd4335673c6a5223U,
  0x3bb64c42bbe00415U, 0x3c99822cbd4db9deU, 0xbbfd6c6abcc87d5fU, 0xbd0ed70dbd123723U,
  0xbcab910dbbc332d2U, 0x3bc95808bc7460c2U, 0x3a75c5fdbcf61d78U, 0x3c0b163d3c613b6fU,
  0xbbb7f380bcdec8a8U, 0xbca402483b08dbb8U, 0xbb3066d73cbb30f0U, 0xbbdd69963cb8effeU,
  0xbb460308bcc680b6U, 0xbd02d2ed3c33e21bU, 0x39dad3d4bd328ea3U, 0xbb42ef4fba16b7e4U,
  0xbcc09e75bad0be2bU, 0x3c145db13c1526ebU, 0x3c88ad29bc6bd49aU, 0xbc277baebcb11d79U,
  0xbc38bbe33c8774efU, 0xbc7d73343a1c3953U, 0x3c4d9cfebd083238U, 0xbb5368943cf9dd04U,
  0x3ce8c6cebccebba7U, 0xbc3d8fc8ba9ac043U, 0xbb9b5e353b9e1486U, 0x3b00d18cbc1ecf2cU,
  0xbbcfec093b80a125U, 0x3ce7eeab3b901dbeU, 0x3a8b62de3bd82cb8U, 0x3cbd6762bb0b3c57U,
  0xbaa90570bcbd72f2U, 0x3b8cec73bbb85a10U, 0x3c46eae83d264698U, 0x3c5e19ee3c8b279fU,
  0x3c89bca03a115a71U, 0x3bea85c1bbb0da6dU, 0x3bdf4224bbe1c3e9U, 0x3c81efe2bc2d869bU,
  0x3c6717863cda02f8U, 0xbca74a63bcb61980U, 0xbcc7ea2f3bda0e7cU, 0xbc3aef6fbcc9fafbU,
  0xba9233fc3ca9d8f9U, 0xbccc7770ba935e3bU, 0xbcffe14ebd266764U, 0xbae83faf3c503728U,
  0x3b606eef3c1a372cU, 0xbc45abc33b6e6b0aU, 0x3d012a263c7d3853U, 0x3c6359f6bbd05b1dU,
  0x3ce344123c6a37b1U, 0x3cc3a86f3d084087U, 0xbc019a643c3e19deU, 0x3cc6ad02ba20fd8eU,
  0xbad79b0a3d4d0723U, 0xbd41588fbcf825b7U, 0xbc82c82abc191634U, 0xbcddc54d3a8d9c72U,
  0x3cb277253c61580dU, 0xbb294b223c480c15U, 0x3d1e06e3bd0364caU, 0xbc7885993bda7704U,
  0x3cc859253a15ff0fU, 0x3cb2bf76bc952754U, 0xbcf346e3bcddc2efU, 0xbcd5929fbcff7168U,
  0x3c553f9a3c457343U, 0x3b1fc1233ca9fe6dU, 0x3c364c6f3a0ef12cU, 0x3c52f5f63c583e7cU,
  0x3cc456953ba7d0d6U, 0xbd1390bfbc900250U, 0xbb0b107d3c1d4e71U, 0xbc68f2ac3b84dd92U,
  0x3a80a5debb2a7d59U, 0x3c6e18293c41cf77U, 0x3c94bc78bca1c0f7U, 0x3a17d19eba90c7c8U,
  0x3bf77142bc23e8cfU, 0x3b3fe8b2ba26a924U, 0xbc5c54b3bb5c5de0U, 0xbd077c05ba32a5d2U,
  0x3cf22478bc85ec4eU, 0xbcb12553bc9e6b4bU, 0xbc22adf23c969caaU, 0x3b257f243c93e2e7U,
  0x3d84cdb8bb009d52U, 0xbd156d53bba749e1U, 0xbd07b262bd08dfd8U, 0xbcb15c233c9e6ef0U,
  0xbb747b25bc86215cU, 0xbb977ad9bbbb08caU, 0xbab77f273b76fea1U, 0xba68646e3c9559dcU,
  0xbaa3ea29bce20110U, 0x3c943631bc3443d1U, 0xbb6167f8bbb5e388U, 0xbcf92950bbd06910U,
  0x3be572e23c34c8e0U, 0x3c9741bf3acf114cU, 0xbc5d7cea3cb79380U, 0x3cd227faba949f03U,
  0xb96ce2173cb4362dU, 0x3c1f2552b96f91a0U, 0x3a89668d3c4bb1a0U, 0x3b414b0f3c5b6a90U,
  0x3cb9f5b4bbcc4017U, 0x3c5ce4a73c09ab9fU, 0x3d64b519bba1c892U, 0x3c87026a3cd519c2U,
  0x3cca0d47bcd368adU, 0x3cf1e9debbafd09cU, 0xbc3403ffbc75b2d6U, 0xbc09440b3b772a7fU,
  0x3be111d5ba110575U, 0x3ba954863b99684eU, 0xbcdfa490bc583536U, 0x3c5cf88fbcccfa55U,
  0x3bf5f3f5bc35ecb1U, 0x3c2ce20bbc32eb8bU, 0x3c8398cf3bf2c941U, 0x3c75a6963c756062U,
  0xbc83bfadbce19bb3U, 0xbc86d419b867388eU, 0x3c22d6aebcd13da5U, 0x3bb2a574bbd727c1U,
  0x3b4e2036bc4b1a25U, 0xbc57f5403cffab29U, 0xbcb123843c3968a9U, 0xbcebe3473afd8ba2U,
  0xba30a1c2bc0cafb0U, 0xbce65d47bcad9cecU, 0xbd13e4c43c8e94e5U, 0xbca8eeebbc541b60U,
  0x3ca800b33a25a506U, 0xbbffded5bd1ccb07U, 0xba965709bc3859d3U, 0xbd106b8e3b0bc8f5U,
  0x3ccd513bbcd38958U, 0xbcb0d71b3c3a7da8U, 0xbce8d138bd1e7e39U, 0xbc3e3697bbd281ffU,
  0xbb8a6294bb53fdc6U, 0x3ca38f53bccf709fU, 0xbce54d88bc58cbc8U, 0xba40d4be3acba784U,
  0x3ce29a0cbd11cb09U, 0xbd28c68cbd808cf9U, 0xbd7ef98fbce00d7bU, 0xbcee1b04bd22fa54U,
  0x3c16e75bbca0492bU, 0x3ca4338a3d2d57f7U, 0xba94dffabc5e7c23U, 0x3c71a3a33c3cb8e7U,
  0x3d0c321dbcffb15dU, 0xbc5a41673a59696eU, 0x3cec1ffcbcd7b461U, 0x3cf4a68fbcad9ff4U,
  0x3ce5f0dbbcb0773fU, 0x3b2c00c3bc8f4d45U, 0xbcb52514bd151874U, 0xbc956dbe3b63fbddU,
  0xbb88a196bcaa0aa6U, 0xbcb0fedebd33d787U, 0xbd6ab326bcb8a307U, 0xbd174703bd44d925U,
  0xbcebf7cbbcc3c2e0U, 0x3c767a9a3c9f2cd9U, 0x3c9f2c283baa308cU, 0x3c3e4a803bc1b100U,
  0x3c3f30a5bd01174fU, 0xbcb9134dbb879586U, 0x3cb65828bc495a8bU, 0x3b5e8ac4bbfd0439U,
  0x3bd19753bc6e4711U, 0x3c898dc83c5c16b7U, 0xbc2f832fbca85bd2U, 0xbd6728dc39513346U,
  0xbca93cfbbb243577U, 0x3c6170b33a48a26cU, 0xbc319be03c19e80bU, 0x3caa7a7fbcf9bde6U,
  0xbad386a9bc9d22a1U, 0x3c4b87afbb4cd4ceU, 0x3bdac8893d07a037U, 0xbc7b80acbc7d5f89U,
  0x3c02210e3a83e2daU, 0xbc0662d53c36cdb4U, 0x3c2caa333c505ba1U, 0x3b87c134baa3c1aaU,
  0x3b4a852ebc09e24cU, 0x3c993201bca1abcaU, 0xbd7fd8c5bc1b0149U, 0xbbe41d493bc49cc9U,
  0x3ca0a8f6bc7612b9U, 0xbd0ebdb7bbf69c66U, 0xbabec507bd163d1aU, 0xbc2d205ebc0f7579U,
  0xbc1127ce3d07cf71U, 0x3c7a46ee3c8ad10bU, 0xbb408fe7bca3f4abU, 0x3b3f1222bc9f3115U,
  0x3bab0c6fbc6e4854U, 0xbc6ab635bc0f0f92U, 0x3bdfaf11bc1fd157U, 0x3c855e90bc0a3baaU,
  0x3c3bb658bd01e27aU, 0x3c72eebfb9c7b979U, 0xbd058614bc7e371cU, 0xbd04af0139982018U,
  0x3c562b80bc35715aU, 0x3c3ba55c3b9a28d2U, 0xbd15c68dbd1846e3U, 0x3c83766abcce3d21U,
  0xbc88822bbbc359a3U, 0x3c9638f83c5dc651U, 0x3c902a4ebae2c30aU, 0x3c919113bc000f5aU,
  0x39ea07f5bccd60d8U, 0xbd1aabf73ad52559U, 0xbccce73fbc9b0432U, 0x3c104251bcc6c560U,
  0xba83fe26bccdabfeU, 0xbce98dc93bb13c0eU, 0xbb274f5f3c951794U, 0xbc68e291bce14076U,
  0x3c9d906d3b97ac4bU, 0xbd1d9fa5bad32d9aU, 0xbcedd3b4ba444120U, 0xbc827c70bbf94e50U,
  0xbc43574b3cb42d20U, 0xbc3e8e23bd13b61aU, 0x3c3bcf80bc286333U, 0x3bf48ebf3c666fbdU,
  0xbbf17f193caa2ba4U, 0x3cfd6a613cc79ae9U, 0xbcbbf34bbc5ed4ffU, 0x3c45ff783c6803c6U,
  0xbce5237cbaca4984U, 0xbcb7cad5bc80a692U, 0xbc1c04323affd080U, 0x3cb07ab0bd30379aU,
  0x3b902b6bbcd11136U, 0xbd0b98143b5125e3U, 0x39f620dc3c8c9991U, 0xbcdcc6303be1c3ceU,
  0xbd1c85b33d0a1105U, 0xbbeddf6b3af290dbU, 0xbccfbe55bcd27c2eU, 0xbc0f5fdbbc600d37U,
  0x3b0bd0a13b5ca1abU, 0xbc4145fc3c65bc03U, 0x3c3b89b4bb165f3bU, 0x3cafd37ebc414bbeU,
  0xbabbb5e3bca0e865U, 0x3b827d9fbc752a06U, 0x3c44b409bcd7423aU, 0xbc6f4a0b3ccac6e9U,
  0xbb8b201ebcf9515eU, 0xbc0b4c90bc437486U, 0xbc9884593d0a6d78U, 0xbc5284f6bc992b97U,
  0xbd690fcabbcc0317U, 0x3cb628693bafe936U, 0x3bd83bd9bca82e88U, 0x3bccebd0bafa54f7U,
  0xbc7eabf4bc9112d1U, 0xbcbfe47bbbd8e822U, 0xbb314147bc6ecb0dU, 0x3b0567ebbcca01e6U,
  0xbba86bc23af91f84U, 0xbb58a9f2bb071eaeU, 0x3c56ebc3bccad842U, 0xbcec96b83c28365eU,
  0x3b4cac36bb860c90U, 0xbcdc981f38810601U, 0x3bd936fa3d1ecc64U, 0xbcb3dd823bddbdc7U,
  0xbcbbd8893c65acfaU, 0xbc003607bcd0f5aeU, 0x352bc08cbd05f3ecU, 0xbb91754b3c9c9363U,
  0xbd4c8466bbf3d40fU, 0xbbb493fe3d1a169fU, 0xbd21734a3b353f1eU, 0x3c1e942b3ca218f2U,
  0xbc4b058b3bdf1677U, 0xbcaa6e453aa352deU, 0x3b58fb403b8d8e4dU, 0xba548ab8bc306c02U,
  0xbc0780e6bca3d134U, 0xbd253ea2bcce6b3bU, 0xbcf9a5e8bceb905bU, 0xbce5521fbd0b04e3U,
  0xbc41fa31bcc37f45U, 0xbbfe42a63bf3a4bfU, 0xbc21b545bc4598f8U, 0xb9cc61aebc873c54U,
  0xbd4742dd3c2ae565U, 0x3c16c27a3cd25702U, 0xbbaa8ad73c2783e5U, 0xbc8897cfbc3b7805U,
  0x3b00d5d5bc67d85fU, 0xbcefb9bdbc6d96a9U, 0x3cedddd83b456c2dU, 0xbb1ed7a03b8aaffcU,
  0xbc58246abd04925aU, 0xbd337722bd0b1d6bU, 0xbc96141dbc32e1deU, 0xbd456968bc7e75c3U,
  0xbc81c5dabd02f3f9U, 0x3bdcd8fb3c5e33e5U, 0x3bce44d1bce80fc2U, 0x3c8d924abc249abdU,
  0xbd0ea6423bb3a0ddU, 0x3c9c3810bcb24706U, 0xbcbe4f333c01be82U, 0xbcd6f513bd19b10bU,
  0xbca551e13ab2f0c3U, 0xbcd0d0d2b949c9e5U, 0x3bdb7e61bb35187dU, 0xbc10108d3ba26178U,
  0xbc3e5084bc570253U, 0xbcf9bcc3bcc65645U, 0xbc812370bd1d3a4eU, 0xbcf47c40bbe0218fU,
  0x3c281b68bd14f210U, 0xbcbfe8edbc920653U, 0x3b765c40bcb9aa2aU, 0xbc2cc35d3c2d9c0cU,
  0x3c728b243c4262a6U, 0x3b85f83fbb597b7cU, 0x3c2570b4bc01815fU, 0xbbacf7403d1f629eU,
  0x3c07310b3c228e57U, 0x3cfe375ebcbac8aaU, 0xbc5d9187ba888d8cU, 0x3b64d6313be3a714U,
  0x3d082f4f3cd9177dU, 0x3d0240433d00029eU, 0x3c44a08abb23c405U, 0x3cfa1d733c1a9829U,
  0xbc699f913d043da2U, 0xbba773c13bd8f65eU, 0xbc08fac63c33dbc5U, 0xbc758103bc63e7c4U,
  0x3c82f4a83ce6f9a0U, 0x3cb855f03c4d81c0U, 0x3d01102bbaeb00ffU, 0x3c188c8c3bc9ce3cU,
  0x3c764ef2bab5abcbU, 0x3c9b3d663bcaef7aU, 0xbc53b4be3bd2ba3bU, 0x3c1d93dcbbb13f10U,
  0x3c492da33cc78579U, 0x3c8902133c8e0cd5U, 0x3c5a631abbe0b3acU, 0x3c8ba5b63bfa07d1U,
  0xbc1693e43c25c0f5U, 0x3c15c3073c5c8cedU, 0x3c5671663c8e08a1U, 0x3c5576a53be7774aU,
  0xbc0173763bf41cffU, 0x3ccadfae3b6f0eabU, 0x3c03bdd93c364e0cU, 0x3b4517563c0019beU,
  0x3bd35579bc9ff290U, 0xbaa48c723bc476a0U, 0xbc39faac3c22b2f8U, 0xbcad29b53c5f9c1bU,
  0x3c967321ba8d022dU, 0xbb2cb2e9bb333bdbU, 0xbb8aee36bc948d97U, 0xbbde9f57bc70fd40U,
  0x3d26bb3f3c01569fU, 0xbbb8dcd13bd39071U, 0x3bccaae3bafedeecU, 0x3b759af93cb22856U,
  0x3c56560fbc0f9852U, 0x3c07bb203c5800b7U, 0x3c02da1b3b8befefU, 0xbb498457bc17c37bU,
  0x3b10b232bbdc6409U, 0x3cd94efabc60438bU, 0xbb92c377bc70325bU, 0x3bfe54233ca50c08U,
  0x3c63eeecbc71f9d5U, 0x3c85a43d3bbc9184U, 0x3b4dbfe83c18d25dU, 0x3cfbd069bbad7839U,
  0x3b36e1e43c1a59c4U, 0x3cbc03293d05af5bU, 0x3c7ada18bbb85d77U, 0x3cc22575bc10a578U,
  0x3d313b85bc24b33eU, 0xbc848d113cfc5fb1U, 0x3cfc261a3a3281fdU, 0x3c4d1c0d3c2af9dfU,
  0x3ce5a817bbf44b75U, 0x3c4778b3bbf700a7U, 0x3a020e12bccb09abU, 0xbc097aad3a4fce44U,
  0x3c79203c3a48ce1cU, 0x3c4dbb67bb5654fbU, 0xbcf084b53c5fa61bU, 0x3c4735a9bc5a2692U,
  0xbc2e7bf73c581f32U, 0x3d0a19fe3ca5f07cU, 0x3cf04c9b3bb397d7U, 0x3d0f60cd3ce36613U,
  0x3c820349bc50b86eU, 0xbc759a193c8b6757U, 0xbb90b3e4bc99a359U, 0xba8299e6bc48f037U,
  0x3cb15701bb8c200aU, 0x3ab350c83c3c2ec1U, 0x3b84198b3bf7c6ccU, 0xbc4f35923c10044eU,
  0xbb528d76bbea260bU, 0xbc95f892bc3387abU, 0xbc152cbd3c9afdfeU, 0xbc7f4b463c3d3a81U,
  0x3c038e693ba99884U, 0xbadd7279bca960e2U, 0xbbb0825bbc8e0a32U, 0xbc79c7ae3c2e93f4U,
  0xbc88784b3c6f6b06U, 0x3d01029e3ba2cd57U, 0xbd0a25803c6007aeU, 0xbb4560e53c0bcb4eU,
  0xbc86539ab9d5a32cU, 0xbc2ee007bcae2b8dU, 0x3ae918083c771a88U, 0x3c30e39cbd1fad5eU,
  0x3b77d62bbc82837fU, 0xbcb53826bd63c497U, 0xbceeed74bb79f377U, 0xbd160675bd221a0eU,
  0x3cc433ccbd21a18dU, 0x3c844d4c3c7631d9U, 0x3c5cc9a8bbcc570dU, 0x3c2800d13b605bd1U,
  0x3a1adc7a3c43d1a8U, 0x3cfc1aaa38e86057U, 0xbb203d403c909623U, 0xbbfa991cbd0312ebU,
  0xbb8b7280bbc38b55U, 0xbbf4dabcbc988cb0U, 0x3c6844e43c8c5f89U, 0xbb818d09bb3cef08U,
  0xbc4e44c8bbe8d0f7U, 0xbccab99cbd16748bU, 0xbce31f313ca37589U, 0xbcb5423abd0e541fU,
  0xbba15365bce61f8fU, 0x3c564bb73c87461bU, 0x3bde638139e9590aU, 0x3c8ecf35bba60294U,
  0xbc3a6909badde3a6U, 0x3b988894bcc023e7U, 0x3b5a73fdb9ab385aU, 0xbd08308bbc158fc9U,
  0xbc02258a3cbaf02fU, 0x3ae6d659bc77185cU, 0x3c5afe93bc192c36U, 0x3ad88be63c1dd444U,
  0xbbaa87c2bc12c969U, 0x3c5c663ab8941cadU, 0xbc8a7d1c3b6decbaU, 0xbb4ed678bc58383bU,
  0xbb76462ebcfe61deU, 0x3c06dd10bc0fd5e3U, 0xbbaca9d53b0eafbaU, 0xbab3a6fcbccdec01U,
  0xbc7ff6c93c02ebfeU, 0xbc2ac8dc3aca7ee9U, 0xbc2220f1bcca42ddU, 0xbb1f8ff2bcd1ddc5U,
  0xbbaa1619bcd41652U, 0xbce7c696bc8c1624U, 0xbc3d2465bd011c9dU, 0xbc2e540ebcdcdbd1U,
  0xbc5de0c93c6dbd4cU, 0xbc476fd1bcfdc26aU, 0xbbcf48c93bd11720U, 0xbcd0417bbb87c2d4U,
  0xb9ecd411bd1d7669U, 0xbca9ae18bc80d44fU, 0xbcad1fe2bc786c60U, 0xbcffddc73bc8da64U,
  0xbcada22fbaac07daU, 0x3b60142a39290b35U, 0xbd1de538bc508b2cU, 0xbc9ac78cbb4e8dbbU,
  0xbb2a98b7bc81ab84U, 0xbcfee286bc269c7cU, 0x3c52d8b1bc54eae0U, 0x3b209dc3bc8efd6aU,
  0x39a90d103c36e962U, 0xbce6bf81bb23ee1fU, 0x3c11879a3bfa7bbfU, 0xbcf3340e3aca79daU,
  0x3b759c53bc5c0225U, 0xbd069269bcfdbeaaU, 0xbd06eaa1bbc3c459U, 0xbd076442bc9a31caU,
  0xbc510cf6bbee0ee8U, 0xbc8e74023c370f44U, 0xbcc301ce3997eb1fU, 0xbcfa04873ccff879U,
  0xbcc7c2ab3c2c2f25U, 0xbb7f5d02bd06bc77U, 0xbc43ef80bc4dd68dU, 0x3c8b15fd3b4bd60cU,
  0x3c87bae4bcaec433U, 0xba6157bc3b7b404eU, 0x3a726b3a3ca90f6eU, 0x3bdb27f5bc432c6aU,
  0x3ca279f1bb59b7bbU, 0xbbb5ad0cbbc0e76bU, 0xbc790b36bc2bdb78U, 0xbd1635c1bc3d78b2U,
  0xbbfbc7d0bbdac866U, 0xbcac41f4bceeed4eU, 0xbc5eec29bc5a4440U, 0xbc028965bd1c9f40U,
  0x383b8ae2bc1dfbb4U, 0xbbededcc3ad86ee5U, 0xbb9cf30ebcdc72f2U, 0xbc2c3293bbd0440aU,
  0xbcb586f2bbe30b7fU, 0xbbe5c95fbabc14c9U, 0xbb677c77bca4ec5aU, 0x3b0c8802bc22df66U,
  0xbbb10c37bc6f19d6U, 0x3c6ce6e53b48d492U, 0x3c2f00513b983e36U, 0xbb7f7a84bbfde7b2U,
  0xbd32021ab9e4d4a0U, 0xbbce05eebce98accU, 0xbd0f55073c578472U, 0xbc98c175bc434fb0U,
  0xbcc449033a7e00ffU, 0xbcde148db9ecb444U, 0x3c69e4c539deed86U, 0x3bbee1583c39142fU,
  0xbc2739573b2461f0U, 0xbbcffd9b3c46d044U, 0xbb806adabcc91837U, 0xbc060f543a40692dU,
  0xbc65c49a3bfdbc62U, 0x3ba3cd9d3b288feeU, 0x3c6aceb93c1c1105U, 0x3c083142bcc58d15U,
  0xbc5349973b8fbc7eU, 0xbb9bcc733c240ff7U, 0xbc4ea6b5bb8e0617U, 0xbc9202a8bca56f8cU,
  0xbce5b301bc937771U, 0xbc15c141bc864015U, 0xbbd600d03b09263eU, 0x3c000985bb067572U,
  0xbb8659e7bbd7f830U, 0x3b7f0e5639ccce9cU, 0xbc564e65bc51fac6U, 0x3bb063e4bc113748U,
  0xbc53f90f3b7f904eU, 0x3c6ad2f13cc03d23U, 0x3bf7cbadbba36c14U, 0x3b97b7abbcdc3825U,
  0xbc148b903ade9c1bU, 0xbb2fd6d4bba8f330U, 0x3b01de5ebbb79f18U, 0x3c1068c1bc9e6168U,
  0xba46b144bb486408U, 0xbb302a4fbbd3dc2bU, 0xbc88695539214302U, 0xbcb1a261bc9c7800U,
  0xbbed5c873beb079dU, 0xba56a8183ba45a69U, 0x3c6b2c17bcdaf9f0U, 0xbbcbcee33b7a9866U,
  0xbc2ef6e5bbfe878eU, 0xbc8a18e6bbf84dbaU, 0xbc82a3e43b079d6fU, 0xbc1c23adbc2dd15bU,
  0xbc8bc9c43abda94dU, 0x3c46fba7bc164551U, 0xbc75587d3ab328f7U, 0x3a8746fabc5fe17cU,
  0xba905eb3bcb9bea4U, 0xbc850084bb9a0aecU, 0xbc218162bbdd8358U, 0xbc914d86bb7508b8U,
  0x3c1ce1723c83a128U, 0x3c36b52f3c8702bbU, 0xbb4fb1e6bc3e4039U, 0xbc77e20f3b1337b8U,
  0xbbceb349bc178bf9U, 0xbd359492bcf5ff6eU, 0xbcfb3a08bc529280U, 0xbcbf076cbc6a2f6fU,
  0xbc0bced33cba1b48U, 0x3b86a420bc63cb0bU, 0x3b5b111a3b42d7e9U, 0xbc8e39c03a47e022U,
  0xbc69fc41bbe12884U, 0xba10b5b2bcd0e68bU, 0xbbce2451bca9d1fdU, 0xbb8464133c18be25U,
  0x3adf5a263bc39c55U, 0x3c92891db9aedd1cU, 0x3b19a47dbc62bd12U, 0x3a31be90bc744a7eU,
  0xbcbf9b173a007eabU, 0xbc55ed01bb898684U, 0xbd0f906fbbd7a352U, 0xbc10bf70bcd126c1U,
  0x3b68ea9cbc053b7bU, 0x3bbb93b03be129a2U, 0xbcaef88fbc273aa4U, 0x3c069e77bc90d350U,
  0xb9559e463bdc2470U, 0xbc30c4c7bc20dabbU, 0xbcd989a0bce37483U, 0xbce5812fbba76e91U,
  0xbc335bd83aa5722fU, 0xbd00a955bcc796a4U, 0xbb78e8773c76a5c4U, 0x3abb97413c5e51beU,
  0x3d0d38a0bc5604dcU, 0xbd2a8d17bd324499U, 0xbc77ef99bb6df731U, 0xbd1a78df3c167ef9U,
  0xbc0ad595bbf6bfc6U, 0x3a99cc95bcfd1ef5U, 0xbd693927bcf5aae1U, 0xbb336c9ebc04d95cU,
  0xba831948bc0f7ac0U, 0xbd32c297bc885710U, 0xbcfbce4bbd0a59afU, 0xbcd3b422bd24c70fU,
  0x3b768fe43b8000f0U, 0xbd48ba293aa68694U, 0x3b35cb2a3cf04a46U, 0xbc711eb73ced80c8U,
  0x3b1c7a3cbc02cce9U, 0xbd348ddfbd1aaac4U, 0xbd8cfa28bd123167U, 0xbd8ca633bba283d2U,
  0xbb86f767bc80722bU, 0xbb4f756bbc49f7caU, 0xbcc680c0bc6925beU, 0xbd3022813c97a990U,
  0xb9bdb6653c1f3044U, 0xbb00e13fbcc61a8eU, 0xbcc03363ba8bd9e2U, 0xbc3444c9baeaeee8U,
  0x3c6605273c2f4edaU, 0xbcb715003bd39ea9U, 0x3ca367913cfb0b3eU, 0xbc9a60b23d14e0b8U,
  0x3c2919d23c198d72U, 0xbd46e6b0bcae0a3fU, 0xbd8cd45bbcd327d0U, 0xbd1f9f173be31905U,
  0xbca93130bc8a1c9aU, 0x3c9f2ff9bbc84478U, 0xbc56467ebbfa8ce3U, 0x3c0807f53a2205fbU,
  0xbbf111aabbf14f90U, 0xbc3578a53c1b6861U, 0xbb83277cbcb977e7U, 0xbb6afc9d3c0b833dU,
  0x3bc12c833c8c32d5U, 0x3be13f8ebc503173U, 0x3c5a3c51bcd766c0U, 0xbc5aa72a3bd02fe8U,
  0x3c065037bd3ee9f0U, 0xbb8636a53bc48b2dU, 0x3bf816bc3cbefcc4U, 0xbbe4f73b3c1636abU,
  0xbd4cf15cbbe1369dU, 0xb7b89f10bb778ebeU, 0xbd0f18983c775472U, 0xbbfa7c35bba96673U,
  0xbccfffc5ba9932daU, 0xbd1ce267bbb15352U, 0x3c36679dbc1a9135U, 0xbb035d8c3bbe2f4aU,
  0x3c7ad196bb74715aU, 0xbc869e503c121e4bU, 0xbbcbae2cbd0718d4U, 0xbc32e76bb9dfb91aU,
  0xbc1eb8a8bcdc20cfU, 0xbb93e6143c04ec7dU, 0x3c45b5443cdef902U, 0xbc40c485bcca2f18U,
  0xbd32a7413ad14975U, 0xbc0b6ebc3cbbabefU, 0xbc9ae12839752909U, 0xbc3fbba03c2d189eU,
  0xbcbfa5b03999e19bU, 0xbc3caf46bbedcb1dU, 0x3c1be77a3c4e64e5U, 0x3c079778bc712ae7U,
  0xbbffced03c148b75U, 0xbc757913bad92d67U, 0x3c21aa63bbcfd17fU, 0xba8754a2bbd6df92U,
  0x3b43b6babb00396cU, 0xbc99ed00bca67f55U, 0xbbeefff03c3a8c58U, 0xbcd590b4bcbc8f3bU,
  0xbb267c0fbd3eeec6U, 0x3c5fab45bc2a7b21U, 0xbc2f2c06bcdf7f82U, 0x3c73a9943c171e6aU,
  0x3c9aed64bce29b4cU, 0xbc3814063cc8df22U, 0xbb9232b43c9f87f7U, 0xbd586b28bd6449eaU,
  0x3c4437443ada213bU, 0x3c70d636bc5e9ae0U, 0xb965ba623b966087U, 0x3c112b3cbc770844U,
  0x3c9528ddbd1cc503U, 0xbc3117cebbc63ae0U, 0x39f4e0d23c757416U, 0xbc318b1a3b18e26dU,
  0xbcccbb35bcba38eeU, 0xbbbe4c023cff2aa9U, 0xbd3e115abc740b06U, 0x3c444946bb9855cfU,
  0xbac80d46bbc60fbeU, 0xbd26b0f23cb6fb15U, 0x3ce5068e3abbb97cU, 0xbc067b1abd26a58aU,
  0x3b034bacbc34eb38U, 0xbc10fdcdbb30f058U, 0xbc61dc78bbf868ecU, 0xbcc2999abcb049a9U,
  0x3c06750fbc8e2e8eU, 0xbcb2522c3917a2d0U, 0xbc75e4a03a739f32U, 0xbc15364fbcbb75f6U,
  0xbcbc692abba605b6U, 0x3b36b2d93b6fbe5bU, 0xbcc24fb33c462dacU, 0xbcd632cfbc539dc8U,
  0xbc13557f39135745U, 0xbc03754ebc52e3ebU, 0xbce544e9bca7dabaU, 0xbbddc3f4bd251020U,
  0x3c62e2183acfa212U, 0x3b5a6c7c3c8d7919U, 0x3c96c18abaf0bde8U, 0xbc2e30a1bae73218U,
  0xbb9449bbba547b55U, 0xbc9d1403bc54e6b0U, 0xbd00d71cbbbc7867U, 0xbc99cfc7bcfe8c6fU,
  0xbc1267813c372a4eU, 0xbd25beeebd2db03eU, 0xba19dad63c717732U, 0xbd0ecd7fbcb122dcU,
  0x3a9fa214bc9ec04fU, 0x3a6d3571bcd9b21bU, 0xbd108593bc912969U, 0xbc7c1b9dbc5bfed9U,
  0xbd86758fbbe2ad4aU, 0xbce233f4bd86e2f9U, 0xbcd81d23bcc65cd4U, 0xbcea8756bc985348U,
  0x3cd98725bcae1db1U, 0xbc426ea3bcb7e0c0U, 0x3c70acc6bb98a06bU, 0x3bd065493cefa8f4U,
  0xbd17d31abbe99093U, 0x3aedffd6bc62ce3cU, 0xbd8a751abcdbf5c4U, 0xbd1f3d40bc46d943U,
  0xbd25e9bebcd22dbcU, 0xbd63e8f9bc89cb04U, 0xbc8fce693b45ee61U, 0x3bfb4d64bd7e5beeU,
  0xbd3b11393d06fc86U, 0xbcbea690bceaeac4U, 0xbb7a40a73b92b358U, 0xbd4b51aebb0f65d4U,
  0xbc8a5f86bd20b18eU, 0xbcafcd3a3bb12ae3U, 0xb79e47a0bc710138U, 0x3c7714303cb9e08fU,
  0xbcad95a53ce58416U, 0x3b5798b73c0ab0c5U, 0xbc6a05f6bb260a87U, 0xbbd0c5323c4743e2U,
  0xbd31a019bc405fa6U, 0x3badd1f2bd4e738dU, 0xbd193400bc0e0ddfU, 0xbbf3db2abcdcd3baU,
  0xbc80f359bbb60455U, 0xbc83830ebd5ffaccU, 0xbd15d4a6bc3bb18aU, 0xbcd8e9cbbd71b463U,
  0xbcc5ae2dbb5b4598U, 0xbd070f59b9cd66a4U, 0xbc4bc1f2bcc1dd17U, 0xbcb5f189bd33241fU,
  0xbb80ce423d1c8b95U, 0x3b06817d3c85577fU, 0x3cb321443c511541U, 0xb994ac7ebcce4c6bU,
  0x3c2eb5883b72380aU, 0x3ae68f72bbff7165U, 0xbc6b8193bcac6d32U, 0xbc2011b03ca1afbfU,
  0xbd5892863ca8aee6U, 0xbc3292ccbcb68db3U, 0x3bf501e13c2e9b99U, 0xbcfc3365bb248576U,
  0xbab89e93bc918c1cU, 0xbd171461bd156dfcU, 0xbc9a7b71bc961ce3U, 0xbcfe18b6b9e295e1U,
  0xbd41f3c43ce384bfU, 0xbbad1c3dbd49f4f2U, 0xbd2592bc3b8a4d4fU, 0xbba988e13c5d3369U,
  0x3ad2e6fe3c03314fU, 0xbd1e9ea5bc0543feU, 0xbc293019bb772f58U, 0xbaa8019c3cce1a73U,
  0x382ba80cbcb9de0eU, 0xbb834f1b3c6209b8U, 0xbc131db93c4f5235U, 0xbbd74e373c8fc431U,
  0xbbc5da98bbfdf2a6U, 0xbc65cc78bc0f7882U, 0xbc9343e8bcafd95bU, 0xbca2a1b0bac96a3dU,
  0xbd0f4de73ca8ce0eU, 0xbc9ec6463c367f80U, 0xbb6531733c5dd0deU, 0xbc38d39c3ca27e17U,
  0xbd6915193c9c23f8U, 0xbb45c510bcd7b516U, 0xbc919868bc891054U, 0x3d008e043d3f7d1cU,
  0xbbf91c8cbd2cc5fcU, 0x3b8a86c9bc235a43U, 0xbc832d3d3c7baddaU, 0xbb062684bcca4cb6U,
  0xbc25a1033c4bf97eU, 0x3a51a62f3cabcceaU, 0x3b10e673bc1bab65U, 0x3bad2734bc3f823cU,
  0x3cbe0b33bb7fec55U, 0xbd1d3249bd42665cU, 0x3bcd76ce3b566030U, 0x3c3e958bbc9e6ccbU,
  0x3cf77b583ccb846aU, 0x3b8dc9353a75e731U, 0xbda0386c3b94b58dU, 0xbcb069ed3bffb3edU,
  0xbd641e36bbacbe5aU, 0xbd125175bc2e3d88U, 0x3ba89ca7bb4ec20dU, 0xbc463ae23b565ea5U,
  0x3c3f06783c4c291aU, 0x3b53e303bc82b176U, 0x3c60c8d7bce93e30U, 0x3c7c71963cc20e4aU,
  0xbd0ad134bbf1cf32U, 0xbc0fdbce3c802edeU, 0xbc8c5c0f3ca8d0f4U, 0x3cc6dfd0bc038d64U,
  0xbb690056389f2b94U, 0xbc6f31c3bb62dd91U, 0xbd09f37fbaf74050U, 0xbc8b43233acc850cU,
  0xbc3554223c1859a9U, 0xbcd541c2399193c9U, 0xbd0e980f3c908424U, 0xbd01f812bc6a5c35U,
  0x3cca0afb3bc4f814U, 0xbcae9fc0bcaa5908U, 0x3c906569bc9cdedaU, 0x3c1b59713c893fcaU,
  0x3bc178373c924becU, 0x3c839455bc2b5ed9U, 0xbc029d92bca6ee31U, 0xbc192038bc1afab7U,
  0xbd3a0b25bcb5312bU, 0x3c877b92bd8deba3U, 0xbd26a8cdbcd3f874U, 0xbc118d10bc1d700dU,
  0xbc08da7abc2a63b3U, 0xbd31d454bcacebd9U, 0xbcc4d5b339c32514U, 0xbd11ec2fbce54714U,
  0xbc88b7d63c6fd20eU, 0xbcd8be5cbc43b504U, 0xbd28019fbd910317U, 0xbb796cf73c3242eeU,
  0xbcb75c403bbceffaU, 0x3c52f1c7bc22fde5U, 0xbcb3af693c009a52U, 0xbcaf30c0bbe9bee7U,
  0xbc9a1661bc49b721U, 0xbcf4f97cbcacf73fU, 0x3c5c6fb73cb0cc7dU, 0x3cadb424bccaf152U,
  0xbc2132febc2983bcU, 0x3ba748c8bcd2c7fcU, 0xbca9ff263c5dfe23U, 0xbc148f92bcc48a07U,
  0xbcde9696bbeb7b63U, 0xbc891df4bc62493fU, 0xbcf3e1b3bc367ef9U, 0xbd1668fabd38ad12U,
  0xbc85768cbd0e5b43U, 0xbcc77dc8bc0bf883U, 0xbcb1bebbbacf9b3bU, 0xbd0ae16bbb9e06a6U,
  0xbab8647abbed0fcbU, 0xbb3845bf3c872eeaU, 0x3c5988c1bba8d794U, 0x3c4e9148bb71fe45U,
  0xbafb815abb8e415aU, 0x3b23aa20bc4a7a56U, 0xbb4be1913c709044U, 0x3ca08d8bb8fc73d2U,
  0xbc2d361e3ca06b5dU, 0xbd063794bd2a0861U, 0xbd006c3c3b16c312U, 0xbd3ea577bcfe75caU,
  0xbc85ce27bb9c54bdU, 0x3b95ec9fbb251c9aU, 0xbaa3fa4ebc46e5ecU, 0xbbb764733c716d17U,
  0x3bf38531bc1f954eU, 0xbc38f6c83cb4c9c5U, 0x3c839eeabaa167d0U, 0xbc0f0061bc8de7c0U,
  0x3c14177bbd0776dbU, 0xba48b7cbb9be9927U, 0xbc91fe2f3c8faac5U, 0xbb049dbebca3cf05U,
  0x3c5446333be53bc3U, 0xbd091d41bc3d5dc0U, 0xbd812d22bc0989b3U, 0xbcbd17c2bd18e518U,
  0xbcc4c4293b97cbbeU, 0x3bae473a3a556fefU, 0xbbc60f673bcbf273U, 0xbcfb6fe93c43d5d7U,
  0xbc0025a23bf85463U, 0xbc901e33bc7eee20U, 0x3c9b8df739e24bf3U, 0x3c92d82bba87e4e0U,
  0x3c9d14e9bc9e9e02U, 0x3c329f353c5cff3cU, 0xbb79c8003cb0de41U, 0x3c192b87bc38a45dU,
  0xbb98d9b6bb73eccdU, 0xbca8c2483bfcc79cU, 0xbc8ad7973ac47223U, 0xbc8dbcd1bcb98f2cU,
  0x3b60e720bcde96c7U, 0xbcb1ac8cbbfa2150U, 0xbbddbaabbbfbcf51U, 0xbc9fbb6d3bf90d8dU,
  0xbac7aadb3ba7c3fbU, 0x3acc2e843c03c00dU, 0x3cb7af24bb06531cU, 0xbc5e5f42bbccd377U,
  0x3c5b36d43bf58332U, 0x3b81c55e3bb00189U, 0x3a2cb95a3b564914U, 0x3ba74dc83c5bc36fU,
  0x3bfbaeee3c5dab99U, 0xbca65b273aa1080aU, 0xbc53571f3c06e0d0U, 0xbcac57bdbcd638c5U,
  0xbb9b45e6bc6a69c5U, 0x3bc41f8b3a4c5b7cU, 0x3b6583d3bc8ec80cU, 0x3c8e40e5bcacc7ceU,
  0xbb6a8ff8bc8d36baU, 0xbc72d7923c797a82U, 0x3c2b877f3c97f2abU, 0xbb249b65bc7b909cU,
  0xba7514ddbc9d09c6U, 0xbc9e3146bc31c226U, 0xbca0d2cabd08c603U, 0xbcd2b3edbce0be39U,
  0x3cad038dbc0ab402U, 0xbbc32d5c3c3a611eU, 0xbc4d8da6bc94be3aU, 0x3bf5f862bcc09510U,
  0xbc7a9665bbb373ffU, 0x3cbd5efcba8e1f2cU, 0xbc2beb53bb3c1c9bU, 0xbc5f8e7dba8f1954U,
  0x3b65ae5abbd43cabU, 0xbc6b5de3bb364e3aU, 0x3c7c9e223bb9a5ceU, 0xb8d98b27bce9edd5U,
  0x3bb191573c34d40aU, 0x3c0a48b5bbb2accfU, 0xbc2a89e1bca28afbU, 0x3c3a7be4bc9c9ea1U,
  0x3c1ac2e7bc366e2fU, 0xbcf152bcbbedcfc5U, 0xbd0368ad3bc19373U, 0xbc62df91bb9f90adU,
  0x3b478ab0bc8eda0cU, 0xbbc10f57bc0fe8c8U, 0xbbfe0ba8bc2a4bfaU, 0xbcdc3c083a0f0719U,
  0x3bceadbe3b497d90U, 0x3bfdb66c3beb492cU, 0x3c92d3c23a528424U, 0xbb65e6fdbd09934cU,
  0x3b9997443c2dbd14U, 0xbbaaf0a63ac60e25U, 0x3c2e6445bb383c97U, 0x3b85c6163c96aa40U,
  0x3be5b9963cb28629U, 0xbc9af07fbb8b7d84U, 0xbce8b3973b7e62e5U, 0xbc9e591ebc222be9U,
  0x3bb9be14bc0c0d7aU, 0x3c3319f0bca600cbU, 0x3ad2c0823a6864d8U, 0x3a915905bce49b33U,
  0x3c2ffbe9bc906159U, 0xbc748a5b3cdeef02U, 0x3c6c34c23cf365dcU, 0xbc426f0fbbc7a24dU,
  0xbc497f53bb5affafU, 0xbc2bac72ba92c914U, 0xbbca2f953c3cd918U, 0xbb529b38b88cc980U,
  0x3b2d55363b186654U, 0x3c5bdb3a3b04926dU, 0xbb5faabfbca73459U, 0xbc1a5bfbbc964bdbU,
  0xbcff16703c80a862U, 0x3cd47876bc6e9e8eU, 0xbd010385bcd04ab1U, 0xbc0393f93cdf04fcU,
  0xbd2f163abc34b949U, 0x3c1e8d763b69a64cU, 0x3c2c5d303c0d6204U, 0x3c46d5153c25599cU,
  0xbc7503afbd1ce242U, 0x3bd5b11b3bc129beU, 0xbc615a173d3a306dU, 0x3c87336cb99b8319U,
  0xbb9f63be3cb1fb3cU, 0x3c94b4fd3d219cfaU, 0xbcbf4a38bc0879f8U, 0x3b9dc361bc305d82U,
  0x3c06f577bc281d50U, 0xbc67bc52bc872346U, 0xbbcb469ebc2ac9fdU, 0xb9d22380bc6e118cU,
  0xbc859ee8bca50900U, 0xbc4406a7bd6a9ef9U, 0xbb5a6c50bdbfdf7dU, 0xbbfac8b63bb368caU,
  0xbcbf665cbcee8329U, 0x3bf7f297bd2af785U, 0xbd1b3335bb457387U, 0x3ab4d0e2bd51753aU,
  0xbc6c8a6cbcfcb8cfU, 0x3d2b5f753d0183a4U, 0x3c8cbeb8bcae311fU, 0x3d0b0dd63b072165U,
  0xbb3f9c7ebcca544eU, 0xbd26ecbc3b2c5963U, 0x3b26c822bd220312U, 0x3ac7c87cbc4329e5U,
  0x3c07c8b3bbc4d408U, 0x3bca0cc7bcaa7cadU, 0xbcc840c0bcfaf1daU, 0xbcccb389bbeeb6f3U,
  0x3c06d99e3c1a6d1fU, 0xbbe22d6abc552d6fU, 0xbc36a0023d0bd7e5U, 0xbaee82a73c50ab4bU,
  0xba03eb7fbc6577deU, 0x3c758515bc2f403fU, 0x3adb66ed3cb39bd4U, 0xbab36038b9ae93cdU,
  0xbd1150453c7d9596U, 0x3d16e3b23cffe1f3U, 0xbd08f0713ba41ca0U, 0x3d02dd063cb22bd0U,
  0xbca84103bca228d0U, 0xbcd9e3093cd9a2a0U, 0xbc45b2fa3d1d9465U, 0x3c9e3c79bd198a5cU,
  0x3c167f72bc5b93d1U, 0xbc52f2ad3c477940U, 0xbaebc1d3bd19432dU, 0xbc5a9c86bbaadf0bU,
  0xbc163e663c4b3481U, 0xbcd5a0e8bcfc78f5U, 0xbc0a0730bae0e1a1U, 0xbcd8f552bc1cd0d5U,
  0xbc88d9263cc6d7d4U, 0x3cd8b2143cce768fU, 0x3cd336b63c987784U, 0x3c1224acbce78695U,
  0xbbe72ccabd283a77U, 0xbcba4c66bb391f9dU, 0x3d0a157a3c265120U, 0x3bb48ec0ba3fa7baU,
  0xbd1d3642bc825469U, 0x3a88fe29bd50187aU, 0xbccdd473bc017f2aU, 0xbcb48117bd3a1857U,
  0xbc363c82bd7391b7U, 0x3c155e973cc1896bU, 0xbc7da5e9bb471fd1U, 0x3b15e4e7bbc9bf08U,
  0xbd022210bc216adaU, 0x3b7fe2673ac47917U, 0x3b92d0633a911f98U, 0xbca9af66bd00e705U,
  0x3b6d14afbcc58262U, 0xbc4d8fe63c2f0bd1U, 0x3c967c3139c92cdaU, 0x3a7f5bd83cfd6169U,
  0xbc2419bd3be00bf0U, 0xbc82c8c1bc85f69aU, 0xbcc0b88c3b14a6c9U, 0xbcf0b514bbd6f380U,
  0xbc7335acbd539e02U, 0x3c0a349cbac11717U, 0xbc559cd03be73362U, 0xbc80aa2bbc00e815U,
  0xbcaa311fbcc831cbU, 0xbc6d74193cd34a17U, 0xbce063c93be6c94fU, 0x3b5dd307bcda117bU,
  0xbb64cf6cbad9ae55U, 0xbccf09e8bc2d26d1U, 0xbb88d34fbce524c3U, 0x39b626213bcbe963U,
  0xba3a9dafbc8c7c04U, 0xbcfbedd53c080563U, 0xbca4e3d73cc81a70U, 0xbca972913cac23baU,
  0xbbbaf677ba118bbdU, 0xbcbfff9ebcfd23b0U, 0xbd067ed6bc7e311cU, 0xbd42cbaebc6cce15U,
  0x3b457b783aebab68U, 0xbcee05d8ba1c9fdcU, 0x3b8399eb3bfb7727U, 0xbd2d652fbd0e3d53U,
  0xbb88bcedbc10ac47U, 0xbc184724bd8120ecU, 0xbce828cebc0fdfa7U, 0x3c6dd9f6bab003a2U,
  0xbcf81a46bcba2b2cU, 0xbcfdff73bbd83ae0U, 0xbd14a7b43ce0b8a7U, 0xbd3ab7fcbbe0c9e5U,
  0xbbaaac67bd07e78fU, 0x3bf31aa0bac75463U, 0xbc894e24bd5c5626U, 0x3babef22bceb94bdU,
  0xbc8b65843c91e30dU, 0xba97ff933c16f321U, 0xbd5a8a2f3c93fdb0U, 0xbd20f912bc866f4bU,
  0x3b9ee8d03bfe039cU, 0xbcebc3a6bcb97ef5U, 0xbc8e2ed9baa2b40dU, 0x3c6504fabbd9c425U,
  0xbcf41dfdbbb14646U, 0xbc21206fbccacbaaU, 0xbc4be5b4bc47283cU, 0xbcb4524d3b90881fU,
  0x3bd20c3ebcb5392cU, 0xbce0c3dabcfb1cfcU, 0xbc26ba26bc290085U, 0xbcdf2a5f3c0c67adU,
  0xbce02aeabc100756U, 0xbc666993bc13182dU, 0xbcea35e5bca2b2f0U, 0xbb48a96f3b8ddb1fU,
  0x3c2883d6bd1994bbU, 0xbc82cfbb3ce95f72U, 0x3c382b9f3ca9fe9aU, 0xb99a79363c265b30U,
  0x3c64e902bca03371U, 0xbcf14942bba54c4cU, 0xbc7f21fabb8b9ac7U, 0xbc9076b63b94ecf5U,
  0xbc8fa235bc4d31aeU, 0xbd1c172fbd1273f9U, 0xbd35407ebc0d3284U, 0xbd307be3bcac6fc9U,
  0xbc8123ecbca58d27U, 0xbc95d06bbc8c350aU, 0xbcb32694bc045a75U, 0xbc9eaba6bc723e31U,
  0xbc9f745bbcc3ec38U, 0xbcc14bfb3bb68e17U, 0x3bddfd87bbc3e695U, 0x3bdcb62c3d062e19U,
  0xbc5b6518bcb4412cU, 0xbc070248bc54e8c6U, 0xbc180c11bc1f2fedU, 0xbc4b52253b62192bU,
  0xbc2897ca3beff80eU, 0xbc5ab2373c2b8da3U, 0xbd4e6005bd0ef503U, 0xbcae147bbc9e5df7U,
  0xbc5f7bdebc775cc0U, 0xbcb1c715bb7a0261U, 0x3a3d1e6bbb993603U, 0xbc6823cabb7dd88eU,
  0xbc85c0d7bcd7558dU, 0x3942147ebc2920dfU, 0xbc371aa6bd378dfdU, 0x3a7c0e723cc743e6U,
  0xbcfde8cfbcb3a076U, 0x3a271b14bd130b9dU, 0xbc1ff482bbc9fdb0U, 0x3b20f127bd0e3ae9U,
  0xbc933601bc46e8d3U, 0x3c9b738c3c7304f1U, 0xbc6c6284bbb9a91dU, 0xbc6769a9bd338b52U,
  0xbccc2149baf09288U, 0xbc85806ebd12e604U, 0xbc811e5ebc0a2835U, 0xbc30da17bb403e90U,
  0xbc26878ebc066355U, 0x3b3ea6ccbb9aabc7U, 0xbc9b6456b81598c3U, 0x391618e33c5dee7aU,
  0xbc4f888b3ba009a1U, 0xbb98ec3abc90c4ebU, 0xbc8a4ca2bd004801U, 0xbcdca520bce6d69dU,
  0xbc3e7fe7bc1c4beaU, 0x382d6d403b581d5fU, 0xbc0ad600bcab80a7U, 0xbb46c61bbccbafc0U,
  0x3c20fea13c9d946fU, 0x3b9a9fe3ba859edaU, 0x3c2bc5503bc87ec9U, 0xbb894e98bc24f8cdU,
  0x3b588c0ebcb15285U, 0xbb8f140ebcbe6dffU, 0xbce5980e3ae00f4aU, 0xbc572a4bbc3f6384U,
  0xbbc5a1453ca89bc2U, 0x3c9da9563bea59f0U, 0xbbfc35db39806730U, 0x3c6c6bebbbf338f0U,
  0xbbebaabe3c33c700U, 0x3bf868133c653123U, 0xbca7d38d3b6351ccU, 0x3b267ca6bcff16bbU,
  0x3c41c071bc327de7U, 0xbcaee5ebbc88d840U, 0x3c92c8cebcc69321U, 0x39e21abfbab1a8cdU,
  0x3c1fb747bc9ed51fU, 0x3ca14ad6bc60271dU, 0xbc8a7b77bc9502a3U, 0xbd1f46d6bca27bcbU,
  0xbd02ecbe3b1a22e0U, 0x3cd26e2fbc8cc0a1U, 0xbb10e6163ab9dfc7U, 0x3cbcf8bdbc87c228U,
  0xbd009d33bcde1ed7U, 0xbb4c021c3b0318cfU, 0xbcae9e3f3cc5b364U, 0xbc58ebb1bcd263adU,
  0xbc1f08243c4e2b42U, 0x3c4688f4bbce9fddU, 0xbd074a013c8f0dacU, 0x3c66fc10bd054074U,
  0xbc305ef1bb7833e0U, 0xbc3048ff3c8c656cU, 0xbbc425cc3b9cf7ddU, 0x3bd3aa65bc8b7eb1U,
  0x3b3d1ccc3c15826dU, 0x3aa833ccbc364038U, 0xbb9409eaba42ec2aU, 0x3c324d94bc08fce4U,
  0xbc551a2abb5bb292U, 0xbd25275fbccf7084U, 0xbd5242103baec32cU, 0xbd12f1bebd0f42a2U,
  0xbc8dfe003c5f06ecU, 0x3c4cbfc33c854c14U, 0xba0fac1b3cddbc57U, 0x3b79c954bcd4ae8aU,
  0x3c2fb0b4bc5ab90dU, 0xbccfc2ed3ae7811dU, 0x3cc334903c0d5006U, 0x3c01dd2c3c81d747U,
  0xbbfe5ab3bce321fdU, 0x3b8ac7833bf62be9U, 0xbb53ffec3c2d89fcU, 0x3c8fbaafbc060587U,
  0xbc623e873c942a6dU, 0xbbdc45983b2cbbd9U, 0xbd2049833a7c8679U, 0xbc80dd44bca64adeU,
  0xbc7d7f9cbca6ee50U, 0xbd45b9e8bcd1f8edU, 0xbbbf776cbc68273bU, 0xbcc429edbca570ceU,
  0xbb4355d93bd92cecU, 0xbca2492ebcb386b2U, 0xbc21b723bd2c3e53U, 0xbb5a86cf3b64e300U,
  0xbcdacd88bccef19fU, 0xbd163dcebd0d3e50U, 0xbd0f7dd53be68903U, 0xbcd0265bbcc1ae0bU,
  0xbc2973a2bc0b4a50U, 0x3c597156bb3276b3U, 0xbc255d73bc863e0cU, 0xbc6003afbd03711fU,
  0xbabebea0bb35bb9bU, 0xbc8c925f3bbe00dfU, 0xbbb10b32ba87b540U, 0xbcf51e35bc4bdc27U,
  0xbcd04aa53c21331bU, 0xbb7c2d57bc9a5f5cU, 0x3c463091bd24a2cfU, 0xba368abbbbcd6cdaU,
  0xb9fb48103cb85495U, 0x3c86f4af3c7a39d4U, 0x3ce6f33dbc456efaU, 0x3c59eb493c9d9987U,
  0xbc9022643c0506d8U, 0xbd130c97bd0c0684U, 0xbbe52bb93c43ea0cU, 0xbcd06ab73bf3122eU,
  0xbc932f42bc6032edU, 0x3c5649923c04d862U, 0xbc1ad9a13ab165c4U, 0x3a1e3617bc3d4012U,
  0xbd1278c7b99026ceU, 0xbaabf0e7bae02b1bU, 0xbcd4f1acbcb7e010U, 0xbbd300003af5ebceU,
  0x3c64ca3e3c5e92caU, 0x3c0ea02a3c447b55U, 0x3c66e4b73b8319dfU, 0x3c8d292b3c702583U,
  0x3c8864103c7cb6aaU, 0xbc6e57dcbbfe643aU, 0xbc58f97a3c066f0dU, 0xbcc99d22bc4b034eU,
  0xbc9161a63b90b96aU, 0x3c06b4d3babf9223U, 0xbb989744b9b3c26bU, 0x3bb04529bb358c01U,
  0xbc0acfecbc8fbe3aU, 0xbaeacc4cbb1eb529U, 0xbb883138bc4add61U, 0xbcba6cd83c09f41bU,
  0x3cfca800bc83483aU, 0xb8c30c5c3ba946e5U, 0x3b97f0e63ba9bd5aU, 0x3c847a563bcb9ea7U,
  0x3ce6ff003ba632d7U, 0x3c28b7e63b2099c2U, 0x3b8276dabb3c4a4fU, 0xbaf751a43bfcab4aU,
  0x3c9e3a6abbc97155U, 0xbc6d5107bc657c9dU, 0x3c3c761d39c34790U, 0xbc9f2a0d3be26039U,
  0x3c7cc81c3c1459acU, 0x3ce792bfbc991289U, 0xbc4655b6bc8fedd2U, 0xbd063c2bbc5efb97U,
  0x3a0344ba3c368d5fU, 0x3d0f8e543c43056fU, 0x3cb338be3c5f8a18U, 0x3cdd32fd3bbe2814U,
  0x3af6f0bbbbf59a95U, 0xba5f7a863b51e735U, 0x3c2c123c3ceaca9dU, 0x3c2918123b9eb7a2U,
  0x3ce5b078baf4d5a1U, 0x3bb7a920bb1dee51U, 0x3cb4ed68bc3d96d7U, 0xbc1e20123c30a3fbU,
  0x3b1e832abb91e84dU, 0x3c8a339ebc5a8efcU, 0xbc958b6cbd0d46e5U, 0xbcd3f856bccbc326U,
  0x3c3c9bc53c8709a2U, 0x3ca09e3a3cb6c449U, 0x3ccec7963bd11a55U, 0x3c8009b13c30ecc2U,
  0x3cc2b961bb92f0e4U, 0x3c8a912b3c6e5c47U, 0x3c62c3563cc5b702U, 0x3c5aee073ce831bbU,
  0x3b9e8f623bca2b48U, 0x3ca95504bb8eec52U, 0xbb6465d2bae8b280U, 0x3b5a460ebbef58bcU,
  0xb9cfdf04bcac69c3U, 0xbc0498fbbc03aadfU, 0x3bbb333b3c468bebU, 0x39d38330bc8f19b1U,
  0x3d1a37fd3a9e3458U, 0x3cda32e13c9c7a94U, 0x3c34d4e33c9cf603U, 0x3bf19a213c63745eU,
  0x3d1ae63dbcef2abbU, 0x3bb65fbc3c3a35daU, 0x3c5e98e83c721574U, 0xbac758983ce95b9aU,
  0x3a28e9b2bd05823bU, 0xbca3cf96bb9c6318U, 0xbc6d9293bc84ca57U, 0x3b91b560bb87499bU,
  0x3bda3252bcaa2257U, 0xbbc750bebc4a470fU, 0xbca0cd86bc952c6dU, 0xbcd06e99bc7d4280U,
  0xbc0a85553b3d084aU, 0x3c45e708bc8f37c4U, 0xbb44518ebc33d347U, 0xba3ac8a6bc8040fbU,
  0x3cca3920bc494b0cU, 0x3ca5a7593c1c5216U, 0x3cd4032f3c6b1f3fU, 0x3c222ca33cb83aebU,
  0x3c5a3240bc15d7afU, 0xbc7100f5baac7115U, 0x3c3d0ccabcbe9ffaU, 0xbc172164bc978f73U,
  0x3b729389bcb20ceaU, 0x3c7052f8bae05b92U, 0xbcbe5bbabb388336U, 0xbd0c9c2bbc6cc5aeU,
  0xba2a5145bbb90c18U, 0xbba16df9bc8592cfU, 0xbc530c7f3c3598e4U, 0xba644c75bb1f9dc1U,
  0x3d1416b8bbabef8fU, 0x3c0f99ce3c49118bU, 0x3c9fc2f13c311c3fU, 0x3bb4dc2a3cd1aab9U,
  0x3a5f5ef3bc785412U, 0x3b9eff10bc1bd966U, 0x39353c393c15aff9U, 0xbc748041bc0fd1d8U,
  0x3c0d24a9bbf012f4U, 0xba1015ee3bb0439cU, 0x3b1b59e23ca7d14aU, 0x39f66d7fbb8276cfU,
  0xbc48dea63be775c4U, 0x3c22acd6bc566855U, 0xbc22f1733ca424cfU, 0xbc3928e2bc7331dbU,
  0x3ca1f914bcf6071dU, 0xbbc63e5cbc39f072U, 0xbc2e06863c18fb01U, 0xbc7283703af1028aU,
  0x3f371840bd23ca27U, 0xbcd5a8473c949d1aU, 0x3e99b0203d319f7fU, 0x3de561403d12f124U,
  0x3f010001bf0b21deU, 0x3f0777623f34ebccU, 0x3e813565bed7fd26U, 0xbe7be91e3ee7fe31U,
  0x3d1ddf1b3d3e80f7U, 0xbcad055c3d0fb663U, 0xbc2457343d01f9b7U, 0xbd63eba9bb3980f0U,
  0x3c0960fcbd1efd4cU, 0x3ce943aa3d6aed17U, 0x3d14863f3bca00b8U, 0xbc3e0f84bd413952U,
  0xbd57bb1e3d761983U, 0x3d42a4d53d725debU, 0xbd41fbf23cd3c366U, 0x3afa37a0bd5fd48eU,
  0x3d657b173cd4d6a6U, 0xbc6f28e83d2edbd3U, 0x3d22d57dba8735a0U, 0xbd1cf51e3d23107dU,
  0xbd3df9b43bfa23f8U, 0x3cdeaf2a3cb2d8e2U, 0x3d15c9b33aece760U, 0x3a7b2480bd3905c0U,
  0x3c2e3c64bd3b027fU, 0xbd2b41603cba6676U, 0xbd17591a3ca7e116U, 0x3cce5a06bd45473bU,
  0x3d76bd873d6b2df7U, 0x3c26084cbca9eb6eU, 0xbc97921abc924ba2U, 0x3d638fb13d579dcdU,
  0x3d1d76e9bd1364f2U, 0xbcbed352bc6187acU, 0xba7dd4c03a343740U, 0xbca257463d70c6c7U,
  0x3c7dab5c3d52e149U, 0xbd52a5f8bcbcf082U, 0xbca04f403c125e34U, 0xbd5ba110bab8e960U,
  0x3bb3f818bd063c32U, 0x3c37e9dcbc013db4U, 0xbd368dfa3bdb8878U, 0x3bcfe638bbd3cd38U,
  0x3d40635d3d3b251fU, 0x3d108191bc492610U, 0x3d1095fdbd177bc8U, 0xbc932fbabd5ce92eU,
  0x3c4f16ecbd15d85eU, 0xbcc30fa83bbf81e8U, 0x3a64e200bc581848U, 0xbbb016b03d3ac84fU,
  0xbd76d815bd16c1daU, 0xbc7f4d98bd2ea7ecU, 0xbc6c40f8bd678c61U, 0x3cbb3702bca6bc56U,
  0x3d6a597bbd30a4aaU, 0xbd6a3f493d302f39U, 0xbc8eb4183d68ccd5U, 0xbc8cec5c3d0a9f2fU,
  0xbd1174123d0862d5U, 0x3bc774f83b4d5c30U, 0xbc311b84bd453a55U, 0xbd41a7fd3d17426dU,
  0x3d01babbbd4e32eaU, 0x3bb731f8bd6282a3U, 0xbca9513a3d3d6785U, 0x3d262541bd3da2f6U,
  0xbcf95dcf3d443c71U, 0x3cd1a93e3c97f702U, 0x3cd12bb63a932880U, 0xbd3ed77ebd1c5654U,
  0x3cd055de3cf8a676U, 0x3d4b90d9bd489a3cU, 0x3d078df3bc2797e8U, 0x3d7890a5bc67474cU,
  0xba163b00bd10eba6U, 0x3c717bfcbb6fdd70U, 0xbbddc890bd0418c2U, 0xbb16eed03c2e5264U,
  0x3d4d91b5bd21c364U, 0xbcf902fc3d751269U, 0xbd0e7dde3be05958U, 0x3d1da959bc7253fcU,
  0x3d02056d3d11998bU, 0xbd2c6d5e3b806f78U, 0xbc0cda54bd04c718U, 0xbd3f12373cb21e86U,
  0x3ccbc8da3d44cc9bU, 0x3c4861243d529655U, 0xbd51c750bd596bc3U, 0x3d5ea22b3d3ee581U,
  0xbcc747ccbd0275f8U, 0x3d4e0f5f3d6ae357U, 0xbce2e5e6bb9e1410U, 0xbd538bd03ba49328U,
  0x3bfcd4783d4626d5U, 0x3d599b71bcc983f0U, 0xbd391e4dbd50ddd7U, 0x390481003b98de68U,
  0x3c080114bd2df8a4U, 0x3d69b0433cf9d9beU, 0x3cf3bb22bbaf09b0U, 0x3c040b54bc6701acU,
  0xbc96fcb6bd014f38U, 0xbce9c0823cad8f66U, 0x3aa28a00bd71fd4aU, 0xbb5b07903ba123a8U,
  0x3d40c8e7bd55269bU, 0xbd254b2a3d614405U, 0x3c68049c3c4a03ecU, 0xbcf63abe3d7044c5U,
  0x3d093f11bcb025a8U, 0xbd22a035bcb33b14U, 0xbd0d87ce3d4650e9U, 0x3cf5d6eebcb2976eU,
  0xbbd24fe03d5a018dU, 0x3cac7b263d3a9fc5U, 0x3a3a13403d08e737U, 0xbce701bc3b1f2bf0U,
  0xbd376c0abd0a6d20U, 0xbb9cbd383c99d182U, 0x3d6c7fcb3ce203d6U, 0xbc2b78fc3c8ca212U,
  0x3c9718d23c9c21e6U, 0xbd1a08d03d3e82f9U, 0x3cb60bd2bd068c12U, 0xbd09ccbdbd0bd090U,
  0xbd08e8e0bd698b50U, 0x3c83642abd45f78cU, 0x3cf15262bd421705U, 0x3b015b103c70b844U,
  0xbae415c03d511a5fU, 0xbcd307febb250820U, 0x3ca88d7a3cb3bce2U, 0x3cff97f23cf7b616U,
  0xbd480f90bd21c8f7U, 0xbc960ab23c73f5ecU, 0xbd4d4454bd37e325U, 0xbc03a0803cf3a932U,
  0xbc9126b23d1f0b5fU, 0xbd142a193c91013aU, 0xbc6152bc3ceade96U, 0xbd0d7bf8bb80ce00U,
  0xbd2812a93d6602cfU, 0xbc56c5003c05000cU, 0xbb46e5303bf66808U, 0x3b21e410bcf0e984U,
  0xbba27c703c6b0cfcU, 0x3d0c95513d4ee0a9U, 0xbc349ed8b9c6fc00U, 0x3ca2771abcc5e53eU,
  0xbc34bc64bc7a4050U, 0xbcb5a3a0bd04f964U, 0x3d2d02a7bd070d0aU, 0xbcd4837ebc9cf0eaU,
  0x3c667c243d157a69U, 0x3c6a9ebcbd61d2c3U, 0x3d22ef9f3cc79f9aU, 0x3d2925fb3ced8a8aU,
  0xbca1cc94bd40904dU, 0x3cce11debc299018U, 0xbc8fbed03c3a8404U, 0xbc521fc4bcd8d4f0U,
  0x3d529c9bbc144de0U, 0x3d24b1adbcb83894U, 0xbc1f36603cb4afe2U, 0x3d64fff7bd333f86U,
  0x3d1b34dd3d6dae25U, 0xbd6f6f40ba122740U, 0x3aacc9203c82beaeU, 0x3c5606043ca4843eU,
  0xbd695c9cbc2576e8U, 0x3c2b581cbbc47ed0U, 0x3d627e99bd18fec8U, 0x3b8a18783d624edbU,
  0xbc838524bc2d054cU, 0x3d4f80bd3d443577U, 0x3d2c705d3d1e9623U, 0x3ce74c5abccdd734U,
  0xbd2d51203d6bf62dU, 0xbc6bdf603d6d649fU, 0xbc7d83f03d23bf83U, 0xbc682d70bcc2cab4U,
  0xbd73450a3d6876a7U, 0xbc931604bd057295U, 0x3d096c5b3d709de7U, 0x3cb57c46bc061458U,
  0x3c195674bb8c9790U, 0xbc2db8b0bd1207f4U, 0xbc8c3e0ebbb63640U, 0x3d414ff73cf1d8daU,
  0xbd54703ebce93e00U, 0x3d695453bbb8b848U, 0xbd2235943d4144a7U, 0x3cfddc2ebc455020U,
  0x3d017e333cd36c3aU, 0x3ce61e123ccfa6d2U, 0x3cfdc3babbc9a448U, 0x3d47a623bbb2bf70U,
  0x3d054de1bc87c97eU, 0xbcbe5366bc686a3cU, 0x3d102dd3bd45443eU, 0x3d02ffbdbc957628U,
  0x3d6164893cf8eb82U, 0x3d61927b3c26792cU, 0x3bd4f3c83cc22062U, 0x3cacb79abd27db2bU,
  0xbd047560bc91076aU, 0x3b7fe690bd01a6a6U, 0xbd02fa88bd48abb0U, 0x3b64c4703c5f2a2cU,
  0xbd082132bc8e744aU, 0x3d174129bc88f854U, 0xbd21a6713d422ea1U, 0xbcf3c50a3b90a338U,
  0x3c87cd363c1bbc6cU, 0xbcb4bb72bc5e6b34U, 0x3cbee6063d55be59U, 0x3cbfc9ba3c4d511cU,
  0x3ca3b6ba3d00b085U, 0xbcf1525a3c11e6a4U, 0xbd31114a3d32e867U, 0x3cc9b7763d6284d7U,
  0x3d1db15f3d270a69U, 0x3cea0446bd5cbac7U, 0xbbe1a690bcd93c12U, 0xbc1812083c8c516eU,
  0xbd24fcbcbd26162eU, 0xbd2c84babb1355c0U, 0x3cb9007ebb64b9f0U, 0xbc3b9ef4bc28d620U,
  0x3d72887b3ccba1a6U, 0xbc52e2603d5c71e5U, 0xbb96fcd0bc4d70e8U, 0x3cf022de3d3cd8a9U,
  0x3d2986413d498eb7U, 0xbd60d710bc66ed64U, 0x3cd4d64e3d6c0f79U, 0xbc64d3c43d733e8dU,
  0x3cabef6a3d31e18bU, 0x3cc22462bd418747U, 0x3cd872223c51ce7cU, 0x3c6667743c4ca9d4U,
  0xbd5080e33b271570U, 0xbcfaa0a73d03fce7U, 0xbb4d58403d05acc1U, 0x3d56e8c73d00c963U,
  0x3d01dcbd3d68f123U, 0x3cc5702a3d4fa167U, 0x3d71da093d4118bbU, 0x3c67f1ccbcaf7752U,
  0xbd5ff036bc9f5532U, 0xbd522d8e3cf4829aU, 0xbd02a656bcadd62eU, 0xbd2acbe0bcedf0c8U,
  0x3d30eb9dbd616404U, 0x3bb54508bd4cd538U, 0xbd55e1343bd59828U, 0x3b904b48bc8c7daeU,
  0x3d6eb46dbbaded30U, 0x3d568fbd3d392963U, 0x3d38333bbd30faa5U, 0xbc8e821e3c19f254U,
  0xbc6d92dc3c63e394U, 0xbd372e4abd6951dfU, 0x3d3213eb3d5c99f3U, 0xbc1e383cbd03f183U,
  0x3cacf542bc860ac0U, 0x3cf12ef6bad94f80U, 0xbbaa1d18bc5c08acU, 0x3d009843bc29c6f8U,
  0x3d233e293d539ab9U, 0x3d2fe2cdbd5352f7U, 0x3d2d9845bd202070U, 0xbcbd89ce3d6256dbU,
  0xbcbe6374bc817e76U, 0x3d5a8029bd0f0b8eU, 0x3b3e0fd03bcceaf8U, 0xbcfacad63d597243U,
  0x3d6def753d10628fU, 0xbc05db64bd38a89dU, 0xbd60ea533b0104d0U, 0xbd30d492bcc4d634U,
  0x3c233434bc6fb958U, 0x3d50a225bc2f6108U, 0xbd6a5c6f3d5d36edU, 0xbc56ae083d16168fU,
  0x3d66aed53c5f94e4U, 0x3cd373a2bcb2b02aU, 0xbd42b14abd47e4aeU, 0x3d22586f3bf89808U,
  0xbd3cdfe23cdd9d7aU, 0xbcc7c8b8bd777fd4U, 0x3d46cd73bb110090U, 0x3cca55e63b3685d0U,
  0x3d2d967dbb9c9aa0U, 0x3d4894b9bc43c7a8U, 0x3c83233aba859560U, 0x3d0a30513cf805daU,
  0xbc8e645c3b0dd430U, 0x3d320ab1bd703535U, 0xbd0d40a43ca5eab2U, 0x3d72586f3d11ababU,
  0xbcc7b2843d20e997U, 0x3d372149bc2a8c84U, 0x3ae7c620bcb4a4a2U, 0xbd69292e3d68679bU,
  0xbc9528a43d544521U, 0xbd18a50ebcf621f3U, 0xbd724d65bd1824f4U, 0x3c9d2bb2bd7389ccU,
  0xbc8679fa3d3aa113U, 0xbd3d79ebbc5b5ce4U, 0x3cd9e6523d1f9b2bU, 0x3d290d8dbd56db90U,
  0xbd6047de3cbcc60eU, 0xbd1751f23c2482fcU, 0xbd534634bd09fec8U, 0xbd452de03bab8848U,
  0x3cfd006e3c4d5904U, 0x3d6df9533d5ada9fU, 0x3cbec7ce3d22a3adU, 0x3c11663c3d71f59dU,
  0x3d5212993c37ad1cU, 0xbc82dbce3b8c0118U, 0x3d057fddbd450a64U, 0xbd771a543d361b2bU,
  0x3cc5bf62bd426eecU, 0xbd68848f3cfc9d2aU, 0x3c390644bd1a4121U, 0x3d3cddadbc20c9c0U,
  0x3d76dbb9bd043396U, 0x3c5bf55c3bf1ae58U, 0xbd04c7ac3cf8615aU, 0xbd105ecd3c4addbcU,
  0x3c9a5d56bcf0bcaeU, 0xbc39f778bc8f6eccU, 0xbc68aba83d373a5dU, 0xbc0592683d33a551U,
  0xbd2035933d12df17U, 0xbd25a76cbcd2f13eU, 0x3d31b5dd3d70ba37U, 0x3bc65b283d584235U,
  0x3c2b67ecbd33e3ccU, 0xbd70bc5dbd350edbU, 0xbd6a63803d227435U, 0xbc967ac0bd2ea0feU,
  0x3d51a0d73be2bb38U, 0x3c58b65c3ca89d72U, 0xbc9450fa3d51429bU, 0xbd2fd728bceef816U,
  0xbd50d8c53d77b8cfU, 0xbd09bd4cbd1f27c1U, 0x3d268753bd45c49bU, 0x3b9a8828bd6e5fb6U,
  0xbd533251bd47729eU, 0xbd1dd078bca0c8fcU, 0x3d0cf1933caeb6beU, 0x3d16d26bbb8ad030U,
  0xbcc46ad03d0e3ac5U, 0xbb86cfd83d71a401U, 0xbbb030e03c9755e2U, 0xbd1d90b1bc8cc614U,
  0xbc2722483d1f20e3U, 0x3d1509af3d4b3dafU, 0xbaf81bc0baf5f980U, 0x3cc4d9ea3c5215a4U,
  0x3d4477ef3c0d5b94U, 0x3b233930bd0f081cU, 0x3c643bf4bc88fca8U, 0xbc06efa4bd310ac2U,
  0x3d612b173d303f79U, 0x3b4372b03d421bf5U, 0x3ab83780bcc7847eU, 0xbd4f34953d503129U,
  0x3d1a4ca1bd104350U, 0xbd53f2debd6c5377U, 0xbd6ff9ba3d6c5acfU, 0x3bb2a5283ca969eeU,
  0xbab2ce203d652b33U, 0x3c9c02563cecb1ceU, 0xbcf6e278bbc72dd0U, 0x3c5efb243d22f9dbU,
  0x3d52789fbd587487U, 0x3d09957dbd157879U, 0xbd4e7d6a3adbba60U, 0xbd6a41343d0413e5U,
  0x3ed87b28be89d318U, 0x3e31968a3e557152U, 0x3cc698813ee026e5U, 0x3d1ecb4abf15e771U,
  0x3f1f72e2bec282e8U, 0x3f0c1e763e8a74fdU, 0x3e665c433ed6ea56U, 0xbebd31863eefe0a1U,
  0x3e27aff5bd9e41c3U, 0xbdaac38bbe216d7dU, 0xbcbf33aabda3398aU, 0x3c8b8e13bcc387fbU,
  0xbd0d41cfbdb44f2aU, 0xbd6b66ae3d5cebfcU, 0xbb0b28943c5578f5U, 0xbd90a42abd0be04bU,
  0x3be1a6e8bd6f9bd7U, 0xbd1926abbd6fc1afU, 0xbd2a8a68bc6ec774U, 0x3d46e7013c0126fcU,
  0xbb0d15b03d0bdc51U, 0xbd5f68b5bcf8a54cU, 0x3c1adefcbca9a866U, 0xbca73c423b587c10U,
  0x3d0d399bbc603e8cU, 0xbceeb9b6bcb64d00U, 0xbcdb399ebd06508eU, 0xbb8aeff83d3f98f1U,
  0xbd143934bd65bda0U, 0x39df48003bb6e9b8U, 0x3d54e391bd759080U, 0x3cac0b363bd5ff38U,
  0x3b39a7f0bcda6424U, 0x3cd70fa63d2fba6fU, 0xbb5112203d15e27fU, 0x3cb43216bc000b8cU,
  0x3c3d51b4bbf8eee8U, 0xbc793a80bc992d28U, 0xbd502ac1bc4794f0U, 0x3d14bc2f3cdc3062U,
  0xbd2fdaf63cb5e36eU, 0xbb8d3c28bd28b999U, 0xbd1c6bfc3cd9d112U, 0x3d754ff7bd603473U,
  0x3d568d793cb01ef6U, 0xbcd8440e3cd20072U, 0xbd36ba4bbcde4f22U, 0xbbe0dec0bd5652c7U,
  0x3d67e3553b042d90U, 0xbd6fa6d23cf90baaU, 0x3c74152cbd4e0793U, 0x3d53f043bd32f2b6U,
  0x3d6bde25bc9e448aU, 0x3c8d09aa3c9d3f3aU, 0x3ce1769e3c49efa4U, 0xbd24ded03cdc237eU,
  0x3cc4e7023d63182bU, 0xbd2147dcbd58f75fU, 0x3d19232bbc1babe8U, 0xbd2f63c83d4bf26fU,
  0xbcdfe104bc4de7c0U, 0x3c553e2cbd3d84cfU, 0x3d66c3fdbd454554U, 0xbd61ea52bce453eeU,
  0xbc6206ec3cb44fd2U, 0x3d5437b3bd140116U, 0xbd648399bca6b8fcU, 0xbd651b65bc7235d4U,
  0x3c2997c43d3f8b15U, 0x3c379d243cc6b2eaU, 0x3c8f5a7a3d37c845U, 0xbc0d9c28bc9cc046U,
  0xbd122d7e3d10649bU, 0xbd1d826c3c9d947eU, 0x3d0684c33d637bafU, 0x3c934846ba8659c0U,
  0x3d72b115bd0df9c2U, 0xbcd9cec03ca7619aU, 0x3d64e18b3d32a2f1U, 0x3c132c3cbd3afb04U,
  0xbce9b0183d27c079U, 0xbd1ef3c43d1d741fU, 0x3cf890b63d40a787U, 0x3d42223bbd004848U,
  0x3ca00dfa3d479c63U, 0xbc257f6c3d330247U, 0xbcf92761bbca33b0U, 0xbd0d6b24bd404036U,
  0x3c5665f43c579facU, 0x3c48bb2c3d3b5825U, 0xbb5ebc903b65d6d0U, 0x3d3728653ca878beU,
  0xbd5eb9d23d233eb9U, 0x3c5661c4bcc79efeU, 0xbca07146bb53bab0U, 0x3c693c04bc3131dcU,
  0x3cf6d3763c2cc104U, 0xbc4c25d43c3dfb94U, 0xbd55f001bc270660U, 0xbd62ce43bd73de13U,
  0x3d1f43f1bd07818eU, 0xbcda774c3a806180U, 0xbd163344bd0b4573U, 0xbc80f9e8bd3f50a3U,
  0xbcf32f953d54a26fU, 0x3c8d75d23cc16442U, 0xbc9aef30bb852148U, 0x3d72ce4d3cc7d492U,
  0x3d01168dbc865372U, 0xbd1d03483c8ed706U, 0xbbeb7b683d3862e5U, 0x3d1468a5bd5ff1d7U,
  0xbd4777053d64f527U, 0xbd48f598bc96d5e0U, 0x3c187dac3d3d2df1U, 0x3cbf345a3d0877c1U,
  0xbd2f36e73c9a6a7eU, 0xbd35d3b03d4ae9b3U, 0x3d11cb55bb518810U, 0x3d49521bbc3b4404U,
  0x3d2668a7bc7d15a0U, 0x3ccf25ee3d0f49f5U, 0x3cc8a08abd3c78c5U, 0xb9f1c3003d2b0b45U,
  0xbd794a0e3cbd7a5eU, 0x3c127194bd67a85eU, 0x3cb7fc923c93239aU, 0x3d29a391bd1abea0U,
  0xbd6fb884bd09ddc0U, 0xbbea3370bd551e9cU, 0x3d18f7cbbd7371c8U, 0x3ce3e5aebc8f2b74U,
  0xbcec2214bc22e8ccU, 0xbcc99e663d5742b1U, 0x3d671a7bbd09ab29U, 0xbd70688fbd2f4958U,
  0x3bca25283cb9a306U, 0x3d5cb6b73c37d794U, 0xbd0b402a3cc7e22eU, 0xbb3010503d635d7dU,
  0x3d7227a9bc7f7898U, 0x3d659f79bca820a8U, 0xbd141d5abc978908U, 0x3d2efb07bc473a5cU,
  0xbb9dc0403c113c9cU, 0x3c454eac3c69bfd4U, 0x3d24d0abbd1c52c4U, 0xbd27b0743d39e9f1U,
  0xbd65ddbabd4834d0U, 0xbd24494cbbcf8bf0U, 0x3d51660b3cff1ebaU, 0xbc8c2d9c3d032547U,
  0xbd4a092b3d04b91dU, 0xbd41e9b0bd757085U, 0xbb900960bce9d336U, 0xbca78c9239ca5600U,
  0x3d1f6f6bbd2763deU, 0xbd70a71e3d0a8925U, 0xbb848730bd66069aU, 0x3c2b81c4bd047c88U,
  0xbcd4ffbabc8b2d58U, 0xbcc44e743c8ea2e2U, 0xbd784b9abcdefbf2U, 0xbd5c30d63d695e1dU,
  0xbcdb88eebbf9f690U, 0xbce445d43c88414eU, 0xba88a020bd436957U, 0x3c6419dcbd13777bU,
  0xbcb28e4cbd4ea3aeU, 0xbc5db4c4bcd9593eU, 0x3d497a373d6c17e7U, 0x3d3f4f153c28c05cU,
  0x3c9014a2bc3a6540U, 0xbd2d7f353d5f3771U, 0x3d4e1505bd1971b7U, 0xbd6e1729bc676160U,
  0x3d57cbf9bcaf55e0U, 0xbd2b82343c941e7aU, 0xbd0f04903d4275a7U, 0x3ce592aabd115585U,
  0x3be483f8bcb166aeU, 0xbc064090bca75d36U, 0xbd61bfe4bd15f2d6U, 0x3ad47d203d5c9de7U,
  0x3d49e091bd46a81fU, 0xbc9bd9d6bcc51c78U, 0x3c97fb9a3c95ba06U, 0xbc114a14bb2b30d0U,
  0xbce6a7dc3bc320a8U, 0x3d0b1fd1bd5376e0U, 0x3d5d74853d67de9dU, 0x3c0d6f74bcf1592cU,
  0xbd0f0f603d1d9155U, 0xbd2eb4bebca199f4U, 0xbcbd663a3d102ccbU, 0xbc95699cbbceb660U,
  0x3ba683983d6a37dbU, 0xbd2c8d363cbf9b82U, 0x3ce0736a3d4a8c85U, 0xbb10eba0bd0a6669U,
  0x3ce2720a3d2570a5U, 0xbc0b69043b2a1bd0U, 0x3cb5e93a3c3378c4U, 0xba549980bd50f65cU,
  0x3d11dbabbd3d00ceU, 0xbd652e383d2cd157U, 0x3d27db8dbd0b64ceU, 0xbcf268e2bd093885U,
  0xbd5ac7403d6d9c95U, 0xbd4728a3bc11abf8U, 0x3d5122db3d75df95U, 0x3d77c831bd604316U,
  0x3d13594dbcf6df07U, 0x3c0fc0943d5aa0c5U, 0x3b359bf03c7a1284U, 0xbc88bf803d3162dbU,
  0xbca083363cceb656U, 0xbad765c03cdb469eU, 0x3b9f7e483cd7596aU, 0xbd5a13cc3d09a4cfU,
  0xbca475063d0e0c5bU, 0x3cb58f963d47ccd1U, 0x3d09f50d3d61ba59U, 0xbcf8a380bca6283aU,
  0x3d3fae57bd25a3ccU, 0xbd2a127e3cf6a9aaU, 0xbd244461bd479524U, 0x3d1cda593c400024U,
  0xbcc0a7f0bceae480U, 0x3cb4dbea3c69b4ccU, 0x3d39fc69ba9e3460U, 0xbc7a3874bca1c7caU,
  0x3d111037bd0fd568U, 0xbbac53203d3fd809U, 0x3d1358adbd002b4dU, 0xbd01a3e4bcafa31eU,
  0xbd2f9ee6babd3640U, 0xbca197a4ba197580U, 0xbb80d0a8bd69de67U, 0xbce0d446bd3ab3d3U,
  0xbd1730d3bd6e4d83U, 0x3d3d24c33d36c621U, 0x3c8f325e3d044f65U, 0x3d1f518f3c0776acU,
  0xbc02db04bd47d128U, 0xbd69ffa13c38b2dcU, 0x3bc75b683d22072dU, 0xbd56ce213ac00f40U,
  0x3d45a18d3cf8244eU, 0xbd2873cebd04469cU, 0x3c35526c3d389bcbU, 0xbd1076d1bbfd3ba0U,
  0xbd40cc93bc6f023cU, 0x3b41ba703d65eb83U, 0x3d18db0f3d51509bU, 0x3cc8f2a63d073037U,
  0xbd08bd043c366a04U, 0xbd5371ba3cdd6d4aU, 0xbae65f803d33b77bU, 0xbd443ea23c8b73b2U,
  0xbb1c80703d6d366bU, 0xbcec93a83cce87c6U, 0x3d0a76d73c75d574U, 0xba470ac0bca86530U,
  0x3c99cbcebb458080U, 0xbd27e6063cd775c6U, 0x3ccfb31a3d0575e7U, 0xbc804f3a3cade39aU,
  0xbc8d7b363c6a0664U, 0x3d528ebf3b8678d8U, 0x3c84ade2bd3841daU, 0xbd696fe7bd1de252U,
  0x3d4971993d4939f3U, 0xbd6b0cfa3ceffe16U, 0xbc846c9ebd5030ffU, 0xbd59d9edbd076f28U,
  0x3d6021a53d5c8acbU, 0x3be3e2a8bd06a382U, 0xbb461af0bd77f362U, 0xbd705cc6bce8cd7eU,
  0xba2e4ac03cdea0a2U, 0x3c6677843c186b64U, 0xbd0cd696bd4f6f32U, 0xbd4530efbd42e19fU,
  0xbd156ef8bd360430U, 0x3c7e6d7cbd294290U, 0x3c809b3e3d512c83U, 0x3d1ff6353d40c829U,
  0xbcd7d430bd1efb2eU, 0x3d2207c9bd202970U, 0x3d6ec791bb875328U, 0xbcfa7714bb131d40U,
  0x3c9201aebc9d558cU, 0xbd0e42dbbba9ddc0U, 0xbc052fbc3d0dfd2bU, 0xbd3dd3293d1ec0e3U,
  0xbc19b9243cfcd8aeU, 0x3c92de2abcdc1584U, 0x3d5d680dbd05210cU, 0x3d23c9b3bc1efe94U,
  0x3bf28108bca70dd8U, 0x3d2e4a5339ca9200U, 0x3d6e58ffbd30cff6U, 0xbd0090483d5f68a9U,
  0xbc99fe84bd16174aU, 0xbd53afa2bc92ef86U, 0xbd2adcb0bd106d2aU, 0x3d55eccfbd44b322U,
  0xbd54073639886d00U, 0x3d57ff25bd4932b4U, 0xbc491234bc0574d0U, 0x3d3bc65d3d683423U,
  0xbc47f704bc4dba10U, 0x3c92a442bb8f5fe8U, 0x3c8db75ebca1c828U, 0xbd0e7612bca1c506U,
  0x3cdbe77e3b5d4070U, 0x3d170fdf3c8f7d6aU, 0xbba9d2e8bc8a02f4U, 0x3d69ba1dbd7209a4U,
  0x3ba01fa8bd785d25U, 0x3bc8c3a83c8dc1eeU, 0xbd440724bd278714U, 0xbc8b22523b97bc88U,
  0x3d53f115bce8d46eU, 0xbd763df83b6b2570U, 0xbd1b79023d52c4dfU, 0x3bcfcfc8bd59e601U,
  0xbc890076bc263550U, 0x3d6a3c8bba306980U, 0xbd767b53ba8e0c80U, 0x3cb4e98ebd3e6b7aU,
  0xbd272d00bd092646U, 0xbd14cdee3cef7faeU, 0xbcf19922bd0c5433U, 0x3d376aabbd21c8d0U,
  0xbd37f3173d3b60e9U, 0x3b1089b0bb899dc8U, 0xbd00b122bd0e1a42U, 0xbc9d96063d2f6c3bU,
  0x3cea513e3d3621a1U, 0xbd0ad72ebd669654U, 0xbc917158bc0d35b4U, 0x3d67d2813b9fb578U,
  0x3be092f8bc9357b0U, 0xbd4a98883c35cfbcU, 0x3d4a477dbd4f8413U, 0x3d2414513cefbcf6U,
  0xbd61140dbd78f0c9U, 0xbd7048b73ca3f5b6U, 0xbcbb630c3d0beab1U, 0x3d6bf0b5bc0bafbcU,
  0xbd633e643d2f031dU, 0xbcea210e3d416a9bU, 0x3cf7bf323d404eddU, 0xbd414a943cf47e4eU,
  0x3d2d06af3d26bb7bU, 0xbb19f4e03ca8f42eU, 0xbc21f840bbb827c8U, 0x3d09290bbd3c6852U,
  0xbd38b51a3c03c05cU, 0x3d36f28dbd4e940eU, 0xb9525a00b7a88000U, 0xbbb541803bcaed98U,
  0xbd017d973d269c15U, 0x3d54c8913d35723dU, 0xbca1532cbd14b382U, 0x3b30d890bd78dc2eU,
  0xbcc51214bcf63919U, 0xbd6629283d03f981U, 0x3d0bb42dbd2c1fafU, 0xbcedb53ebd3c9891U,
  0x3b94a2583c81d296U, 0xbd1b25833d0f8a83U, 0x3d712f33bd4ba5e1U, 0xbd524a20babc7160U,
  0xbcdcfa683c99331eU, 0x3c24cb5cbcba8a6eU, 0x3cdcb8b6bcfaaf5dU, 0x3cb6132abd33648cU,
  0x3d207f153d228017U, 0xbc871e82bd4f2c6bU, 0x3d4431533d61ffbbU, 0xbd1b99b8bd28cc6cU,
  0xbad207003b119430U, 0x3c6a76243c92a8b6U, 0x3d4c8d3fbbce9270U, 0xbd6c6b023d3bf0cbU,
  0xbbf23bf0bd132470U, 0xbcdbf2f23d54db9bU, 0x3c8d1f62bc7589f8U, 0x3d60bcbbbd13d7d5U,
  0x3d2068553cc1467eU, 0x3d5b04d53b7a83d0U, 0x3bdc54f83d01c337U, 0xbc9e3b803d7555b3U,
  0xbbffaed0bd030c90U, 0x3cc11b163b6ab2b0U, 0x3c93c37a3d79087bU, 0x3d31154fbb11d830U,
  0x3ef3eea800000000U, 0x3eac5f4d3e85e14eU, 0xbd4b0fffbe346363U, 0xbe90656ebe4ecbbdU,
  0x3e5646b3be17d584U, 0xbcd286d33ba0b69dU, 0x3ec62bca3e6e9276U, 0x3f0bc5da3df84f3eU,
  0xbe9348d33e449876U, 0xbeac9f52be0d7a13U, 0x3ca74301be5dd14cU, 0x3e7858303e333f92U,
  0x3e4e0072bda10ec8U, 0x3e8c1d79be598ce9U, 0x3eed144e3ebbbe2bU, 0xbdfbd26a3d6fefffU,
  0xbe7787f7be0d7f7dU, 0x3cdae9ae3a6e0f48U, 0xbc4aa0e93e5cd369U, 0xbe6c4190beb95d00U,
  0xbdebe8a1beadfaedU, 0x3ed27721bd95d9afU, 0xbe86fa573eb54989U, 0xbe81c174bd110762U,
  0x3c7f4d1bbdcf0a62U, 0xbdb0b4a73d22528fU, 0xbe576020bebcb3f8U, 0x3de5d2a9be7849bfU,
  0x3e87cbc83d347518U, 0xbf02606abd3bb9abU, 0xbef27759be801d99U, 0xbe467f54be6b058aU,
  0xbe3cbf7dbe11e4e9U, 0xbec263b5bd8dd5daU, 0x3db94703bec50d49U, 0x3eafb2113dc33d3bU,
  0xbe022d393e29dae8U, 0xbef82989bf05ebdcU, 0xbce75ab2be87be26U, 0x3c9b2050be5bbc87U,
  0xbdfa40f0bdf27928U, 0xbe08792bbe01bffdU, 0xbda3bb3f3d1ba80bU, 0x3e1ffa883e87845cU,
  0x3dc945b13ddfef9aU, 0x3eb303e1bce3dc34U, 0x3e8caacd3de91ceeU, 0x3db3501cbe8366e5U,
  0x3eb18d8f3e22c4f0U, 0x404537f53e3afabcU, 0x40172a03c01c814dU, 0xbe7fc72ebd232a26U,
  0xbdca561cbf05c133U, 0x3f4323013fd5e81fU, 0xc00f7778c014312fU, 0xbef02bc5bfa1d5caU,
  0xbe9163a13f827c0dU, 0x3e721ee13fcd3569U, 0x3efdf383c01447b9U, 0x3f9b931d3eb5822cU,
  0x3fdd105cbe86fa5eU, 0x3fd98ae53faa5580U, 0xbfbaa448c0026ed6U, 0xbef7ed7abdca4142U,
  0xc023eb113f21a103U, 0x3fbd33b13fb71feeU, 0x3fafa0b73f7a01a3U, 0x3ed29a323f5f0c89U,
  0x3f5af84a4020c98eU, 0x3faa94b63e0f3312U, 0x3d11dc3bbdeb98a7U, 0x3ea0fc7f3fddfb35U,
  0xc000b2a5bf108791U, 0x3f88e7bb400f1bedU, 0x3f778e8dbf66273eU, 0xbefb22fe3f70b526U,
  0xbf85df46bf931b18U, 0xbe4872873ee14deeU, 0xc0123078bf05301eU, 0xbed794e13f3a45eeU,
  0x3f5048d43f6a8d30U, 0xbf9ca5ae3f0cb727U, 0x3e16a18dbf07343eU, 0xbe3e68f63f0ec31fU,
  0x3fb762e33e67f58eU, 0x405336153fe940f5U, 0xbec44b663e98747cU, 0x3c9829e2bd03c8c1U,
  0xbf9b4e6d3e1babf3U, 0x3f3751b33f8b0d12U, 0x3e15e6983f6379e4U, 0x3f3d885cbf501f95U,
  0x3fa9d8f83f2623acU, 0x3fc2b742bff8c1b9U, 0x3fae30023fbca9d2U, 0x3cf38a0a3f7205b0U,
  0x3cc97401bfa483c4U, 0x3fa1bebf4000aa77U, 0xbf9a30d1bf9d7a14U, 0xbf9f1c1d3e06c2e8U,
  0x3f667e97bf40df99U, 0xbf6e3138bffe0083U, 0xbfd419bebf53fa95U, 0xbfe6be1e3e1e8cbaU,
  0x3f503becbec0690cU, 0xc004bb103f90a059U, 0xbf6cb0adbe8c878eU, 0x3e8d90853f745b50U,
  0x3fb140adbf75531aU, 0x3fcf1c353fc214aeU, 0xbfc015ecbfcff602U, 0xbe345ec0bded57b0U,
  0x3cf207b13f6a39cbU, 0xbf3c3a1b3f69a318U, 0x3e47079e3eff11c3U, 0x3f83c95dbd3410f6U,
  0x3e3be7783feb181cU, 0x3f45778d3da32c9bU, 0x3f6c75993e010563U, 0xbf8b8eea3f92640aU,
  0xbf000290bfb0e4d3U, 0x3fc39ee93ff54f1bU, 0x3ed1fa8ac03deac6U, 0x3ff7df2d3f663e02U,
  0xc02db162be6c42ceU, 0xbf9792acbf0163c6U, 0xbf38a78f3ea06627U, 0xc01c6faebf6aa47eU,
  0xbefa4e79bfd1ebd6U, 0x3fafabbb3f2a5770U, 0xbf0cf3e73e92788aU, 0x4012f9bc3f8595abU,
  0xc04c23e93eb434b9U, 0xc041808dc02f22bcU, 0xbeebae253e42f8d6U, 0x3fee5d72beb133e7U,
  0x3f64d458bfb120d0U, 0x403fef963f64ba63U, 0xbeed9611bfbffc28U, 0x3f6f94e2401580ddU,
  0x3ca197d43f0aa33eU, 0x3d0dd3ef3b7b12f6U, 0x3fcff7453f47277bU, 0xbe1648863d3845baU,
  0xbcd34a67bfa462e6U, 0xbe9e6c643f1aa1fcU, 0xc01c1bd33fe6ff67U, 0x3ff00c2f3ec441bcU,
  0x3eeb21c8bf98bf87U, 0x3ebe7350bddc431bU, 0x3f848fd0c03f5d7fU, 0xc041da9abc9c4c9fU,
  0x3f9bea01bf908d2aU, 0xbeb6ec833f8b4194U, 0xc0946cbd402ad33fU, 0xbfd80a543e3d3cbdU,
  0x3f15ea84bfce43c2U, 0xbfe24efdc03826a4U, 0x3fd164e3bebb85d9U, 0xbfb6c1fb3eb87aeaU,
  0x3f78c045c01faeadU, 0x3f9c20143f75d3a3U, 0xc03f98babea4c751U, 0xc0162c003f5b6c3dU,
  0x3fe20b37bc128b8fU, 0x3f641ce43fc452e4U, 0x3f4597f3bfb6229cU, 0xbf7ad7e0c0557e9aU,
  0xbe8bf8b93f17cf8eU, 0xc0164d1040031aeaU, 0xbfd83dda400b24b3U, 0x3f78bd1fbf90fb3dU,
  0xbf08f181bfbf220dU, 0xbee8462e3fa7663fU, 0x3f98d5fcbecdd720U, 0x3de9b205bf00dad5U,
  0x3ec1b5b2bf4258b8U, 0xbfc2fbbabf9d8eccU, 0xc050ee763f27d604U, 0xc0187d6bbdca49adU,
  0xbf317963bf2e2becU, 0xbf55ea4abf49e34aU, 0xbf9427613f3459d4U, 0xbf0ee68bbec2bfc0U,
  0x3f7921bbbfbf6ce4U, 0x3e954140bf1b6868U, 0xc022d4e8bfcafe38U, 0x3f1fd7d03ecbc75dU,
  0xbe5a3e29c03cc372U, 0xbfa07e25bf0dc6b2U, 0xbf4e3affbf9eedfeU, 0xbe5c00fdbf9f1a75U,
  0x3d8f8031bfbc250eU, 0xbc5fd476bf1273a3U, 0x3d47c47dc00c41f3U, 0x3c4b0d7fbf74ec29U,
  0x3f3840d9bf8a8afeU, 0xbf2e27ccbf329484U, 0xbe3a9810bf908f40U, 0xbf997c88bfb10b15U,
  0x3ec027b73ead749aU, 0xbfb9d4df3eee3d7fU, 0x3d49dbe4bfffdaa6U, 0x3edb8152bf6ee28cU,
  0x3fa39b263def15e5U, 0xbf63e7a5bf51242eU, 0xbded9608bf8b0950U, 0x3f6199d1bf1566e8U,
  0xbe83f395bffc147fU, 0xbfdc1df23f6fe03aU, 0x3f8d63763d1fe0a2U, 0x3f8964abbf688003U,
  0x3ebc875e3f4b990dU, 0x3eb17af8bf01e1f5U, 0x3f0e13333e68c89eU, 0x3e646c043f9f2631U,
  0xbeb53c2e3ec26315U, 0x3f0a513b3e702c02U, 0xbf018857bea2bc28U, 0xbe04065fbf1f7edeU,
  0x3f8f18163d6d730aU, 0x3f5e7209bfc78f63U, 0xbfeedf03c00bf78aU, 0xbf32552fbfb8f1e2U,
  0xbf67197fbf84de1aU, 0x3f3d404dbe791a8fU, 0xbf7243b8beaa0841U, 0xbd9e65ffbf6a9a90U,
  0x3fc1fd2e3fd20713U, 0x3f8fa85abf8fe538U, 0xbf9b6503bf8255bbU, 0x3f99c1313d9d392aU,
  0xc00499c5c02662caU, 0xbef2a6013fe4be1dU, 0xbeb727723f36b495U, 0xbf09353abf27e5a2U,
  0x3e5ed6033ff720f6U, 0x3f1f87c1c00925d0U, 0xbd6ab8873f759d0dU, 0x3f2d8e543f3410e3U,
  0xbf8e6bcbbf1f178fU, 0x3f2b855f3e9b858cU, 0xbd70f5d6bfac7beeU, 0x3f31ec153f9304f1U,
  0xbf53eebdbf6ae057U, 0x3ea17725befce864U, 0xc0184e88c0032e1cU, 0x3ea8c1c6c01396acU,
  0x3eef49fbbf375232U, 0x3f1352ad3fa00fadU, 0xbec761f6bfc94dacU, 0x3fcaf817bec51aa8U,
  0x3fa93f24bcc4ef3fU, 0x3ff4ae113f1f3ae7U, 0xbe43459ebfa34d44U, 0x3f496c60bf18a516U,
  0xbe263696bfe49cdcU, 0x3e91ddab40150cb8U, 0xbf3278d2bf7c498cU, 0x3f106962bf791457U,
  0xbee900f0be5b80cbU, 0x3f3b13b1be858d34U, 0xbe9612ea3db0862dU, 0x3f2683ea3f2abd56U,
  0xbeb87576bf48bd71U, 0x3fb5f6b93f432233U, 0x3f5deb2fbf3bdefeU, 0x3fc2dbc03ffbec2aU,
  0xc05dc1c640104c3cU, 0xc0924fa83f8f00c0U, 0x3e2b680e3f4fcc37U, 0x3f91210ebec7ac0eU,
  0xc002c0e2bf2a1d81U, 0xbf2a380c3d4f2cabU, 0xbd6f6d12bfed4433U, 0x3f6fa7e1400013b0U,
  0x3fbc4c813e81606cU, 0x3eae1fd0be54741fU, 0x3e1e0491bfefb37cU, 0x3d7d3476bf8206a4U,
  0xbf2727073ea7e309U, 0x3cd6d9123f632ed8U, 0xbe8b916f3fa8ce8eU, 0x404bdf9d3f1ca517U,
  0x3fec61f6be90fdc2U, 0xbf9ff55bbfd15fabU, 0x3fcd2fa5bf64d980U, 0xbfcca3713ff68b5aU,
  0xbd4a0e523fb22f87U, 0xbf3af1a0400fd614U, 0xc002311dc0307071U, 0x3f20dbab3f8daba9U,
  0x3fc2e2143f0797e3U, 0x3efa2565bfe60a27U, 0xbf9011f3bec51b74U, 0x402cb12c3f8c21eeU,
  0xbf9de85fbff5b829U, 0xbf1286a33fc43c82U, 0x3e4024aebff91adcU, 0xbf3adcf5bf31448aU,
  0x3fdfb12e3fbb705bU, 0xbf01fedebf9ffb53U, 0xbfc12d78bf9a2935U, 0x3ff0761c3eb5da8bU,
  0xbfdf78c4bf6bdff6U, 0xc025a85e3f1fc85bU, 0xbf476fcfbecc2f25U, 0x40109044c0305ed5U,
  0x400e75b9c018ff7cU, 0x3ef518453d23dca9U, 0xbfc5154cbfa0b653U, 0xbdf207263dc42291U,
  0x3da908f8bef6ef96U, 0xbfdbadb2bfd34c09U, 0xbe302fd9bef5be6cU, 0xbf72da67bfb57302U,
  0x40701f0fc02e6fdfU, 0x4008102bbfb9f958U, 0xc08748dcc017e828U, 0x3f0ff35fc00570c8U,
  0xbdc9f9f7c024e3c7U, 0x400682a43fc7c391U, 0xbf653575404219f8U, 0x3ff50aedc0128479U,
  0x3f0b41c93f638bd4U, 0xbec07d2e3c9274e8U, 0xbf4ab22ebf9d6adbU, 0x3f335047401eabc1U,
  0x3e789808c00e05f6U, 0x3f000419bf256fcfU, 0x3eee21513f887f22U, 0x3df7aec8bf30b579U,
  0xbf437e73bf92a149U, 0x400b0ae93fd55de9U, 0x3f2b69c33dd2eb91U, 0x3f3ba1503f5eaf2fU,
  0xbef9d1643ed3bbccU, 0x400da585c01a912cU, 0x3f56b29f3f69f6deU, 0x3f85ae3b3f9fe6a1U,
  0x3f8e2ce6bfed8297U, 0x3f2665b53f10978cU, 0xbf1f8129c008c990U, 0x407399a1bfdc4e39U,
  0xbfa3e6da3e9fe236U, 0x3ec3ca36be61b4a2U, 0x3f0d7f8bbf9a871aU, 0xbf85c830be80a53dU,
  0x3fa22c7ebe53ecf5U, 0x3fb221ff3ec3b021U, 0x3e8dd503c08b5731U, 0xbd88d07abfa6fe57U,
  0xbeedb5a0bf248570U, 0xc0061ff83eb3d905U, 0xbea18c5c3ef95b25U, 0x3fea6b8dbf9e1b1fU,
  0x3d6fe426bffdac1cU, 0xbe6ea1ed3a912a42U, 0xbea60082bfb0800cU, 0x3f486df0bf1dbc60U,
  0xbf836f42bf25886cU, 0xbf28c92d3dfa620bU, 0x3fb8fcd2beaced78U, 0x40383684be5370c6U,
  0x3fafc09ec0518853U, 0x401755ba3f95af7bU, 0x3ed40913bf2d8b9dU, 0x3f25cd0cc017aa5aU,
  0x3e57063e3f500f29U, 0x3edf7a203fc27509U, 0x3fa347f83eedf84eU, 0x3e84c087bfa15caaU,
  0xbeab60c6c0087505U, 0x3f75e0cf3fbff130U, 0xbe06c0dcbf8f2b3bU, 0xbed92b3dbf093c88U,
  0xbe57fe6d3f666c22U, 0xbf92681e3e35aecfU, 0x3fef3bc73f31b87bU, 0x3fde26a2bff905bbU,
  0xbfbbd6d3bfaec8d0U, 0xbe990114be4a2ccdU, 0xbff4b7f238973bf3U, 0xbf3e2536bfa499f8U,
  0x3fa4f76e3fb7175aU, 0x3e44589dc018c539U, 0x3fd60a1b3eeda541U, 0xbd67b6e4bedb7551U,
  0xbff69c043d28d240U, 0x3e73c0d6bd211963U, 0xbfa2b1163fd4151cU, 0xbf3aa4423f8a94a7U,
  0x3f355ca33fa6e3d5U, 0xbf81386bc001d3faU, 0x4010ff49be99f8ccU, 0xbe2cfb27bf94ca48U,
