/**
  ******************************************************************************
  * @file    model_data_params.c
  * @author  AST Embedded Analytics Research Platform
  * @date    Sun Feb  4 19:23:28 2024
  * @brief   AI Tool Automatic Code Generator for Embedded NN computing
  ******************************************************************************
  * Copyright (c) 2024 STMicroelectronics.
  * All rights reserved.
  *
  * This software is licensed under terms that can be found in the LICENSE file
  * in the root directory of this software component.
  * If no LICENSE file comes with this software, it is provided AS-IS.
  ******************************************************************************
  */

#include "model_data_params.h"


/**  Activations Section  ****************************************************/
ai_handle g_model_activations_table[1 + 2] = {
  AI_HANDLE_PTR(AI_MAGIC_MARKER),
  AI_HANDLE_PTR(NULL),
  AI_HANDLE_PTR(AI_MAGIC_MARKER),
};




/**  Weights Section  ********************************************************/
AI_ALIGNED(32)
const ai_u64 s_model_weights_array_u64[25643] = {
  0xbfc2f39ebfb005f4U, 0xbf7b0584bf72c8fbU, 0xbeb7a09fbfb2d6d6U, 0xbe0f00a93e9ea097U,
  0x3e7655e93e958549U, 0x3ea8d8623f185595U, 0x3f92e7e33f3f2c4bU, 0x3ee304d33f595dd4U,
  0x3e0dadd23ee65f76U, 0x3f2a167f3e9992b8U, 0x3f8d76173dc9ac45U, 0x3f84b1cf3f878255U,
  0x3f2d94b73e8fb0dfU, 0x3e4e553b3d45078bU, 0x3ebd1e873ef4c47cU, 0x3f64ec613f84fb99U,
  0x3db8dece3f7a88fdU, 0x3e065a233f2ff483U, 0x3f14ae713e3f3422U, 0x3f2dce833e217bdbU,
  0x3f79688d3f726283U, 0x3f90b9eebd2153e6U, 0xbf1582ff3e493848U, 0xbe22fda03f072594U,
  0x3f75dfa53ef79e53U, 0xbd0db9d23e545ea6U, 0x3f341165400c0d00U, 0x3f15043c3ec310cfU,
  0x3f263c993e8553faU, 0x3f5b655a3f976619U, 0x3f0bb18d3e2b08ffU, 0xbd167e063ed026d5U,
  0x3f59d76fbf8f3eedU, 0x3fb7f78a3f270a1eU, 0xbfe91ae24022679dU, 0xbe52ff003de362a4U,
  0xbfeb987ebfd1de56U, 0x3e0cbc4dbf8546bfU, 0x3f9816c73f6ce1baU, 0x3f7dba0e3f9a2896U,
  0xbff92a7d4013b8a0U, 0xbf10871dbf3595d4U, 0xbf0a2c95bfac0979U, 0xbf217291bd9d156fU,
  0xbdf69274beb001a8U, 0x3f680ed6c0344181U, 0xbfa974503fb4bf22U, 0x3f4def2e3faa5825U,
  0x3e9c62f6c010e675U, 0x3e8428983ff2b167U, 0xbd968eb2bf8e4878U, 0x3f61610fc00ac142U,
  0x3f0dd54c4086f8b4U, 0xbed5cd71bfd3203bU, 0x3fe26b94403bbc8aU, 0xbdf39dd7bf08e642U,
  0x3dedb01a3faca99eU, 0xc003f3b2bfbaaa4bU, 0x3f8b63bfbfdee649U, 0x3df907aabeedce24U,
  0x3f4cba37c01ce2ecU, 0xbeebf71ebf9552e5U, 0xc00a67a440a6945fU, 0xbfd1eb82bfadc78aU,
  0xbf371182be29adddU, 0xbf88738abf3e6636U, 0xbf2428ffbe2a65b1U, 0xbfbcc6c43e7dd84eU,
  0xc009eff33fd14e16U, 0xbfd32392bf9f8280U, 0x3f11e2ba3f66b11bU, 0xbff7eb07bf42a7d5U,
  0xbfc2f53f3fbe9298U, 0xbfbc1ee3bfb84fbcU, 0xbf984c14bfb1749fU, 0xbf23ac9dbfc051d4U,
  0x3fbb6b52bf857413U, 0xbe5a4358be6df46bU, 0xbefccfc4be82abdcU, 0x3f86b3053fc39b58U,
  0xbd7e8e0a3d8b40f1U, 0xbd8a272bbdb10d32U, 0xbd4774bcbd8a398eU, 0xbda228fcbdab258cU,
  0x3c98983e3db2be28U, 0xbd3a8eb8be14b1bfU, 0xbd003a7e3c3843e6U, 0x3dabea843d3b471fU,
  0xbd8495e23db8480bU, 0xbd53de4cbda08175U, 0xbbcdd5eebcc1b608U, 0xbcd02226bd965a36U,
  0x3e0675b23da4883dU, 0xbaa029233db623d4U, 0xbd879526bcaf53d8U, 0xbb659e8e3dc4571aU,
  0xbcdc18d83c231aaaU, 0xbbeca7e3bc343297U, 0x3d011c563c4d1ec1U, 0xbd810c93bcb371bfU,
  0x3d9782623ce6c17bU, 0xbdbaa57a3ca56025U, 0xbd0a6b1a3c19b641U, 0x3cb7c5a23d3ad72cU,
  0xbc1b27bf3d5e66b8U, 0x3bc252053c579b07U, 0x3cb5a98bbb796e31U, 0xbca58a07bc0cb8a7U,
  0xbc8b9b4b3cda0b82U, 0xbd904eedbe032e72U, 0x3952cd6dbd3e7f43U, 0xbcc18cb23ca06ebcU,
  0xbbb3ca953d9d91e4U, 0xb9b859f33cda0e1aU, 0xbb5ea7f0bc82b270U, 0xbb85bdc9bd68ad41U,
  0x3dcfb9a43d987244U, 0xbccc5b21bc808f05U, 0x3caec145bd7999ccU, 0x3c08ba673dc259fbU,
  0xb9f71bca3cddb7a7U, 0x3a454c2f3c910bd5U, 0xbca407a3bc48673fU, 0xbc2ac1d23b67329bU,
  0x3d90ea15bcb96911U, 0xbd1c6a9fbd85ae5aU, 0xbc086648bc890914U, 0x3d591c763ce6fe29U,
  0x3ce67a7a3c1dcbbeU, 0x3787e4e73d547b80U, 0x3dadcfe23d71e1f4U, 0xbc1ac0af3d0b43c8U,
  0xbd0d94483dd79900U, 0x3b5841fabd940576U, 0x3c9e0b9cbd3d1731U, 0xbce2f8393cd543eaU,
  0xbc5d5a6b3d749f82U, 0x3cf9b64dba8d2b97U, 0x3d330d943cfc1fc6U, 0x3b017551bbcc3841U,
  0x3cb387d43dc43528U, 0xbd1e83bbbc09bf5bU, 0x3d4e3e63bda5afc9U, 0xbd8f9a583d594402U,
  0xbafdcae93d9a44c9U, 0xbce77478bc13e693U, 0xbb510a78bce80337U, 0xbdcbfdfabc9ed651U,
  0x3d01eed13d1cf27cU, 0xbd67a35bbc93bf2fU, 0xbd7184c2bd161d01U, 0x3bdd3d0d3c82deabU,
  0x3cdb0fc83c95268aU, 0x3c450a863cead8bcU, 0xbcd2f354bc037b46U, 0xbc89e47cbc033ee1U,
  0x3bddc08b3d09e535U, 0xbb62f979bd8514c1U, 0xbc8b89f6bbd04481U, 0x3d0a5f4e3c6b9ab5U,
  0xbd1365903c8657abU, 0xbc5169f1bc10896cU, 0xbc7c7e88bcda3437U, 0xbc75f402bd0ce35cU,
  0x3d359abc3d63ebdaU, 0x3d3461b63d377e03U, 0x3d3249b63d616102U, 0x3c1e93523c268200U,
  0xbc2a0a9f3a605479U, 0x3c6c72f63bcecf26U, 0x3c435a9ebd117355U, 0xbb12bf57bcd914f6U,
  0x3be22e423d027b87U, 0xbc2cadc23d1b7cdeU, 0xbc3880fe3ce275e6U, 0x3b6196e4bc04e08eU,
  0xbc370f3d3c8ff5bfU, 0xbca024023c5dc90eU, 0xbd60ca1dbbfcde2fU, 0x3d1775d4bcf4b4b8U,
  0xbbc48c1bbccc1623U, 0xbc7cb669bd3f25baU, 0xbcd1b0e8bbfd1fb0U, 0xbcd8262fbc72c725U,
  0xbd13e29cbb451afbU, 0xbd3cff69bd1188b8U, 0x3a8a7f72bd2ee6c1U, 0x3bb00d07bcb06d5fU,
  0x3b28d4cdbc8b0f17U, 0x3ceb362a3d0fcc67U, 0xbcd025b53c9bb3a5U, 0x3cb389313c452a43U,
  0xbc825f993c6270fbU, 0xbb570b64bc3c42f9U, 0xbc99468abc8d1ebfU, 0x3c954a0bbca69ba6U,
  0xbc44b8e1bd248df1U, 0x3d0843343b9b6b7fU, 0x3cc8ddafbc2d0155U, 0x3c79ca703aea8fe1U,
  0x3bb716213c98a0efU, 0xbccc79c3bbbcbefaU, 0xbd3a0b83bcb9b0d1U, 0xbd058e09bc4cd11cU,
  0xbcae0f16bac1289eU, 0x3b12fd65bce29bb4U, 0xbd1227733d42afb8U, 0xba2ad3523c606b6cU,
  0xbd2a06a73c98cd18U, 0xbd1c6e57bd29a3d1U, 0xbba187aabc8064cbU, 0xbbba3b03bd4a638dU,
  0x3c3b7867bc584300U, 0x3c1441ec3d4a60fbU, 0xbd162d503c078e80U, 0xbb17c25b3bb5bb76U,
  0xbcbc1d92bca43f43U, 0xbc7cc378bc8d05c3U, 0xbcfe190bbc9da8bbU, 0xbcdc752fbc218aceU,
  0x3c86bf82bd075360U, 0xbd069aa9bc89a776U, 0x3cd27c5abccba0c2U, 0x3baeea933bd4e33bU,
  0xbcd1ec17bbdf48f6U, 0xbda78d07bd8ce703U, 0xbd1edb50bd97ae78U, 0xbbc5a4bfbd5d50ffU,
  0x3c6c6d233d3e48d9U, 0xbc2107063d505c98U, 0xbd236c4b3d4346b0U, 0x3cd7922fbca7374aU,
  0xbdc38a503ac31e1dU, 0xbde44ff6bd777851U, 0xbd0af259bd8c83c8U, 0x3bc4db5abdba57b1U,
  0xbd11dd8cbd45c403U, 0xbd74d9e1bc827fb3U, 0x3c855f243c191f01U, 0x3d60551dbce020ecU,
  0xbd43cfc6bd04a0a1U, 0xbd8b3392bca582efU, 0xbdc89d89bd67b311U, 0x3b75f95bbd6d4660U,
  0xbd225e403b8f9647U, 0xbc85aa90bdb8275dU, 0x3cb06aaebae78882U, 0xbc83642abcabd8a8U,
  0xbd36f79abd194144U, 0xbd43245fbab2aeeeU, 0xbcf4bc6ebd87fd30U, 0xbd122fc4bd436191U,
  0x3c1e6a1b3d0b1129U, 0xbd3b01d83b8d8dcaU, 0x3c830a0bbc912a69U, 0x3d5e3451bd72dd64U,
  0xbdd199a8bd791950U, 0xbde1c128bd5c3597U, 0xbcf3c6b0bdac8155U, 0xbdb7e718bdb904d8U,
  0xbdc4914cbdc3141cU, 0x3c23d8e9bd40cb78U, 0x3cc1d082bc2f2783U, 0x3c9ff5cabd886c39U,
  0xbd299bdabd7c69b7U, 0xbd6fe428bd4e6241U, 0xbd41a9f8bdb386b3U, 0xbd9e5e71bdb37e0cU,
  0xbdc150d2bb8ff708U, 0xbd80b0a8bd0ffa0aU, 0xbe2a9b65bc8291faU, 0xbb8d7d48bd7bbb06U,
  0x3d91d6ab3c90e9f1U, 0x3d6280ab3c81a377U, 0xbbaf2c8e3d10d541U, 0x3d69ecfe3d801aadU,
  0x3d54a9d8bcde1c7cU, 0x3c13c1253c75ba5cU, 0x3d075954bc70b8e7U, 0xbcda99bf3c8aebe8U,
  0xbc781c3ab9c95e51U, 0xbd2433f63b0ce792U, 0x3d37e9b9bcd41522U, 0xbe042340bc5ea0eeU,
  0xbd3e6b34bd4e05f6U, 0xbdaf4e1f3c601873U, 0xbd46634cbdb30257U, 0xbd1189d0bb87786eU,
  0x3c6fa0a1bc451f21U, 0xbc36651b3cc7c48eU, 0xbd3201f53d0a64aeU, 0xbc894f07bc27def4U,
  0xbc8a9987ba925a6dU, 0x3cbe7bb6bdab7d76U, 0xbda62ed1bd568420U, 0xbcca18eabcb3a911U,
  0xbd00a8b2bd1f1d78U, 0x3b65650f3c4dd33dU, 0x3d1353063c0dde89U, 0xbd7aad403c466ca5U,
  0xbd138eca3d5f656dU, 0xbd7d0983bd838af9U, 0x3c366057bd740e6eU, 0xbd75932a3cdb902fU,
  0x3cadc9efbb3f3a23U, 0x3d7fe5563da8f20fU, 0x3da18b343d847c9cU, 0xbc6cad603d0c16a4U,
  0xbc5189db3e09ad27U, 0xbd0f2b773c2b5fd8U, 0xbcdd2a5abdc94b24U, 0xbd3a1cb53caaabc4U,
  0x3d78ce013d20e711U, 0x3d496c123d3a98b7U, 0x3ddfd6283d6c72b3U, 0xbc6f108d3d130fb1U,
  0x3d4d06fc3dce72beU, 0xbb426d003d3bb8a1U, 0xbc3636ecbd46011cU, 0x3d9bb3c13d1d0162U,
  0x3d03d6f5bdab1ca8U, 0x3d2250753da94b21U, 0xbd1135543cd48d4dU, 0xbc09f7803d3cbfdcU,
  0xbdb61d19bd8e6f1eU, 0xbc8bc2babd8308bcU, 0xbe04899fbd9ab228U, 0xbdb9aeeebd98fb71U,
  0x3d08fd71bde3947fU, 0x3d7ff2a53e0a676eU, 0xbcdf59143d51d2d9U, 0x3e074fed3cb8a0adU,
  0xbd972804bba36436U, 0x3cce394bbcdf56d4U, 0xbe138fa2bdde8e15U, 0xbe0c3ad9bd7ab483U,
  0x3de7092abc893763U, 0x3e06b2da3dde43f4U, 0x3d9e3dbd3df45d83U, 0x3d5e25bc3e1c4395U,
  0x3b9c674d3d5d1579U, 0x3d70d6dd3dae5470U, 0xbdef6159bdd204b1U, 0x3c8d43fe3d1c7a1fU,
  0xbd8a41eb3c94f159U, 0xbd50d4e2bd860e97U, 0xbda841f5bd91087fU, 0xbe017e2cbcf7cb82U,
  0xbd58977dbdc56f93U, 0xbdaaf2bfbdb0ef16U, 0xbd5bb5babd93a593U, 0x3cd3a8febcbd2da6U,
  0xbd5eaf6c3b147a0fU, 0xbd1cfb68bd94395eU, 0xbce4a3e4bd8e7be5U, 0x3c0060b4bd6fdf70U,
  0x3d070833bd99d278U, 0x3ac11cf73c0bf752U, 0xb9ff264dbdf5b0f8U, 0x3d503f823d6553cdU,
  0x3d7b8dbb3d0fe69dU, 0x3d8c99c43b8eb0dbU, 0x3d8e79e83dae04f0U, 0x3de3b1723d83e895U,
  0x3deb44f8bd2202c7U, 0x3c026d193d985f77U, 0x3d61d21dbd276542U, 0x3de8ea7b3dd552f0U,
  0x3ca66482be30719dU, 0x3ca2d7473ae39180U, 0x3ce234bf3ca1f029U, 0x3cac33953d484cbfU,
  0xbd84a60fbd808ec5U, 0x3c6909383c8de696U, 0xbdaabec53d39afffU, 0xbbc78d74bdc86b00U,
  0x3d3b2aa6be0dd368U, 0x3d3c97afbcd2635cU, 0xbcaf25333cbf80c9U, 0x3e0f6a683d041a2fU,
  0xbe1ad6883cfeaedcU, 0x3e054a44bba1645cU, 0x3d5a2e903d76df80U, 0xbcd56e66be26668aU,
  0x3dbf03c0bda1dc7fU, 0x3d9d1fd23d00855cU, 0x3d4017823d960b3cU, 0x3dc4bc203d646977U,
  0xbdcc0b043d758691U, 0x3e45e1a73d6d43a8U, 0xbd3481743dab4329U, 0xbca89efdbde7ee7dU,
  0xbc1dd25c3cfb7c66U, 0xbcdeef11bc98a125U, 0xbdc1f456bceb5568U, 0xbc87855fbca794c8U,
  0x3d13069ebdc1adecU, 0xbdce076ebd5dbb0fU, 0xbeba96973d3ed1f1U, 0xbdb319893ce567d1U,
  0xbd398ecabcf30229U, 0xbd8c481abde828b3U, 0xbde9c7afbd3ab7b1U, 0x3d85e9debcbd2687U,
  0x3c124e88bdfa60afU, 0x3d54c84a3d80803dU, 0xbcdf2c6a3dade8b3U, 0x3d9627ebbc60311eU,
  0x3c84d7c4bdc74d5bU, 0x3cc84a043cfdbe67U, 0xbd1747acbc4b438cU, 0x3e2a38ee3c022e3bU,
  0xbdab7bfe3c8cf4eeU, 0x3e3bbf2abcabf307U, 0xbda123903e145638U, 0xbd9c75e9bda4e5d6U,
  0xbccd48973df8dec9U, 0xbd13bd3db92ed364U, 0xbdf81e52bdcb0d9dU, 0xbe2280153ad02970U,
  0x3dc96612bd8b176bU, 0x3b8f0cfabdf4f7feU, 0xbdc08936b7ab07c7U, 0x3e0884163d825d99U,
  0xbdfdf38e3dd9b63dU, 0xbda3da1cbdc9a126U, 0xbd92a162bd9679b3U, 0xbbb49e0abd87d6cdU,
  0x3e114a60bdedff01U, 0x3ade4c2e3d88b880U, 0xbdb7c3173d39cd85U, 0x3c15f3cf3da2fad5U,
  0x3d3d45ad3bed331aU, 0x3cc724c13d4f47eaU, 0x3d4ccfae3d9d224cU, 0x3d91b0de3d27ece8U,
  0x3ccb21aebd1e55abU, 0x3b18c7363d7e5807U, 0xbe2ca2903cd65229U, 0xbd13b40f3d0e1560U,
  0xbd22b1c9bd842e1eU, 0x3cd6a3d5bc830712U, 0xbcf4dc1b3b743e92U, 0xbcaea7a7bc2bcd31U,
  0xbd51fc97be2b0cd2U, 0xbdc40332bddc354bU, 0xbd9baa1dbcbb102fU, 0x3cb4f01dbda996cfU,
  0xbc8806b9bca290b7U, 0x3d329a363d01f0cfU, 0xbd33cfb03c81d0e0U, 0xbc9e008fbbff804cU,
  0xbd4781c8bdd6d3bcU, 0xbc8a54f4bc8c2d03U, 0xbe1dbfd6bdc4457fU, 0x3d5f1552bb135e8aU,
  0x3c0d0e763cf2e073U, 0x3ba2a167bb5d4748U, 0xbd5923d4bc451db1U, 0x3c61f5153d70cae8U,
  0xbc845194be2d1d88U, 0xbd250a7a3d3d53f9U, 0xb813ecabbcb6e4b6U, 0x3d674558bc1c1e75U,
  0xbd5407c2bcbdf05bU, 0xbd4e2234bd7aedd5U, 0xbc79893dbccd4402U, 0xbd59d1d8bd519574U,
  0x3ca33526bd8dcff8U, 0xbe0e0537be160663U, 0xbd8a86b03db98afbU, 0x3ca4e2f93c273ab3U,
  0xbd23ce9a3a907855U, 0xbcde5633bd773e46U, 0xbce84a8cbd57d4f2U, 0xbceb573fbcfe7463U,
  0x3d81e3f33d85b846U, 0xbd237b903bb34c81U, 0xbe4dfd753bf0159eU, 0x3d841e713d03a3a8U,
  0xbc2d680bbc6b548eU, 0xbb4478123c5d1442U, 0x3de6cd50bcb9cee0U, 0xbdaee1d1bc6f6db5U,
  0x3be01ef43d2321d0U, 0xbd4d4f3bbc899113U, 0x3ca0a45b3d39e0d0U, 0x3dc073d9bc96cbccU,
  0xbca0b8d33ca51470U, 0x3bf8365abbe942caU, 0x3cedbad5bc6dd019U, 0xbdbac317bceda9d1U,
  0xbd34c574bbd8812fU, 0xbe226078be411e53U, 0x3d23b03ebd7c5abfU, 0x3d20b730bc4b0b5bU,
  0xbc9a3822bcd3f7a5U, 0x3a4149babc94ea11U, 0xbaa2fe743d0ede06U, 0xbc25e1b03cfad50aU,
  0xbc6c31ae3e2f9b40U, 0x3da5b379bc2b6cbfU, 0x3cf8ba26bd4d114fU, 0x3d6caaa6bcb9b232U,
  0x3c90394ebc4ecff7U, 0x3c37fa353bf820fdU, 0x3da4dcafbb4d6e88U, 0xbcc4e6aa3cbcfcfaU,
  0xbb3d77fc3dfb93e2U, 0xbc3f13353aa3cfe8U, 0x3da850e63c93a702U, 0x3d1a3399bcb07b15U,
  0xbc9cbe503cdacfaaU, 0xbd06466ebd017a92U, 0xbd04c6c4bcbf856dU, 0xbd76a295bcce204dU,
  0x3cc034a83b95e806U, 0xbc62526fbcb58b19U, 0x3c9ce7d1bcdc9990U, 0x3d10861c3c991f43U,
  0xbd1f6ed53d12cfefU, 0xbd169138bcea0f11U, 0xbd062bc4bcb83244U, 0xbd8f3cd0bd3a1fdaU,
  0x3d8160a03c8e3ba8U, 0xbcd1428d39a67559U, 0xbd34b641bcb15ffeU, 0x3c509bcb3d80536dU,
  0xbd230bd43d1542d1U, 0xbd05159bbd1f0240U, 0xbcf1d406bccef8f1U, 0xbd272b79bd2bc042U,
  0x3d4b9113bbce12f2U, 0xbd50fb513bf423b9U, 0xbcbc0c47bbd5a01dU, 0xbb5088b23d8b917fU,
  0xbca2e1773b8e59f2U, 0xbd0c97e9bcb2eb94U, 0xbcff7067bc82b7bcU, 0xbc57e9f7bcee6fc0U,
  0x3c5635d2bb990dc1U, 0xbd4e2f26bd078e31U, 0xbb81737d3cc616dcU, 0xbc6529293a1bc989U,
  0xbc4bd7623ce6d22dU, 0xbcae3cc2bc3bb1ffU, 0xbd568f24bd169037U, 0xbd372748bd2decebU,
  0x3cf5089f3bafa52eU, 0xbd19cb65bd3aa862U, 0xbd4f9ec0bbc786d3U, 0x3c49a0923cd52f24U,
  0xbd1678213d223eb1U, 0xbd3b05d7bd6009acU, 0xbd1632b1bd1e380bU, 0xbcaeb6f6bd2f880eU,
  0x3d1986693b78ca71U, 0xbca06373bd0e7fcdU, 0xbab10a103b900187U, 0x3c5345d13c697432U,
  0xbbf7c5e4bc0858b3U, 0xbc086f57bb9c6df8U, 0x3954b4bbbca679efU, 0xbd536997bbe20acbU,
  0xbb952a67baa0378eU, 0xbcb73bc73c5bbcfcU, 0xbba90e77bbc0582aU, 0xbc4dccb53c2af32cU,
  0xbcfe2b48bb4cfab9U, 0xbd0a50e9bd11dbdaU, 0xbd1bec8dbcf0d55bU, 0xbd05c9b5bd00db9fU,
  0x3b9b3c123c3942bbU, 0xbd444132bd08d4b3U, 0xbd599373bcfefedfU, 0xbcbe0edbbbdf2beeU,
  0xbcff0b193ca740dcU, 0xbd351672bd13346cU, 0xbd0b211ebd3870afU, 0xbd39e830bd2dfaa6U,
  0x3c9aeed6bc29382fU, 0xbcf0463fbc88cf17U, 0xbcd75be0bbb26d68U, 0xbba5b660ba1c4400U,
  0xbd348d21bdba103fU, 0xbdeb8d0bbdda574eU, 0x3cb138fabd994de4U, 0xbccbb25dbd3142cbU,
  0xbc953e443d834444U, 0xbcd0b29e3d743ecbU, 0x3cfb86dd3ad3399fU, 0xbe178ed8bdbce3d7U,
  0x3a8d80cfbddb45a0U, 0xbd57ed96bda852ecU, 0xbd1d548cbd316016U, 0x3c98bf95bb67cddfU,
  0xbd2560813db63a7fU, 0x3d8d15913d37b974U, 0xbd72e2403d15e9daU, 0xbcb9f799bd6cf684U,
  0x3d8db0c7bc0e9ef6U, 0x3c0e02b33d82fde2U, 0x3ccc41c03abd3663U, 0x3dee58be3d06a360U,
  0xbd849b0e3da3ac67U, 0x3e0dc47dbb503960U, 0x3d60e36b3de18530U, 0x3c940dd5390ceef5U,
  0xbde0b130bbb6c76eU, 0xbd0f9975bd8dc9faU, 0xbdcc5300bdea1dd9U, 0xbbb7c22cbde27c7aU,
  0x3d1ec4b5be063ab0U, 0xbba793613e417a62U, 0x3d855402be18a33aU, 0xbe14de87bc4bb29cU,
  0xbc644643bba30b62U, 0x3ceaa1fd3cc2baa0U, 0xbc83bb6e3cd694f9U, 0x3d3ad769bc07458bU,
  0xbd923c263e00d1ecU, 0x3d0eb2233da0478cU, 0xbe084905be41939eU, 0xbe1a4b9cbc93a842U,
  0x3ce246903d9ca899U, 0x3dba88b53d721be3U, 0x3d9deab03de8f081U, 0x3d5e37703d211a50U,
  0xbcea66c83d9e64e2U, 0x3de65917bcba82ebU, 0x3e32efe93bb5e288U, 0xbad035bc3b1b848aU,
  0xbde7b4adbc2ed750U, 0xbe0ee11cbe0ed32fU, 0xbca2e257bdf1d999U, 0xbdb99304be29abc0U,
  0x3c135bd83c9eca82U, 0xbd58abb53dc2fda2U, 0x3d0641d8bcee5002U, 0x3bb2389d3c7aa69fU,
  0xbd134bebbd672363U, 0xbcb9c1a6bd00c839U, 0xbc9848e4bca5d9cbU, 0x3dd95a34bd6b9b63U,
  0xbd42cee63d8e7047U, 0x3e0b68c33dd4f695U, 0x3d5a9e233bb8ff49U, 0xbd9d66f43d20de7fU,
  0x3d33112d3db52d34U, 0x3d4a02123d1f7fabU, 0x3d7e23f43ddc7b4aU, 0x3dd0e1413d5af7dbU,
  0x3c820acf3d8da482U, 0x3e51a8713e297007U, 0x3dd569eb3d971329U, 0x3c91de653d834091U,
  0xbde116713cf40d52U, 0xbda57b47bdde3eddU, 0xbd3b224ebda0a50cU, 0xbdbec367bd228b5aU,
  0xb88e5ee7bd32e8a2U, 0xbd2974e1bd1a61e3U, 0xbd905429bd9a7a6fU, 0x3d894b623c5789d7U,
  0xbd677bb13d24ffa5U, 0xbcbd2caabcbe6c41U, 0xbd2d8fd3bc7dd647U, 0x3cf761b5bb4f2b28U,
  0x3d61a2323c6c36a2U, 0x3d8a3c6e3d8ff70bU, 0xbd36a9aebd021c68U, 0x3d703c9b3d6dc4f8U,
  0x3c392cf23c6ec066U, 0xbd1224473b7c2189U, 0x3c3a663bbab05f9fU, 0xbcc26fe5bcf76c88U,
  0x3d5ff0f6bcaf1870U, 0xbd379d753d289e24U, 0x3db4ac36bd51b73eU, 0x3db4ba813d9ac261U,
  0xbd8a3839bb42abdbU, 0xbdb6b5bbbd7f0479U, 0xbce36befbd9fc654U, 0x3b9cb964be095510U,
  0x3d34ef03bd307cfeU, 0x3b55da75bdad9e1fU, 0xbd97c02cbaaf942aU, 0xbc71ea013cb7bea0U,
  0xbd6d34203ddd75a1U, 0x3c8613f03c14bba9U, 0xbb83992d3c580bdcU, 0x3de37519bbfaf637U,
  0x3d30f5bc3d764218U, 0x3dc99bbd3deb9822U, 0xbd2d6c493c4c7eebU, 0x3cb3a22e3d9685e2U,
  0xb8c0465cbc68d9e3U, 0xbbea2f96bbbd4b5aU, 0x3d87bf713c99ed12U, 0x3d4bbc073c773527U,
  0x3d2272393dcb431dU, 0x3dca6cec3c78e7e9U, 0xbbe477613dc3dec5U, 0x3d7ba0473c5f10f4U,
  0x3c2feaa0bdec433cU, 0xbd4a531bbcde2926U, 0x3c989dd7bc9dbe68U, 0xbb73ea5fbcac4e08U,
  0xbd6d810c3d24ae89U, 0xbccfb3aebddbe4bcU, 0x3bae1057bd0ead24U, 0xbc802c49bd8c05fcU,
  0xbca3cc36bd26f953U, 0x3ce157ff3c84c4d2U, 0x3d9049003cb95aa3U, 0x3d51895d3c3d6d3dU,
  0xbd5a54873d92fcdfU, 0x3ddbf2d0bbbb2a9cU, 0x3cd73d85bcd12c35U, 0xbd15742ebdb240e1U,
  0x3c860785bdc45123U, 0x3cf1d6bc3b37902eU, 0x3cb08a2d3d502a86U, 0x3a3ff826bc698f45U,
  0xbda8e1a83daa7463U, 0x3db2f2933cddb995U, 0xbd8307383d673fc0U, 0xbcb12146bd84f743U,
  0xbb980a44bc02f11fU, 0x3d0653023d10909eU, 0xbcbcf0e23cacafbbU, 0x3ca5645f3c5d3c3eU,
  0xbc6252dcbccb199fU, 0xbd8a275b3d3cb18cU, 0xbd13605d3bcb8572U, 0xbc941444bca2b62bU,
  0x3d5db6cd3ce46ec0U, 0x3c8d10293d32404cU, 0xbb8d41a43d0956ecU, 0xbb155e843cab626eU,
  0x3b9d8e093b4120a7U, 0x3b88c622bd486c75U, 0xbda1e4e3bc7c32f3U, 0xbd4a60b0bd08c245U,
  0x39f316de3b2f8920U, 0x3c51a0f9bce02d91U, 0xbd1878c83c2da212U, 0xbcf027dd3cbb26c6U,
  0x3b295ed3bd5798efU, 0xbca2227f3b2fa73dU, 0xbc8ef216bdd937f9U, 0xbc8a98a5bbc62e32U,
  0x3cdffe923bd84dc1U, 0x3caca2613d0399c4U, 0x3d712e033cffcf33U, 0xbcdebd363d6c60edU,
  0x3c89ee843da777a4U, 0xbd1b2db8bcc53371U, 0x3d31f77d3caef094U, 0x3ccbc90e388a269dU,
  0x3db9242d3c464963U, 0x3dbad8d83d3bfb18U, 0x3dbeb0a83d7fd5d9U, 0xbcc372a03dc46a0cU,
  0x3d84eaf13da2b840U, 0xbd3e2c84bc843d64U, 0x3d29426cbd2212ffU, 0x3bc4a1673d33bc81U,
  0x3c69cdc2bcbde7acU, 0x3bdd5fa43cbac876U, 0x3cdc3f353cc1df8fU, 0xbc9053003d1f9e7aU,
  0x3d468cd73d1b37c6U, 0xbdaa6daf3b98fb28U, 0x3b3924823d43a88eU, 0x3c297ce5bc1b93c7U,
  0x3d56d2cabba9ae75U, 0x3d80e48c3d4ca198U, 0x3d141f9b3d6ff38fU, 0x3d20032f3d3a099fU,
  0xbc4b17da3d484229U, 0x3c8142733ca5795fU, 0x3c001adfbc7f0d0bU, 0x3c54596ebbf5ca47U,
  0x3d9d5d573a568b3dU, 0x3dc407c03d80dd9bU, 0x3c3e36953da7dc7dU, 0x3d72df483d91614fU,
  0x3d3d87273d07c1d0U, 0x3c22ba8dbd737912U, 0xba0924c73d06d28dU, 0xb928c67d3c01559fU,
  0x3ce03a91bd4ff171U, 0x3c89ec7f3d2c9b68U, 0xbd42594cbbadb330U, 0x3bbf37fc3cb9436cU,
  0xbc3818c6bbbfafb4U, 0x3d5a57553ce13cadU, 0xb924b27e3d307f77U, 0xbc43a56dbcc6b24dU,
  0x3d0d8e83bcabe3ddU, 0x3cfbdeea3d04d78fU, 0x3bb979393ce6d26eU, 0x3c34ee133d109b34U,
  0xbcea21c93cbea3f7U, 0x3900b78cbba867a3U, 0x3cd9636c3c293ac0U, 0xbd08d48ebc3c1912U,
  0x3d18895ebd20355aU, 0x3cd58e333c22905cU, 0x3c3f675f3cce2ff9U, 0x3b0713ea3cf974f2U,
  0xbd1643303cdd6a43U, 0xb99f4fe73c62c864U, 0x3c4fc2bf3bdd3f71U, 0xbd232e3cbd0e5eb2U,
  0x3c54555abc837b9bU, 0x3b987cfc3b89aa12U, 0x3c85802d3cc61a42U, 0xbba35c083c6b8ed2U,
  0xbcab8975bbdd4663U, 0xba79ba023c83b37aU, 0xbc08a4403b305b96U, 0xbc4cc09cbc882f52U,
  0x3d1114b1bd2564bcU, 0x3d09df3e3d1d06f6U, 0x3c52a1403d11d03fU, 0x3c8ff3f53cfafe7fU,
  0xbd3462453bc947a9U, 0xbc985eb43c52d2f3U, 0x3d0dc4b23d3b436fU, 0xbbdb3a09bd59cd96U,
  0x3d2bf8a4bd27069dU, 0x3cff7e9d3c975f41U, 0x3b2288a33ccc2989U, 0x3c9afcc83c8679f9U,
  0xbd1ace1e3c958c3cU, 0x3d3a7d3abc7eb602U, 0xbc587fcb3d80aa37U, 0xbd009ac1bcf7cfa8U,
  0x3c2cf498bd001121U, 0x3b0efc8d3b169beeU, 0xbbab75d93b332bf6U, 0x3cebb6ae3c885086U,
  0xbcc436f03c8649a9U, 0x3c515c4e3d11481bU, 0xbb6daa283b9b4ccdU, 0xbcb5a324bcd25e36U,
  0x3cee2601bc06675bU, 0x3ccc989a3bde7886U, 0x3c901ab73c69ae63U, 0xbc87b7283cf07e60U,
  0xbce2e1693c9b95acU, 0xbc91e1b13b366e5bU, 0x3cc376d9bc2ed01bU, 0xbb7aeaccbca188ebU,
  0x3cf27eb7bba42fc6U, 0x3ccf789f3c886cafU, 0x3c93b3753c04ef9cU, 0xbc9331cc3ce19468U,
  0xbc3f8b0a3d037165U, 0x3a5887f1bc353614U, 0x3c566c5e3c956dcdU, 0xbcdba553bc731ebcU,
  0x3c7eb425bb55a54cU, 0x3c37ec13bb294207U, 0x3c50f95c3c6b5e76U, 0xbbf00be03c9b73c0U,
  0xbc4ed7f43d1065d8U, 0x3c17a69f3cbed6ccU, 0x3c2edbe13bf6f0d4U, 0xbb807e263b715cf5U,
  0x3cdaab85bc77f034U, 0x3cfd34363cf6f8aeU, 0x3d0abc3e3d2a67b6U, 0xbc20703d3d010e50U,
  0x3ba43de93c9c311aU, 0x3c2419543cf0cdbdU, 0x3c669d763bbe2fd5U, 0xbd1e3382bb5ece6aU,
  0x3ce9081dbc113df9U, 0x3cb300563b1dcbc7U, 0x3c90bd6c3ce99f5eU, 0xbc8dff333cb0b5a4U,
  0xbcdb642a3bd57ce6U, 0xbcf004f6bcac8629U, 0xbcc863c2bab1e824U, 0xbc758ed4bbb24318U,
  0x3c8b2e573b44c2b6U, 0x3cbc17fe3d0e5af5U, 0x3cc24c4d3d1b49e3U, 0xbc0c353d3cd4c849U,
  0xbce267cf3cd16543U, 0x3c1dc89f3c91d13aU, 0xbd1837353bb57cceU, 0xbbc10f0f3c8b4399U,
  0x3d442ddfbd14c062U, 0x3d6f3d373d81aa72U, 0x3ccd06dd3d299ee3U, 0x3c63b7f93d7ece61U,
  0xbccde5e43c124db5U, 0xbcd8dc463d1fda58U, 0x39a74568bc2bf3cdU, 0xbc4741d8bd28cd60U,
  0x3d604b18bd5ee041U, 0x3d4b6cb93d5bb0acU, 0xbbfa357d3d1a8ab0U, 0x3bfcc74c3cd345fdU,
  0xbd2832a23c7092dfU, 0xbbbbbad1bd6102eaU, 0xbd307699bcdf5259U, 0xbd731f43bd541348U,
  0x3d22d211bc93f762U, 0x3d25088b3ce74375U, 0xbb1b61c83d613afcU, 0x3d2c2ce13d56f449U,
  0xbcf693f63b97a9ebU, 0x3b943eea3d2eaa9aU, 0xbd7b2d81bc82bb94U, 0xbcda699cbc97142bU,
  0x3c99ec8ebc8b96a0U, 0x3c8d7ab43cf2589dU, 0x3b77b41f3d1c7394U, 0xbc8753103d15bd91U,
  0xbbc95a533b7c437cU, 0xbb8a2aa63cb0a5fbU, 0x3b27e747bc086f17U, 0xbc1c2babbce9ab8aU,
  0x3d1839efbcc5d0e9U, 0x3ced070c3ca923cfU, 0x3c927f4e3d178aafU, 0xbcab14463c59880cU,
  0xbbff9d3abcb50b4aU, 0xbc9c9f2abc79c1c0U, 0xbc4d97b6bc60d3a6U, 0xbc9b02b6bce98b54U,
  0x3cd654d3bc4ca341U, 0x3c977cde3c82c30bU, 0x3c40c8ae3d1a6a87U, 0xbc26d62f3d08338dU,
  0xbbe660f13be33c7dU, 0xbc9d4b243cf74efeU, 0x39a77f1e3c622531U, 0xbcd0794dbb8d17bcU,
  0x3dba1097bd4e6285U, 0x3dbb3b013da4be69U, 0x3de48ee03dfea145U, 0x3d2340ab3dad8e34U,
  0xbd01cf993c22d39aU, 0xbc83be6d3c9b96ffU, 0xbbe8088f3c9ca969U, 0xbcc42412bd650e2eU,
  0x3de83ac7bc17fc8bU, 0x3db974f03dd16ceaU, 0x3d9f25163dce0284U, 0x3cc33b703da81307U,
  0xbbdaf575bd27d9ddU, 0xbb5938a03b09496aU, 0xbcb488203c5df718U, 0xbd4cc803bcafb944U,
  0x3c8fbacabc020295U, 0x3d18d0163d2de680U, 0x3c04cb9b3d1d2b8eU, 0xbc4a6f963d34c8dfU,
  0x3cc83986bd21541fU, 0xbba2e49e3d534878U, 0xbd43319abcd77872U, 0x3b3f46c6bb25fc01U,
  0x3d8f4ad13be94c01U, 0x3da9871b3d8eea6eU, 0x3d42ec253db508f9U, 0x3c4b88ce3dc1e120U,
  0xbcda0a953c960e83U, 0x3cabbab3bcc3b10dU, 0x3d16f561bc35c637U, 0xbd577d6bbb3a3a67U,
  0x3dd1fbc6bc88978cU, 0x3dcf84543dea0ff9U, 0x3ce7db123dafd47fU, 0x3d2c955b3d9cbcf3U,
  0xbb23d2d43c0929d2U, 0xbcb3f6a7bd0b016cU, 0xbdd90322bcb086b4U, 0xbd8127b93c48acd3U,
  0x3c11bcf6ba6bafa1U, 0x3c47f0b1bbb3e603U, 0xbd5bad003b910efbU, 0xbd13551e3af264a5U,
  0x3cfd792dbd981177U, 0xbcaff8ad3d5722b6U, 0x3b39c1143c72431eU, 0xbcab3f6a3c2a5476U,
  0x3b7ff0cfbc3c8d41U, 0xb9c00d5f3cce3170U, 0x3caa15b33c118255U, 0xbccc5edf3c851dd0U,
  0xbd1e44b63ce0011cU, 0xbc470c45bb05ccd7U, 0xbd9144a03d7caa22U, 0xbb79c64ebc0417f8U,
  0x3c9be3393c85ed39U, 0x3c61f9eb3b2505f9U, 0x3bd3cc7e3bcd3d2dU, 0xbd0e3a7d3b9061a2U,
  0x3c9837bf3d4dd765U, 0xbd855cdabcfaa6a5U, 0xbd1861ec3d624f98U, 0x3a6c76773c7b5ba6U,
  0xbd090e713d1ba5b5U, 0xbd1e0f90bd1de7d2U, 0xbcd2c98cbcf5abc3U, 0xbc99d707bd26e4f3U,
  0x3d5f8aa73aafe545U, 0xbd8277693d4145e1U, 0x3c6ae33a3cbc9fa3U, 0x3c4ee63b3c8eba64U,
  0xbda8bce93d868107U, 0xbd64db07bda3240aU, 0xbdcaf879be04a7fcU, 0xbd63ebc4bdc48c58U,
  0x3d62446dbcf590b9U, 0x3ca8022b3dd7e2beU, 0x3d948d453d03403dU, 0x3d375ddd3da14ef4U,
  0xbd63d2603d2cacdcU, 0xbd9d0b51be0a6df4U, 0xbd85fa63bdbcadcbU, 0xbd1e2499bdaa2cb6U,
  0x3de63fc2bbb98f0dU, 0xbd97a538bbb83091U, 0x3d2884acbd23acd0U, 0x3d6f819d3d4e3987U,
  0xbce8a1dcbd77698aU, 0xbd7a5d7fbd2731a7U, 0x3c4205cebcd4be08U, 0x3b229126bcb7d9e6U,
  0xbd48e84d3b831decU, 0x3cdae3863c836341U, 0x3dbc1fe3bbe6a02bU, 0x3cd86959bd3cf09dU,
  0xbd0bd1d83d654a79U, 0xbd61d064bd9ab574U, 0xbc3ccd06bd875978U, 0x3c0e0c66bd9f616bU,
  0x3ca4a5e13cc72a64U, 0x3a4f17823dc7d146U, 0x3d5e8914bdf66a7aU, 0x3cb5a9173cfccd33U,
  0xbd32215f3d8510f1U, 0xbcb09c37bd2bddf1U, 0x3d152f91bcb2f21bU, 0xbdf27e20bd26bef7U,
  0x3da92b2a3e040de9U, 0x3d6ecb59bd9b4d68U, 0xbdc733ffbdfc0a6aU, 0x3bd47bc13c94b2dfU,
  0xbc41a136bd097bcdU, 0xbc68a3083cacc988U, 0x3d3d72c73b9af12dU, 0x3d2c615f3cd8facdU,
  0xbc7963423d92fab9U, 0x3c839bbe3cf4092bU, 0x3c87efebbd4ca623U, 0x3d0d5ba43c28107cU,
  0xbb519227baad3ef2U, 0xbc7ceb1e3cc341dfU, 0x3dc5fa0b3d2ea515U, 0x3d73ba403d44c0fcU,
  0x3d456d663e177806U, 0xbcb6924d3e118761U, 0x3d10c710bdf6b039U, 0x3cda04ff3d123801U,
  0x3dcb06423d2d7ec6U, 0x3dbfb9093d6c5fbaU, 0x3dca92e63dc36ebaU, 0x3d7e92f93dc74350U,
  0x3d9c9c553dcadd53U, 0x3bc697f1bd0a70f1U, 0x3c033d25be3c6071U, 0xb839f3673d3aa7ceU,
  0x3db2abc1bc70c095U, 0x3d97fc383db0eea9U, 0x3d6e61823d4561a4U, 0x3bf752313c9920e3U,
  0xbafc1adb3dc7fcabU, 0x3cc90bf6bcf6a353U, 0xbcf0086ebd725edaU, 0x3bd3658b3c968c71U,
  0xbcf92a8c3d9ea84dU, 0xbd645323bd2cd4eeU, 0xbd3d5d42bd929e27U, 0x3b533b9abd551bdfU,
  0x3dcdd81fbd1e65d8U, 0x3b208a253d29990dU, 0xbcfa1badbcf047bcU, 0x3dcaf4783dafdf32U,
  0xbd14603c3dc3a9b0U, 0xbcb9236dbd5286d7U, 0xbc25d821bc98de6fU, 0xbd5d0144bb7944d8U,
  0x3e01788f3c6d4756U, 0x3dae281e3bc1313dU, 0xbda1b61abda66ee5U, 0x3d57c5803de030ecU,
  0x3bb285103d909ad0U, 0xbcf19f3abcad728eU, 0x3c822ab9bc87b9b5U, 0x3c980eaabd6a2e1aU,
  0x3dc5b4313ce29870U, 0x3cbc363f3d54f577U, 0xbcfa1ffdbdb76308U, 0x3cf4d1323d727c87U,
  0xbcf7af083dbe2fedU, 0xbd1f74cabd835170U, 0xbd823fa7bd71452eU, 0xbcf22b7abd321f06U,
  0x3dcaded7bcfcc013U, 0xbd0dcd423e0d6e2aU, 0xbded51e4bd1fe255U, 0x3c8e45ac3d6facf6U,
  0x3d49c85d3d7d01e6U, 0x3d15502f3d7ab3b6U, 0x3cd2694b3d0b1651U, 0xbcd03845bb0ca7dcU,
  0x3da66fa7bd1a24c0U, 0xbc8035a63ddf1fa6U, 0xbd061097bd8f2143U, 0xbdb14c8d3d782628U,
  0xbc4faf4e3d28cdd2U, 0x3c93c02ebd02792dU, 0xbcd6d53fba4fc9d5U, 0x3baece383c4a39f9U,
  0x3d0405423c501439U, 0x3d30df3a3d38776fU, 0xbcd89efcbbf8a95aU, 0x3d960ddb3d2f082eU,
  0xbd055be63c76f37dU, 0xbd3bb7bbbb88508aU, 0x3aed1bb73c913674U, 0x3d05c66bbd557490U,
  0x3d739052bd0b4592U, 0x3d2ecacf3e035f7aU, 0xbd3394dbbd595bf2U, 0xbcf449a93cf9e5c8U,
  0x3a3e99363c1c1895U, 0x3d20c0863ca26f29U, 0xb671e4153d13cbc9U, 0x3d8518403d2a4f37U,
  0x3c9538aabdb9dc58U, 0x3dc5cafd3c8a5cb8U, 0xbce0aca1bd92e80cU, 0x3d48c4123c2c650dU,
  0x3cf04c3abcc13e60U, 0x3d0c04593cc69a05U, 0xbbbb04003b271501U, 0x3c441018bb3f199fU,
  0xbcdd1ad7bd72507aU, 0x3d2830403d873f0bU, 0xbd034e29bd65f492U, 0xbd8d86ebbd4d6cabU,
  0xbd01d32c3a817337U, 0xbd67f214bcbe28abU, 0xbd577adbbd30d7c1U, 0xbd838e77bd52d1d9U,
  0xbc805a56bd1226feU, 0xbbfdf6bebd8c3f95U, 0x3cb3c9553c8af9deU, 0x3cb17142bc9692fdU,
  0xbc2ffedd3d066853U, 0x3b15a9a639be7775U, 0x3a909159bcce9b03U, 0xbd0305333cb06df4U,
  0x3d0e000abd23c558U, 0xbd57ad50bd98b6edU, 0xbd7393dbbb8c913aU, 0x3d9591273c7a456bU,
  0x3c5142713d9eec6aU, 0x3cda5e6e3ca89e96U, 0xbc53f9183b33d322U, 0xbba891293baebac0U,
  0x3dcb0b053c8fef88U, 0xbc28860fbd0d713fU, 0x3c25f0bb3d4148f6U, 0x3d46a13f3d7ec6deU,
  0xbd50ae5bbcb85fd8U, 0xbd50eb65bd18c209U, 0xbd8277fabdab7712U, 0x3c2c23fabd849a2eU,
  0xbb3e60f7bd794bafU, 0xbbb0e7a6bc5c8414U, 0xbd94cd83bc1af87cU, 0xbcd07e56bb4af83cU,
  0xbd3e2ad8bbe9be83U, 0xbd206102bd15ac2aU, 0xbd0f3f57bc32ac40U, 0x3cc036e9bd0cded2U,
  0x3bec6535bd3b7045U, 0xbdaf070cbcbd3ff5U, 0xbd522681bceb1b92U, 0x3c69d02f3c26763cU,
  0x3c9dbc1e3d6d8874U, 0x3ca52ea23d0d3470U, 0x3d0b918f3d2f2641U, 0x3c82d6333c79ed54U,
  0x3d46ad163bb3164cU, 0x3bf0bf93bc5a762cU, 0x3c8572e8bd27e429U, 0x3d692ea53d2e5046U,
  0xbdbe616abd3a7821U, 0xbdc9688abdb1bfdcU, 0xbdae6350bd48cbf0U, 0xbd5deb69bdb40fbdU,
  0xbca6b4c1bd66ed65U, 0xbcaa57d4bd2e7bf7U, 0xbce2cb5e3d5eb3ceU, 0x3cd27cb1bced5cb6U,
  0xbd92255abc969980U, 0xbd24b3edbd209a44U, 0xbd05ce6fbceddffbU, 0x3cd820e0bd0d3035U,
  0xbc9c420dbd5f28bcU, 0xbd1b29eb3c5be198U, 0x3c5f6b64bc72fc74U, 0x3a3f277039ad28bdU,
  0x3c4ff07f3d398b5eU, 0x3c26414a3cdc0f5dU, 0x3b73c9ec3c252d7cU, 0x3c9c494f3cd196cfU,
  0x3d2c0c40bd353147U, 0x3d5576b23caad68eU, 0x3d3a15de3c3f950fU, 0x3caac52f3cd6a2a2U,
  0x3c350215bd8ce83fU, 0x3cb5f3b93c10036eU, 0x3cc85c8c3c98a40eU, 0x3d03b5cc3c8f9df5U,
  0x3c7fc503b9ad6192U, 0x3d7450293dcc04fcU, 0xbcd9a9683c8ebaa6U, 0xbce3a6bdbd0e4b17U,
  0x3da1328dbdb64f36U, 0x3dd55d993d9e325bU, 0x3d5807433db0c629U, 0x3d97489d3dba823fU,
  0xbdd2a91f3aa8e4f6U, 0x3c18a44a3c4ba15fU, 0xbc8498ef3d2755a4U, 0xbd8c51edbdb2b405U,
  0x3d8d8f45bcc243b2U, 0x3d8861f23d1e9c2aU, 0x3d055ff73d85d55aU, 0x3bc5bf6e3d2d3c6aU,
  0xbd135db8bc37f96aU, 0x3d813c473caeec35U, 0xbb752c8c3d2936deU, 0x3d3599bdbd87493bU,
  0x3cb127733cb32d81U, 0xbbf84c4abbbbb924U, 0xbcc91445bb995286U, 0x3cbb3784bae4e610U,
  0xb9a1a654bd163138U, 0xbc1b634f3e0ac231U, 0xbdd097fbbd8a7021U, 0xbbfbbe66bcbf49acU,
  0x3dade1c6bc550ff0U, 0x3dd2027f3d7bbda3U, 0x3d3d5fb83da0cbc4U, 0x3c424eaa3da7df8cU,
  0xbab56d143c330b48U, 0x3d1b9b343d217efdU, 0xbc6f6a6b3c9f5c2aU, 0xbda765e93c183799U,
  0x3cdeaebf3bf8eecfU, 0x3d3c89143d22bc81U, 0xbc1d653d3c5ea406U, 0x3b07c9d83d02ffbbU,
  0xbc90548cbd8c988dU, 0xbb98cc873d808ba7U, 0xbc8ecbde3d6834c3U, 0xbc59e3e6bba527e6U,
  0xbd121fa83d09e7cdU, 0xbd20ea27bd80079fU, 0xbc811eb3bce091e0U, 0xbd0404dabccc70e4U,
  0x3c3d85afbcc8a49bU, 0x3ca2e0da3d42aabcU, 0xbce01e53bd710157U, 0x3d0b2b963c55323bU,
  0x3d643839bc6be6c5U, 0x3ca6e40e3cb71b63U, 0x3d12c88a3cbcbfb6U, 0xbcbf2b2d3cdecbefU,
  0x3d2c47acbd17e8dcU, 0x3d1986883c2d965fU, 0x3b32b998bc85d04aU, 0xbc09e92b3d233dc3U,
  0xbab02a053ca810c0U, 0x3cbeedb53b2f5d66U, 0x3ca2126e3ca41d0fU, 0xbc1183d83bdee387U,
  0x3b81165dbd30098dU, 0x3d431d193d6abbbfU, 0x3d523453bc2493aeU, 0x3cd5b3aa3d603050U,
  0x3d3fdaa3bd543ba7U, 0x3cc70a783b2783ecU, 0x3d6db5113dd626fdU, 0x3d791ab63d75da96U,
  0x3d1d368ebe2ec180U, 0x3daa0d9e3e0529d3U, 0xbd1012ab3d07bdcfU, 0x3e154cdfbbb58027U,
  0x3dd1be303aceaacbU, 0x3e1873603ddefe75U, 0x3badf6b23db7cc4cU, 0x3e0ba8493daac9a8U,
  0xbd0bb3d1be415edfU, 0x3dbd8032be1881feU, 0xbda9e7c93dfaf14cU, 0x3d861a5bbd6b8614U,
  0xbc78d8923cae5be0U, 0x3c33e627bc0ac901U, 0xbe12dfd1bd691aadU, 0x3dc63d92bc8546b5U,
  0xbcfcdc64bd0cc675U, 0x3e42084fbda5142cU, 0xbd8071633c1a2255U, 0x3db08be0bd3e20b3U,
  0xbd236a85bb135d52U, 0xbda074a6bdc775ccU, 0xbdebe407bdaaf647U, 0xbc582970bd5516c6U,
  0x3e0fa4e2be1ec9cdU, 0xbdb327f33e344ac5U, 0xbe53ee6fbb8a06c3U, 0x3d96992f3d9e466eU,
  0xbb9d2e64bca1c36fU, 0xbca5ff31bd0174d0U, 0xbe0b0e57bdef9202U, 0xbda8b057bd811676U,
  0xbd806c39be046cd5U, 0xbda03834be51a8cbU, 0xbe8b188b3e72f5c8U, 0x3cf246b9bd917009U,
  0xbdd3c522bdc9d4c8U, 0xbd5e5159bd791c46U, 0xbdf93a98be07f65cU, 0x3da83039bdeef129U,
  0xbd72bdd3be095338U, 0xba6b589abd99325eU, 0x3d0eb8b83e7d8bb7U, 0x3e3d28c3bdb4ed77U,
  0xbd5426e13cd653a3U, 0xbcf8c396bc163977U, 0xbd4856a0bdb8b327U, 0x3c2496a1bd6c8821U,
  0x3e03f88d3c20febcU, 0xbc1db25e3df32f6cU, 0xbe30e1abbc5f8fcbU, 0x3d8d67df3d25c3ffU,
  0x3b1548debd17126eU, 0xbb975bf73da91425U, 0x3cb760373c667112U, 0xbca0170fbc513577U,
  0xba62ff7f3c87bd56U, 0xbe1ed77cbd9beab8U, 0xbe455b2cbde80d0cU, 0xbc97867e3c0099bfU,
  0x3b5f3d643a993b3dU, 0xbbc244d13ca8ed96U, 0x3dd98fe33d37b65dU, 0xbc28693cbc5943c3U,
  0xbd76f3bb3e116545U, 0xbd4c308dbbb31ea8U, 0xbd30fbb6bbb93e82U, 0xbd980e83bc5a8272U,
  0xbd4dd937bd8ee92dU, 0xbcefd04fb9a52f2dU, 0xbc2784e6bca7b8d2U, 0xbd531c34bda30698U,
  0xbda5004bbe1753bfU, 0x3ce03f383d0353daU, 0xbd0906953d98c12cU, 0x3d9c5a45bdf2008aU,
  0x3d8de0a0bdb9b8f5U, 0xbb00e9893d0208deU, 0x3ca4d8f63d59b817U, 0xbb4c75393d073afeU,
  0xbdc7a796be88376eU, 0xbe41b95ebdc6bdbfU, 0xbce51e0d3bc25ccbU, 0x3c28687cbdc050f3U,
  0xbb1056e7be0ba675U, 0xbcbdc9803d284acaU, 0xbd8984403cb210ebU, 0xbc73e4d93cb997d6U,
  0x3be2ad15be5c05d3U, 0xbdb69dbc3b42f383U, 0xbd23c6c0bd70b217U, 0x3d13c0fdbdde22a7U,
  0xbccf2807bdc316c9U, 0xbcce14e0bd1c1e70U, 0x3c3c22c23ca33e94U, 0xbd9783ffbcc487b9U,
  0xbc3428db3dad1923U, 0xbd83679cbda2121bU, 0xbd16c91e3cf8ef53U, 0x3d2de7f0bc1ea8d5U,
  0xbd1d411b3c6d6ffeU, 0xbc4620f8bbaabad1U, 0xbcf85b15bccd5cbcU, 0xbd571409bb287b00U,
  0x3b353c2ebd129749U, 0xbda62576be3c6e65U, 0xbd96b1da3c24c86dU, 0x3dd8d3a7bda7daccU,
  0x3c11ec5db9ad5078U, 0xbc33414fbcf2d96dU, 0xbddece54bda3b064U, 0xbc719ba0bc1a2e66U,
  0x3d0de9fdbe08e13fU, 0xbddc81fbbd2b8c94U, 0xbd4dd5d9bc0f8c30U, 0x3daa1a1cbbfda5fdU,
  0x3d7b0222bd99b94cU, 0x3dc157133de34cdeU, 0x3d1253523dce581eU, 0xbc291fcb3d430bcdU,
  0xbcf0dff13d4f0430U, 0xbd612b83bd5d872cU, 0xbdff8c2b3ccd47d9U, 0x3d3c71a3bd3614e3U,
  0x3d68cdf7bd25d22fU, 0x3d3217c43d696d51U, 0x3dd738233c9977c1U, 0xbd3e5e0c3d34465fU,
  0xbc06e50c3d8f8091U, 0xbe2a2598bd9bd36fU, 0x3cdde63f3c113241U, 0xbd8632f7bd85afa3U,
  0xbd1654ad39a8f146U, 0xbd4ec41abd0854a4U, 0xbc75c770bd13427dU, 0xbe1422fcbd3659f5U,
  0x3d49723e3d834192U, 0xbe21a2cebd01d23bU, 0xbdc322b6bd9e17e6U, 0x3d39cd593bdf2658U,
  0xbd3e79d8bd916f18U, 0x3c28e2d3bc87c0bfU, 0x3cc7440d3cf3c184U, 0x3c0435f0bbff80f7U,
  0xbd5274633d44c52fU, 0x3d3a5b383d72d0f0U, 0x3e5193c7bca1e08dU, 0xbdc0e8febdd2cda4U,
  0xbd8499c4be0d7da7U, 0xbc4a1317bc5218eeU, 0xbd2cc729bd10b409U, 0xbd6f0642bd5e7168U,
  0xbe167687bbf8012aU, 0x3d7cd9fe3c83c7abU, 0x3e1bb5ebbce7398fU, 0xbddb38dcbdf5ddd2U,
  0xbcef0668bdf049b5U, 0xbd333dcfbd833296U, 0x3bb359efbcf422b0U, 0xbd5a5a50bdc6ee21U,
  0xbd8d8da7bcd0106dU, 0x3d0554debc1312baU, 0x3dde845fbd471f55U, 0xbdb07e38bd923b1dU,
  0xbd47ab90be262b5aU, 0xbcd307adbdbc4bceU, 0x3cc7e672bc4bb85cU, 0x3d27e4fabd839039U,
  0xbdd6ae2abd115154U, 0x3cc84b6b3d5942d6U, 0x3e33cea2bb15fe4cU, 0xbd7facabbe08b2cfU,
  0xbc92ffb7be1e1fc7U, 0xbc0a6572bca9df4eU, 0x3c03a9b3bd533135U, 0xbce446ebbd751af4U,
  0xbe1292d9bd3b3053U, 0x3d29af4d3d130d08U, 0x3d583aa0bcdc3861U, 0xbd55535ebe499662U,
  0xbd85240cbdad3081U, 0xbd797219bd70d501U, 0xbc8fd7a6bcdf9b8dU, 0xbd2f39b1bd2fdb87U,
  0xbdae46033c1d82a6U, 0x3d78a7e0bd8b7f2dU, 0x3de36826bd940168U, 0xbd59bb25bdb49006U,
  0xbd82e049bdccab85U, 0xbdb29db5bd4658fcU, 0xbd5128e6bd99c410U, 0xbd0afbc4bdb03306U,
  0xbd7de3d9bd27aa37U, 0xbd938e543c04cfbeU, 0x3d75ccfebbce89c2U, 0xbd02db12bd92c3d0U,
  0xbd76778ebde0f456U, 0xbdcb0182bda7122fU, 0xbd3af981bd710d94U, 0xbc8f2785bd1c0c85U,
  0xbdfe12c9bd6aecf1U, 0xbb8fab923ca9faa7U, 0x3cdaeb78ba8c4af9U, 0xbdfc05c2be0f4bcbU,
  0xbd5f2b4cbd888a99U, 0xbcd1c3fabd8ca8a4U, 0xbd4cfe3bbd897e02U, 0xbd998af2bd0da128U,
  0xbd5f8e5ebcb46499U, 0xbcaa2f86bd165d05U, 0x3c01c6adbd1e1552U, 0xbdbe2301bcfdbc25U,
  0xbd072120bba9a857U, 0xbd273f60bc24798aU, 0xbcd804c8bcd9ec3bU, 0x3b9e9b7cbcc2896aU,
  0xbb2d4634bc930dd7U, 0xb84fee05bd77383cU, 0xbc4eb2113ced1672U, 0x3cf8b61ebc6f0093U,
  0xbcaafcd23bd54fc1U, 0xbc01a2b43b8bcb92U, 0xbcdc7a5dbc9efa8cU, 0xbd44583c3bb2a6c1U,
  0x3c111df4bc100b1dU, 0xbc26edb5bc9ff66cU, 0xbd9541e83b9f2f56U, 0x3c57b0e43c973d58U,
  0xbc05296f3cc10158U, 0x3caa1b86b9c3f65cU, 0x3cc4ae8dbb43cffcU, 0xbbade9e3bc3769d4U,
  0x3d44feb4bc30e51bU, 0xbd103518bb7426b5U, 0x3c60f0903cfaa377U, 0x3c1cb2853ce63898U,
  0xbd303b4d3c4c7906U, 0xbd5db6a6bd4de405U, 0xbd863e13bd4def01U, 0xbbe5e762bd831233U,
  0x3c4d1fd9bca8968fU, 0xbd367224bd2c43a3U, 0xbbe39476badcd104U, 0xbc9169e83cbc77a7U,
  0xbcfcbe2d3c697ae2U, 0xbce8fb0ebd138806U, 0xbd0955f1bc9f1f70U, 0x3c8041d3bcbdfe8aU,
  0x3d09b2aebc654c6aU, 0xbd542536bba287ccU, 0xbd016b313ccfd8dcU, 0x3d5818afba1e7daeU,
  0xbc3bf1583d20acf9U, 0x3c2993f1bbe59b37U, 0x3c6e65b83c96feb6U, 0x3bc64d9b3bda53aaU,
  0x3d6993c1bc661566U, 0xba9ee57fbc97839bU, 0x3d75e9883cda183cU, 0x3d5324db3cd831ddU,
  0xbd979f53bbe68e7dU, 0xbd769d95bd8cec43U, 0xbd639aa7bd742d56U, 0xbd2c4a45bd899845U,
  0xba129844bc3600ceU, 0xbc96052cbc2ebc5bU, 0xbcbd2a733cff25e4U, 0x3d02ebc33bac9588U,
  0xbd6452063b262dd4U, 0xbd43ae08bd63bed0U, 0xbd18cdd9bd18dc1aU, 0x3ce1a416bd3f5625U,
  0xbbb699f5bc959fa5U, 0xbbe3904f3a394bbfU, 0x3adccaf53cc048bbU, 0x3c0ee1af3c6afdfbU,
  0xbd09637f3c83c15cU, 0xbcbfc2dabd143f25U, 0xbc91cabfbceb4245U, 0xbcad7a9abd38e5e5U,
  0x3cd71319bccef5f4U, 0xbbcb08083cd62558U, 0x3cfc00873c14b1fbU, 0x3d476e2f3b9d65a0U,
  0xbd1df9923cc83ca5U, 0xbd35934bbd061808U, 0xbd0ee8d5bd055d1bU, 0xbcf491cabd1f0440U,
  0x3b50bb0fbc17337bU, 0x3c466b59bcb2502dU, 0x3c140f99bc6dcb88U, 0x3d61d3b43ca59d28U,
  0xbd556cf33d27e9a7U, 0xbd5ca8fabd057c68U, 0xbc4651abbd11834eU, 0xbca796e2bd4bbb7dU,
  0x3d30f6f4ba938e5fU, 0xbb8a2acebc98634cU, 0x3cae262fbc19b154U, 0x3d69be0e3d227ae0U,
  0xbcef0d6a3c8667baU, 0xbd0987babcf3533cU, 0xbd180114bcb8c344U, 0x3b815796bd157d8dU,
  0x3c2d725e3c98e372U, 0xbb7923e5bbaea14bU, 0x3b7281c73c4f462aU, 0x3c2248173ceae5adU,
  0xbd1550c13c1c8322U, 0xbc913f9dbcab4004U, 0xbc4aa6f7bc58dc74U, 0xbc290acebd00f25cU,
  0xbb750bfabd0c38a4U, 0xbcc19685bcad782bU, 0x3b54f168bd1605baU, 0xbaf100903ca4c221U,
  0xbd7c91933c664608U, 0xbd384521bd115168U, 0xbd245772bd5f0012U, 0xbc9b086bbd7027bcU,
  0x3c5f46edbd156a1eU, 0xbd234aacbd168518U, 0xbcd3db76bd6b04e9U, 0x3d490ebe3caf973dU,
  0xbca748be3b9cef6dU, 0xbcee822cbcc2178aU, 0x381653f8bca44211U, 0xbcd6c098bc8179a6U,
  0x3baaa9a3bc99c718U, 0x3bafec34bcdc4861U, 0xbc32f684bd3b19f9U, 0x3c9f8072bb9514f4U,
  0xbc7bb8813bb800b4U, 0xbc8ad389bb945d78U, 0x3a8493a7bcce7cb3U, 0xbcaa3d2fbc198ebaU,
  0x3b21cedebc44e298U, 0xbc613cbabb897328U, 0x3c8bbdfe3cee3671U, 0x3c4647863b47af86U,
  0xbd1a7e4f3ba9d51dU, 0xbd34f989bc974245U, 0xbc92f164bd23c2b0U, 0xbc7c5271bd14206dU,
  0xbc68227dbc2ee528U, 0xbd10e319bcf4dc00U, 0x3cac710d3a288ac8U, 0x3cb0bd953ca2124aU,
  0xbc1687a93be39dc2U, 0xbc9bc398bc6291c7U, 0xbca19ad2bc9a331bU, 0xbbb48b60bcf07165U,
  0x3bd881c93c75ddd8U, 0x3c42b4d2bc9322f3U, 0xbc6eaf5238a9b0edU, 0x3c628777bbafe538U,
  0xbd5775a33c1e0681U, 0xbc9d0ae2bd6d54bfU, 0x3ba0c4dbbcdfa9ddU, 0x3d66b07cbd4d378dU,
  0x3d3cc0ee3d83be77U, 0x3d9534463d87ca94U, 0x3c91dacbbd5bcc34U, 0xbc64aec83cd37ab5U,
  0xbaea9bb4bbc6449aU, 0xbbcba68cbcc2e9e5U, 0x3d5621c93c0d6d5bU, 0x3d9b39ecbd3c6a29U,
  0xbd44f0943d07b26cU, 0x3d0a06163d06a47eU, 0x3d16e999bda9adc8U, 0xbd2a588cbcc76ed3U,
  0x3bb297ddbd62a623U, 0xbc5be06fbc1865e3U, 0x3cab1615bca349cfU, 0x3c452ad5bae26ee5U,
  0xbdad37cb3cdceed0U, 0x3d38afa83c1121e5U, 0x3c0c2e4abcfaf462U, 0xbc6974bebd0da7d1U,
  0x3c94f0e73caec0fbU, 0x3d19fa423d12861eU, 0x3d6b21f43d8079b2U, 0x3ce77e5b3d6dc6d3U,
  0x3c6e3d2d3bf9a7d9U, 0x3d1a97d83df2ca6dU, 0x3c1f9f5cbd836b18U, 0x3d03e71fbb859611U,
  0x3d636867bd694c4dU, 0x3d14f5f63c87ae7fU, 0x3d2f2d603d600973U, 0xbc9943a43d0d176eU,
  0xbd88d7f53c53aff4U, 0x3d9b8fc2bcbae021U, 0x3cbd58bfbc98f946U, 0xbd9394c4bd8a619eU,
  0x3c5bc446bd2cbf77U, 0x3ca7e42c3d1ad143U, 0x3bcd23703c66c5fdU, 0x3cc297d83caefc5eU,
  0xbd84704ebd359cdaU, 0xbd0a450e3d56d4fcU, 0xbd9f71d4baf1f074U, 0xbd13f76dbd3b82c5U,
  0x3d5700163c44d4a4U, 0x3d8598363d6d3c82U, 0x3deffc0e3dd211ddU, 0x3d06e32f3d840e65U,
  0x3cca5a603d8cbdb8U, 0x3c649c923d6dafc2U, 0x3d963b71bda3f118U, 0xbcaabd5fbb7435b1U,
  0x3dc1c903bd11e660U, 0x3d80a2923dbd786fU, 0x3dd50acc3da023c6U, 0xbc8390733d2e221cU,
  0xbc52ff4ebce5855fU, 0xbc0b1ecdbcfd649aU, 0x3c81699bbd48d1b0U, 0xbb3384b4bcbbfbbfU,
  0x3d413d82bc2ae356U, 0x3d008c563d29a756U, 0x3c8931ae3cdd6737U, 0xbcc4b7b53c8ba46bU,
  0xbcb171743d1d8b64U, 0xbbe0d2b6bc507be7U, 0xbd4355d1bc8ce9efU, 0xbd3d78c0bcd549e2U,
  0xbd3580d63cc27706U, 0xbc6ff3c6bd3d3ee2U, 0x3ccd7232bb0a396fU, 0xbd30eb24bd00cb6cU,
  0x3df83249bdb18fc2U, 0x3d1f19973e02a984U, 0xbd6af00b3d150edfU, 0x3e0ce9cf3d74a3efU,
  0xbdc001da3c838f1eU, 0xbd9f7272bddd0c00U, 0xbdf55c1ebdf19fe7U, 0xbd807388bdf73e13U,
  0x3d248328be35ec6fU, 0xbdc313afbda75138U, 0xbc4d7c5a3db94d76U, 0x3e28a4c33d5da5a7U,
  0xbd26703e3c80023aU, 0xbc23bbefbbf957beU, 0x3ca87ac2bcb1d4a7U, 0x3ddf47c8bd2d85aaU,
  0xbc933013bd9dd331U, 0x3ab8b5533d7fb7e9U, 0xb92559373cb649d2U, 0x3b15ebd93b9ac60bU,
  0xbd7f28133c33a1c3U, 0xbd50b4f53b06f061U, 0x3d4b2c97bc7887d6U, 0xbd821d9bbd08116eU,
  0x3d9e4ea8bdd42692U, 0xbdcc45e83e0381afU, 0xbdf4a202bdc66b01U, 0x3de1276c3d4b2822U,
  0xbe0adab43c57ab07U, 0xbe111d38bdf47851U, 0xbdca43a8be134039U, 0xbdd11d58be22a2eeU,
  0xbb31c4c0bc49f9e9U, 0xbb979cc5be0fbc1aU, 0xbe1221513a19a901U, 0x3e289a5d3c90aa31U,
  0xbd9599a6bd2c5530U, 0xbdaa6730bdbb7908U, 0x3c5038acbc79767fU, 0xbcc25ebfbd3c89a2U,
  0xbd9e89b73d29ed5cU, 0x3c73d52e3d90b0e7U, 0xbd1ec9ddbc96af6fU, 0xbcf7f9c2bc90e191U,
  0x3d83e6bdbcc759f9U, 0x3d874a0f3d907c68U, 0x3dfe35c93dce8b45U, 0x3d658cd63daa4036U,
  0x3d650c753d2e398cU, 0x3bcb40763d9fb838U, 0x3dd622093cbbe527U, 0x3d2ee226bd08e96cU,
  0x3c0cd4e9bda37b6eU, 0x3d1bdd5b3c5ad5a5U, 0x3d57e4a9bca09699U, 0x3d6ec8503bc3fb7eU,
  0xbd9221d3bc929318U, 0xb8294f77bd728895U, 0x3d6c55843cbaf8f0U, 0x3d69a1b4bd64c60fU,
  0x3c185143bd7fb00eU, 0x3cb26c563d59420bU, 0x3dcc62bb3d32abb1U, 0xbcee8eb73d8461c4U,
  0xbdc4e1f43d3d900aU, 0xbcc3eabd3cdeff80U, 0x3c38aa993bca6e81U, 0xbbc84cfcbde64a8eU,
  0x3cfb18debbf3780dU, 0x3d05713d3d029983U, 0x3d771ee73d133557U, 0x3de4ea783cf1e4b0U,
  0x3cb075eabd5931edU, 0x3d70d124bbecb85eU, 0x3bb82fd0bd65c3c1U, 0xbd5068d6bc106308U,
  0x3d7fffe9bca282c3U, 0x3d1271ff3d3eaf83U, 0x3d08dae23d8f8031U, 0x3cf6e53d3d37449bU,
  0xbcb9944a3a94f159U, 0x3d3506903cba2943U, 0xbd6dd000bdc9e79bU, 0xbc88ad16bd83d49fU,
  0x3d9c0274bca11317U, 0x3dbef02c3db5eecfU, 0x3d85e2683d605f0aU, 0x3ce1ea953daef7ffU,
  0xbd233942bca33b25U, 0x3cbfcb98bc015876U, 0x3c0d37cabc52deabU, 0xbcdb8db9bca1eae7U,
  0xbbdd94cfbd0f18e4U, 0x3c96fdee3c624ad8U, 0x3c8038113ce90fa1U, 0x3c92272a3d1aeb0eU,
  0xbc2df1f4bc45fd89U, 0x3a61e09a3c7e8289U, 0x3b81cee7bc31309dU, 0xbdbc9a0fbc852eefU,
  0x3d06c392bd5db80dU, 0x3d0491cf3d6b342cU, 0xbc61c0f93d557dbfU, 0x3d83bfb43d4132d3U,
  0xbcd5d989bce3a303U, 0x3bd3d5ae3d2bdbd2U, 0xbd55f516bc647e7dU, 0xbd005db2bda86166U,
  0x3d2cf5f5bd87b0c2U, 0x3d4562853dbd1ce5U, 0x3cf1d0813d25e7baU, 0x3c3dd02b3d4625e4U,
  0xbd854a73bcff2083U, 0x3c84b8ddbd5cd8aaU, 0xbc80be2a3d70a6a9U, 0xbd2b7c2abd9318a5U,
  0xbd85ab67bc187990U, 0xbd14849bbd57634bU, 0xbcca621abd072753U, 0xbce11897bd5ffc0bU,
  0xbac7bd7dbd50be5bU, 0xbd435cc5bca46b28U, 0x3ca9aecc3d54bc4cU, 0xbc587411bc887533U,
  0xbce01f76bd160902U, 0xbd45fd6ebd31989cU, 0xbd678c4ebd1d298fU, 0x3bd3477abd386626U,
  0xbc32d6a9bdb4ee06U, 0xbcfeda7abbbd8087U, 0x3c9f62b13cc3ada4U, 0x3ba6d2d1bcd5390eU,
  0x38590c0abd0f7078U, 0x3be1a2613c4f319dU, 0xbc087937bb9af045U, 0xbcecc6c0ba8cfd35U,
  0xbc80696dbd09313dU, 0xbd606f0bbb410546U, 0x3bbb30eb3d8d1970U, 0xbd6cc573bb1e551cU,
  0xbcb75008bd16e6f9U, 0xbd07fee3bd07dd1dU, 0x3b15780bbaf14cd8U, 0x3c808ce8bd254a6dU,
  0xbc34366bbc14f533U, 0x3d29781e3d437ce3U, 0x3d0bb91ebd4a14a2U, 0xbd835337bcacff03U,
  0xbc363c8cbcf2226fU, 0xbc7a00553bd2f3e4U, 0x3a67d9d3bb7e8f13U, 0xbba69159bca5ef73U,
  0xbd851fe53d887021U, 0x3b4564c93d19a36bU, 0xbd2a8d92bd35da34U, 0xbd7bd49dbd0d55d2U,
  0x3c01655cbd493cdfU, 0x3c8fcaa93c432bcfU, 0x3c7dc0ec3cedeb39U, 0x3d43157e3ce8a1e2U,
  0xbdbcc3273d3962a5U, 0x3d913c123cfb43f7U, 0xbbb9e4f8bd0698cdU, 0xbd1118d2bd53c4f4U,
  0xbc2e227fbd2455f5U, 0xbbb5a735bbe1a405U, 0xbae43b93bcc32582U, 0xbb8297a7bb49ed0dU,
  0xbb9c07a93c04280aU, 0xbcb0686d3d66e426U, 0xbb9438f2bc8447acU, 0xbd1d8f93bc92bfc1U,
  0x3a268285bd5ffccfU, 0x3c1d50b93cdeaa73U, 0x3d1ec4043cff445bU, 0xbb9851a33cb971f6U,
  0xbd5468763da9ab61U, 0x3cad8d943a9339caU, 0xbd2495d9bcaea7f7U, 0xbca6904cbda2dfd3U,
  0x3d062399bcbb7dc7U, 0x3d8309183d1bfd5cU, 0x3d5cc46a3d649008U, 0x3d5f16d43d964108U,
  0xbd82b2cd3d1446e0U, 0x3cc9f32f3d213e9fU, 0x3a32cba4b9e98a40U, 0xbb5d3446bd0b4759U,
  0xbccbc1bebd20cf68U, 0xbc9d341e3b8e1fa5U, 0xbc28d0d7bc8fd5daU, 0xbb493457bd20cc1dU,
  0xbadb76a33c18982bU, 0x3bc455233c1f1836U, 0xbb08bf7bbd935fc9U, 0x3c2208e1bcbb3d4eU,
  0x3d31cf17bcbbc9d2U, 0x3cbe1cfa3d403864U, 0x3d610a283d3a0adeU, 0x3d0985db3cffefdfU,
  0x3c4a191d3d49f411U, 0x3d841ed23cbcb361U, 0xbbeef9b1bdbe3e5dU, 0x3c573f2abc87dcaaU,
  0x3d5b4882bd4e4994U, 0x3d4432dd3d6256daU, 0x3dd4b7cc3d8a2113U, 0x3c5c58863d3ba972U,
  0xbcf6d7b53d9b52c4U, 0x3cd563483d2b9604U, 0x3d14bda3bd08f235U, 0xbd00082abcd92065U,
  0xbc0eaab2bd177567U, 0x3c156b4fbce419aaU, 0xbd2b7fdb3bdc38a7U, 0x3c02ae04bcb697e2U,
  0x3dc10ad2be388a76U, 0x3ccf1e643e3fa227U, 0xbdb7d01fbc9631c1U, 0x3d8cf01a3cab2d08U,
  0x3cb9ae6d3bafaf5eU, 0x3bed8c56bce54ea0U, 0xbdf4381ebc618dbfU, 0x3ded5673bc8ef3f8U,
  0x3be9513bbe0b267cU, 0x3e555bb03c0648cdU, 0xbdde7c3f3c1dbc11U, 0x3db55c5fbce41c4bU,
  0x3cc5b5fabd7515f7U, 0x3d32af273cff2214U, 0xbc329a363d0d5c3bU, 0x3e3034a63c8534fcU,
  0xbd85d1cebd031f6bU, 0x3da95f903d7e1eadU, 0x3db74e6b3db50f7cU, 0x3daae4c0bcd7cdfcU,
  0xbdf19b013e058ed8U, 0xbda457efbde300f6U, 0xbd139310bd3ed6f9U, 0xbd8c7beabdc7e754U,
  0x3dba9be5bde262b6U, 0xbd8b89ca3e22bc01U, 0xbe25e6f3bde36ae4U, 0x3d8bada73dd8840aU,
  0xbda0f93f3d7e74c5U, 0xbd88399cbde02a6bU, 0xbc7903b2bd826841U, 0xbd5a33e2bd96b25bU,
  0x3ddabf47bbfa87b4U, 0x3db73475bd0914f2U, 0xbe61fb75be24bb98U, 0x3d88a4f33dc3dda3U,
  0xbc3682dabcb4135cU, 0x3c85b342bc6b3177U, 0x3d4e93593d2d0e93U, 0x3d36d076bcaab681U,
  0xbc7352453c714b84U, 0x3d8f68cc3d2ba009U, 0x3d9a358d3d9aa905U, 0x3d351bbabc646600U,
  0xbd7efca83d7e64afU, 0xbc3090c0bca69a34U, 0x3cb145b9bcc86860U, 0xbc4d7a87bd334760U,
  0x3d7e27d3bc07e9b9U, 0xbd35bdef3d214cfeU, 0x3c960ff2bd968a7eU, 0x3d8a3dd43d4e6ab1U,
  0x3cd4749c3c37d7b3U, 0x3cbd76af3c240b1eU, 0x3d58e86f3c8edf2bU, 0x3de74f853c12fb17U,
  0xbb610350bca48c0fU, 0x3db6bc82bd7fd958U, 0xbd917633bd14e482U, 0x3d6f5fe2bc45b24dU,
  0x3d2408b2bd46f33aU, 0x3cd0b774bbf2509fU, 0x3d2eb62d39e4285cU, 0x3d3dd0703d00dc09U,
  0xbd6a42dd3dc7eab5U, 0x3db36de73cf6232aU, 0xbcefbd4abb661cf0U, 0x3d2631dfbd82f08aU,
  0xbc7b346dbc86c525U, 0xbccf7dddbd33a110U, 0xbd447b90bd21c3b9U, 0xbcfdb22bbccdb7c0U,
  0xbccdb7b4bd6f91bbU, 0xbcbbb2e63cfcac22U, 0x3d0ae7a93c8f4d07U, 0x3d27d0afbcadcb73U,
  0xbcfb1342bc0e250bU, 0xbcf56141bd24b30aU, 0xbb14e868bd1eab7bU, 0xbda274ddbd2c7b97U,
  0xbb83f716bd83f562U, 0xbd4b8e68bd2179a4U, 0x3d42e9a83ce408b2U, 0x3d79af6e3c869760U,
  0xbd443e5dbb9da5e3U, 0xbd204655bd8d80b3U, 0xbd06b10abd36223fU, 0xbd267e25bd31b5b6U,
  0xbca4a120bd1df47fU, 0xbd3950db3bc7c977U, 0x3cf701063c9396abU, 0xbc1fe032bb93c084U,
  0xbd0f2bfc3d5cdf9dU, 0xbd0fc60bbd5685eaU, 0xbcde12d7bd04ec9bU, 0x3b8184d4bd24fbc8U,
  0x3cd9e7ab3c50386cU, 0x3c807c803b1ebe15U, 0xbbd0cf32bd69541cU, 0x3d19813b3d120d8fU,
  0xbd2a5ab43d5fada8U, 0xbbafa150bce91963U, 0xbbe890a9bd0c0c38U, 0xbce2089abca1421eU,
  0x3d500537b9f9b0b3U, 0xbd6203acbb4b25beU, 0x3be7d675bdb46d03U, 0x3d0636e03d4b0119U,
  0xbcf07c7f3d6761b5U, 0xbc89a505bd0ac73bU, 0xbbcc739abc8586faU, 0xbb7b962bbcbdf9d2U,
  0x3d70e8fc3bddec1fU, 0x3b541085bb2943adU, 0x3d45ddf3bd95e04fU, 0x3ca44a833daae206U,
  0xbc7fe6b03cf30af7U, 0xbc1396ebbc599eb1U, 0xbc9d08bebc875b6aU, 0x3cba13e2bbf6494eU,
  0x3d265fe7bc6b476eU, 0x3be1bac93cbdf1beU, 0xbcb189cd3b915893U, 0x3d2d09783cf26abdU,
  0xbc8d94d73d20c2e0U, 0x3bbd605cbb9bb49fU, 0xbcb26fbdbca85b5eU, 0x3bf68ec73b639918U,
  0x3c172b2dbbcefeb6U, 0xbb5023acbbe44b95U, 0x3c24bec33c6a7ae9U, 0x3d37dc773d094e1cU,
  0xbcbbd8bc3d280a91U, 0xbcad9769bcad2a57U, 0xbc8d964fbcd0cb1eU, 0xbc5be52ebca8bf34U,
  0x3cf612f8bb10ec30U, 0xbba6c694bbfe0d58U, 0xbc97f46dbb385a71U, 0x3d8a55623d1587c5U,
  0x3dbed049bc2ad51aU, 0x3da170ea3d7f7e9bU, 0x3df033303d814c35U, 0x3c8cc3493d7fdccfU,
  0xbc21d4423cc143dfU, 0x3d6b19c33c831089U, 0x3d8cc0e03d9d4ed1U, 0x3d83cd543d4d8e38U,
  0x3c6a33763caec320U, 0xbc0e76e0bbb44004U, 0x3b6cf2073c662380U, 0x3cd360883cba187dU,
  0x3d57dfd2bb0a7095U, 0x3d82f1463c4b3761U, 0x3e265db93d8d1511U, 0x3b8a07773c5539fdU,
  0x3ce635403c4f5821U, 0xbd15af80bd931e75U, 0x3cb1f7143bfc770aU, 0xbc8a4cc83b4c00f1U,
  0x3db3b6493cc368beU, 0x3c2893af3d47bfb8U, 0x3d068fa63d0e5ed3U, 0xbdb0b2cd3d282a26U,
  0x3df199363c922807U, 0x3e31777c3e2a19feU, 0x3e3cbd2a3e329ce3U, 0x3d445c203e2f1f2aU,
  0xbc13752a3d2ff9beU, 0x3d8d63c33dc43dd8U, 0x3e5098173d826003U, 0x3da291003d6ecc28U,
  0x3cf92e603d35e393U, 0x3c719e823da40623U, 0xbcc681debc6c4431U, 0x3d368f813ce160e4U,
  0x3daca317bd9b776aU, 0x3da5dc23bc75fe3dU, 0x3ddd436b3cedf7d3U, 0x3e08205f3da1e92aU,
  0xbd5efdc6bcaab688U, 0xbcd60353bd8bbb88U, 0xbd961046bd64c768U, 0xbbdc522cbdc693d6U,
  0x3daa3f1bbdc8fd1cU, 0xbccc147b3d8872b2U, 0x3dbf3ebbbc43fd1fU, 0xbdd114053ca0ea9aU,
  0x3dc042133c9881adU, 0x3dd5af6a3da6b01cU, 0x3d6123803dcc20ccU, 0x3c8496cc3d863883U,
  0xbb965bc9bc2afe24U, 0x3d87af573cc52a72U, 0x3d2f69be3e34aea3U, 0x3ce915ca3d116d69U,
  0xbc8504fd3d5d9154U, 0xbd0edcd13cad17a4U, 0xbd956c62bd1ecc0bU, 0xbd33b256bce88dd5U,
  0x3d484a5dbd893061U, 0xbda2f361bcf3c492U, 0x3d779a273e633245U, 0x3e080120bcf9e881U,
  0xbddf1c7dbae37b29U, 0xbdb9d298bdded60aU, 0xbdefa2debdc6bd71U, 0xbb7cb73dbdd38f76U,
  0x3d29d2ebbda97f4cU, 0xbd3ca11b3c7c67efU, 0xbcf01ef53e02a27eU, 0x3d614689bcbfddf8U,
  0x3da95355bd5ab20aU, 0x3de7473a3dd916ffU, 0x3d4803f53de9d04dU, 0xbd596b553db043d5U,
  0xbd3b422e3dc1dc33U, 0xbd70211b3cf23dd3U, 0xbd9c8b7d3dca9c97U, 0xbdd64e6ebd36ab52U,
  0x3d979fb8bd7acf3fU, 0x3dc62d393d4d7861U, 0x3cdbe06c3dcddf26U, 0x3d09e9073da3c855U,
  0xbc9ff4f03e29c9b4U, 0x3d32cd653de14ddeU, 0xbd6ac9513e0269e3U, 0xbd9df87dbd97691fU,
  0x3ce5684fbd1294b4U, 0x3d7195cf3c76287bU, 0x3d72f9773c0b3e72U, 0xbc3242883d2ab839U,
  0xbb17af993db79137U, 0x3ce928353d7bc5b4U, 0xbd3be5d03dc07821U, 0xbc1d6179bc80b803U,
  0x3d5618bb3d30d452U, 0x3d5c9e0c3d12d05fU, 0xbd2233353b5543fcU, 0xbd154a333d14201bU,
  0xbbe727163d39a6afU, 0xbd9082e3bdd3f7b8U, 0xbe06aa92bc83ac86U, 0xbd3965c03d0e3930U,
  0x3d4e10ed3ced4bcdU, 0x3dc3d9c03c899a68U, 0xbcb5a8af3d898332U, 0x3d68c01e3d72cdd4U,
  0x3d81177a3d93c550U, 0x3dab2f823d935645U, 0xbda0bd953c4e496dU, 0xbd882cdd3d128be7U,
  0x3d7264b43d23161cU, 0x3d65f8783cbb08acU, 0x3bda96553d1487c7U, 0x3d9ecb1f3d88db2cU,
  0x3d1a48843d6b52bdU, 0x3cfc36a03c70cfd8U, 0xbd32b03c3d35f35eU, 0x3ca6a54c3d3dedc2U,
  0xbc8e16e53d9678d8U, 0xbcfa5dc53ca9d1e3U, 0xbd6c4815bd32b3c0U, 0xbcfbf871bcdff376U,
  0x3d8c73783b258de1U, 0xbc6d75f6bdba6fd0U, 0xbdc4fcce3cbcb168U, 0x3d4bc1e63da4dae5U,
  0x3c59a57f3e05ed3aU, 0xbc921f15bd60a99fU, 0xbcd628efbc84e559U, 0x3d157152bc0ba27eU,
  0x3e0cb8163da2117bU, 0x3c8580113de85c2bU, 0xbe39913cbd9ffbf5U, 0xbc9a00ea3e0e6ce8U,
  0x3d05917c3daeea41U, 0x3d4aac553cd3cc8eU, 0x3d3a762f3d9daf45U, 0x3ccc0fa63d41421cU,
  0x3dcc3f913d849df1U, 0xbd59acaf3c831181U, 0xbcefc9d0bd274bc2U, 0x3cd089aa3dd98e62U,
  0xbb097be03c759f05U, 0xbc86659bbc278c2cU, 0xbcbc1223bc77e57dU, 0xbce4de2dbb134f78U,
  0x3c75e6a4bb58e129U, 0x3c5d8dacbb556aa0U, 0xbc3c01fbbc877159U, 0x3c26642e3c2a0106U,
  0xbd4854ca3ccee28eU, 0xbd69b1c0bd699e6aU, 0xbd3e3e5fbd14b99cU, 0xbc8b09b3bd4d3248U,
  0x3d3523563c1344cdU, 0xbbf643ec3b782febU, 0xbc1b3472bb89a281U, 0x3d4d66fa3d1172eeU,
  0xbcb492b23a9a8d40U, 0xbb0968e8bafbd296U, 0x3c2e7617bab4100dU, 0xbc8d138dbc2098a9U,
  0xba558ca13d327cc8U, 0xbd301c0cbd201538U, 0xbca373603c59951dU, 0xbcd0f1a23cab10ebU,
  0xbc8ded623c2a66f7U, 0xbcc8a2d7bbcbb54bU, 0xbd040191bc073092U, 0xbcec0e91bcd37139U,
  0x3cd88b83bc102a4fU, 0xbc960987bbe632eeU, 0x3cf0cb11ba16c353U, 0xbc1f10afbc28ef1dU,
  0xbd93e072bab153c4U, 0xbda26c18bdb7af04U, 0xbd90def1bd76015cU, 0xbc50293ebd678a9aU,
  0x3c88e89abba79973U, 0xbd1d8c7ebd87b16bU, 0xbcc169a8bc5a3e43U, 0x3d8f48603c1dad47U,
  0xbc2ff8efbc77afb4U, 0xbc326d1ebc227e73U, 0xbc6f35d3bcbfbd1aU, 0xbc9cfc2bbd0fcb8bU,
  0xbccb8041bb52e317U, 0xbcee8576bda77850U, 0x3d5562dd3c3d8ca2U, 0x3bc53710bc8ae04dU,
  0xbbf1298b3bf2afb5U, 0xbc46822ebd14beccU, 0x3c7fb3c3bcf71baeU, 0xbc4a9977bab798d6U,
  0x3c5ca6893cbf8bc9U, 0xbbe0d657bbbd3b5bU, 0x3c864cc13c41fda0U, 0xbc2ba6f83c72ce00U,
  0xbd4208613c15aa08U, 0xbd55ee3abd4f3f93U, 0xbd2a3a4bbd2c639fU, 0xba159eebbd5da112U,
  0xbc9f4e063d1419d5U, 0xbd6ed5c63c48974dU, 0x3c27b9a73bf75e68U, 0x3b5c09643c7a4c89U,
  0xbcaf6cd03cbfd6a1U, 0xbd085f9fbd3d1358U, 0xbc198b4dbd4c9d56U, 0xbd0b781ebc8467baU,
  0x3b9b470a3ca34279U, 0xbd9a48fabd4edf6bU, 0xbcae4e153c26f376U, 0xbc00bfbc3cb2a769U,
  0x3d092fe5bbf44544U, 0x3c56e207bd2836a3U, 0x3cbf5e9b3cdb200bU, 0x3da9c7163c962d02U,
  0x3c9116173d9e94afU, 0x3df55a333e16ae9cU, 0x3e214ee6bd13003cU, 0x3d967b93bc93264aU,
  0x3d04f1943c75d53bU, 0xbca4bed2bd2fdfb4U, 0x3d9923693c215d5cU, 0xbd7048f8bd24f116U,
  0xbb01c38dbab8cc4bU, 0x3b0f2c83ba343288U, 0x3e8a3a543c324a34U, 0xbcabf217bb71f40eU,
  0xbdadf8d0bd555e18U, 0xbdc13e6dbdadceb4U, 0xbb80b758bd9cb42bU, 0xbd2251bcbce79b81U,
  0xbcbbad123cb1c6d1U, 0x3d330535bbf7facaU, 0x3e34083dbc2e76a2U, 0xbd843cc6bdcd660bU,
  0x3d4bcf313e01847bU, 0x3c4ef575bd477eb2U, 0x3d1c6a8ababf0a04U, 0x3dc501b73d3d9030U,
  0x3d33413e3dcd448eU, 0x3e0f89643e5399c2U, 0x3e2b0bbe3d8cd0fcU, 0x3dfbc6be3dd738abU,
  0x3cea6cb73db14bcaU, 0x3d7b62003cfa2e2dU, 0x3df7992e3d9b38a3U, 0xbc9f800d3d12f9a3U,
  0x3e1c7b313cfdbf63U, 0x3e030ff83df7b7bdU, 0x3e6435703d6b3a28U, 0x3e3721393dbfcd1cU,
  0xbdaf60aabc363b42U, 0xbde0f86ebddfa0dfU, 0xbd77a93bbdc9dc5fU, 0x3d63780cbdd048dfU,
  0x3d7084ca3cd7bb7cU, 0x3dc5a50dbd1fe23fU, 0x3e3250493d5ab7d7U, 0x3d89292a3b23e8aaU,
  0x3bdb35593e11aad1U, 0x3d4c1223bdcd367dU, 0x3d76fc5f3d296842U, 0x3d2b0849bc81b393U,
  0x3e0bb0eebc127324U, 0x3e0e18683e241540U, 0x3e08c4cc3d523bbcU, 0x3e2a1be93e17d89eU,
  0x3da162643e2d1d8aU, 0x3db8956f3dae6e69U, 0x3d29b1bb3cfdfbe5U, 0x3dbd40d03dfbc5c6U,
  0x3e584041bd80062aU, 0x3e45fcda3e0fdda2U, 0x3e658c293dd26e7aU, 0x3e6635b13e3256e4U,
  0xbd0870883dc327ceU, 0xbd31d53fbd259c69U, 0xbdf999dabdc8dd97U, 0xbc6b6ce2bd8a9780U,
  0x3e015657bde68babU, 0x3dca0e52bbaace6cU, 0x3de701fd3d4564eeU, 0x3e715b933dbf99f2U,
  0xbd6f128bbe73c664U, 0x3e472dd23ee5cdffU, 0x3ec978473d7fa52fU, 0x3d9cd4993e23eb18U,
  0xbd5cef15bacad388U, 0xbbbc972abc3d95e4U, 0xbede0bf83e37a962U, 0x3dc2a840bee6136bU,
  0x3de5718cbdb5f47aU, 0x3fa741613f618c31U, 0xbc1df18cbd40b9e2U, 0x3d3ea51cbe0f5b56U,
  0x3e562c5a3e1152f3U, 0xbcf6c36ebea13637U, 0xbf04ae36bf2b27d4U, 0xbfd18aae3dfbd41dU,
  0x3ad8d68cbd0dc1aeU, 0xbc8786b03d220f0aU, 0x3c799eba3d446772U, 0x3c8c85e6bc1d1821U,
  0xbc2255dc3bb7b9f8U, 0xbc145db7ba1c14caU, 0x3b3d3a87bd44bae1U, 0x3c2b2a4cbd2187b3U,
  0x3c366a50bc465a4aU, 0x3d0824953ce3ad9aU, 0x3ca283123be47476U, 0xbaa889b7bb09ad8aU,
  0x3cb11c6d3c155b84U, 0x39723818bac62d29U, 0xbc0cd93ebcf5bfaaU, 0xbccaad723c79eb87U,
  0x3c11e91fbccbedc2U, 0xbccf2ca83cb9ff7fU, 0x3cb8b41c3cc31603U, 0x39dd0222bc6f43eaU,
  0xbc25316a3bb65c26U, 0xbca066f03b80b7c2U, 0xbc031e1fbd146c0cU, 0x3ba70966bd276b7bU,
  0x3caeed8bbc5ef558U, 0x3d9d2de93cb76a96U, 0x3c960c0a3ca16039U, 0x3c8f2b46bc641cebU,
  0x3c5ad03d3c93bdc9U, 0xbbc9633b3c419364U, 0xbca138babc5572b2U, 0x3c2ee7703ca21e28U,
  0x3c4699fdbc91562fU, 0xbd1293063cc809afU, 0x3cdf93cd3c45dc29U, 0xbba9e2413c608d6fU,
  0xbc75e2a23ba23b79U, 0xbc158cdd3c434558U, 0x3a23d89abce52a30U, 0x3b85da7cbd73f6ebU,
  0x3b6ecd31bcc3475cU, 0x3d7c549f3d261c42U, 0x3cb569083c30a741U, 0x3cb04223bc246d02U,
  0x3bcbe87fbbb59f47U, 0x3b8c9c4bbc0b8b0bU, 0xbca012623c10ff01U, 0xbbd0acab3caca600U,
  0x3ba825f43cb53f69U, 0xbcd779c1ba9427d4U, 0xb8cb4eaebbf88549U, 0x3b8c1e05bb5b8ce2U,
  0xba2c180b3b492889U, 0xbc82afb0bc3c4e85U, 0x3c61988dbd240e65U, 0x3a4f69a73bc7f276U,
  0xbcb84b7ebc9be2ceU, 0x3d0abe46bcdc7257U, 0x3c6f2a8e3c3f95faU, 0xbbaf5b973b989435U,
  0x3bf90364bb531330U, 0x3c14c7163baae9caU, 0xbbb727213cbdd432U, 0x3d21095f3c1ec9e2U,
  0x3c058cd03a9858e9U, 0xbcbaf4d83bb9b523U, 0xbafead15bc856106U, 0x3d053dc9baf8fa89U,
  0xbbcb1bce3c8b20c8U, 0xbc99a27b3b330c6aU, 0x3c373a31bd039fe0U, 0xbbbeb11d3c10b9bbU,
  0xbcaca5ecbc6ef5e0U, 0x3d0b667fbc979e0dU, 0x3c5cedd83c031a96U, 0xbc0f638b3baca031U,
  0x3c5abb01bc471eacU, 0x3caf575a3bbb0b39U, 0xbcd045a53cae3a98U, 0x3d253c793ba42116U,
  0x3bb34e043c94b4c4U, 0xbd02de593c6ee368U, 0xbbf8b845bd026914U, 0x3a9aaa843bb761adU,
  0xbc0ad12cbaddbdc3U, 0xbcc251b8bc0358e0U, 0x3c61938abd10fd5cU, 0x3c3233c5ba8a0f5aU,
  0xbd1758a2bd0143b7U, 0xbb75f8ddbc372813U, 0x3cc031183c21de55U, 0xbc2eceefbc82f871U,
  0xbced5a6ebd0700f5U, 0x3c93ed7bbccd9f61U, 0xbcea25e33c8cb2fcU, 0x3cbfdcc33c84118aU,
  0x3c60b015bcedf862U, 0xbc9ef4613caf79a8U, 0x3c72c0313d011bb2U, 0xba97086f3c2e59aeU,
  0xbced6bb53c7cdd8fU, 0xbc84dda3bca7709aU, 0x3b63985bbd1d0a2aU, 0x3ce0ff90bbadf03aU,
  0x3d5cb780bc302063U, 0x3cd92e89bc5bba30U, 0x3caa016f3ca76e5fU, 0x3cfa447ebc091a3aU,
  0x3c5730d2baab2270U, 0x38ed86293d20e070U, 0x3c30b2b0bcbf5a46U, 0xbcc144ea3c95a455U,
  0x3cabe3c9bc38d717U, 0xbcfa112d3c82dc1fU, 0x3bf44ba13d0c6758U, 0xbc815f0ebb9d965dU,
  0xbcc8fa3f3b8accafU, 0xbc8e4a6dbc83a6e1U, 0xbbf4fc01bca71e71U, 0x3c3ae552bbbacdebU,
  0x3d86a98c3a4df79cU, 0x3d26a6a03c2aa778U, 0x3b5f9c073c7a5fb7U, 0x3cf8c412bc9a9bf4U,
  0xbc5b689bbbfac36dU, 0xbc8b97593d0a2fbcU, 0xbb6ed6afbc33e976U, 0xbc94d0f53c9430ebU,
  0x3cbebf06bc455970U, 0xbce7f9303ccaf018U, 0x3bd43af23c81670dU, 0xbb5ff3843bf8484bU,
  0xbd2111693b4c7836U, 0xbcaaed58b99883bdU, 0xbcbd7cacbd03b0f1U, 0x3ca54718bca0f0f2U,
  0x3c9ce620bc5a899aU, 0x3c6c393fbb8b4125U, 0x3c40201b3c971572U, 0x3cb849d0bce31bf5U,
  0xbc9a8884ba967049U, 0x399e288e3c00ab7dU, 0xbca73383b9eb4f7eU, 0xbca23b3c3cbbcdc0U,
  0xbbf3deb0bc52e782U, 0xbbaa9e4ebc6c596aU, 0x3ba4abaebc776d17U, 0xbc03a343bb9342cfU,
  0x3b93a252bd04a23dU, 0x3c7978d03b812557U, 0xbd1c73a53cb7e6dcU, 0xbba0fa8abd0577e6U,
  0x3b8fa4313ba682f8U, 0x3d695ea63d1b1a15U, 0xbc152ef8b9c7756fU, 0xbcde88f5bc2a6be3U,
  0xbbff26233cb74bacU, 0xbb925e0dbd1417dcU, 0x3c4ad09c3c298294U, 0xbc890d66bc30394aU,
  0xba31f67eb9f84e08U, 0x3b981287bcf097a2U, 0x3bad0a673aab479fU, 0xbc45384f3c8ef3b3U,
  0x3c1e0bfbbc983125U, 0xbc657efb3af070cfU, 0xbbbe9fad3cce6155U, 0x3b888cd33c8016feU,
  0x3bd87db53c772f41U, 0xbc6e3e53bbd6520aU, 0xbc37cdb83bf33ba3U, 0xbba66676bb306ef8U,
  0xbc2767433cac54e2U, 0x3b788d633b2d3a88U, 0x3c74483e3c8a585fU, 0x3c90d928bbc4ff4fU,
  0xbc0e7e343b33edc0U, 0x3cab9eb3bc587f8cU, 0xb902f5abbd7a2d07U, 0xbba6dbdc3ce05447U,
  0x3c7fc2c2bcc34d2dU, 0xba4a9168bc286b01U, 0xb90521ce3c37690aU, 0x3be0bd063b89d71eU,
  0xbd1a45efbcffd0fcU, 0x3d2cb4833b800067U, 0x3c88e7443c292f1bU, 0xbcc2f3a0bc776b88U,
  0xbc195ca6bbcb1fafU, 0x3c0b2b53bd369195U, 0xbc86d85a3abcc382U, 0x3b7036473bd181f4U,
  0x3c909f35bcddc0d4U, 0xbcce8b833cd029e2U, 0xbc3e8b1fbaddd30bU, 0x3cbf48a53a281739U,
  0xbd32d0cb3cc04e9cU, 0xbcbc7125bc065542U, 0xbc95545dbd2b0426U, 0x3cf33072bd0d9ab3U,
  0xbc34a74bbc914c34U, 0x3d67c113bc0da0caU, 0x3cc3c62c3cd83ef6U, 0x3c8ffdaebca53bb7U,
  0xbc8e1490bb564618U, 0x3c2d5a9ebc1deeb5U, 0xbd44452f3c954d07U, 0x3ccc67823cb85627U,
  0x3ca103b23bb4abfaU, 0xbcd00d293b5f6db1U, 0x3bc9c9383aefca22U, 0xba69b9423b54195dU,
  0xbcc8ff643d10f8f9U, 0xbd029f5dbcdc2d16U, 0x3c7a596ebd36bdcfU, 0x3cbc63383d1595fbU,
  0xbb259cf7bc26e9dcU, 0xbaec4c69bd29fa2cU, 0x3cb9eb3a3cd3230aU, 0x3cb7cf25bcc98a47U,
  0xbcc8bcd7bbfe29c9U, 0x3c5b4dd33cd39d6bU, 0xbd11e7893c923e59U, 0x3d7d367a3c5cffc9U,
  0x3bea05a8bd19ce7dU, 0xbcf9248b3c34b6e1U, 0xbc8603e03c084754U, 0x3c73d327bc07cef8U,
  0xbc241e343c01032cU, 0xbc6f08b9bc4a1e86U, 0x3bc89ce5bcd0af35U, 0x3b34fb4f3c1ba5c7U,
  0x3b24fc343c1781f8U, 0x3d15fb2fbd0bab3aU, 0x3b936b043bd6a8f5U, 0xba9f0648bb78487bU,
  0x3c82c9043b943e9cU, 0xbc49b54d3cc17687U, 0xbd2367c33c65c302U, 0x3d631e1fba60d054U,
  0xbbf02f7c3c65fdf2U, 0xbc8142a13d56ddc9U, 0x3b1e6d57bc872991U, 0x3d0234adbb919b37U,
  0xbc93a90fbc0a1d7aU, 0x3b89549f3c5ce0e3U, 0x3d6cd126bd0c616aU, 0xbc4dd1efbd1f81e2U,
  0x3c4686203abaaac7U, 0x3d8d31813d3ed91dU, 0x3c249632bcc15678U, 0x3c615f383cfecafbU,
  0x3c9a4a0cbca8f44aU, 0x3bf4d6e2bb9e7462U, 0xbcbd7228bd313a3eU, 0xbc340a993c02ab4aU,
  0x3b37064c3d1bf0dfU, 0xbca390e33ca30ca6U, 0x3cbbec3ebcede712U, 0x3d0981803bb417e1U,
  0xbc670e1e3d08626eU, 0xbc47cbb5ba248eeaU, 0x3d9262e6bd141388U, 0xbc71884b3c09e871U,
  0xbc8e5b16bacea1edU, 0x3c93dccaba9e8419U, 0x3c8830ebbc3bf07aU, 0x3cc7006e3c8ae2a5U,
  0x3c1c01d2bcea74beU, 0x3c8e37463d0663f6U, 0xbc5f86a9bcd26ff3U, 0x3cf7f2913b9e7dfbU,
  0x3ba326bebc885a94U, 0xbcd3c6953cdb6247U, 0x3bbf3cf0bbabd7d3U, 0x3ce0d5f5bb00d45fU,
  0xbc6a227f3bdb72e2U, 0xb9f76296390bd608U, 0x3d09e91dbc17e2b9U, 0xbc654ef4bc6036ddU,
  0x3c15a89a3c2b124cU, 0x3d9fdf933c9be2e0U, 0x3c355aadbc5bda7dU, 0x3cc736ee3ca2f68fU,
  0x3cf39b803b37a44fU, 0x3b66b9bb3ce220d9U, 0xbd110b59bbe29184U, 0xbc8d2c043b109478U,
  0xbb1548f4bd0febfcU, 0xbc8cf685bc3473abU, 0xbb97356f3c63ee0dU, 0x3bd18ef4bc8db847U,
  0x3bc01abdbc910665U, 0x3c46e46e3b95df52U, 0x3c05146d3c675c28U, 0xbc18192ebb9e5753U,
  0x3d5469213c8fea19U, 0x3d0e2cb33c6a54edU, 0xbc94286fbb7072e8U, 0x3be993e03bd895beU,
  0xbb58adc13c88c674U, 0x3b67e5e33cd01429U, 0x3c8187953c7b67daU, 0x3d09303bbc3799ecU,
  0xbc3ec06cbce7239fU, 0xbc20bbc93c02e47aU, 0xbbdf3e34bc5023b3U, 0xb7adbfb2bc968c3aU,
  0x3c08b170bc577388U, 0x3c6dd68c3c5c5522U, 0x3bec95283c2dcbd5U, 0xbc980602bc8a6803U,
  0x3c9bbf853c3087cbU, 0x3d74de673c9ae990U, 0xbc927dd6bc7b358aU, 0x3b365db83c92b819U,
  0x3c6961eb3c8acee5U, 0xbc026faebaac2866U, 0xbc83eb503bc6e786U, 0x3ca0d3ebbb9f50feU,
  0xbb181cc2bba77ce3U, 0xbad86c433c8a50e6U, 0x3ba98189bc4f459fU, 0xbb6d9ed3bc28c6a1U,
  0x3b5cc38fbbc17922U, 0x3c28bc123c89c305U, 0xbc5c47b93c80009cU, 0xbc940993bd2f844eU,
  0xbc137a19b7a8e16bU, 0x3db7b40a3cd77c8bU, 0xbc173a4fbc15f44fU, 0xbb81bb793c959e28U,
  0x3ce06a013ca85ca0U, 0xbc886c29bcda7051U, 0xbc8c1920bb580a89U, 0xbcb5edbf3adc8187U,
  0x3a724375bb663b75U, 0xbbd66ddf3bccb42fU, 0xbbe68cbb3c3769c4U, 0x3cc7f5ff3aa0631eU,
  0xbbb7d8e13b5933e8U, 0xbc163c6fbc4fbcdaU, 0x3c5dade4bc4a62efU, 0x3c09e7423c936c90U,
  0x3ca7d5f63b675b94U, 0x3cabf7f7bc5318f1U, 0x3c168ebe3c9aca4aU, 0x3c120ef3bb5039ffU,
  0xbc0d02333bc49114U, 0x3bfe20e63d02de4bU, 0xbbaaa69e3a0438c3U, 0x3cd933103c1346dcU,
  0xbb92fa58bcf5a1ffU, 0xbac1fc803cbd5526U, 0xbc08d62b3c07aa4eU, 0x39561052bc2110d7U,
  0xbc4733b3bc28b23eU, 0x39ef5458bb511c0fU, 0xbb81becabbf0cb06U, 0x3b8425acbb02844dU,
  0x3d3e56993beee830U, 0x3d50cac33bafa397U, 0xbaaf36d23b863055U, 0x3b149b933c108193U,
  0x3c3a418a3cc3d85dU, 0xbc4019c03bab308eU, 0xbca8bbb0bbc213edU, 0x3b8381033c1d7939U,
  0xbc02baccbcfe60d9U, 0x3ca2f9da3c5113a8U, 0xbb554e1c3cce467fU, 0x3c85513fbcd70641U,
  0xbbe8ddacb9389253U, 0x3c3841493c7fb737U, 0x3a107e9ebc2d1d0dU, 0xbc0a9d38bca07edbU,
  0x3c3930e63c457123U, 0x3d3641f1bc9c3dd2U, 0xbc549d1dbc481019U, 0xbbea8ec53c95c1adU,
  0x3d2b1ca63c749e14U, 0xbd0369f9bc87eae2U, 0x3cadc44dbd021f97U, 0xbbcf1564bc1adf43U,
  0x39d37ba73d1222b7U, 0xbd3fb7da3cb14881U, 0xbb330a58bbce6887U, 0xbcfab88e3d02db72U,
  0xbc13e90c3936ca5bU, 0xbcc9ccb6bcd278e6U, 0x3d2663d8bccbed6aU, 0x3af0170f3ce0ce3eU,
  0x3d18f89dbc341613U, 0xbcc516803ca91106U, 0x3c9fca9f3c29c1bfU, 0x3cd89a87bbcfae65U,
  0xbcb7d311bd324940U, 0x3d03ac983ccd7d0aU, 0xbc1d1b773b8ec2baU, 0x3d0933423ca3ccc9U,
  0x3a2433b73b8e52dbU, 0xbcf61a7b3ce8cfd6U, 0xbb0c3e363c1a0a96U, 0xbc12200e3ca8cb94U,
  0xbcb09475bb2f4ce4U, 0xbcb16864bcbb1675U, 0x3b5d30dbbc89119fU, 0x3c2d76223c32b051U,
  0x3d57f7c0bb4cf34dU, 0x3c81a1843cb8bfa2U, 0x3c47f6023c5f51d3U, 0x3c982ca5bc359584U,
  0xbb53c5c5bc811d15U, 0x3c860f323c9fdbc6U, 0xbc86e7e4bcb27a89U, 0xbc5976cf3cb6ddd7U,
  0xbb707599bc5a5d2dU, 0x3d39e588bd344d8dU, 0xbc2555e93d4b0e71U, 0x3cbb455dbc138068U,
  0x3c06fb323c38d714U, 0x3bca05493b343e83U, 0xbc9e69273c49300fU, 0x3997ef1c3c7e4a7dU,
  0xbc0f0f053cf8f2caU, 0xbc2732adbd23b1c7U, 0xbc91e13e3c15d201U, 0xbd26ed73bbad9438U,
  0x3ca51d253d0252ecU, 0xbc7eec003c9fb02eU, 0x3d666d77bcc0a794U, 0xbc3affa0bcbf2640U,
  0xbbbec51b3be65823U, 0xbc5936ccbc418e83U, 0xbb61a897bc08f097U, 0xbbc3e23cbbda1310U,
  0x3c0e220eb927f9a2U, 0xbb7f42f43b54bc5cU, 0x3b4cf4c63c079bb3U, 0xbc34ef313ca8f677U,
  0x3baa1aac3c015c63U, 0xbd15311ebbfbd538U, 0xbc18b91abc2a6f19U, 0xbba804c53b427c03U,
  0xbc2bd72abc180876U, 0x3ae158483b420fa2U, 0x3baf45c73c6a6c70U, 0x3ceb04ffbbde8da1U,
  0x3aa34b623c7b2c95U, 0xbca198783cbe6623U, 0x3c998fd6bc3080f1U, 0xbcebc1613c95139bU,
  0xbbe36ef7bc3275e6U, 0xbc1ce392bb479d3aU, 0xbd0bf94b3bd3beabU, 0x3b4d1bffbc9a87ccU,
  0x3ba55fe1bc5d959fU, 0x3c16fe193d492ad7U, 0x3c1842b53bc3f23eU, 0xbb88760fbc9065dbU,
  0xbcd6c6f4bbeba9ebU, 0x3c3bea0ebcd800deU, 0xbc9976a23c9a23f1U, 0xbcce790e3c881caeU,
  0x3a638193bcb8aadfU, 0x3c4872693bed5892U, 0x3d5908a33cea177cU, 0x3da4175ab9cd240eU,
  0xbca3c93a3d0901fbU, 0xbca67a09bc08aaf1U, 0x3cdf880bbcf0afb0U, 0x3c806da13b01a4eaU,
  0x3cc3cdebbaadc7a7U, 0x3c338d5cbc8e3a66U, 0x3c240ba93c87b277U, 0x3d2af685bc970a58U,
  0x3cdff95bbc6967b7U, 0x3c28c7993d8809a7U, 0x3a8f7ef5bd826e96U, 0xbd2208f63bd17a57U,
  0xbc154528bc330aa5U, 0x3b6e92abbbdfe73dU, 0xbc9ba213bc878f29U, 0x3c485d0abc32412bU,
  0x3c1faa603b83c5d4U, 0x3bab762d3bde28adU, 0xbc167c9b3c760901U, 0xbc04a1953c1a5cecU,
  0xbc7cbdf13c743b9bU, 0xbb497c02bc94ce22U, 0xbc5db10bbc69b401U, 0xbc96faf93ba28bf0U,
  0x3be3d8573b24e1f6U, 0xbbd87012bbae2960U, 0x3c01ccd93c9ae9ccU, 0x3ca97cbebc8aaa30U,
  0x3b05ea6eba238bfcU, 0xbb1f6c143bfdefd7U, 0x3c3c5cb8bcdec3deU, 0xbbcd3bcb3c95fcdaU,
  0xbb9db2c6bb5d7b0eU, 0xbb9e55a63b49a9fbU, 0xbc7017a1ba67fafaU, 0x3ae7b1a8bc27d9c8U,
  0xbbfe32abbc48bf83U, 0x3ce5faf13c1eb925U, 0x3b368fb93ab7f9a1U, 0xbbf2bdafbbfa910eU,
  0xbc3ef6b4bc1cdd9aU, 0x3bd204aebc8c8a57U, 0xbc8cc1c73bd75d89U, 0xbc14f8523c0148a8U,
  0xba4876febab032d2U, 0x3c938629bc7dae96U, 0x3c146b5d3cd13f38U, 0x3da51120bbfc0fcbU,
  0xbb3b5f5f3d20a66eU, 0xba9f8d4b39add38aU, 0x3cf9d68cbc596e13U, 0x3b0d17603c38a1f2U,
  0xbc24090c3c6d4b00U, 0x3c07538bbd091c15U, 0x3a249b2f3c15ba7dU, 0x3abe03aa3bf14e41U,
  0x3d15cc083b22d06cU, 0xbbc585af3d5ee3d7U, 0x3cba55ddbd481f3eU, 0xbd369552bbc82f45U,
  0xbc7c44bd3c000054U, 0x3c2040f1bcbdb4e2U, 0x39e2755abcd2d30eU, 0x3cc8b767bc99cb4bU,
  0x3cfea8f13ca9523dU, 0x3bddcda33c345261U, 0x3cd367923bc73482U, 0xbc55fdeeba8e8ee4U,
  0xbcd49cee3ca69131U, 0xbcac9b4ebc547077U, 0xbc9b77f9bce07660U, 0xbc236d243ce69ba8U,
  0x3c972bd2bbf108afU, 0xbabe88a83bab7fb6U, 0x3caac77cbce6623cU, 0x3be3ab6cbcb621e6U,
  0xbc4ee3c53bdb89e8U, 0x3c076b09bc3ef611U, 0x3bed8a25bcc703d8U, 0xb9cf2ccb3ba4ee3fU,
  0x3cb1c689b9f3201cU, 0x3bf803e33c41f1f1U, 0x3c9fc50e3badfd4fU, 0xbcac6f5abc72a587U,
  0xbcee02093c1ad190U, 0x3ab9be25bbe6765cU, 0xbc1c142fbc8eedc9U, 0xbcd3a80b3c8892d0U,
  0x3c75eaf0bc6ec5c6U, 0xbbccc985bca1c612U, 0x3c67cde1bbcd2cf5U, 0x3b8d0271bc6f1eb6U,
  0xbb93f59b3b4012afU, 0x3bf66770bcc45244U, 0xbcb318d13c64a00cU, 0x3c4feac13a99cf71U,
  0x3c80eae6bb36fc1aU, 0x3c52df343c028b7bU, 0x3c4c546c3c4cc9e0U, 0xbcc0f1dcbc65adc5U,
  0xbc4658d23c9d06d9U, 0xbb1fd58fbce4149bU, 0xbc3af8d9bc9c306cU, 0xbccb08333caf7cfbU,
  0x3cc9d5423c15a605U, 0xbc25a33fbb49e59aU, 0x3cb92ec9bb870726U, 0x3bb33383bb94ef04U,
  0x3c8c5378bad7d4b5U, 0xba94d5953c9d6bcaU, 0x3cf2d16e3c56de37U, 0x3c6cc7bf3c5e36f6U,
  0xbcbf203b3c08c1d2U, 0xbccb18f8bc294617U, 0x3b092d73bcbacd6bU, 0x3cc6a6bebca47e7fU,
  0xbb355292bc9d3fe4U, 0x3d34d1553c8b669bU, 0x3c9c09c33cbe1cb8U, 0xbb1dda38bd04c149U,
  0xba6de66ebc1526ecU, 0x3cb7ee27bbad7257U, 0x3b28efc8bc4be7e5U, 0x3cd79e7b3cbc5120U,
  0x3ac2d56a3c1d0353U, 0xbb20a7823ce1ba6cU, 0x3c7b6838bc2fb75fU, 0xbc73cce23cc74e3eU,
  0xbc1c357bbca4d1d6U, 0xbc7eb553bc765e5bU, 0xbba5ebedbbdb0cc9U, 0x3cbdf7f3bc678a53U,
  0x3c06ead1bc98a2d5U, 0x3ca887e53d220c5eU, 0x3c8fb0ea3c775992U, 0x3bc3977ebce2e976U,
  0xbcabee87bcc105e7U, 0x3d0332fcbc8a66fcU, 0xbc39314cba243a84U, 0x3bb171b63ca2da52U,
  0x3bf562143d2135ddU, 0xbc9a855c3d03f050U, 0x3d20d099bcf50cb4U, 0xbc2f58b03d04e95cU,
  0xbc18d5cd3c08494eU, 0xbcf79545bccf29f7U, 0x3cc43cacbccd7fd8U, 0x3cc484363be7e268U,
  0x3bdb276dbcdd2a49U, 0xba8b6a283ce769daU, 0x3cc817883c9591d2U, 0x3cf300cabcf5adeeU,
  0xbca39cfbbd1852afU, 0x3d1c1fa83c4bd7f3U, 0xbbfcd744bcc3e5eeU, 0xbc87752b3cc3913cU,
  0x3ab63dcd3cb8cf82U, 0x3b27c3f83c919e44U, 0x3a80f3e5bcadb7aaU, 0x3ca63f663b4d4a12U,
  0xbc32ea773c0c90b7U, 0xbc611c4bbc12654aU, 0x3d13537dbcc92232U, 0x3bbebde23c0cfceaU,
  0xbcef507ebc2e4cc1U, 0x3b19ce28bcadf56bU, 0x3c7664703b682433U, 0xbc6071773bcc93ceU,
  0x3b8e065abc760126U, 0x3c6a41db3b2ef321U, 0x3b5611b8bc074e9bU, 0x3d20e3003bc7f6b5U,
  0xbac33bb33ca7ab61U, 0x3a4151143c7f6215U, 0x3c42e85bbcbb4cedU, 0xbbc501ca3c8a107eU,
  0xbb953891bc2dde6eU, 0xbb390855bbac332eU, 0x3c9538e8bc33688fU, 0x3ba8d3093c17f2a2U,
  0xbc54a0f4bc9cb166U, 0x3c5cf3023c254ebbU, 0x3c801d343bd4126bU, 0x3c1c45efbb8786bcU,
  0xbbd4ee1ebc61973eU, 0x3cc29127ba98ea49U, 0xbbd8f83abae92950U, 0xbbab67103c604641U,
  0xbbb310aa3cf177c1U, 0x3c8b9b2a3bb6c852U, 0x3945b73bbcd8f612U, 0x3c26d8b63c0fbc36U,
  0x3c1ca2f5bb3b6e22U, 0x3bb6e540ba8ce95fU, 0x3c364c3ebb8bd6c2U, 0xbbddb83b3c2145e0U,
  0xbd0fb892bc69da05U, 0xbafe1723bc377268U, 0x3b4b71ebbc605441U, 0xbcafbfeb3c1867e5U,
  0xba40d07f3b147e69U, 0xbb586b7abbe7c0eeU, 0x38b623ccbc952ebdU, 0xbc85e8b7bb3e857cU,
  0xbc38cd0eb9018211U, 0x3aa26c953b2f18e6U, 0xbae19e7dbca88919U, 0x3a7efb93bc2d6d10U,
  0x3a7e3f743c14d51aU, 0x3b823d923c0baddaU, 0xbc475e32bbab0872U, 0xbb5c9405baaa39c5U,
  0xbba07decbb1be6bfU, 0x3cf846fabc1f1bc4U, 0xbc030fbbbbe8aea5U, 0xbc1c40493cb4e736U,
  0x3cb008b23cb5765bU, 0xbd05aafabc686f4dU, 0xbc29cba4bc44bdf7U, 0xbca4ad3dba0a7360U,
  0xbc1a42d13bb45c98U, 0x3c4b44c8bb45e956U, 0x3c3074a5bb207eb6U, 0xbc09f54d3b26173dU,
  0x3c9024733b88a377U, 0x3c3caac83b762feeU, 0xbc76d4203c2230f9U, 0xbb166cd73afa58eaU,
  0x3a899bf4bbceaad7U, 0x3c1ccc4dbb16bcfaU, 0xbc097114bc8116feU, 0x3c34a98f3baa0e0dU,
  0x3b9977093b2d5f0dU, 0xbc8192f3bc7ab49aU, 0xbbd77ba9bc15ef93U, 0xbd82a593bc00e1ddU,
  0xbc860b2ebcc94153U, 0xbbc62a8abbbf7ecdU, 0xbc8ca33fbc225d9cU, 0xbcb5a139bc4f633bU,
  0x3c83d9c5bc8adbf9U, 0x3c805deb3c6089f0U, 0xbd1ab2553cfc3249U, 0xbca3c07fbc10663fU,
  0x3c7820e53b23a297U, 0x3cb8afe83be9b300U, 0xbcdad9e4bc42d786U, 0xbc9f01333cca426dU,
  0x3c0160c53ccca85eU, 0xbd06fbf4bcc134fcU, 0xbccbbdfc3aee5dc7U, 0xbd8dcdc9bc087b0aU,
  0x3cec44503ccb9e70U, 0xbc5e7fa03d15aeabU, 0x3d015c05bc5b6e93U, 0xbccbf4893d41ac63U,
  0xbd2641e63a09d025U, 0xbc7ad4c7bcc2e5f4U, 0x3bbea60cbd1b76b2U, 0x3d2e95d0b98815eeU,
  0xbb96070ebd42fcc1U, 0x3bbb18073d63c2c3U, 0x3d24e0ec3d3063e5U, 0x3c903496bd34ba86U,
  0xbc9e9e5bbc3d14d0U, 0x3d0dee69bd037d59U, 0xbd015c35bcb766e9U, 0xbc3444c43d39bec3U,
  0xbae50f423cc36abeU, 0xbc92e26bbbe077a6U, 0xbce1047cbbe4f2e5U, 0xbcdeb6783cae64cbU,
  0x3c00a2f8bd0d4499U, 0xb9e55e6c3c3aca47U, 0xba7038e1bb03609cU, 0xbc6d343eba4d8707U,
  0xbd192adcbc64faddU, 0xbc9b85c2bc3fec08U, 0x3c4e3ee7bae8353dU, 0xbc07bdfb3cddf16aU,
  0xbca78a523c46ce90U, 0x3c5b8a90bcc00a6fU, 0xbc8f508c3d2a93a4U, 0x3d5eb4e93ca3ffe7U,
  0x3c9e8a913c0e2b0eU, 0x3d151c4ebc78f7baU, 0x3bb8fd4d3ca47958U, 0x3ce7e5883c22bfb7U,
  0xbca3624a3c3a3f31U, 0x3c5ab5c5bcb6ca56U, 0xbd052122bc79ae27U, 0x3d1e5576bb82ff28U,
  0xba1cae2a3c42b8ddU, 0x3b42c735bd28fe23U, 0xba73c1f93cdf4669U, 0xbc0f2f3bbcbcf90eU,
  0x3cb5a0723d192633U, 0xbcf4d889bae58dedU, 0x3d0c0a31bced36cfU, 0xbd1a144c3b73fe4bU,
  0x3d0181e83d17d121U, 0x3ceb6b3cbb4611bbU, 0x3d216a8c3d15dc4bU, 0x3cd76e9a3d304c2eU,
  0xbd0a3e6e3d434035U, 0xbd2d4d5fbd5e771aU, 0x3c15316bbd51ef81U, 0x3d6f215a3d6be7f9U,
  0xbb16efcabbe0d452U, 0xbc0b1331bc8cf7aeU, 0x3ce5b9c33d4ef464U, 0x3c95bacebd21c5b4U,
  0xbcb4cb0ebc27e8a3U, 0x3d17d3323d4e85caU, 0x3b5a0914bd4cb165U, 0xbb0e42e23c8284edU,
  0x3ba120dabc1235a4U, 0xbca23fc8bd29a033U, 0xbb687dd4bc88a0ffU, 0x3c1ffa12bb5708baU,
  0x3d12e588bcba7089U, 0x3c857b543cfa9f3eU, 0x3cb41ae23caec2f3U, 0xbcfbda4fbc8ed0deU,
  0xbb9bd7003cc9623cU, 0xbcc733e7bc42e006U, 0xbcf918d6bca38bb3U, 0xbc0d0e563c04a59aU,
  0xbbcbe68fbc69d20bU, 0x390ba2a73c1b5e2aU, 0x3be7a3803cfe7f24U, 0x3d50b5bf3be248efU,
  0xbced71f4bd084ec3U, 0x3c8d81013c2c11e3U, 0x3c036d5d3d2a8d5aU, 0x3d2bfea0bd695a61U,
  0x3c5bd30dbbce6dc9U, 0x3ba67a7b3be6419dU, 0xbad9cf6f3c6fcbf6U, 0xbd0639aabc60a896U,
  0x3c8648fc3d184cbaU, 0x3cbcde19ba123436U, 0xbb086b72bd3985cfU, 0xbc49592a3d194202U,
  0x3d3be54e3d77341cU, 0xbd2280323cf1f86cU, 0x3d0b3c13bcd5646bU, 0x3b9bd573bcfc10d4U,
  0x3d1c85f83d7a685dU, 0xbc451ed53d0d97caU, 0x3d315eba3b9427e6U, 0xbc2ee9523d6ad7b9U,
  0xbd6362213d6ea6a6U, 0xbd2e3796bd5addd4U, 0xbb9d6a5ebd0c80ccU, 0x3d31a2f13c8a2f10U,
  0xbc2421adbd346986U, 0x3cdf43973d36d016U, 0x3d7286843d37a182U, 0x3d133ee3bcf787c2U,
  0xbcb9cfcebc1d0d85U, 0x3c56e49f3c6d05b8U, 0xbd3cf873bd0aa48bU, 0xbda72ce23d2610f5U,
  0xbcbe11b5b9ef0e9fU, 0x3bad6243bc284d4aU, 0xbd0987f439e15350U, 0xbb8859a23bb3f0caU,
  0x3b2215c7bc8b3cfcU, 0x3c8a7db03cc5930bU, 0x3b8009223c816854U, 0xbba05416bab73566U,
  0x3c1caa07bbd85275U, 0xbc7acb18bcaf23c6U, 0xbc599fe6bc8ea522U, 0xbc251a9a3be48fa4U,
  0xbc7abaf43c009588U, 0xbc552a7abb95d77aU, 0x3c35ce7b3cb5c2f1U, 0x3c9a1080bc5ebf51U,
  0xbcf09d4f3c4f13f8U, 0x3c6789b53c67f661U, 0xbba848403c814c8eU, 0xbb93f812bca10fb5U,
  0xbc8051343c8f284dU, 0x3c652f0b3c77f8e6U, 0x3c5a2eba3c55f860U, 0xbca5d0f8bcaebb12U,
  0x3c0dee20bbb4e0e1U, 0x3cf72f943cef3caeU, 0xbd0785dcbcfb2f61U, 0xbcefb3873d0d77f9U,
  0x3c5bfe313ca59b5cU, 0xbd21248dbcb8058aU, 0x3d079cfabd1b8713U, 0xbcd9cf23395faa4cU,
  0x3c679c243ced32a9U, 0xbc9a74fd3cc03315U, 0x3c4730c63bea3c48U, 0x3c3486d13cf695fbU,
  0xbc8f64993b9c5b2fU, 0xbd05e1e0bd047f7eU, 0x3c902c88bd025a3dU, 0x3d02d3b53d2103b7U,
  0x3c9d00c3bcc9a35bU, 0xbbe5565abb90a023U, 0x3cf38a213cd9bf3eU, 0x3d001105bd1698c2U,
  0xbc87a163bccf3870U, 0x3ce9b25d3c655f22U, 0xbc6464ffbc9241cfU, 0x3c41c3663cb6a7f2U,
  0x3bc6888d3d121508U, 0xbb275fc83cc63d14U, 0x3c3d646fbcdbffbdU, 0x3b8003603cd1ed15U,
  0xbb85beb63a14ab3eU, 0xbc822a28bc2ab896U, 0xbaf09355bc8f3511U, 0x3c2415ea3b9fc3c6U,
  0xbcd48dbebceb5f07U, 0xbc3aca773bdd00faU, 0x3cb0e3c83bf7a80bU, 0x3c136c4ebb9b5f62U,
  0xbc86697abc8279e9U, 0x3cc7cecdbcb7b584U, 0xbcc4da8bbcb0e2c2U, 0xbcdaf0ef3c7ea25aU,
  0x3c9988e03d8997b7U, 0xbcc74c393cb530deU, 0x3cc07734bd835fd5U, 0xbc6692943d38787dU,
  0xbb3185493c57b9daU, 0xbcf0152bbcaeacc6U, 0x3c00ed7cbcbaca33U, 0x3c3f7e293ca01291U,
  0xbd263994bd26e0d4U, 0xbd07eb723c33a466U, 0x3cfa52c23c3c3a81U, 0x3c4d7f8abc4e116cU,
  0xbcddee12bd46f1d1U, 0x3cb402f6bd19617fU, 0xbd1503263c119f3dU, 0xba9049e63d059ad9U,
  0xbbc7d7723bfd9d24U, 0xbba668653c401231U, 0x3bd1d70cbb9ddfb5U, 0x3cf4ad87bc28a4b6U,
  0xbb9d54ff3cf8218eU, 0xbcc34723bc8ef8a4U, 0x3d190eb3bd092a9cU, 0x3c449eec3d027f1eU,
  0xbcf75e073c0ac531U, 0xbc048976bcd3103dU, 0xba9efaa13c5cb1daU, 0x3c8cbf40bc51a61eU,
  0x3ba99c98bc23bb74U, 0x3cc0fb1b3ce50e2bU, 0xbc2e669abd14612cU, 0x3d02ed8aba8b5e00U,
  0xbc5b0cd83adb00f6U, 0xbc1d89d73b59d6aeU, 0x3c358de5bc00a2dcU, 0xbbe423ebb91b4927U,
  0x3bbfe485bbafc88dU, 0x3bfbf4543b4cf3d8U, 0xbb83e1a5bbbb1654U, 0xbc8b362c3b91bbdaU,
  0xbcba2688ba7b3d51U, 0xbc19ba113acf1c61U, 0x3a864ca33bb70dfaU, 0xbc9d97a83b5371eeU,
  0x3c1bba04bc0f7fe8U, 0x3c0751b8bbb64681U, 0x3a14cdb4bbda6570U, 0x3ca6f15abc81e8dfU,
  0xbc2fb5b43b9c1765U, 0xbc942e0fbc366a72U, 0xbbfeefd03c43d7baU, 0xbcc87fc1bc3c479bU,
  0x3c450f6dbc62f1ebU, 0xbc2f47263b9327e1U, 0xbc0ad888bb83253dU, 0xbc7df94ebbfeb8ffU,
  0x3bb2534c3caaf0b2U, 0xbbcc1a54bae8524eU, 0xbb9b06e4bbfc7833U, 0xbcecce293baecae2U,
  0x3b93018d3b16db13U, 0x3c4f78f6bc6132d2U, 0x3ba7ada63cbd9a2dU, 0x3d322c6fbbc0f1e4U,
  0xbc054effbc89f335U, 0xba18d20ebc5d4ba6U, 0x3c2c25ea3cb71982U, 0x3d45bc92ba88eff3U,
  0x3a4e877c3c85c274U, 0xbc5ca1173c2fa8b4U, 0x3c4621fdbc9a36b0U, 0x3b40d9253c8b312bU,
  0x3b979ec73c7f6672U, 0x3c9f6c29bd5b476bU, 0x3ba2b0233c0e8f7cU, 0xbb62651f3c87829aU,
  0x3d1d50173baa8ddcU, 0x3bb272cf3d0c2ba3U, 0x3a378f04bccc7c1eU, 0x3c2e21e8bcab08dcU,
  0xbb5e1251bc32c355U, 0xbc53906ebcd0f198U, 0xbc4ddb84bbbbaebdU, 0xbc36a788bcfc6b48U,
  0x3c9c7211bbb68621U, 0x3c87ff6a3cb6fe96U, 0xbc936bf33bfcf313U, 0xbc9d832e3b54593dU,
  0x3c5ce2c33c8c5cafU, 0xbcaaed7fbc3768eeU, 0xbcdbe433bcc248feU, 0xbc6d248a3c1cb10aU,
  0xbae843fdba9fda82U, 0xbc331064bc2ed070U, 0xbbb520d73caf045aU, 0x3ca25fcfbc8105dcU,
  0xbc7f6e0ebbf2ae89U, 0xbc6bcb28bd096bd4U, 0x3ad086f5bc5be11fU, 0xbb8f687cbb4cd845U,
  0x3d03be9a3c0cfc54U, 0x3c9d4a2d3ce12d4bU, 0xba33f4303bdf843fU, 0xbc97a5fd3c5655f6U,
  0x3c54e1623cafa6a9U, 0xbca3943bbcd6b6dcU, 0xbcdf8de5bbcac536U, 0xbcc4cd9c3cb445f2U,
  0x3c74935139d9d733U, 0xbcf0b2b1bc99dd82U, 0x3c9861fa3a340d13U, 0x3c99e05dbcfb38f6U,
  0xbc485b23bd10e9fbU, 0x3caf3336bd1b11d5U, 0xbbfefc633b089fdeU, 0x3c94c891bcedb386U,
  0x3c969d4ebc4fa39eU, 0x3be83b9b3d002027U, 0xbcde90bc3cf4016eU, 0xbc8bf7a3bd63670dU,
  0xbcd26b7d3ca2a20bU, 0x3d6dd1b1bc9c4b1fU, 0xbcf0c897bcae4c99U, 0xbd333be9bc9c50b3U,
  0x3c3bdff43cb2336bU, 0xbb64311ebcc8f781U, 0x3d1224ae3c664faaU, 0x3a82611ebc4ca8f4U,
  0xba1203c43a56df2cU, 0xbbd92cb5bb22508bU, 0xbc7cc5bfbb9aee8dU, 0xbd1224b53b98a225U,
  0x3aa1cc86bc58c419U, 0x3bb6d3f4bb9bc301U, 0x3b31184b3b8a2ff8U, 0x3b7c5d98bc550c50U,
  0xbbc33bd3bbb1bdedU, 0xbcbd86313c708d9cU, 0xb923cb9ebba86b0fU, 0xbc94fbc2ba7ffeddU,
  0xbc6ba391bc12d785U, 0x3cbea16bbca9f66eU, 0xbbbca09f3cc34642U, 0x3d09ef1abb54d87cU,
  0x3c85ce413d15d1b5U, 0xbad6c8e53c9b2d89U, 0x3c9debe5bc7d1f58U, 0x3c1e07be3d2009e8U,
  0xbcee834c3ca3dddeU, 0xbccaf6e9bd076d5cU, 0x3ce31684bcee8282U, 0x3d3232a93d0500e7U,
  0xbce01aa7bd2d6791U, 0x3bab209fb992cfa0U, 0x3d29167d3cd022fcU, 0x3cd23931bd1d6c60U,
  0xbca6fa30bcbb0f64U, 0x3d1898fc3b533d59U, 0xbcd03b1abc84f6feU, 0xbc2a34c33d03c869U,
  0x3b9569f3bbec5adeU, 0x3d030b56bcfc6173U, 0xbc30d9a13d12bad3U, 0xba616f38bc8a3dd1U,
  0xbc8a33973bd2b215U, 0xbb91d9c83b974168U, 0xbd063a7c3bb99dc6U, 0x3c0c32eebc2eeedfU,
  0x3b6ac0823b8e8b70U, 0x3b62174fbcd0b3acU, 0xbc5976943b88f9eaU, 0xbd1e9e02bc1ef041U,
  0xb9e0f26d3cd03709U, 0xbc7543d4bcba6925U, 0x3c93b8f83c58ed3bU, 0xbc18a909bcc5042eU,
  0x3b56f25d3cd6ece0U, 0x3c820799bcbdcd93U, 0xbbbc1ecfbce7c485U, 0xbcbcc08b3c73c89bU,
  0xbaa45b643baf36bdU, 0xbbbc72ea3a0850b6U, 0xbb94beb53c0af985U, 0x3b6ab01a3a602594U,
  0xbc234f81bc56d86bU, 0xbbcea4cfbcf45513U, 0x3bebabb63c4c307eU, 0xbc16c7aabc048a55U,
  0xbc9a5013bc0c4b02U, 0x3bc8a4d8bd09ba6eU, 0x3b1da6603c8354bfU, 0x3cddb44a3b8567b5U,
  0x3c0c12233cb58c33U, 0x3b85d1613bc6ba0dU, 0x3c9961f6bd09c45cU, 0x3c1303553d04c9a2U,
  0xbc9102d93cbcd393U, 0xbcb19e74bc970604U, 0x3d301055bcde757aU, 0x3cd16c8c3cf9fa61U,
  0xbcdd87b4bd043d6dU, 0xbbc10693bc5c47b9U, 0x3cfc44463c80b8fdU, 0x3cf74699bcb0412bU,
  0xbbebbe0ebd0c1ed5U, 0x3cd8ffaf3c60cc96U, 0xbcbd1ef5b7b25656U, 0x3c68147a3c916f1eU,
  0x3c69963f3b9a5f6bU, 0xbb6dbc9e3c0e5320U, 0x3cab1afb3c50892dU, 0xbcc91e993cb047eaU,
  0xbc1ad0c53bbdafb2U, 0xbc39f22fbc899f5aU, 0xbd42f2f03c7596d7U, 0x3c9e09a2bcfba229U,
  0x3cbcb0f9bcbc9027U, 0x3c7a85613d25a137U, 0x3c3e53143caa4280U, 0x3bd06994bcf6df15U,
  0xbc4f2d353c0e32acU, 0xbc177e0abcdaae56U, 0xbc4cc517bc054bc4U, 0xbd6b38f03ca91915U,
  0x3c47c9a83bd6dfc7U, 0x3c19bb8cbb98c543U, 0x3d0dbd61bb0aa35dU, 0x3be91e9f3ca5416bU,
  0xbc9616ef3c4ef59bU, 0xbc8c5381bc3bce73U, 0xbc2f54fabc35a67aU, 0x3cab17aebcc6f07fU,
  0x3bf3667dbcb2f443U, 0x3c0cee213bc48b57U, 0x3cb2c4cc3ce2efb1U, 0xbba048a1bcf65122U,
  0xba9e19863aac5498U, 0xba762eddbb9b9a02U, 0xbc4443bebcbe991eU, 0xbd3f29673c8d34a3U,
  0x3be0e0773ca96d5cU, 0x3bdb899cbcddd4aaU, 0x3c88a817bce3fdeeU, 0x3c2f54963cb01839U,
  0xbc33bf8a3cfd29edU, 0xbc8d0053bc96ff53U, 0x3bca8318bc37d3f4U, 0x3cb2e8553c8f9881U,
  0xbca0321dbc6f3077U, 0xbcbd4b86bccb1974U, 0x3c66a4d13cb83864U, 0xbba73471bcc3e99aU,
  0xbc52d7a9bc38d714U, 0x3c6f77c53c88ef56U, 0xbb454550b9c1df39U, 0x3bc7e4003c0ba422U,
  0xbb95d83f3c621c46U, 0xbccdb3ca3c34cbc5U, 0x3cd3ff233c8a1c3dU, 0x3c54ac323c7a7995U,
  0xbb5d57ee3c8c7b31U, 0xbc7d7096bc5988a2U, 0x3d16f412bd460ea6U, 0x3c405da93d0ca48dU,
  0x3c4c3290bbe28a5aU, 0xbccb7a4bbc87e8fbU, 0x3c5914ab3ca6f8eaU, 0x3ca22497bb49b9fdU,
  0xbacbc1b0bc730925U, 0x3ccdb18a3d331895U, 0xbc964833bd081e94U, 0x3c0244653c0192b6U,
  0xbb6593983cd18b5fU, 0xbcdd6067bbf8799cU, 0x3bc025c7bcfcdd4eU, 0xbc353ac33c7b0486U,
  0x3bb3e4053ca4da51U, 0xbc61ec06bc0f3fb1U, 0x3cb18d5bbcabc689U, 0x3c0b582f3d07ffe2U,
  0xbcbe32f3bc9ec958U, 0x3baaa109bc93e80eU, 0x3c183fb83bdeb1f9U, 0x3b10b1563aca6555U,
  0xbc78ee26bcbff280U, 0x3c8484473b539fc4U, 0xbd19eb513beb82c3U, 0x3d3484f3b988970aU,
  0x3cbbcfb93ca5a5ffU, 0xbd4244a33c970044U, 0xbbfa118c3cdfedf3U, 0xbce0bc4a3bdef2c9U,
  0xbca13ceb3c4aaf7cU, 0xbc20e237bc68c26bU, 0x3cc9cea9bcf58a7bU, 0xbb686d8b3c4d6620U,
  0x3c00f86abc836718U, 0x3ce109773af15847U, 0x3c83f2b93bda0bf8U, 0x3d17dd16bb9e6775U,
  0xbc520145bc88b2d4U, 0x3c8fbc593d1daceeU, 0xbc93f3bf3ce66bb5U, 0x3cb8a84f3c44406eU,
  0x3c8ae0573c2729f5U, 0xbc0806eb3a34abf7U, 0x3c93b4b63c7600f3U, 0xbb4908c73c9c5dbeU,
  0xbc7201473be97e1fU, 0xbc812c45bbf063bdU, 0xbb5aadd5bcdec5cfU, 0x3c7e53863c272545U,
  0x3c6806e8bbfe9bb4U, 0x3c497ee5bca04845U, 0x3c2f30a23cbbe755U, 0xbc80c3a7bc79a648U,
  0xbbdbf5603be17d74U, 0x3c5fc7693c836765U, 0xbc83a8b7bc8392ffU, 0x3cb8894c3c18e1a6U,
  0x3c3f0460bd1b6675U, 0xbbd4898d3c22b5fbU, 0xbc8d34fd3c2fb138U, 0x3ca82906bc080c9fU,
  0xbc4e3e1bbbc47f17U, 0xbc39f6b03ab10fdaU, 0xbcd4b7febc2c930aU, 0x3b33de79bca9a3f2U,
  0xbc23f716bbe79c66U, 0x3d7c4c75bbb3cf3fU, 0xbaf691953b95a21cU, 0xbca04fe1bc0a9a48U,
  0x3c38173d3b510533U, 0x3b911f11bca645daU, 0xbca9e69e3c232e05U, 0x3d0ce48bba936727U,
  0x3c968ced3c3dd59fU, 0xbcbff3163c27202aU, 0xbc0e93643c7fdb1cU, 0xbc89d3263c59a14fU,
  0xbc95fec93b8d3ed6U, 0xbcbfa7f1bc299350U, 0x3b571736bcc00bfcU, 0x3baa17bcbb36a225U,
  0xbd0690dabcd47becU, 0x3c2548cfbc3232ecU, 0x3c864a733c967afcU, 0xbb94980ebca087faU,
  0xbcfb352ebbd7e119U, 0x3cac5889bb8bc036U, 0x3b194dbd3d05c7a2U, 0x3d1c7ea93c9274e8U,
  0x3b987d033c97ab2aU, 0xbcbdf5783d155d2bU, 0x3cf83353bbf08723U, 0x3bb894e73cd8996aU,
  0xbbf10d8b3c82b933U, 0xbc1f1e54bcb37257U, 0x3d5a79b6bd31d064U, 0x3c86d85b3d0b0d6fU,
  0x3c781bacbcc9d093U, 0xbca003413af2e8e3U, 0x3cbdf1db3c04c45fU, 0x3d0c01e3bb96a224U,
  0xbbf9c0ffbcccd641U, 0x3cc5745e3cfd4c5cU, 0xbc331c7fbd1929c4U, 0xbc6941d33c8b52f3U,
  0x3bd86e83bbd87efcU, 0xbd0acb453ca4e593U, 0x3b2ab80d3c9ecd22U, 0xbbf2677bb94702b1U,
  0x3b4e812d3ccf79e3U, 0xbc790683bc60247dU, 0x3c0d646cbcd9d505U, 0xbb441f2b3c17112dU,
  0x3bc3cef03b88df07U, 0x3d1fdd4cbbfe1bb3U, 0xbbc586f5bb3e5c49U, 0x3ac6cfacbbca19f4U,
  0xbc481781bce8cdf7U, 0xba40ce783ccf50bbU, 0x3c221cbdbc5fbc5dU, 0x3b2f502ebc03a3b0U,
  0x3c44a9043cd1325eU, 0xbd1fab673d2b989cU, 0x3ca7e019bcb2be5fU, 0xbc4d61153cd67bf9U,
  0xbc8e7e683ca16f8eU, 0xbccbfe08bc64453bU, 0x3c6dcc3fbd5b9592U, 0x3c8185413a43cd3bU,
  0xbce1b2e3bd0efe62U, 0x3c936a6a3c6dea79U, 0x3cb79f743c07674fU, 0x3ce92efabcd30081U,
  0xbbadaeaebd25f948U, 0x3c85179fba803fadU, 0xbcf46707bc3cdf12U, 0xbcef734d3c9110efU,
  0x3d85c7a23d65a681U, 0x3ce0948b3cf11234U, 0x3d6ab57e3bba7757U, 0x3d0fd2093d962f53U,
  0xbda70ff13d3a2237U, 0xbd9495aebd6b09d3U, 0xbce200f8bcbc61cbU, 0x3df5a8843c5027eeU,
  0x3cf0a899bd752e90U, 0x3d1a9268bcb5ab5bU, 0x3dacdd823dade0d9U, 0xbd2bd01ebde38e70U,
  0xbd37bc5f3c85f164U, 0x3d04bdc73bdb9de2U, 0xbd5378a9bc8f4ecaU, 0xbc8d2b313d8d3a3cU,
  0x3bb3f6b7bcbe479fU, 0x3d77eb1cbd3d5c8eU, 0xbc0b409b3d1ba69fU, 0x3d88b0063b253d5eU,
  0xbd2919c43cbbf029U, 0xbc2d5734bcf6fbbbU, 0xbc14e61c3ba1836dU, 0x3cefa00d3cc10712U,
  0xbc59e6983bd62140U, 0xb9ef525fbdae61e0U, 0xbae46b743cf93165U, 0xbd0a0846bd4fba2eU,
  0x3c29166d3be34a6aU, 0x3c2e921c3d23b676U, 0x3d98fa93bd46a861U, 0xbca680c7bcad59d0U,
  0xbbb29e4aba9ec5ddU, 0xbce28d1dbdbba9cdU, 0xbd9b155dbc145212U, 0xbcd82a38bbb0d66fU,
  0x3d0d715bbd0099feU, 0x3ca45c623bdbb47eU, 0x3b5ff0fe3c89bac1U, 0xbd0d60c63d3fca82U,
  0xbc9b5f4d3cce41a8U, 0x3d44c0ab3c5a2256U, 0xbd2478433b6d164aU, 0x3ccaec503d08c70cU,
  0xbb9b08603c949220U, 0x3c4d5eb5bc9346feU, 0x3be2923e3d74a237U, 0x3d82287cbd1a235aU,
  0xbb40867ebda9f2ecU, 0xbc22e7a03bb24ff6U, 0xbccdaf2ab912bc0eU, 0x3d8d2844bd528b30U,
  0xbcd08cb5bd392ff6U, 0x3ce69e6d3da4dab4U, 0xbd7fa3c33d289fb6U, 0x3bef719dbd6b98e0U,
  0x3b13ec163d9518bdU, 0x3e4f7a693c9e7960U, 0xbd1742f7bc3fd32eU, 0xbcbab53a3d75b9d2U,
  0x3da12c9a3db2b97fU, 0xbdcc2674bd4d8e4aU, 0xbce38fc0bcb50eb6U, 0xbd18b1e8bbee39d5U,
  0x3b322c52bb37de62U, 0x3c6e4680bc19f4f2U, 0x3c65e15d3cd4ed80U, 0xbd4fc5e5bb305d10U,
  0xbcfe879fbd15807aU, 0x3c53d33e3d0bfcacU, 0xbd1413f33bd4c2d9U, 0xbcae0d6dbd45109eU,
  0x3be025913cb752b7U, 0x3bc4869b3cc43c3aU, 0xbb43c6633bb3cdaaU, 0x3c2d2ae1bc4f368dU,
  0xbd1427edbbc7b74aU, 0x3c94c646bc21f2edU, 0x3d4fff683c1f4886U, 0x3be983aa3c9dce6bU,
  0x3c004a373d2f579eU, 0xbd8a6bd0bcf14e0bU, 0x3d7079cabd39003eU, 0xbd8f44f63d2b65ecU,
  0x3c28e7a53c1d9380U, 0xbd32f583bc8f3a1dU, 0xb9ed70983d34859aU, 0x3c39c4fa3c1d9081U,
  0xbc960f47bd324257U, 0xbdac0ba83d7473f1U, 0x3cbc95933c80cdf7U, 0x3c113bdcbd34b522U,
  0xbda0a1f1bd78b9b3U, 0x3d9b2156bb53d588U, 0xbd22cc233d6dbfc5U, 0x3ce087ff3c974bd3U,
  0xbacd03fabd9e3983U, 0x3d4f58513cdcbdcfU, 0x3ca7a2153dec674aU, 0x3cc93106ba9875ddU,
  0xbd5e89ec3bbef85eU, 0x3c8acca73c1a26b4U, 0xbdb0dfc73d2db986U, 0x3d067ed4bdcf725aU,
  0x3d4362853cf6cb93U, 0x3e542dd13d308bb1U, 0x3b7c0df33d8da2e0U, 0xbcfde54fbcc1c9a2U,
  0x3cc390293dad72afU, 0xbc925dd7bd1fd3f2U, 0x3d0e4f40bcd8e765U, 0xbdb26ae83bb107a1U,
  0xbb973a81bc162df5U, 0x3d5383a4bbe0a3abU, 0x3cbf30463ca62979U, 0x3cf1ffd73b7d9549U,
  0xbd2d26c23a91dd1cU, 0xb9b55296bc8108f4U, 0xbc6772cdbd3179e0U, 0x3d8c34943ce5e594U,
  0x39a2ba17bc469409U, 0x3c5e9a7ebd3c0ae9U, 0x3af263c73d047a23U, 0x3b892f53bd780bfdU,
  0x3b39caaa3c04c3fdU, 0x39fbf313bb61c075U, 0x3d342791bd5c0c38U, 0xbad07d963d008b51U,
  0xbc7925423dc599efU, 0x3c3ddfe1bc685595U, 0xbd08b80bbdcf4e40U, 0xbd4e7d7d3cfb4436U,
  0x3d4148dbbbced472U, 0xbbc9fe1bbc158d07U, 0x3d57f9dd3c8dc95fU, 0xbc145bb63cf892f7U,
  0xbd76072b3bacb1bcU, 0xbdcb7d48bbfb5b3dU, 0x3c451c3b3c7a9a9aU, 0xbd01fcfebc6f03fbU,
  0xbd7b0be0bd933451U, 0x3d661361bd320bcaU, 0xbbfbac323d2b6bfeU, 0x3db45f49bc89cf51U,
  0x3a4d28073d4de3c7U, 0x3b67c286bc9ceebaU, 0x3c48463dbd246e02U, 0x3c85a833bbe9e430U,
  0x3c8643e5bbb6697eU, 0xbc29ae753c64b1f4U, 0x3d1eccacbaaedafcU, 0x3b5a12163c2936fbU,
  0xbd906c29bca48f7aU, 0xbb2f4b9cbc1a0dffU, 0xba4e9825bbc88a58U, 0xbc0f132a3bd79a11U,
  0xbc740b6cbbe4e5d6U, 0xba40a829bc42ae4eU, 0xbcab120bbb88a932U, 0xbb00a08d3c8140ceU,
  0x3c22e7e73c378ff3U, 0x3c31d69f3c837c3aU, 0x3cd75b6dba9568c7U, 0x3cbd83bdbc15560eU,
  0xbbf3c4cc3c6662feU, 0x3bd1e174bbce87e2U, 0xbc2b5cbebc6a5931U, 0x3bc23b5b3a64652cU,
  0xbb57cc89bb85cad9U, 0x3bf366ddbc2bed3dU, 0x3b34fa673cb0924cU, 0xbc0e51ecbbe8ea13U,
  0x3be098153c0e6df3U, 0xbc5488b2baebcd20U, 0xbbd1d947bd4b1d6fU, 0xbca98f933bbc8112U,
  0x3c85554d3c08a00fU, 0xbb56ec033bdbaafbU, 0xbbbc48c1bc076b46U, 0xbc67dc963cc62617U,
  0xbc5fbc7a3af6ce1aU, 0xbbeae86cbc89d042U, 0xbc8a6585bc2a5d1eU, 0x3ca8faa13bed1525U,
  0x3c22e9b4bc67142bU, 0x3c774159bb4de36cU, 0x3c6b9d163c2b83a9U, 0xbb363f32bc9dbc56U,
  0xbcb75ecfbc506dfcU, 0x3cb793bd3a8a63f5U, 0xbcbbc7da3c218692U, 0x3c986d243c260c63U,
  0x3b624ed9bc871d62U, 0x3c64f606bd00b636U, 0xbd089d263bf1b602U, 0xbbf4e7eebcf009deU,
  0x3c9f9ef2bcfdc102U, 0x3c9de58e3d2a2680U, 0xbd18d8633cab3a16U, 0xbd0b7d61bd26aa33U,
  0x3ca88ae53d118391U, 0x3d1cd0a0bb82043cU, 0xbcd76601bcf2508cU, 0xbd558baf3cb6d64cU,
  0x3c570a933cce6f1aU, 0xbd7fc85bbd1bdb5eU, 0x3c8783c23b135c0aU, 0x3cb2c04cbcbc5e00U,
  0xbae63888bc02162cU, 0x3bca390f3c48d1c1U, 0x3c4927753bedc58fU, 0xbba1637cbc5152adU,
  0x3c1764fb3c80f2e5U, 0x3c0460ad3ce4972cU, 0xbc62952bba91eaf9U, 0xbcfa0afdbcb95f68U,
  0xbca1ad153c3a4e23U, 0x3cf16ac03c0cf12bU, 0xbcba86bebc93623aU, 0xbccea7573c9d96aeU,
  0x3b2e94123cd0350dU, 0xbcbeeb3abd08133dU, 0x3beccfa4bc009d44U, 0x3b54410dbc23bab9U,
  0x3cdd6a543c66e82dU, 0xbd3475b03d072ff9U, 0x3cd0520bbd2aacbdU, 0xbd2487793d759225U,
  0xbd0d32fd3bd17fcbU, 0xbd190af8bc99535dU, 0xbd0e82e5bc20b30bU, 0x3cd90e63bbee7eddU,
  0x3c71291abd3f4843U, 0x3d2c0ba13d6e870cU, 0x3cc574173ca75f2aU, 0x3c52df45bd1eb62fU,
  0xbd41d1a3bcf025e6U, 0x3d1ede4abca12692U, 0xbd576e0a3d11b26dU, 0x3c401d343d070591U,
  0xbc893a15bc512441U, 0x3cdc4fb9bc60f5e4U, 0xbc905dc43d26bae1U, 0x3b5f0dbe39a87f93U,
  0xbbe42aa4bcb37ef7U, 0x3c8d07803c4fd389U, 0xbcb4c8b03c4a1b2eU, 0xbbd3135fbbb35ba0U,
  0x3c48278b3c834fb5U, 0x3cfc3777bc8bda9bU, 0xbc95c280bafb4315U, 0xbc8df74a3bfdc430U,
  0x3c5adb2b3c537177U, 0xbcae829cbd0e22edU, 0x3d4c3c003b5826d8U, 0x3c042d0fbc90754eU,
  0xbc19fc543bf64fe6U, 0x3c97ff40bd0e97fdU, 0xbc5dd419bc8437e5U, 0x3b933243ba5ed790U,
  0x3c987e90bc523efcU, 0x3c8a3dfd3c6dc50aU, 0x3caed0ac3c98ee24U, 0xbcec4a8b3ca8c1b5U,
  0xbc9f12473c127646U, 0x3a1cd435bd09ba42U, 0xbcea0b27bc35c4b0U, 0xbcc465283cb4a276U,
  0x3c6e11643c874466U, 0xbb846c82bc0ce6a8U, 0x3cd4f7b0bc4fffcbU, 0x3bb64b5abd224635U,
  0x3c0b363c3cadd3d6U, 0xbd25d67c3d1d0403U, 0x3ca476abbd2fb2c1U, 0xbd32b2e63d1bb89bU,
  0xbc88983a3ac53c9bU, 0xbcc6f685bc8492f4U, 0xbc18f9d3ba84eabaU, 0xbaeb73e33ca4c24fU,
  0x3d15a3d6bd1bb099U, 0x3cba840d3d5ceba7U, 0x3cd7e2bd3c30f8b6U, 0x3ce0ae53bb828fa3U,
  0xbd1e7c26bcd95c3aU, 0x3cae637fbb9409c2U, 0xbd447c6f3d260149U, 0xbb8818063cb4bde3U,
  0x3c6e010e3c0c2044U, 0xbc952393bca23cdaU, 0xbbfcedf43c299a78U, 0xbd04ab2a3b816a5cU,
  0x3c4188e4bc791369U, 0xbc34f9ed3b168804U, 0xbc8d1b073c40ad55U, 0xbc1c86573caeaf1bU,
  0xbc99e4abbb4c4631U, 0xbd5de312bcc1022bU, 0x3b07ced5bb89323fU, 0xbc82d1e1bc608857U,
  0xbcf0bb39bc0d82eeU, 0x3c0ea691bc69b752U, 0x3c930b8a3d689bd2U, 0x3d88d81bbc7adc1bU,
  0x3bd3d1a93c195730U, 0xbb3a2285bc1f1dcfU, 0xbcbd96e53c8ad294U, 0xbcacc9443b6ac1beU,
  0x3b35888dbce6542eU, 0xba9479993afd6532U, 0xbc8110663c15d3eeU, 0xbc872f143c4c4382U,
  0x3c3e52923c32b598U, 0xbd073e6fbc0fce35U, 0xbc1ac897bc50b846U, 0xbcffa5b13c54c5a8U,
  0xbcde0c033b1adcd5U, 0xbc19f8acbb68f8a0U, 0x3bc34f8b3c925ea6U, 0x3cba5ea2bc112436U,
  0x3c8782ec3ca4b7e1U, 0xbc4e39573c5bac7dU, 0x3c69a7a6bb422a4eU, 0xbd3b65b03d13046aU,
  0xbc922b8bbc6e231cU, 0xbc9c8578bc6f32aaU, 0xbc31cc17ba964959U, 0x3c2dbcbe3ce36737U,
  0x3d350875bcb058eeU, 0xbc5d2dd93c254afbU, 0x3cbee0013ccb0169U, 0x3bbe021bbd0f6be4U,
  0xbd38d700bcb2a6f9U, 0x3cc352fd3b1fd097U, 0xbbd81ddd3cf571b3U, 0x3c9a10083c9d11f5U,
  0x3bf48b35bb94d132U, 0xbbca39eabd0bbc59U, 0xbcad70e13c409634U, 0xbca66d42bbf30eb0U,
  0x3c4bc88fbcc88bb5U, 0x3b2e46d63c03d49cU, 0xbcbd159e3c8f99d6U, 0xbcf6837d3c3fe83fU,
  0x3c8f4acc3c660cc4U, 0xbbcbd77cbd032a8fU, 0xbcdabbc3bc4201d5U, 0xbc6f590f3c6c17edU,
  0xbc7017e0baffdef5U, 0xbc96974d3aabe290U, 0x3cbcb7ba3d1a0077U, 0x3d620558bcaa1366U,
  0xbc133feebb3a76b1U, 0xbc8b9c07bc6bb834U, 0xbc3a1453bc6ba3eeU, 0xbc92466ebc1d2f08U,
  0x3c9d5897bc9ae8a9U, 0x3c8eb6033c47f840U, 0xbb83ff1c3cc05408U, 0xbce05d303a0df79aU,
  0x3c16effb3c2132e0U, 0x3c83f4133bfe5666U, 0xbcbd012ebc89f4e4U, 0xbc809b6d3cd2388dU,
  0xbbefcaedba88a3e3U, 0xbcafe261bc9795abU, 0xbb4234223c8a1e08U, 0x3c830dc4bc2c962bU,
  0x3c8e75023c95ddeeU, 0xbce135523cdd08b9U, 0x3c9af207bd132872U, 0xbc9656033d00594cU,
  0xbccc33e13c4f6f2fU, 0xbc85c4febc842c6dU, 0xbc29a6dfbbf6e545U, 0x3ca9746f3c700db8U,
  0x3c797819bd013b42U, 0x3ce74fe83ccf83ccU, 0x3cd4189f3c93f404U, 0x3cacd6d3bcaf4a4cU,
  0xbd062611bc581209U, 0x3cb1bd98bb6fc55cU, 0xbd52cfbd3c040c65U, 0xbcb922403ca88722U,
  0x3cadb6a13bf97856U, 0xbbef2bd2bcd7f2e0U, 0x3aa9865f3d44d29aU, 0xbcc732b63bef9972U,
  0xbb6279443a1336b4U, 0xbc8e7941bbc7485eU, 0xbcb53e273c352520U, 0xbb242e2a3cc87297U,
  0x3cad6f533ae7b202U, 0xbd24664ebca14a1cU, 0x39480af93c422901U, 0xbaf47cc3bcaee32dU,
  0xbd0066a1bb7de806U, 0x3c3e30b43c2cd9eeU, 0x3ccbedef3d305819U, 0x3d363a943a2da28dU,
  0xbb41f0f6bc847199U, 0x3a70ff26bc644995U, 0x3a867dfb3ce61261U, 0x3c9a723fbc692b72U,
  0x3b545c5abb371653U, 0xba48ad113c4eb82eU, 0xbc45fa343bbfecb0U, 0xbc7842a8ba90fb6bU,
  0x3af93eef3c16782dU, 0x3c77f2b3bc3b4345U, 0xbc802a09bb6f91a5U, 0xbcb6b4c23bfa4902U,
  0x3b9d5d583c42d16fU, 0xbb8e279cbb97078eU, 0x3c098eacbb3953eaU, 0x3d279381bc844440U,
  0x3c311bddbb1f1905U, 0xbd27f3123d220e2aU, 0xb9fb7ce73c2ae092U, 0xbbe203c33c18d95aU,
  0xbc789f56bb6a7f45U, 0xbc7588a0bc2efa71U, 0xbc154862bca2bca2U, 0x3c07c03cbc259e70U,
  0xbc37f927bcad8bebU, 0x3d4dd2363ce7c8b4U, 0x3cb3a1f03c20906eU, 0x3c5016dabc07528aU,
  0xbc86ee23bb8f943cU, 0x3c8d706abc26fa7cU, 0xbd34f5fe3cd2d859U, 0x3cdaf3aa3c9377ffU,
  0xbb149e763c68ae10U, 0x3c8097893c0b9e8fU, 0x3c369c54bc508205U, 0x3c9bf2b33c45b1edU,
  0x3c88fbf23d2aabd9U, 0xbc09a10ebb1dae43U, 0x3d2f1ba1bc82a18bU, 0xbbe34e443d23bc17U,
  0xbcf2bb3c3c474bcbU, 0xbd4f1453bcc7dab0U, 0xbb1b0ca83bb36e3bU, 0x3b21b0cb3a9fd458U,
  0x3b6499a1bc1728f6U, 0x3c87cfbb3cd6469eU, 0x3b309bdebcd74478U, 0xbbaa6860bc85c9dcU,
  0xbcde94dbb814ea9dU, 0x3ba154efbcf7a808U, 0xbcb8bc3fbcdf40feU, 0x3d1a0844bb4bc60aU,
  0x3c460a4c3c8def7cU, 0xbc113e133b86921aU, 0x3ccd7c0abc836639U, 0x3c3639573cdc0f54U,
  0x3b17722e3cc8905cU, 0xbd3a031ebd011a93U, 0xbcae331ebbf03654U, 0xbcaa9604bb352422U,
  0x39c9ab0bbc88ac08U, 0x3c882df73c27518dU, 0xbbaef0debcb5c408U, 0x3ca2209fbc98f482U,
  0xbbc7d8b33d041b12U, 0xbb88c43bbc911117U, 0xbc676d4fbd7fb9ecU, 0xbd73435b3d08ad04U,
  0x3cb3c532bc8819a9U, 0xbbe7cf3ab949d535U, 0xbc56dcbf3d0cc654U, 0xbbb838d83c5ac1dbU,
  0xbd3cf6f4bd0c67bbU, 0xbd3776ac3c07950aU, 0x3c5e1188bc0e8d67U, 0xbbc2974a397be55cU,
  0xbd53e256bd0ccdfbU, 0x3cb9f1e8bd33d901U, 0xbcf30bae3d52e056U, 0x3ba778a83baff1dcU,
  0xbb860cb6bcbaaa55U, 0x3ce4fc6cbcf7f000U, 0xbb4e6fb43ca5ac85U, 0x3d023bd0bba57dbeU,
  0xbbc071513c8170c5U, 0xbc79d98c3a76fddfU, 0xbcb1ddc03b96ce6fU, 0x3c9457373b6ea9cfU,
  0x3c9660393c85cd50U, 0x3a9032aabce0f4ccU, 0xbc25ba333cb804dfU, 0xbcd7266abc81b1a0U,
  0x3c5abbdf3cec1faeU, 0xbc3781483b8cba0eU, 0x3d045ff7bd2740e5U, 0xbc72f98bbc990052U,
  0xbbf4bc7bbc8a0c41U, 0x3b81944cbd2ff594U, 0xbab54dd03cadaea2U, 0x3bd3f0913c992cd7U,
  0x3c314f293b9be1d6U, 0xbab1272dbc76050eU, 0xbcd3d8483c67c7b4U, 0x3c21abc43c3a5522U,
  0x3cd6a2eb3ce78faeU, 0xbce5b8543c7368ddU, 0xbc8209ef3cc6297cU, 0xbc5833cfbd0c1319U,
  0xbca44de53bacf7edU, 0x3c9dc3b13c222593U, 0x3c4e3d64bcbda550U, 0x3c06142cbc7c637bU,
  0x3c23d6c23ca97bb1U, 0xbc1997f3bc83856dU, 0xbbb46311bba9ca80U, 0xbd2072493d0a1f90U,
  0xbb7eea46bca1eeffU, 0xbc586201bb358e81U, 0xbc70d3823cecd132U, 0xbaf7f1d13b5d2713U,
  0x3d2904723bb2dc62U, 0xbd25e63f3d10e186U, 0xbc9c2ac33cac208dU, 0xbc0b1b9cbd145b8eU,
  0xbd2c77963c0565dbU, 0x3c88365fbcb03e77U, 0x3c0c24713c78d7a4U, 0xbd47c2cd3cb3d05aU,
  0xbc24cdd039c50ef2U, 0x3cd313aebc938f52U, 0x3bfaf42c3caa538dU, 0x3d522c803bfe5ffdU,
  0x3ca855e03c650613U, 0xbc90da93ba3f1a36U, 0x3d010e23bc7e1ac6U, 0xbc2176743cabd23bU,
  0xbc96a58b3c671d66U, 0xbd4bbaeebd4ba3e5U, 0xbc338a433aca3ea1U, 0xbcbeb88c3ac4d552U,
  0x3cc2035cbc9292acU, 0x3c3923c23d29a21bU, 0x3d1ffc17bd4cc2dbU, 0x3cdd1aa1bcb041a3U,
  0xbcd7e1ae3c56f7b5U, 0x3c6290f6bd219de8U, 0x3aa0b4fbbc5813edU, 0x3d3f2d56b9332962U,
  0x3d3da9e73bb9aa24U, 0x3c45cbf2bb2761caU, 0x3cd9fdc53b97a610U, 0xbc215d0e3d014730U,
  0xbc509bdb3cba9162U, 0xbd808a30bcb58176U, 0xbc9d8e00bb91fb9aU, 0xbcd32626b9817744U,
  0x3b81349cbc4411b5U, 0x3c08de783c9bec97U, 0x3c8ec319bca9827fU, 0x3c2160d0bcbbc8c5U,
  0xbc1c3ea43d2551faU, 0xbcb71329bc82085eU, 0xbc9ffdfcbcaf7263U, 0xbd48551f3d034f11U,
  0x3d001f34bd001282U, 0xbacffa573bbe1c89U, 0xbcd8f5a83c973629U, 0xbc91298cbc761482U,
  0xbce29fa2bcbe7ea9U, 0xbd3b4b7b3cf4f665U, 0xbac5c85cbbd4ab6bU, 0xbcb40c84bc386bc4U,
  0xbd3b248dbb1d2940U, 0x3cadd767bd591ab1U, 0xbbabec5c3d3c39eaU, 0xbc9433603bb29f74U,
  0x3b108cb8bc8b2a19U, 0x3bacf342bc91b05eU, 0x3c31aba63c3698abU, 0x3b00f5bcbc65e4d9U,
  0xba0a83e43ab672fbU, 0xbb6ff0953c25834bU, 0xba8cd14b3c2bf433U, 0xbc21e64abc908d2eU,
  0x3c5cd8a33c78cc86U, 0x3d0d71d23c9c2921U, 0xbc943d0cbc0bed31U, 0xbb68d650bbc88a9fU,
  0x3be9154f3c3cc70fU, 0x3c33c9433ccb44e3U, 0x3c95c3c0bc1ade34U, 0x3beafec6bc5153aaU,
  0x3bfb4a3dbcd5f799U, 0xbc01a444bc05ee39U, 0x3bae25973cab8318U, 0xbb29ac47bcc63c71U,
  0x3c27e91cbc690f0cU, 0xb987b8573b972422U, 0xbc02f4b73cdebfbbU, 0xbc4d02ddbcb75d93U,
  0x3c2f52943cb13c59U, 0x3d1460183b748adeU, 0xbc8b8cc1bc81f302U, 0xbcb871123b8d2068U,
  0x3c0776023c03bae9U, 0x3c118de13c194dc7U, 0x3bd4efc13c86095fU, 0x3c36c98dbc6071bdU,
  0xbc17dbfcbc80d563U, 0x3b7529bdbc8af9c9U, 0xbc810b793cf8d484U, 0xbc51401abc944438U,
  0x3c7068e9bcf95d85U, 0x3c9583f03c741a6cU, 0xbcd1b6833d115627U, 0xbc9edc2cbcc2ae48U,
  0x3d0906b43d3df5b4U, 0x3c37a558bb7983e2U, 0xbd0c3e00bb8d882dU, 0xbd1ad5843c89db5dU,
  0x3babc59a3cf76449U, 0xbc1c4f24bb233317U, 0x3ce599cf3cef886eU, 0x3cec4dd1bc5a9785U,
  0x3ba23684bcd3db9fU, 0x3ca0fc3cbcb20f79U, 0xbc943e6f3c1dabe3U, 0x3cba0b17bca25247U,
  0xbbce1362bc257344U, 0xbc16d27339b90564U, 0xbc1dfc423b9137bfU, 0x3bd94f913c2fe2f2U,
  0x3bd686b13ccef062U, 0x3c47857dbd23414eU, 0xbb7cddf23c6df079U, 0xbced66f13b434ef5U,
  0x3c20e3d93c778672U, 0xbc179de43c5f07ebU, 0x3ceb3a9ebc869dc5U, 0x3b0e13c7bb70193fU,
  0x3c092f16bb9b018bU, 0x3c052bd33c036c39U, 0xbcb728ee3c429fd2U, 0xbb0930f5bc2846bdU,
  0xbb8742b0bc5f6724U, 0x3b2d43863a458389U, 0xbc463bb23bf2fc26U, 0x3b8bd1363bcd8ff9U,
  0xb995d1923b85cae0U, 0x3c997155bca43ad4U, 0x3b968d923c037843U, 0xbc89c47c3c115b37U,
  0xbb963fe33c649c34U, 0xbb89bc2abcb421afU, 0x3bfde50b3c3d85d2U, 0xbbcd916dbbc61ad9U,
  0x3be96adabc758fd9U, 0xbc10469f3be42186U, 0xbc9bfae93ac5a083U, 0xbcb4b7073be9315cU,
  0xbc0aab81bcb0c82aU, 0x3b19601f3bcb326eU, 0xbc729cc93c107a3cU, 0xbc10467cb9de1e60U,
  0x3cae127abb167e8cU, 0x3c4ff05abc30c644U, 0x3b705472baa8d93bU, 0x3a529f6bbbc926f7U,
  0xbc63d2ab3bfe3068U, 0x3aa0b452bca0fa00U, 0xbbf5aeea3cefe02bU, 0x3cdb5cf93b1459f2U,
  0x3c4a38313caafd0cU, 0xbc95a0293cb3717dU, 0x3ccc61dc3cc38d78U, 0xbc4b155a3cfcd901U,
  0xbc9f75c23cd6a886U, 0xbd0d4c28bced0dc8U, 0x3cd8c052bccae7b8U, 0x3cb0b53f3c924d3bU,
  0x3d22a0f8bc1df573U, 0xbcbe96cf3ced5a3cU, 0x3c986d363cbf83c1U, 0x3d04ad2fbceb3df4U,
  0xbc9c1e3bbd1314fdU, 0x3d0a45ed3d27cc7aU, 0xb9e09a39bcf65719U, 0xba912ba33cd66827U,
  0x3c85cdb33cb5b9f8U, 0xbc986ce63c85f888U, 0x3c9a4ed03c0fe3f3U, 0xbd0812ea3d0fdaa1U,
  0xbccd2fb7bba64f4cU, 0xbcd5b368bcb82f5eU, 0xbb3fad92bc2c6cc7U, 0x3c8ff6333b1ec166U,
  0x3cbd5fa1bc8b1cd0U, 0xbc03cf503d349a41U, 0x3c43d3b13ccef1d1U, 0x3ca0d69cbd119b87U,
  0xbcb70776bca26086U, 0x3cdaf375bbb42a8bU, 0xbbd98ac7bb807e9fU, 0xbbc2897d3d0003b4U,
  0x3cba69b93c24eb01U, 0xbc830ca53cb17f1fU, 0x3ced04dc3ca45ba2U, 0xbc7b18f63d084931U,
  0xbcf378be3c14399dU, 0xbce421b3bce276d0U, 0x3b6c25cebcb5f6ecU, 0x3c9d5b173bf84ee4U,
  0x3cdf7f93bcc07de9U, 0xbc86019d3c55c232U, 0x3caec2753d07907aU, 0x3cc7012bbd273707U,
  0xbcebab26bc64b5f9U, 0x3d0477e83ccf6b32U, 0xb975abc7b9e31707U, 0x3c86fc583ce11702U,
  0x3c5edca93c07f6c6U, 0x3ad61462bbd33190U, 0x3ca9c3443c3144baU, 0x3bd29fb53c656167U,
  0xbc3f25073c5add6fU, 0xbca2de0cbcd90b0bU, 0xbb611608bc61809eU, 0x3cce3309bc323178U,
  0xba81055cbca59d7eU, 0x3ce010f13c0d6f53U, 0x3cd356ca3cc6b43aU, 0x3ce26685bd0e32d4U,
  0xbc0951ffba8a7bb0U, 0x3c661eeb3c66ef75U, 0x3a9b6788bc607f70U, 0xbd25e3ce3c82684aU,
  0x39388990bb88c2fdU, 0xbc4573663ba35540U, 0x3c5100f63c7b93b0U, 0xb83682e83c0244a7U,
  0xbc0e9801398d5577U, 0xbc2108d2bc8c3fa8U, 0xbb3371f7bc49b8f1U, 0x3c8cf8a4bb9a7030U,
  0x3cbd19a6bc027043U, 0x3c1b554a3c5e56eeU, 0x3c898ec53c546382U, 0x3ce28889bc7a44e9U,
  0xbc0ea7093aa6ca4fU, 0x3c81e9493c85589eU, 0xbc3dea36bc568a59U, 0xbcb457e13c356645U,
  0x3b5b27e2bbe79d99U, 0xbc984ed8bc3c2f69U, 0x394a03383bb13530U, 0xbc222e313c303dd2U,
  0xb8df0721bbfa9b13U, 0xbc0b3983bc7bf68cU, 0xbbc75d28bb4c1b19U, 0x3c241b9cbb4ea91cU,
  0x3cb78dc3bb7818cbU, 0x3b4657d0ba495022U, 0x3b96fe223c369555U, 0x3bf438f0bc65e690U,
  0xbc84f93a3c52242aU, 0x3b27a9443c1c1e6bU, 0x3bb2700b3ad587bfU, 0xbc81ea463c50ca38U,
  0x3c2398fe3c7498a9U, 0xbc8f6d213bb86e62U, 0x3c65ece5bc428b62U, 0x3aa13b033c677e12U,
  0xbc0cdfaa3bd633f2U, 0xbc7f6350bc3b662aU, 0x3c7c5f02bc7a5b25U, 0x3bd3235ebcb98521U,
  0xbc98df68bc960cb1U, 0x3c8bc73c3c121a82U, 0x3c9245833bfdd65eU, 0x3ccfec70bc6114d3U,
  0x39b5ed57bc8e5c96U, 0x3c5833303af037edU, 0xbc984c9b3c4da622U, 0x3c6ec5433c8bd3a9U,
  0x3b82e15c3bd15b76U, 0xbcdca88e3c3e9f64U, 0x3c5a81f23c6d4a38U, 0x3bea78f33c2964fbU,
  0xbc8323e33c6abfd5U, 0xbc84e58cbc463321U, 0x3c98e8a9bcb96438U, 0x3beee091bb0a6ecbU,
  0x3cbe8c93bbf80357U, 0x3b051e523c06dac6U, 0x3c7052773c5bcaafU, 0x3d05b006bc2a11b6U,
  0xbb9cd1eebc3af8c5U, 0x3c78f6d73cb67c51U, 0xbcb553113a8705d8U, 0x3b235a493c413362U,
  0x3aa7318a3b937abaU, 0xbce3997f3ba512e5U, 0x3bb5c7673a583835U, 0x3aafe1ab3c5dd39bU,
  0xbc4ab4873c810441U, 0xbc8dc251bc427191U, 0x3c0db57abc7ea27aU, 0x3c731f4f3aaf4a2dU,
  0x3c989d25bc646536U, 0x3c2362263c2af21aU, 0x3c5d6d993c96ba16U, 0x3c724110bc62d21dU,
  0xbc4a17babba2aac9U, 0x3c1ad2673bc19090U, 0xbc8b86a83ae7dc45U, 0x3c0965f03c8779feU,
  0xbb794d3d3c8be967U, 0x3b035034bc285aacU, 0xbc68a7f6bcd8ba1aU, 0xbc98bfc93b9fdbc3U,
  0x3c3b64e8bc9ff1ebU, 0x3bec44a13bed8ef9U, 0x3bef3a983c29e64eU, 0xbc96b75ebcd58dbcU,
  0xbcc1459cbb842797U, 0xbc061f843b074910U, 0x3ae88ab5bc895296U, 0xbb0686fa3c686278U,
  0xbb82db90baa9d158U, 0xbc4cdb9bbcb442e9U, 0x3b183de03cf7bbc8U, 0xbc8350493b040204U,
  0xbb0006b63cae7366U, 0xb970595c3ba24474U, 0xbc7b2462bc92a75cU, 0xbaae79343c75553bU,
  0x3b5ff528bb6a4302U, 0x3a32c5f1bbd0b7e3U, 0x3cb7fe89bbe86213U, 0xbbb6d0fa3974f588U,
  0xbc3bb0f8bada295bU, 0x3c0c13fcbb51cbd7U, 0x3c03f219bc03813eU, 0x3c6f81e93c2d81e4U,
  0x3b9e6720bbcb3f73U, 0x3bfa83d63b1eff31U, 0xbbb058f13b820ee5U, 0xbb1f58ca3bb6b59cU,
